#version: 0.2
Ð °
Ġ Ð
Ñ ĭ
Ð µ
Ð ½
Ñ Ĥ
Ñ Ģ
Ñ ĸ
Ð »
Ñ ģ
Ð ´
Ò Ľ
Ð ¼
Ñ ĥ
Ð º
Ð ¾
Ð° ÑĢ
Ð° Ð
Ò ĵ
Ð° Ð½
Ò £
Ð ¸
ĠÐ ±
Ð° Ð»
Ñĭ Ð½
ĠÐ ¶
Ñ Ī
Ðµ ÑĢ
Ð ·
Ð ³
Ġ ÒĽ
Ðµ Ð½
Ð ¿
Ġ ÑĤ
Ñĸ Ð½
Ð´ Ñĭ
Ð° Ñģ
Ò ±
ĠÐ º
Ó ©
Ó Ļ
ÑĤ Ñĭ
Ð°Ð ¹
Ò ¯
ĠÐ ¼
Ðµ ÑĤ
Ġ Ñģ
Ð ¹
Ð´ Ñĸ
Ð´ Ð°
Ð ±
Ñĭ Ð»
Ð° ÒĽ
Ð° ÑĤ
ĠÐ ¾
Ñĭ ÒĽ
Ð¾ Ð»
ĠÐ ´
Ðµ Ðº
Ñģ ÑĤ
Ð° Ñĥ
Ñĸ Ð»
Ð´ Ðµ
Ñĭ Ò£
Ðµ Ð»
Ñĸ ÑĢ
Ð° Ð¼
ĠÐ µ
Ñ ı
Ñĭ Ñģ
Ð°Ð ·
Ð° Òĵ
Ñĸ Ð¼
Ðµ Ñģ
Ò ļ
Ñĸ Ðº
Ġ Ó©
Ñĭ Ð¼
Ñĸ Ð·
Ñĭ Ð·
Òĵ Ð°Ð½
Ðµ Ð¼
Ð¸ Ñı
Ò± ÑĢ
Ð´ Ð°ÑĢ
Ñĸ Ò£
ÓĻ Ð½
ÑĭÐ½ Ð´Ð°
Òĵ Ð°
Òĵ Ñĭ
Ñ ħ
Ð¾ ÑĢ
Ġ ÑĪ
Ð°Ð ¿
ĠÐº Ó©
Ñĭ Ð¿
Ð ¶
ÑĤ Ð°ÑĢ
Ð³ Ðµ
ĠÐ± Ð¾Ð»
Ġ ÓĻ
ÐµÑĤ ÑĤ
Ð ²
ÓĻÐ½ Ðµ
ĠÐ¶ ÓĻÐ½Ðµ
Â »
Ġ Òļ
ÑĭÐ½ ÑĭÒ£
ĠÐ´ Ðµ
Ð³ Ñĸ
ĠÐ Ĳ
Â «
â Ģ
Ġ Ð°Ð»
Ñĭ ÑĢ
Ð°Ð» ÑĭÒĽ
ĠÐ ¿
Ð°Ð ±
Ð¾ Ð½
Ð° Ð´Ñĭ
ĠÐ ½
Ð³ ÐµÐ½
Ð Ĳ
Ġ Ò¯
Ð´Ñĭ Ò£
Ð¸ Ðº
Ð° Ò£
ĠÐ ĳ
Ðµ Ð¹
Ò± Ð»
ĠÐ± Ð°Ñģ
ÑĤÑĭ ÑĢ
ĠÐ¾ ÑĢ
ÑĸÐ½ Ð´Ðµ
Ġ Â«
ÑĭÐ½ Ð°
Ð´ Ð°Ð½
Ñĸ Ð¿
Ð» Ð°ÑĢ
ÑģÑĤ Ð°Ð½
Ð°Ð· Ð°ÒĽ
ÑĤ Ðµ
Ò¯ ÑĢ
Ñĥ ÑĢ
Ġ âĢ
Ñ Ĩ
Ð´ ÐµÑĢ
ÑĤ ÐµÑĢ
Ġ Ð°ÑĢ
ÑĸÐ½ ÑĸÒ£
Ð¸ Ð½
Ġ Ð°
ĠÐ¼ ÐµÐ½
Ñ Ħ
Ġ 1
Ð¾ Ð¹
Ñĸ Ñģ
ĠÐ¶ ÑĭÐ»
ĠÐ ¡
Ð» ÑĭÒĽ
ĠÐ± ÑĸÑĢ
ÑĤ Ñĥ
Ð°Ð» Ð°ÑĢ
ÑĪ Ð°
Ð°Ð» Ñĭ
Ġ 2
Ð´Ñĭ ÒĽ
Ð° ÑĤÑĭ
Ðµ Ð·
ÑĤÑĭ ÒĽ
ÑĤ Ñĸ
ĠÐ ŀ
Ð´ Ð°Ð¹
Ġ Ð°Ð¹
Ðµ Ò£
Ġ (
ĠÐ ľ
Ġ ÑĢ
Ð°Ñģ Ñĭ
Ð¾ Ð¼
Ñģ Ñĭ
ÑĪ ÑĭÐ»
Ġ Ð°Ñĥ
Ġ Ò±
Ð´Ñĸ Ò£
Ð± Ð»
Ðº ÐµÐ½
ĠÒĽ Ð°Ð»
ĠÐ± ÐµÑĢ
Ð½ ÑĭÒ£
ĠÓ© Ð·
ÒĽ Ð°
Ð ¡
ÑĸÐ½ Ðµ
Ð ĳ
Ð°Ð·Ð°ÒĽ ÑģÑĤÐ°Ð½
ĠÒĽ Ð°ÑĢ
ĠâĢ ĵ
Ð°ÑĤ ÑĭÐ½
ĠÐ ĸ
ĠÒĽ ÑĭÐ·
Ġ -
Ò± Ð¼
Ð» ÐµÐº
ĠÐ± Ð°ÑĢ
ÑĤ Ð°
ÑĤ Ð°Ð½
Ð´ ÐµÐ½
Ð ¢
Ðµ Ñĥ
Ð ľ
ĠÐ ¢
ĠÐºÓ© ÑĢ
ĠÐº ÐµÐ»
ĠÐ ļ
Ó© Ð»
Ñĭ Òĵ
Ġ Ð°ÑĤ
ĠÐº Ò¯
Ðµ Ð´Ñĸ
ĠÐ ·
ĠÐ¶ Ð°Ñģ
Ð³ ÑĸÐ·
Ġ Ñħ
ĠÒĽ Ò±ÑĢ
Ð¾ Ð²
Ð¾ Ñģ
Ð¼ ÐµÐ½
ÓĻ Ñģ
ÑĨ Ð¸Ñı
ĠÐ¶ Ò±Ð¼
ĠÒ¯ ÑĪ
ÓĻ ÑĢ
ĠÐ± Ð¾Ð¹
Ð» ÐµÑĢ
Ð´Ð° Ð¼
ÐµÑĤÑĤ ÑĸÐº
ÑĤÑĭ Ò£
ĠÐ¾ ÒĽ
Ð ŀ
ĠÐ ¸
ÑĭÐ½ ÑĪÐ°
ÐµÐ¼ Ð»ÐµÐº
ĠÒĽÑĭÐ· Ð¼
ĠÐ± ÑĸÐ»
ÐµÑĤ ÑĸÐ½
Ð ķ
Ð ļ
Ñ į
0 1
Ñ Į
ÒĽ Ð°Ð½
ĠÑĤ ÑĥÑĢ
Ð´Ñĸ Ðº
Ðº Ðµ
ĠÒļ Ð°Ð·Ð°ÒĽÑģÑĤÐ°Ð½
ĠÒĽ Ò±
ÑĪ Ñĸ
Ó ĺ
Ñĭ ÑĤ
ĠÒ¯ÑĪ ÑĸÐ½
ĠÐ ł
ĠÑĤ Ò¯
ĠÓ© ÑĤ
ĠÑģ Ð°Ð»
ĠÐº ÐµÐ·
Ð¾ Ð³
ĠÐ±Ð¾Ð¹ ÑĭÐ½ÑĪÐ°
Ð» Ñĸ
ĠÐ± Ð°Òĵ
Ð ł
ĠÐ¶ Ò¯
ĠÐ¶ Ð¾
ÑĢ Ñĥ
Ð½ Ð°Ð»
ĠÐ´Ðµ Ð¿
Ðº ÐµÑĢ
ĠÑĤÑĥÑĢ Ð°Ð»Ñĭ
ĠÑĤ Ò±ÑĢ
Ð ĸ
ĠÐ ķ
ĠÒĽ Ð¾Ð»
Ð» Ð°Ð½
Ġ Ð°Ñģ
Ð» ÑĸÐº
Ð°Òĵ Ð°Ð½
ÑĤ Ð°Ð»
Ð°ÑĢ Ñĭ
Ð³ ÐµÑĢ
Ð°Ñģ ÑĭÐ½Ð´Ð°
Ñĸ ÑģÑĤ
Ð¸Ðº Ð°Ð»ÑĭÒĽ
ĠÐ´ Ð°
. .
ÑĭÑģ Ñĭ
ĠÐ½ Ðµ
Ð³ ÑĸÐ½
Ðº Ñĸ
ÒĽ Ð°ÑĢ
Ġ Ñį
ÐµÐ» ÐµÑĢ
ÑĭÐ¼ ÐµÐ½
Ð Ŀ
Ġ Ð°ÒĽ
ĠÐ° Ð´Ð°Ð¼
ĠÐ¼ ÐµÐ¼Ð»ÐµÐº
Ðµ Ð²
Ð°Ñģ ÑĭÐ½ÑĭÒ£
ÐµÑģ Ð¿
ÐµÑģ Ñĸ
Ð¿ Ð°ÑĢ
ĠÐºÒ¯ Ð½
ĠÐĲ Ð»
Ó© Ð·
ĠÐ¶ Ò¯ÑĢ
ĠÐ¶Ò±Ð¼ ÑĭÑģ
0 0
Ðµ ÑĪ
ĠÐ¼ Ò¯
Ðµ Ð¿
Ġ ÑĦ
ĠÐµ Ñģ
ĠÒĽÑĭÐ·Ð¼ ÐµÑĤ
ĠÑĤ Ð°ÑĢ
ÑĸÐ» ÑĸÐº
Ñĥ Ð±Ð»
Ðµ Ð´
Ðº ÑĸÐ½
Ð´Ð° ÒĵÑĭ
Ñģ ÑĭÐ½
ÑĤ Ð°Ð¼
Ġ Òĵ
Ñĥ ÒĵÐ°
Ñģ ÐµÑĤ
ÐµÑģÐ¿ ÑĥÐ±Ð»
Ð¸ ÑĤ
ĠÓĻ ÑĢ
ĠÐ± Ó©Ð»
Ð» Ñĭ
Ð Ĩ
ĠÐ¾ ÑĤÑĭÑĢ
ÑĪ Ñĭ
ĠÐµ Ð»
ĠÑģ Ð¾
ÑĤ Ð°Ñĥ
ĠÐºÓ©ÑĢ ÑģÐµÑĤ
ĠÐ¾ Ð±Ð»
ĠÐ± Ð°Ð»
ĠÑĤ Ò¯ÑĢ
ÑĪÑĭÐ» Ð°ÑĢ
Ñĸ ÑĪ
ĠÐ¶ ÐµÑĢ
Ðº ÑĸÐ¼
Ð Ķ
Ð°Ð¹ Ð´Ñĭ
Ð°Ñģ ÑĤÑĭÑĢ
Ġ Ò
Ġ Ñĥ
ÐµÑĤÑĤ ÐµÑĢ
Ð± Ð¸
ĠÐ¶ Ð°Òĵ
Ð «
ĠÒĽ Ð¾ÑĢ
Ð°Ð ¶
ĠÓĻ Ð»
ÑĸÐ» Ñĸ
Ñ İ
Ó ¨
ÑĭÐ½ Ð°Ð½
Ðµ ÑģÑĤ
ĠÐ Ŀ
ĠÐ¶ ÐµÑĤ
ĠÐ¶ Ð°Ò£
ÐµÑĢ ÐµÐº
ĠÑĤ Ð°Ð±
Ġ Óĺ
Ñĥ Ñĭ
ÐµÑĤÑĤ Ñĸ
ĠÓ© Ð½
ĠÐ¿ Ð°Ð¹
ĠÐ± Ð°Ð¹
ĠÐ Ł
Ð°ÑĤÑĭ Ñģ
ĠÑĤÒ¯ Ñģ
ÐµÑģÐ¿ÑĥÐ±Ð» Ð¸Ðº
ĠÐ¼ ÐµÐº
ĠÐ¾ÒĽ Ñĥ
Â Ń
ĠÒĽ Ð¾
Ð°Ð½ Ñĭ
ĠÐµ ÑĢ
Ð°ÑĤ ÑĤÐ°ÑĢ
Ð¹ ÑĭÐ¼
ĠÑĪ Ð°ÑĢ
Ð´ Ð°Ð»
Ð½ Ð¸
ĠÐ Ķ
Ġ2 01
ĠÐ±Ð¾Ð» ÑĭÐ¿
ĠÐ¶ Ð¾Ð»
Ġ 3
ĠÐ´ Ð°Ð¼
Ð¸ Ñħ
Ðº ÑĤ
ÑĭÐ» ÑĭÐ¼
Ð° Ñı
Ð± ÐµÐº
ÐµÑģ Ðµ
ĠÑĪ ÑĭÒĵ
Ð¸ Ð¼
Ð¸ ÑģÑĤ
ĠÐº Ð¾Ð¼
Ð° ÑĪ
Ñĭ ÑģÑĤ
ÑĤ ÑĭÐ½
ĠÐ´Ðµ Ð¹
ĠÐ±ÐµÑĢ Ñĥ
ĠÐ¾ Ð¹
ĠÐł ÐµÑģÐ¿ÑĥÐ±Ð»Ð¸Ðº
Ð¾ Ð¿
ĠÐ¿ ÑĢ
ÑĭÐ½Ð´Ð° ÒĵÑĭ
ĠÐ ³
Ð°Òĵ Ñĭ
Ð» Ð°Ð¼
ÑĤ Ð°Ð¿
Ġ ÑĸÑģ
Ð¾Ð» Ð¾Ð³
ĠÐ¶ Ð°ÑĢ
ÑĸÐ» ÐµÑĢ
Ð½ Ñĭ
ĠÒĽ Ð°Ð¹
ĠÐ±ÑĸÐ» ÑĸÐ¼
ĠÐ´Ðµ Ð³ÐµÐ½
ĠÒ¯ Ð¹
ĠÐ¼ÐµÐ¼Ð»ÐµÐº ÐµÑĤÑĤÑĸÐº
Ðµ Ð±
ĠÐµ Ð¼
Ð¸Ñı Ð»ÑĭÒĽ
ĠÐµ Ò£
ÒĽ ÑĭÐ»
ÐµÐº ÑĤ
ĠÐ¼ ÓĻ
ĠÑĤ Ðµ
Ð± Ð°
Ð Ľ
ĠÐ± ÐµÐ»
ÒĽ Ñĭ
ĠÒĽ Ð°ÑĤÑĭÑģ
ĠÑĤ ÑĸÐ»
ĠÐ±Ð¾Ð» Ð°Ð´Ñĭ
Ðµ Ð³Ðµ
Ð¸ Ð»
Ð´Ð°ÑĢ Ñĭ
Ġ Ð°Ð½
ĠÐ¼ Ð°ÒĽ
ĠÐ¸ Ð½
Ð´Ñĸ ÑĢ
Ð ¨
Ñģ ÑĸÐ·
ĠÐ½Ðµ Ð³ÑĸÐ·
Ó© Ð½
ĠÐ¶ Ð°Ð·
ĠÐ¶Ð°Òĵ Ð´Ð°Ð¹
ĠÐ¾ÑĢ ÑĭÐ½
Ð´Ð° Ñĥ
ĠÐ ¨
Ðº ÑĸÐ·
ĠÐ°Ñĥ Ð´Ð°Ð½
ĠÒĽ Ð°Ð±
ĠÐ± Ò±Ð»
ĠÑģ ÓĻ
ĠÐ¶ Ð°ÑĤ
Ð°Ð½ ÑĭÒ£
ÑĤ ÑĤÑĭÒĽ
ÑĸÐ¼ ÑĸÐ·
ĠÑĤ Ð°Ð»
Ð¸ Ð·
ĠÐ¾ Ð»Ð°ÑĢ
ĠÒ± Ð¹ÑĭÐ¼
Ð°Ð¼ Ð°Ð½
ÑĸÐ¼ ÐµÐ½
Ð¼ ÑĸÑĢ
Ð°Ñģ ÑĭÐ½
Ð°Ð ³
ÑĭÐ» ÒĵÐ°Ð½
Ñĭ ÑĤÑĥ
ĠÑĤ Ð¸
ĠÐ¶ Ð°Ð»
ĠÑģ Ó©Ð·
Ð¿ ÐµÐ½
Ð°ÒĽ ÑĤÑĭ
Ñħ Ð°Ð½
Ġ ÑĸÑĪ
Ð¼ ÐºÑĸÐ½
Ð°Ð ²
Ġ Ð°Ð·
Ġ "
ĠÐ¶ÑĭÐ» Ñĭ
ĠÐĳ Ò±Ð»
ĠÐ¾Ð±Ð» ÑĭÑģ
Ð¸Ðº Ð°
ĠâĢ Ķ
ĠÑĤ Ó©
ĠÐ¾ Ð½ÑĭÒ£
ÑĸÐ» Ð³ÐµÐ½
Ð°Òĵ Ð°
Òĵ Ð°Ð»
ÐµÐ¼ ÐµÑģÐµ
Ð¿Ð°ÑĢ Ð°ÑĤ
ĠÐ¼Ò¯ Ð¼ÐºÑĸÐ½
Òĵ Ð°Ð¼
Ð¼ Ð°
ĠÒĽ Ð°Ð¼
ĠÐº ÐµÐ¹
ÑĪÑĭÐ» ÑĭÒĽ
ÑĸÐ¼ Ð´Ñĸ
ĠÐ¾ ÑģÑĭ
ÑĸÐ½ ÐµÐ½
ĠÒĽ Ð¾Ñģ
Ð Ł
Ñģ Ð°
ĠÒĽ Ð°Ð½
ÐµÑĤ Ñĸ
ĠÑĪÑĭÒĵ Ð°ÑĢ
ĠÑģ Ð°Ð¹
Ġ Ò±Ð»
ĠÐºÓ© Ð¿
ÑĤÐµ Ð¿
ÑĸÐ½Ð´Ðµ Ð³Ñĸ
ÑĭÐ» Ð°Ð´Ñĭ
Ðµ Ð³
ĠÒĽ Ð°ÑĤ
ĠÑį Ðº
ÑĤÐµ Ñĥ
ĠÑħ Ð°Ð»ÑĭÒĽ
Ġ 5
ĠÑģ Ð°Ð½
ĠÐ°Ð» Ñĥ
ĠÐµÐ¼ ÐµÑģ
Ð± ÑĸÑĢ
Ð¼ Ð°ÒĽ
Òĵ ÑĭÐ½
ĠÐ±Ð¾Ð» ÒĵÐ°Ð½
Ð¼ Ð°Ð½
ĠÐ¼ ÓĻÑģ
ĠÐ· Ð°Ò£
ÑĪ Ðµ
ĠÐº ÐµÑĢÐµÐº
ĠÐ±Ð°Ð¹ Ð»Ð°Ð½
ÓĻÑģ ÑĸÐ¿
Ñħ Ð½
Ð°ÒĽ ÑĭÑĤ
Ð ĺ
ĠÐ¾ÑĢ ÑĤ
ĠÐ¶Ò¯ Ð¹
ĠÐ¾ Ð»
ĠÐ¼ Ò±
Ġ 4
ĠÐ¶ Ð°ÒĽ
ĠÐµ ÑĤ
Ð¸ ÑĢ
ÐµÑĢ ÑĤ
ÒĽÑĭÐ» Ñĭ
ĠÒĽ Ð°Ð·Ð°ÒĽ
Ð°ÒĽ ÑĭÑĢ
Ġ Ó¨
ĠÐ´ÐµÐ¹ ÑĸÐ½
ÑĭÑģ ÑĤÑĭ
ÑĤ ÑĢ
ĠÐµ ÐºÐµÐ½
Ð¾Ð½ Ð¾Ð¼
Ñģ Ð°ÑĤ
ĠÐµ Ð½
Ñĥ Ð³Ðµ
Ò¯ Ð¹
ĠÑģ Ð¾Ð½
ÑĭÐ½ Ð´Ñĭ
ĠÐ½ ÐµÐ¼ÐµÑģÐµ
ĠÐ »
ĠÐºÐµÐ· Ð´Ðµ
ĠÒĽ Ð°Ð¶
Ñ ĩ
Òļ Ð°Ð·Ð°ÒĽÑģÑĤÐ°Ð½
ĠÑĤ ÓĻÑĢ
Ñĥ Ð»
ĠÑĤ Ð°Ð¿
ĠÓĻ ÐºÑĸÐ¼
2 01
Ð°Ð± Ð°ÑĢ
Ð´ÐµÑĢ Ñĸ
ĠÐ¶Ð°Ò£ Ð°
ĠÐ¶Ò¯ÑĢ Ð³ÑĸÐ·
ĠÒ¯ Ð»
ÑĭÑģÑĤ Ð°ÑĢ
ÐµÐ½ ÑĤ
Ġ ÑĸÑģÑĤ
Ð½ ÑĸÒ£
ĠÐ¶Ò¯ Ð·
ÑĤ ÑĸÐº
Ð´Ð°ÑĢ Ð»Ð°Ð¼
ĠÐ¶ Ó©Ð½
ĠÑģ Ð°ÒĽ
ÑĤ ÑĸÒ£
ĠÒĽÐ¾Ð» Ð´Ð°Ð½
ĠÑĤ ÐµÒ£
ĠÐ°ÑĢ ÒĽÑĭÐ»Ñĭ
ĠÐ°Ñģ ÑĭÑĢ
Ð´Ðµ Ð³Ñĸ
Â» ,
Ð°Ð± Ð°ÒĽ
Ð±Ð° ÐµÐ²
ĠÒĽ Ð¾Ð¹
Ð¾ Ðº
ĠÑĤ Ð¾Ð»
Ð» ÐµÐ¼
ĠÑĢ ÐµÑĤ
Ġ1 9
ÐµÑĥ Ð¼
ĠÐ¶ Ð°Ð½
.. .
Ð» Ð°Ñĥ
ĠÐ¼ÓĻÑģ ÐµÐ»
ÑĤÐ°ÑĢ Ñĭ
Ð°Ò£ ÑĭÐ·
Ð¾ ÒĽ
Ð½Ð°Ð» ÒĵÐ°Ð½
Ð° ÑĨÐ¸Ñı
ĠÒ °
Ð° Ð´Ð°
Ð¸ Ð¿
ĠÐ¶ Ð°Ñĥ
ÑĭÐ¼ ÑĭÐ·
ÑĸÐ» Ð´Ñĸ
Ð¸ Ð²
ĠÐ ĺ
Ñģ ÐµÑĢ
Ð°ÑģÑĤÑĭÑĢ Ñĥ
Ð´Ñĭ ÑĢ
Ð´Ð°ÑĢ Ð´ÑĭÒ£
Ð°Ð· ÑĸÑĢ
Ð± Ð°Ñģ
ÐµÐº Ðµ
ĠÓ© Ð¼ÑĸÑĢ
ĠÐ±Ð°Ñģ ÒĽÐ°ÑĢ
ĠÑħ Ð°Ð±Ð°ÑĢ
Ð± Ð°Ð¹
ÑĸÑģ Ñĸ
Ð¿ Ð¾ÑĢ
i Ð½
ĠÐº ÐµÒ£
Ð´Ð°Ð» Ð°Ð½
ĠÐ°ÑĢ Ð½Ð°Ð»ÒĵÐ°Ð½
ĠÐ°Ð¹ ÑĤ
ĠÐ±Ð°Òĵ Ð´Ð°ÑĢÐ»Ð°Ð¼
ĠÐ±ÐµÐ» Ð³
ĠÐ° Ñı
ĠÑĤ Ð°Ð½
ĠÐ¡ Ð¾Ð½
ÑĤ ÑĸÐ½
ĠÐ± Ò±
ĠÐ± ÑĸÐ·
ĠÑģ Ò±ÑĢ
ÐµÐ» ÑĸÐº
ĠÐ¼ ÑĸÐ½
Ðµ Ð¶
ÑĪ ÑĸÐ»ÑĸÐº
ĠÒĵ ÑĭÐ»ÑĭÐ¼
ÐµÑĥÐ¼ ÐµÑĤÑĤÑĸÐº
ĠÐµÑģ ÐµÐ¿
ĠÐ±Ð¾Ð» Ð´Ñĭ
ĠÐ¶Ð¾ ÒĽ
Ò °
ĠÐ ²
Ð £
Ð¼ Ð°ÑĤÑĭ
ĠÐ°Ñĥ ÑĭÐ»
ÐĲ Ð»
Ð¿ Ñĭ
ĠÑĤ Ñĥ
ĠÐ ¥
ĠÐºÓ© Ð·
ĠÒĽÐ¾ ÒĵÐ°Ð¼
Ñĸ ÑĤ
ĠÑģ Ñĥ
Ð¿ Ð°Ð½
ĠÑģÐ¾ Ò£
ÑĤ Ð°Ñģ
Ðº ÐµÑģ
Ð¸ÑģÑĤ ÑĢ
ĠÐ¿Ð°Ð¹ Ð´Ð°Ð»Ð°Ð½
ĠÐ°Ð½ ÑĭÒĽ
ĠÐº ÐµÑĤ
ĠÓ©ÑĤ ÐºÑĸÐ·
ÑĤ Ð¸
ĠÐ°ÒĽ Ð¿Ð°ÑĢÐ°ÑĤ
ĠÐłÐµÑģÐ¿ÑĥÐ±Ð»Ð¸Ðº Ð°ÑģÑĭÐ½ÑĭÒ£
Ð´Ðµ Ñĥ
ĠÑĥ Ð°ÒĽÑĭÑĤ
Ð¾Ð»Ð¾Ð³ Ð¸Ñı
Ð¾ ÑĤ
Ñĭ ÒĵÑĭ
Ð³ Ð°Ð½
Ð´Ñĭ ÑĢÑĥ
Ð¸ Ñģ
Ð°ÑģÑĭÐ½Ð´Ð° ÒĵÑĭ
ÒĽ ÑĭÒĽ
â Ħ
ĠÐ±Ð°Ñģ ÒĽÐ°
Ñģ ÑĭÑĢ
ĠÐºÐµÐ¹ ÑĸÐ½
âĦ ĸ
ÑĤÑĭ Ð»
ĠÑĤ ÓĻ
ĠÑĪ ÐµÑĪ
Òĵ Ð°ÑĢÑĭ
ĠÑĤÐµ ÑħÐ½
ĠÑĤ Ò±
Ð°Ñģ ÑĭÐ·
ÑĸÐ¼ Ñĸ
ĠÒĽÐ°Ð± ÑĭÐ»
ÑĢ ÑĤ
ĠÐ¼ Ð¸Ð½
ĠÐµ ÐºÑĸ
ĠÑģ ÑĭÐ½
Ð°ÑĢ Ð°Ð»ÑĭÒĽ
ĠÐº ÓĻÑģÑĸÐ¿
Ð´ÐµÐ½ ÑĤ
Ð°ÑĤ ÑĤÑĭ
ĠÒĽ Ð°Ñĥ
Ð´Ðµ Ð»
ĠÑĤ ÐµÐº
Ñģ ÑĭÐ·
Ð» ÑĸÐ¼
Ġ 6
ÐµÐ» Ñĸ
ĠÑĤÐ°ÑĢ Ð¸Ñħ
ĠÐŀ Ð»
ÑĸÐ¼ Ð´ÐµÑĢ
Ð° Ð´
Ð¸ Ð°Ð»
ÑĪ ÑĭÑģÑĭ
ĠÐ± Ð¸
ĠÐ¼ÐµÐº ÑĤÐµÐ¿
ĠÐĳ ÑĸÑĢ
Ðº ÑĸÐ»
Ð¸ ÑĨ
ÑĤÐµÑĢ Ñĸ
ĠÐ ĵ
ĠÐ¾ÑĢ Ð³Ð°Ð½
ĠÐº Ð¾Ð½
Ð° Ðº
ÑĤ Ð°Ð¹
Ò¯ Ð³ÑĸÐ½
Ð¸ Ð¾Ð½
ĠÐ¶ Ð¾Ñģ
ĠÑģ Ð¾Ð»
Ġ 7
ĠÒĽÐ°ÑĤ Ð°ÑĢ
ĠÒĽÐ°Ð» ÑĭÐ¿
Ð´ÐµÐ½ Ð¸
ĠÒ± ÑģÑĭÐ½
ĠÑģ Ð°Ñı
ÐµÑģ ÑĸÐ½
Ð½ Ð°Ð½
k z
ĠÑįÐº Ð¾Ð½Ð¾Ð¼
ĠÑĤÒ¯Ñģ ÑĸÐ½
ĠÐ¶Ò¯Ð· ÐµÐ³Ðµ
Ð± ÐµÑĢ
Ñĭ ÑĪ
Ñĥ ÑĪÑĭÐ»Ð°ÑĢ
Ð°Ð· Ð°ÑĢ
Ð° ÑĤÑĭÑĢ
Ð Ĺ
ĠÒĽÒ±ÑĢ ÑĭÐ»
ĠÓĻÐ» ÐµÑĥÐ¼ÐµÑĤÑĤÑĸÐº
ĠÐ±Ð°Ð» Ð°Ð»Ð°ÑĢ
ĠÑĤ Ð°Ò£
ÒĵÐ°Ð½ Ð°
ĠÐºÒ¯Ð½ Ñĸ
ĠÑģÓĻ Ð¹
Ñĥ Ð°
ĠÑĤ ÐµÑĢ
ÑĤ Ò¯
ÐºÐµÑĢ Ð»ÐµÑĢ
ÐµÐ· Ð¸
ĠÐ±Ð°Ð¹Ð»Ð°Ð½ ÑĭÑģÑĤÑĭ
Ð°Ð¹ Ñĭ
ĠÐ¿ ÐµÐ½
ÑĤÑĭÑĢ Ñĥ
Ġ ÒĵÐ°Ð½Ð°
ĠÐ´ ÓĻ
ĠÐ¼ÑĸÐ½ Ð´
ĠÐµ ÑĤÑĥ
ĠÐ¶ÑĭÐ» ÒĵÑĭ
Ġ _
ĠÐ¾ Ð½
ĠÑĤ Ð¾Ð¿
Ð°ÑĢ ÑĤ
ĠÐ¶Ð°Ñĥ Ð°Ð¿
ĠÑĤ ÑĸÑĢ
ĠÐ¼ ÑĭÒ£
Ð°Ð¹ ÑĭÐ½
ĠÐ° ÑĪ
ĠÐºÓ© ÑĪ
ĠÓĻ Ð´Ñĸ
ĠÐ´Ð°Ð¼ ÑĭÑĤÑĥ
Ð° Ñħ
ĠÒ±Ð¹ÑĭÐ¼ Ð´
ĠÑĤÐ°Ð¿ ÑģÑĭÑĢ
ÐµÐ¹ Ð´Ñĸ
Ġ âĦĸ
ÑĸÐ» ÐµÐ´Ñĸ
ĠÐ°Ð· Ð°Ð¼
Ð°ÑĢ Ð°
Ð°Ñģ ÑĭÐ½Ð°
ĠÐ¶Ð°ÑĤ ÒĽÐ°Ð½
ÑģÑĤ ÑĸÐº
Ġ 8
ĠÐºÐµÐ» Ð³ÐµÐ½
ĠÐ¶ ÐµÐºÐµ
ĠÐ±Ð°ÑĢ Ð»ÑĭÒĽ
ĠÐĲ ÒĽ
Ðµ Ð³ÐµÐ½
ĠÐ¿ÑĢ Ð¾
ÑĤÑĭ Ð¿
âĢ Ŀ
ÐµÑĢ Ñĸ
ĠÑĸÑĪ ÑĸÐ½Ð´Ðµ
Ð³Ðµ Ð¹
Ð ¥
ĠÒĽÒ± ÒĽÑĭÒĽ
Ð´Ðµ Ð¹
Ð°Ð»Ð°ÑĢ Ñĭ
ĠÑģÓĻÐ¹ ÐºÐµÑģ
ĠÐ¶ÑĭÐ» Ð´ÑĭÒ£
Ġ Ð°Òĵ
Ð°Ð¼ ÑĭÐ·
Ñĭ Ð±
Ðº ÐµÐ»
ĠÐ¶Ð¾ ÒĵÐ°ÑĢÑĭ
ĠÐ¼ Ð°Ð¼Ð°Ð½
ĠÑģ ÐµÐ½
ĠÓ©Ð· Ð³ÐµÑĢ
Ð¾ Ð±
ĠÓĻÐ» ÐµÐ¼
Ð ĵ
ĠÐ Ĺ
ĠÐµÒ£ Ð±ÐµÐº
ĠÐ±Ð¾Ð» ÑģÐ°
Ð°Ð» ÒĵÐ°Ð½
ĠÓ© Ñģ
ĠÐ¶Ð¾ Ð±
ÑĭÐ» Ð´Ñĭ
ÑĤÐ°Ð» ÒĵÐ°Ð½
Ð¼ Ð°Ð¹
ÑĸÐ½ ÑĪÑĸ
ÐµÐ½ Ð´Ñĸ
Ð¾ÑĢ Ð¼
ĠÐ± Ò±ÑĢ
ĠÐ±Ð°Òĵ ÑĭÑĤ
ĠÒ ®
Ð´Ðµ Ð¼
ĠÐŁ ÑĢ
ĠÓ© ÑĤÐµ
Ð°Ð» Ð°Ñĥ
ÑĪ ÑĸÐ»ÐµÑĢ
ĠÑĤ Ò±Ð»
Ð³ ÑĸÐ½ÑĸÒ£
ĠÐ¼ Ð°Ò£ÑĭÐ·
Ó© ÑĢ
ĠÓ© Ð»
Ð° ÑĦ
ĠÒĽÐ°ÑĢ Ð¶
ĠÐ¶ Ð¸Ð½
Ð¸ Òĵ
Ġ2 0
ĠÐºÓ© Ð¼
ÑĭÒ£ ÑĭÐ·
ĠÐµÑĢ ÐµÐº
ÒĵÐ° ÑĪ
Ð¿Ð¾ÑĢ ÑĤ
ĠÐ¶Ð°Ñģ Ð°Ñĥ
Ð»Ð°ÑĢ Ñĭ
ÑĤÐ¸ Ð¶
ÑģÑĤÐ°Ð½ Ð°
ĠÐ°Ð¹ Ð½Ð°Ð»
Ñĥ Ð½
ĠÐ´Ð°Ð¼ Ñĥ
Ġ Ð°Ð¿
ĠÑĤ Ó©Ð»
ÐµÐ»ÐµÑĢ Ñĸ
ÓĻ ÑĤÐ¸Ð¶
ÑĸÐ» ÐµÑĤÑĸÐ½
ĠÐ· ÐµÑĢÑĤ
ÑĢ Ð°Ð½
ĠÑĤÒ±ÑĢ ÒĵÑĭÐ½
Ð´Ð°ÑĢ ÑĭÐ½ÑĭÒ£
Ò£ Ð³ÐµÐ¹
Ð´Ð°ÑĢ Ð´Ñĭ
Ñģ ÑĭÐ½ÑĭÒ£
Ñĥ Ñĸ
ÐµÐ¹ Ð½
ĠÐ¼ Ð°ÑĤ
ĠÐµ Ð´Ñĸ
ĠÐºÐµÐ· ÐµÒ£
ĠÐ°Ð» ÒĵÐ°Ð½
ĠÒĽÐ°ÑĤÑĭÑģ ÑĤÑĭ
ÑĤÐ°Ð¼ Ð°ÑģÑĭÐ·
ÑĤ ÐµÐ½
Ð°Òĵ ÑĭÐ½
ĠÐ±Ð¾Ð» Ð°ÑĤÑĭÐ½
1 9
ĠÐ°Ð» ÑĭÐ¿
ĠÐĲÐ» Ð¼Ð°ÑĤÑĭ
Ð¾Ð² Ð°
ĠÐ¶Ð°Ð» Ð¿Ñĭ
Ð°Ð·ÑĸÑĢ Ð³Ñĸ
ÑĸÒ£ ÑĸÐ·
Ð°ÒĽ ÑĭÐ»
Ġ1 0
ÑĤ ÑĸÑĢ
Ð»Ð°ÑĢ Ð´ÑĭÒ£
Ð± Ðµ
ĠÐ°ÑĢ Ð½
Ð¼ ÑĭÑģ
ĠÑĪÐ°ÑĢ ÑĥÐ°
ĠÐ¾ÑĢ ÑĤÐ°
ĠÑĤÓĻÑĢ Ð±Ð¸
ĠÐ¶ Ð°Ð¹
ĠÐ¶Ð¾Ñģ Ð¿Ð°ÑĢ
ĠÐ¾Ð»Ð°ÑĢ Ð´ÑĭÒ£
Ñģ Ð°Ð½
ĠÐ´Ðµ Ò£Ð³ÐµÐ¹
ĠÑĤ Ð°ÒĽÑĭÑĢ
ĠÓ©ÑĤ ÐºÐµÐ½
ĠÒĽÐ°Ð¶ ÐµÑĤ
ĠÐ¾ÑĤÑĭÑĢ ÑĭÐ¿
ĠÒĽÒ± Ð¶
ÑģÑĤ Ð°ÑĢ
ĠÒĽÐ°Ð¼ ÑĤÐ°Ð¼Ð°ÑģÑĭÐ·
Ð¾Ð»Ð¾Ð³ Ð¸ÑıÐ»ÑĭÒĽ
Ð´ÑĭÒĽ ÑĤÐ°Ð½
ĠÐľ Ò±
Ñĥ ÑĤ
ĠÑħÐ°Ð±Ð°ÑĢ Ð»
Ġ 9
ÑĤÐ°ÑĢ Ð´ÑĭÒ£
ĠÐº ÑĸÑĢ
ĠÐ½ÐµÐ³ÑĸÐ· Ð³Ñĸ
Ð°ÑĤÑĭ Ð¿
ĠÐ¾ÑĢ Ð½Ð°Ð»
ĠÐ ¤
Ð¼ ÐµÑĤ
ÐµÑĢ Ñģ
ĠÑģ Ð°Ð¿
ÒĽ ÑĭÐ½
Ñģ Ð°Ñĥ
ĠÐ´ ÐµÐ½
ĠÐº ÐµÑĪ
ĠÐ¶ Ñĸ
ĠÑĤ Ð°Ñĥ
ĠÐ¼ÓĻ Ð»ÑĸÐ¼
Òĵ Ð°Ñĥ
i n
ĠÐµÐ½ Ð³ÑĸÐ·
ĠÑĢ ÐµÑģ
ĠÐ¶ ÐµÐ»
Ġ2 00
ĠÑģ Ð°Ñĥ
Ñĥ ÑĪÑĭ
ĠÐ¼Ð¸Ð½ Ð¸ÑģÑĤÑĢ
ĠÐ°ÑĢ ÑĤ
ĠÐ¼ ÐµÑĢ
ĠÐ¾Ð¹ ÑĭÐ½
Ð¶ Ð°Ð½
Ð¾ Ð·
ĠÐŀ ÑģÑĭ
ĠÐ°Ð» Ð´
ĠÓ© Ò£
) .
Ñģ ÑĭÐ»
ĠÐ°ÑĤ ÒĽÐ°ÑĢ
ĠÐ¾ Ð½Ñĭ
Ð°Ð» Ð´Ñĭ
Ġ Ð°Ð²
ÑĤ Ð°ÒĵÑĭ
ĠÑĢÐµÑĤ ÑĸÐ½Ð´Ðµ
Ðº Ð°
Ð¾ Ð´
Ð Ĵ
ĠÐłÐµÑģÐ¿ÑĥÐ±Ð»Ð¸Ðº Ð°ÑģÑĭ
ÐµÐ¼Ð»ÐµÐº ÐµÑĤÑĤÑĸÐº
ÑĭÒĽ ÑĤÑĭ
ĠÐ¾ÑĢ Ð½
Ò¯ Ð½Ð¸
ĠÐ¼ÓĻ Ð´ÐµÐ½Ð¸
ĠÑĤÐµÒ£ Ð³Ðµ
Ð»ÐµÐº ÑĤÑĢ
ĠÒĽÒ±ÑĢ Ð°Ð¼
Ð° ÐºÑĤ
ĠÐ¼Ð°ÒĽ ÑģÐ°ÑĤ
ÒĽ Ð¾ÑĢ
ĠÐ¾Ð±Ð» ÑĭÑģÑĭ
ĠÐ±Ð°Ñģ ÑĤÐ°Ð¿
Ð°Ð»ÑĭÒĽ ÑĤÐ°ÑĢ
Ġ /
ĠÐ´ ÓĻÑĢ
ĠÐ¶ ÐµÒ£
ĠÑĤÐ°Ð» Ð°Ð¿
Ñģ ÑĭÐ½Ð´Ð°
Ð´ Ð¶
ĠÓ©ÑĤ ÑĤÑĸ
ĠÐ½ ÓĻÑĤÐ¸Ð¶
ĠÐºÓ©ÑĢÑģÐµÑĤ Ñĥ
ĠÑĤÐ°Ð± ÑĭÐ»Ð°Ð´Ñĭ
ÑĭÒĵ ÑĭÐ½
ĠÒļ Ðł
Ð³ ÑĸÐ»ÑĸÐº
ÐĲ ÒĽ
ĠÒĽÐ°Ð½ Ð´Ð°Ð¹
ĠÐ±Ó©Ð» ÑĸÐ¼
Ð°Ñģ ÑĤÑĭ
ÐµÑĤ ÑĸÐ½ÑĸÒ£
ÑĭÐ¼ Ð´Ñĭ
ĠÐ Ĵ
Ð»Ð°ÑĢ Ð´Ñĭ
ĠÒ±Ð» ÑĤÑĤÑĭÒĽ
ĠÐ Ĩ
Ð´Ð°ÑĢ ÒĵÐ°
) ,
ĠÐ¼ ÐµÐ´
ĠÐ± ÐµÐº
Ð¸ ÑĨÐ¸Ñı
ĠÑģ Ñĭ
2 0
Ð°Ð½ Ðº
Ñģ Ðµ
ĠÐ°Ð» Ð°Ð´Ñĭ
Ð°ÒĽ ÑĤÐ°ÑĢ
ÑģÑĤ Ñĸ
Ð¸Ð½ Ð³
Ð¸Ñı ÑģÑĭ
Ð´Ð°ÑĢ ÑĭÐ½
ĠÑĤÐ¾Ð» ÑĭÒĽ
ĠÐ¶Ò±Ð¼ ÑĭÑģÑĤÐ°ÑĢ
Ñģ Ð°ÑĤÑĭ
ĠÑģÐ¾Ð½ Ð´Ð°Ð¹
ĠÓ©Ð½ ÐµÑĢ
ĠÑĤ Ð°Ñģ
ĠÑģ Ð°Ð±Ð°ÒĽ
ĠÐ±Ð¾Ð» Ð¼
Ó© Ð¹
ĠÐ¾ÒĽ ÑĭÑĤÑĥ
Ò ®
ĠÐ¼ Ð»
ÑĭÑģ ÑĭÐ½Ð´Ð°
ĠÐºÐµÐ» ÐµÐ´Ñĸ
Ñģ Ñĸ
ĠÒ± ÑģÑĤ
ĠÐĲ Òļ
Ñģ Ð¸
ĠÐ¶ Ð°ÑĤÑĭÑĢ
ĠÒļ Ð°Ð·Ð°ÒĽ
ÐµÑĤÑĤ ÑĸÒ£
Ò Ĵ
ÐµÐ½ ÑĸÒ£
ÐµÑģ ÑĸÐ½ÑĸÒ£
Ð°Ð»Ð°ÑĢ Ð´Ñĭ
ĠÐ°Ð² ÑĤ
ĠÐº Ñĸ
Ð¾ÑĢ Ñĭ
ĠÐķ Ð»
ĠÒļ Ð°ÑĢ
Ð°Ð»Ñĭ Òĵ
Ò¯ Ð»
ÐµÑĢ Ð¸Ð°Ð»
âĢ ĵ
ĠÐ¶ÐµÑĤ ÐºÑĸÐ·
Ð°Òĵ Ð°ÑĤ
ĠâĢ ľ
Ð¼ Ð°Òĵ
ĠÐ¶Ð°ÒĽ ÑģÑĭ
ÑĭÐ½Ð´Ð° Ñĥ
ĠÐ± ÐµÑĤ
Ð»ÐµÑĢ Ñĸ
ĠÐ¾ ÑĤ
ĠÒ¯Ð» ÐºÐµÐ½
Ð½ ÐµÐ½
ĠÐ¶ Ð¸
ĠÐ°Ð» Ð´Ñĭ
ĠÐ±ÑĸÑĢ Ñĸ
ĠÒĵÑĭÐ»ÑĭÐ¼ Ð¸
ĠÒĽÐ¾ÑĢ ÒĵÐ°Ñĥ
Ð½ Ð°Ð¼
ÐµÐ½ Ñĸ
Ð°Ð¹ ÑĤÑĭÐ½
Ð»Ñĭ ÒĵÑĭ
ĠÒĽ Ð°Ð·
ĠÓĻ Ð¹
ĠÐ¶Ó©Ð½ ÑĸÐ½Ð´ÐµÐ³Ñĸ
Ð½Ð¸ Ð²
Ġ Â»
Ð´Ðµ Ð±Ð¸
Ð ¤
Ð°Ð» Ð°
Ð¸ Ð¹
Ð°ÑĤÑĭÐ½ Ð°Ñģ
ÑĤÒ¯ ÑģÑĤÑĸÐº
ĠÑĤÒ¯ÑĢ Ð»Ñĸ
ĠÑģÑĭÐ½ ÑĭÐ¿
Ð½ Ð°
ĠÐ±Ò±ÑĢ ÑĭÐ½
Ð½Ð¸Ð² ÐµÑĢÑģ
Òĵ ÑĭÐ·
i Ðº
ĠÑħ Ð°Ð»
ĠÒĽÒ±ÑĢ Ð°Ð»
ĠÑģÐ°ÒĽ ÑĤÐ°Ñĥ
Ð» Ð°Ñģ
ĠÓ©Ð½ Ð´ÑĸÑĢ
Ð´ Ð°Ð¿
ĠÐºÐµÐ» ÑĸÑģ
Ð¿ ÐµÑĢ
ĠÐ¾ÒĽÑĥ ÑĪÑĭÐ»Ð°ÑĢ
Ð°Ð»Ð°ÑĢ Ð´ÑĭÒ£
Ð´Ñĸ Ð³Ñĸ
Ñģ Ðº
ÑĤÐ°ÑĢ Ð´Ñĭ
ĠÐ Ľ
ĠÐºÐµÐ· ÑĸÐ½Ð´Ðµ
ĠÐºÒ¯ ÑĪ
ĠÓĻÑĢ Ñĸ
Ñģ Ñĥ
ĠÐ±Ð¾Ð» ÑĥÑĭ
Ð´Ñĸ ÑĢÑĥ
Ð¼ ÑĭÐ·
Ñ Ĭ
ÑĤÐµÑĢ Ð´ÑĸÒ£
ĠÑĤ Ð°Òĵ
ĠÐ°ÑĤ ÑĭÐ½Ð´Ð°ÒĵÑĭ
ĠÒĽÐ°ÑĢ ÑģÑĭ
a n
ĠÐ Ń
Ġ1 5
ĠÑħÐ°Ð»ÑĭÒĽ Ð°ÑĢÐ°Ð»ÑĭÒĽ
ÑĭÑģ ÒĽÐ°
ĠÐ¼ÐµÑĢ Ð·
Ð½Ð¸Ð²ÐµÑĢÑģ Ð¸ÑĤ
ÑĭÐ» Ð°ÑĤÑĭÐ½
Ð± Ñĸ
ÑĸÑģÑĤ ÐµÑĢ
Ð»Ñĸ Ð³Ñĸ
ĠÐº Ò¯ÑĢ
ĠÐ¶Ò¯ÑĢÐ³ÑĸÐ· Ñĥ
ÑģÑĤ Ð¸
ĠÐŁÑĢ ÐµÐ·Ð¸
Ñİ Ð´Ð¶
Ð°ÒĽÑĭÐ» Ð°Ñĥ
ĠÑģ ÐµÐ±
ÑĢ Ð¸
Ð°ÑĤ Ñĥ
ĠÑĸÑģ ÐºÐµ
ĠÐºÓ© ÑĤÐµÑĢ
ĠÐ·ÐµÑĢÑĤ ÑĤÐµÑĥ
ÑĤÐ°ÑĢ ÑĭÐ½
ĠÐ¼Ò¯Ð¼ÐºÑĸÐ½ Ð´ÑĸÐº
ÑĤ Ð°Ð´Ñĭ
ĠÐ±ÐµÑĢ ÐµÐ´Ñĸ
ÑĸÐ» ÑĸÐ¼
ÐºÑĸÐ½ ÑĪÑĸ
ĠÐºÓ© Ð»ÐµÐ¼
Ñĥ ÐµÐ»
Ġ ÓĻÐ½
ĠÒĽ ÑĭÐ»
Ñģ ÐºÐµÑĢ
ÐµÑĪ Ðµ
ĠÒĽ Ñĥ
ÑĥÑĢ Ñģ
ÒĽ Ð°Ñĥ
Ðº ÑĨÐ¸Ñı
ĠÑĤÓ© Ð¼ÐµÐ½
ĠÐ´ Ò¯Ð½Ð¸
Ð Ń
ÑĪ ÑĸÑģÑĸ
ÑĪÑĭÐ» ÑĭÒĵÑĭ
ĠÐ±Ð°Ñģ ÑĤÑĭ
ÐĲ Ðł
ĠÐ¾ÑĢÐ½Ð°Ð» Ð°Ñģ
Ðĳ Ò±Ð»
Ðµ ÑĦ
ĠÐ°Ð» ÒĵÐ°ÑĪ
ÑģÑĸÐ· Ð´ÑĸÐº
ĠÐ¼Ð°ÑĤ ÐµÑĢÐ¸Ð°Ð»
ĠÐ± Ò¯Ð³ÑĸÐ½
Òĵ ÑĭÑģ
ĠÐĲ Ð¹
ĠÑģÐ¾ ÑĤ
ĠÑĤ ÐµÐ»
i Ð»
ĠÐ £
Ð°ÒĽ Ñĭ
ĠÐ¶Ð°ÑĢ Ð¸Ñı
ĠÒĽÐ°Ð¹ ÑĤÐ°
ĠÒĽÐ°Ð» Ð°Ð¹
ĠÐ°Ð» ÑĭÐ½
Ð± Ð°ÑģÑĭ
ĠÒĽÐ°Ñĥ ÑĸÐ¿
ĠÑĤÒ¯ÑĢ Ð´Ðµ
ĠÐĿ Ò±ÑĢ
Ò±ÑĢ ÑĭÑģ
ĠÐ±Ð°Ñģ ÑĪÑĭÑģÑĭ
ÑĭÑĢ ÑĤ
ÑĤÐµÑĢ ÑĸÐ½
ÑĭÑģ ÑĤÑĭÑĢ
ÑĢ Ð°Ð¼
ĠÒĽÐ°Ð» Ð°ÑģÑĭ
ĠÐ¿ ÓĻÐ½
Ð°Ð¹ Ð´Ð°
ĠÐ°ÑĢ Ð°ÑģÑĭÐ½Ð´Ð°
Ðº ÐµÑĥ
ĠÐ´Ðµ Ð´Ñĸ
Ñģ Ð¸Ñı
ĠÑģ Ð¿Ð¾ÑĢÑĤ
ĠÐ°ÑĥÐ´Ð°Ð½ Ñĭ
Ð¶ ÑĸÑĢ
Ð°ÑĢ Ð°Ð¿
ĠÒ° Ð»
ĠÒĽ Ð°Òĵ
ĠÐµ ÑĪ
Ð¸Ð· Ð¼
Ð¼ ÑĭÐ½
ÐµÐ¹ ÑĤÑĸÐ½
ĠÒĽ Ð°Ñģ
ĠÐ¼ÐµÐº ÐµÐ¼
ĠÐ°Ð» Ð¼
ĠÐºÑĸ ÑĤÐ°Ð¿
ÑĭÐ» ÑĭÐ¿
ÒĽ ÑĤÑĭ
ÑĸÐº ÑĸÑĢ
ÑĤ ÑĸÐ¿
Ò£ Ð³
ĠÐ¾Ð±Ð»ÑĭÑģ ÑĤÑĭÒĽ
Ð°Ð»Ð°ÑĢ ÑĭÐ½
ĠÐ¼ ÓĻÐ½
ĠÐ³ Ð°Ð·
ÑģÑĤÐ¸ ÑĤÑĥ
ÑĤÐµ Ð´Ñĸ
ĠÐ°Ñĥ ÑĢÑĥ
ÑĤÐµÑĢ Ð´Ñĸ
ÑĸÑģÑĤ Ñĸ
o r
ĠÓĻ Ð´ÐµÐ±Ð¸
ĠÑģ ÑĸÐ·
Ð¼ Ð¸
ĠÐ°ÑĤ ÑĤÑĭ
Ð°Ð·Ð°ÑĢ Ð±Ð°ÐµÐ²
Ò±Ð» Ñĭ
ĠÑĤÓ© ÑĢ
ĠÐ´ÐµÐ¹ Ð´Ñĸ
ĠÐ±ÑĸÑĢ ÑĸÐ½ÑĪÑĸ
ĠÐĳ Ð°Ñģ
Ð± Ð¾Ð»
ĠÐ¼Ò± Ð½
ĠÐĲ ÑĢ
ÑģÑĤ ÐµÑĢ
Ġ 0
ÑĤ ÐºÐµÐ½
ÑĸÐ»Ñĸ Ð³Ñĸ
ÐµÑģ ÑĸÐ½Ð´Ðµ
Ð¶ÑĸÑĢ Ð¸
ĠÐ±Ð°ÑģÒĽÐ°ÑĢ Ñĥ
ĠÐ± ÑİÐ´Ð¶
Ð» Ð°Ð¹
Ġ ÑĸÐ·
ĠÐ°ÑģÑĭÑĢ Ñĥ
Ð¸ÑĨ Ð¸Ð½
ĠÐ± Ð°ÒĽÑĭÐ»Ð°Ñĥ
ĠÐ±ÐµÐ»Ð³ ÑĸÐ»Ñĸ
ĠÐ¼Ð°Ò£ÑĭÐ· Ð´Ñĭ
Ð¸ Ð´
Ð°ÑĤ ÑĤÑĭÒĽ
ĠÑĤÐ¸ ÑĸÑģ
ÐµÑģ ÐµÐ¹
Ð± ÑĬ
Ð´ÐµÑĢ ÑĸÐ½
Òļ Ð°Ð·Ð°ÒĽ
Ñģ ÑĸÐ½
ĠÐ¶Ð°ÒĵÐ´Ð°Ð¹ Ð´Ð°
ĠÐ¡ Ð¾Ð»
Ð· ÑĸÑĢ
Ð°Ð» Ð°Ð´Ñĭ
ĠÒ±Ð¹ÑĭÐ¼Ð´ Ð°ÑģÑĤÑĭÑĢÑĥ
ĠÐ¾ Ò£
ĠÑį Ð»ÐµÐºÑĤÑĢ
Ð»Ð°ÑĢ ÑĭÐ½
ĠÐ¿Ð°Ð¹ Ð´Ð°
Òĵ ÑĭÐ»
Òĵ Ð½Ð¸
Ð¸ ÑĦ
Ð³ÑĸÐ»ÑĸÐº ÑĤÑĸ
Ð°Ñģ ÑĭÑĢ
1 0
ÑĪ Ð°ÑĢ
Ð¼ Ò±
ĠÐ°Ð¹ ÑĤÑĥ
ĠÓ© ÐºÑĸÐ»
ĠÑįÐºÐ¾Ð½Ð¾Ð¼ Ð¸ÐºÐ°Ð»ÑĭÒĽ
ĠÓĻ ÑģÐµÑĢ
ĠÑģ Ð°ÑĤÑĭÐ¿
ĠÑĪ ÐµÐº
ĠÐ°ÑĤ Ð°
ĠÐķ ÑĢ
ÐµÐ´ Ð°Ð³
Ġ Ò±ÑĢ
ÑĤÑĥ Ð´ÐµÐ½ÑĤ
Ð°Ñĥ ÑĢ
ÑĭÑĤ ÑĭÐ½Ð´Ñĭ
Ñĥ Ð¼
Ð± ÑĭÐ»
Ð¾ÑĢ ÑĭÐ½
ÐµÐ´Ð°Ð³ Ð¾Ð³
ĠÑĤ Ð¾ÒĽ
ĠÓĻÐ¹ ÐµÐ»
Ð¿Ð°Ð½ Ð¸Ñı
ĠÒĽÐ¾ÒĵÐ°Ð¼ Ð´ÑĭÒĽ
e r
ĠÒĽÑĭÐ·Ð¼ ÐµÑĤÑĤÐµÑĢ
ÐĲ ÐĿ
ĠÐ±Ð°ÑģÒĽÐ°ÑĢ Ð¼
ĠÑĤÐµÑħÐ½ Ð¾Ð»Ð¾Ð³Ð¸Ñı
Ð±ÑĬ ÐµÐºÑĤ
âĢ ¦
Ð°Ð»Ñĭ ÒĵÑĭ
ĠÐ¼Ò± ÒĵÐ°Ð»
ĠÑģ Ó©Ð¹
ĠÐ±Ð°ÑĢ ÑĭÑģÑĭÐ½Ð´Ð°
Ġ Ñı
ĠÒĽ ÑĭÑĢ
ĠÐ±Ð¾Ð» Ñĥ
ÑĤÐ°Ð» Ð´Ñĭ
ĠÑĦ Ð¸Ð»
ĠÐŀ ÑĢ
Ð½ ÐµÑĢ
ĠÐ°Ñĥ Ð´Ð°ÑĢ
ĠÐ´ Ð°Ð¹ÑĭÐ½
ĠÐ±ÑĸÑĢ Ð³Ðµ
ĠÐµÑģ ÐºÐµÑĢ
ĠÐĲ ÑģÑĤÐ°Ð½Ð°
Ð°Ò£ Ð°
Ð°Ð½ Ð´
ÑĤ ÐµÐ»
ĠÑģÑĭ Ð¹
ĠÒ± Ð·
ĠÐŀ Ð½ÑĭÒ£
ĠÐ±Ð°Ð» Ð°
ĠÑĥ Ð½Ð¸Ð²ÐµÑĢÑģÐ¸ÑĤ
ÐµÑĤ ÑĢ
ĠÑģ ÑĥÑĢ
ĠÓ©Ð· ÑĸÐ½ÑĸÒ£
Ġ1 2
ĠÐ¿Ð°Ð¹Ð´Ð°Ð»Ð°Ð½ Ñĥ
ÑĢ Ð°ÑĦ
ÐµÑĤÑĤ Ðµ
ĠÑģ Ð°Ð½Ñĭ
Ġ ÑĸÑĢ
Ð´ÐµÑĢ Ð´ÑĸÒ£
Ð°Ð» ÑĮ
ÐµÑģ ÑĸÐ½Ðµ
ĠÓĻÑĢ ÐµÐº
ĠÑĤ Ð°Ð¼
ÐµÐ½ Ð³ÐµÐ½
Ġ S
ĠÑĤ ÑĸÐ»Ñĸ
ĠÒĽÐ°ÑĢ Ð°Ð¹
ĠÑĤÒ±Ð» Òĵ
ĠÓ©Ð· ÑĸÐ½
Òĵ Ð°ÑĢ
Òĵ Ð°Ð¹
ĠÒ¯Ð¹ ÑĢ
ĠÐĳ ÑĸÐ·
ĠÐ°ÑĢÐ½ Ð°Ð¹Ñĭ
Ð» Ð°
Ð´ÐµÑĢ Ð´Ñĸ
ĠÐ± Ð°Ð½Ðº
Ñĥ Ð·
ÑĢ Ð¾
ĠÑģ Ò¯Ð¹
ĠÐ±Ò± Ð·
ÐĲ Òļ
ÑĸÑģÑĤ ÑĸÐº
ĠÑĪ Ð°ÒĽÑĭÑĢ
ĠÐ½ ÑĭÑģ
ÑĤÐ°Ð½ Ð´ÑĭÑĢÑĥ
ĠÐ¿ÑĢÐ¾ ÑĨ
Ð³ ÑĸÐ½Ðµ
ĠÐºÐ¾Ð¼ Ð¼
ÑĢ Ð°ÑĤ
Ð· Ð¸Ñı
Ġ201 8
ĠÐ°Ñı ÒĽ
ÑĸÐ¼ÑĸÐ· Ð´ÑĸÒ£
Ġ1 8
ĠÐ´ ÑĸÐ½
ĠÐĳÑĸÑĢ Ð°ÒĽ
ĠÒĽÑĭÐ·Ð¼ÐµÑĤ ÐºÐµÑĢÐ»ÐµÑĢ
ÐĲ ÐĽ
ĠÓ¨ Ð·
Ñģ Ð°ÒĽ
ĠÑģÐ¾Ò£ ÒĵÑĭ
ĠÑĪ ÐµÑĤ
Ð´ÐµÐ½ ÑĤÑĸ
Ò »
ÑĤÐµ Ð³ÐµÐ½
Ð´ Ð°Ñģ
ĠÒĽÒ±Ð¶ Ð°ÑĤÑĤÐ°ÑĢ
ĠÐ¿ Ð°ÑĢ
ÑĤ Ó©
ĠÑħÐ°Ð±Ð°ÑĢÐ» Ð°Ð¹Ð´Ñĭ
ĠÐ±ÑĸÐ· Ð´ÑĸÒ£
ĠÑĤÐ°Ð± Ð¸Òĵ
ĠÒĽÐ°Ð» Ð°
ĠÐ¶Ñĸ Ð±ÐµÑĢ
Ð» ÐµÑĥ
Ġ ...
ĠÐ±ÐµÐ»Ð³ ÑĸÐ»
ĠÑĤÐ°ÒĽÑĭÑĢ ÑĭÐ±
ĠÒĽÐ°Ð»ÑĭÐ¿ ÑĤ
Ò ¢
Ð½ ÐµÑĪÐµ
Ð°Ñĥ Ñĭ
Ġ ,
Ð°Ð½ Ð´Ñĭ
ĠÐ´ Ò±ÑĢÑĭÑģ
ĠÐ¼Ò¯ ÑĪ
ĠÐ¾ÑĤÑĭÑĢ ÒĵÐ°Ð½
ĠÑĤ ÑĸÐ·
ĠÐ¸ Ðµ
ĠÑĤÐµÐº ÑģÐµÑĢ
ĠÑģ Ð¸Ñı
ĠÑĤÐ¸ ÑĸÐ¼Ð´Ñĸ
ÐµÑģÐ¿ÑĥÐ±Ð» Ð¸ÐºÐ°Ð»ÑĭÒĽ
ÑĸÑĢ Ñĥ
ÒĽ ÑĭÐ·
Ñĥ ÑĸÑĢ
ĠÒĽÑĭÐ·Ð¼ÐµÑĤ Ñĸ
ĠÒĽ Ð¾Ð½
ĠÐºÓ©Ð¼ ÐµÐº
ĠÐ¶ Ð°Ð±
ĠÑģ Ð¸Ð¿
ÑĤ ÑĤÐ°ÑĢ
ĠÐ½ Ð°ÒĽÑĤÑĭ
Ð°ÑĤÑĭ Ð»
Ġ1 1
ÑĭÐ» ÑĭÒĽ
ĠÒĽ Ð¸
ĠÓ©Ð· Ñĸ
Ġ201 7
ĠÐ¼ Ðµ
ÐºÑĸ ÑĪ
Ñģ Ð¿
ĠÐ´ ÐµÐ¼
Ð² ÐµÑģÑĤ
ĠÐ· Ð°Ð¼Ð°Ð½
ÑģÑĤ ÐµÐ¼
ĠÐ¼ÓĻÑģÐµÐ» ÐµÐ»ÐµÑĢ
ĠÑĪ ÑĭÒĽ
ĠÑĪ ÑĭÐ½
ĠÒĽÐ¾ÑĢ ÑĭÑĤÑĭÐ½Ð´Ñĭ
ÐºÐµÑĢ Ð»ÑĸÐº
ĠÑģÐ¸Ñı ÒĽÑĤÑĭ
ĠÐ¼Ð°ÒĽ ÑģÐ°ÑĤÑĭ
Ð´ i
ĠÐ¾Ð±Ð»ÑĭÑģ ÑĭÐ½ÑĭÒ£
Ðº Ò¯Ð¹
ĠÐµÐºÐµÐ½ ÑĸÐ½
Ð°ÑĤ Ð¸Ð²
ĠÐ¼ÐµÐ¼Ð»ÐµÐº ÐµÑĤ
ĠÑĤÓĻ Ð¶ÑĸÑĢÐ¸
ĠÐ±ÑĸÐ» Ð´ÑĸÑĢ
ĠÐ¾ÑĢÐ½Ð°Ð»Ð°Ñģ ÒĽÐ°Ð½
ĠÓ©Ð· Ð³Ðµ
Ð³ ÑĸÐ½Ð´Ðµ
Ò± Ñģ
ĠÐ° ÐºÑĤ
Ð°ÑĥÑĢ ÑĭÐ·
ÑĤ ÑĤÑĭ
ĠÓ©Ò£ ÑĸÑĢ
ĠÒ¯ Ð·
ĠÐ¿ ÑĸÐºÑĸÑĢ
ĠÐ·Ð°Ò£ Ð´Ñĭ
ÐµÐº ÑĤÑĸ
ĠÐº ÐµÐ¼
ĠÐ° ÑĪÑĭÐ»
ĠÐŀ ÒĽ
ĠÒļ Ð¾
ĠÐ¼ÐµÐ´ Ð¸ÑĨÐ¸Ð½
ĠÐ°ÑĤ Ð°Ð¿
ĠÐļ Ó©
Ð½ Ð¾
Ñĥ ÑĭÐ½
ĠÐ¶ ÐµÐ¼
ĠÐ± ÓĻÑĢ
Ð°ÑĤ ÐµÐ³
ĠÒ± ÑĪ
Ñģ ÐµÐ½
ĠÐµ ÐºÑĸÐ½ÑĪÑĸ
ĠÒ°Ð» ÑĤÑĤÑĭÒĽ
ĠÐł ÐµÑģÐµÐ¹
ĠÑģ ÑĤÑĥÐ´ÐµÐ½ÑĤ
ĠÒĵ Ð°ÑģÑĭÑĢ
ÑĥÐ» ÑĮ
ĠÐµÑĢÐµÐº ÑĪ
ĠÐľ ÐµÐ¼Ð»ÐµÐºÐµÑĤÑĤÑĸÐº
Ò¯ Ð½
ĠÑĢ Ñĥ
ĠÒĽÐ¾ Ð·
ÐµÐ± Ñĸ
Ð¸Ð· Ð½
ĠÒļÐ°Ð·Ð°ÒĽÑģÑĤÐ°Ð½ Ð½ÑĭÒ£
ÑĸÐº ÑĤÑĸ
ÑĪÑĭÐ» Ð°ÑĢÑĭ
ĠÐº Ð»
ĠÒĽÒ± Ð½
ÑĸÐ» ÑĸÐ¿
Ðº ÐµÐ¼
ÑĤ Ð¾ÒĽ
ĠÐ°Ð¹ÑĤ ÒĽÐ°Ð½
Ð´Ñĸ Ð³ÑĸÐ½
ĠÒĽÐ°Ð» ÒĵÐ°Ð½
Ñĥ ÑĭÐ½Ð°
ĠÐ¼Ð» Ð½
Ð¿ Ð°Ñģ
d i
Ñģ Ð¸Ñħ
ĠÐ¿Ð°Ð¹ ÑĭÐ·
ÑĤ ÐµÐ¼
Ð´ÐµÑĢ ÑĸÐ½ÑĸÒ£
Ð°Ð» ÑĭÐ¼
ĠÐ°Ð´Ð°Ð¼ Ð½ÑĭÒ£
ĠÐºÓ© Ò£
Ñĥ Ð´Ð°
Ò±Ð» ÑĤÐ°Ð½
ĠÐ°Ð·Ð°Ð¼ Ð°ÑĤÑĤÐ°ÑĢ
Ð¡ Ð¾Ð½
ĠÐº Ð¸
É Ļ
Ð¸Ð» Ð»
ĠÐºÒ¯ Ð¹
Ð¾ÑĢ Ð´Ð°
ĠÐ°Ð¹ ÑĭÑĢ
Ð¸ Ð´Ðµ
ĠÐµÑĢÐµÐº ÑĪÐµ
ĠÐ±ÑĸÑĢ Ð½ÐµÑĪÐµ
Ñĸ Ð³Ñĸ
Ð° ÐµÐ²
ĠÒ Ĵ
ĠÐ¶ÐµÑĢ Ð³ÑĸÐ»ÑĸÐºÑĤÑĸ
Ð¿ Ð°ÒĽ
Ð°ÑĤ ÑĥÑĢ
ÑģÑĤ Ò¯ÑĢ
ĠÑĤ Ð°ÒĵÑĭ
ĠÐ½ Ð°ÑĢ
ĠÑĪÑĭÒĵÐ°ÑĢ Ð¼Ð°
ÐµÐ» ÐµÑĥ
ÑģÑĤ ÑĢ
Ð Ļ
Ð°Ñı Ð½
Ò± ÒĽ
Ð¿ Ð°Ð¹
Ð°ÑĢ Ð»ÑĭÒĽ
ĠÐ¶Ò¯ÑĢ Ð³ÐµÐ½
ĠÐ¾ ÒĵÐ°Ð½
ĠÐµ ÑĤÐµÐ´Ñĸ
ĠÒļ ÑĭÐ·
Ðµ Ð³ÑĸÐ·
ĠÐ¿ Ð¾ÑĢ
Ġ A
ÑĤÐ¾ÒĽ ÑģÐ°Ð½
ĠÒĽ Ð°Ð·ÑĸÑĢÐ³Ñĸ
Ġ2 5
ĠÐ´ÓĻ Ð»
Ð°Ð¼ Ð°
ĠÑģ Ð°ÒĵÐ°ÑĤ
ÑģÐ°Ñĥ Ð»ÑĭÒĽ
ĠÐ¡Ð¾Ð½ Ð´ÑĭÒĽÑĤÐ°Ð½
Ð°Ð² Ð»
ĠÐĹ Ð°Ò£
ĠÑĤÐ°Ð¿ÑģÑĭÑĢ Ð¼
Ð¾ Ò£
ĠÒ±Ð¹ÑĭÐ¼Ð´ Ð°ÑģÑĤÑĭÑĢ
ĠÐ¼ Ò±ÑĢ
s t
âĢ Ķ
ĠÐ¼ Ð°
ĠÐ°Ð»ÒĵÐ°ÑĪ ÒĽÑĭ
ĠÐ½ÑĭÑģ Ð°Ð½
Ðº Ð¾Ð½Ð¾Ð¼
ĠÐŀ Ð»Ð°ÑĢ
ĠÐºÐµÐ» ÑĸÐ¿
ĠÐ°Ñı ÑģÑĭÐ½Ð´Ð°
ĠÑĤÒ±ÑĢ ÒĵÐ°Ð½
ĠÐºÐµÐ» ÑĤÑĸÑĢ
ÓĻ Ð»
ĠÒĽ Ð°ÑĤÑĭÐ½Ð°Ñģ
ÑĨÐ¸Ñı Ð»ÑĭÒĽ
l e
ĠÒĽÐ°ÑĢ Ð°
ÓĻÑģ Ñĸ
ÐµÑĤ Ñĥ
Ðĳ ÑĸÑĢ
ĠÓ©ÑĤ ÑĸÐ½
ĠÐ¼ÐµÐº ÐµÐ½
Ð´Ðµ Ð¿
1 1
ĠÐĿ Ð°Ð·Ð°ÑĢÐ±Ð°ÐµÐ²
ĠÑģ ÐµÑĢ
Ð± Ð°ÑĤ
ĠÓ© ÑĢ
ÑĤÐ°ÑĢ ÒĵÐ°
ÐµÐ» ÐµÐ½
ĠÒĽÐ¾Ð» Ð´Ð°Ñĥ
Ñģ ÑĭÐ¼
ĠÐ°ÑĢ Ð°ÑģÑĭÐ½Ð´Ð°ÒĵÑĭ
Ġ19 9
Ó©Ð» ÑĪ
ĠÑģ ÑĤÐ°Ð½
ÑĪ ÑĭÐ½
ĠÐ¼ ÐµÑĢÐµÐº
ĠÑģ Ò¯ÑĢ
ĠÐ±ÑĸÑĢ Ð»
ĠÑħÐ°Ð» ÒĽ
ĠÑĢÐµÑģ Ð¼Ð¸
ĠÐ¼Ð°ÒĽÑģÐ°ÑĤ ÑĭÐ½Ð´Ð°
ÑģÑĭÐ½ Ð´Ð°Ð¹
o n
Ġ :
ĠÒĽÐ°Ñģ Ð¸
Ð» ÑĭÒĵ
ÑĭÑģ ÑĭÐ½ÑĭÒ£
ĠÒļ Ð°Ð·
Ð»Ð°Ð½ ÒĵÐ°Ð½
ĠÓĻ ÑģÐºÐµÑĢ
Ð» ÑĮ
Ġ1 4
Ġ3 0
Ð´Ð°ÑĢ ÑĭÐ½Ð°
ĠÒĽÐ°Ð± ÑĸÐ»
Ñĥ Ñģ
ĠÐ¾ Ðº
ĠÐºÐ¾Ð¼ Ð¿Ð°Ð½Ð¸Ñı
Ð°ÑĪ Ð°ÒĽ
ĠÒĽÐ°ÑĢÐ¶ Ñĭ
ĠÑĤÒ±ÑĢ Ð°ÒĽÑĤÑĭ
ĠÐ± Ð¾Ñģ
ĠÐ°Ð¹ ÑĤÑĭÐ¿
Ð¼ÑĭÑģ ÑĤÑĭÒĽ
ĠÓĻ Ð·ÑĸÑĢ
a r
ÐĲ Ð¹
Ð´Ñĭ ÒĵÑĭ
ÑĦ ÐµÑĢ
ĠÑģÐ°Ð¹ ÑĭÐ½
Ðķ Ðł
ĠÐ±ÐµÑĢ Ð´Ñĸ
ĠÐ°Ð´Ð°Ð¼ Ð´Ð°ÑĢ
ÐµÐ¼ ÑĸÐ·
1 8
Ð¸ ÐµÐ²
Ð« ÐĿ
Ġ1 3
Ð¸ÑĢ ÐµÐºÑĤ
ĠÐĳ Ð°Ð»
Ð¡ Ð¢
Ġ ÑĭÒĽ
ĠÐ°Ð» ÑĥÒĵÐ°
ĠÐ°ÑĥÐ´Ð°Ð½ Ð´ÑĭÒĽ
Ġ1 6
ĠÑĪÐµÑĪ ÑĸÐ¼
ĠÑģ Ð°Ð»ÑĭÒĽ
Ð¸ Ð³
ÑĭÑģ ÑĭÐ½
Ġ ÑĭÐ½
ĠÑĤÐ°Ñĥ Ð°ÑĢ
ĠÐ¶Ð°Ò£ Ð°Ð»ÑĭÒĽÑĤÐ°ÑĢ
ĠÐ°Ð»ÑĭÐ½ ÒĵÐ°Ð½
i Ð¼
ÑħÐ°Ð½ Ð¸
ĠÑĥÐ°ÒĽÑĭÑĤ ÑĤÐ°
ÑĤÐµ Ò£
ÑĪ ÑĭÐ½ÑĭÒ£
ÑĤ Ð°ÒĵÐ°Ð½
ÑĤÑĭÐ» ÒĵÐ°Ð½
ĠÐ± Ò¯
ÑĤÐµÑĢ Ð³Ðµ
ÐµÐ» ÑĮ
ĠÐĲ Ñĥ
ÑĭÑģÑĤ Ð°ÑĢÑĭ
1 2
ÑĸÐ¿ ÑĤÑĸ
w w
ĠÑĸÑĪ ÐºÑĸ
ĠÑĤÑĥ ÒĵÐ°Ð½
ĠÓĺ ÑĢ
ĠÐ´ ÐµÑĢÐµÐº
ĠÐ¼ Ð°Ð·
ĠÐ¶ÑĭÐ» ÒĵÐ°
ĠÐ¿ ÐµÐ´Ð°Ð³Ð¾Ð³
ĠÑģÐµÐ± ÐµÐ¿
ĠÐµÑĢ ÐµÐ¶
Ð¸ Ðµ
Ñĥ Ð±
ÐĲÐ» Ð¼Ð°ÑĤÑĭ
Ñģ ÐµÐ½Ð´Ñĸ
ĠÒĽÒ±ÑĢ ÑĭÐ»ÑĭÐ¼
201 7
Ð°ÑĤ ÑĤÑĭÒ£
ĠÐ±Ð°Òĵ Ð°Ð»Ð°Ñĥ
ĠÐ¥ Ð°Ð»ÑĭÒĽ
ĠÐ¢ Ò¯ÑĢ
ĠÓĻÐºÑĸÐ¼ Ñĸ
Ð°Ð» Ð¿Ñĭ
Ð¼ Ðµ
ĠÐ¾Ðº ÑĢÑĥ
ĠÐ¶ÑĭÐ» Ð´Ð°Ð½
ĠÒĽÐ°Ð±ÑĭÐ» Ð´Ð°Ñĥ
ÐµÑģ Ñģ
ĠÐºÓ© Ð»ÑĸÐº
ÑĭÑĤ Ð°Ð¹
ĠÑģ ÐµÐ·
ĠÐ´ÐµÐ¹ÑĸÐ½ Ð³Ñĸ
ÒĵÑĭ ÑĢ
ĠÒ¯ ÑģÑĤ
Ġ Ð°Ð³
ĠÐ°ÑĢÑĤ ÑĤÑĭÑĢÑĥ
ĠÐ°Ð¹ Ð¼Ð°ÒĽ
ĠÐ¼ÐµÐº ÑĤÐµ
ĠÐ¼ ÑĭÐ½Ð°
ĠÐ°ÒĽÐ¿Ð°ÑĢÐ°ÑĤ ÑĤÑĭÒĽ
ÑĤÓ© Ð±Ðµ
Ð³ i
ĠÐ¾Ð»Ð°ÑĢ Ð´Ñĭ
Ð°Ñĥ ÑģÑĭÐ¼
ĠÐ± ÐµÐ¹Ð½
ÐµÑĤÑĤÐµÑĢ Ñĸ
Ð¼ Ð¸Ð½
ĠÐ¿ Ð¾Ð»
ĠÐľ ÓĻ
ĠÐ±Ò¯Ð³ÑĸÐ½ Ð³Ñĸ
5 0
ĠÑģÐ¸Ð¿ Ð°ÑĤ
ĠÐľ ÐµÐ½
e n
ĠÐ°Ñģ ÑĤÐ°Ð¼
ĠÒļ Ò±ÑĢ
Òĵ ÑĭÐ¼
Ð°Ð¼ ÐµÐ½
ÑĭÐ¼ ÑĪÐ°
ĠÓ©Ð½ ÑĸÐ¼
ĠÐºÐµÐ» Ðµ
Ġ1 7
Ð½ÐµÑĢ Ð³
ĠÐ¾ Ð´Ð°Ð½
ĠÐ¶ÐµÑĢ Ð´Ðµ
i t
ĠÒĽÐ°Ð»ÑĭÐ¿ ÑĤÐ°Ñģ
ĠÐ¾ÑĢÑĭÐ½ Ð±Ð°Ñģ
Ðķ Ð»
Ðµ Ð³Ñĸ
Ñĥ Ð´Ñĭ
Ð²ÐµÑģÑĤ Ð¸ÑĨÐ¸Ñı
Ð¼ ÑĸÐ½
Ġ [
Ò£Ð³ ÑĸÐ¼
ĠÒĽ Ð°Ò£
Ðŀ ÑģÑĭ
ĠÐ±ÐµÑĢ Ð³ÐµÐ½
ĠÐ¶Ð°Ð» Òĵ
ĠÐºÐµÐ»ÑĸÑģ ÑĸÐ¼
ÑĨ Ð¸Ð¾Ð½
ĠÑı ÒĵÐ½Ð¸
ĠÒĽÐ°Ð¶ ÐµÑĤÑĤÑĸ
ĠÐºÐµÑĤ ÐºÐµÐ½
ĠÐ¼ Ó©Ð»ÑĪ
ĠÐ¼ Ð°Ð¼
ÑĤÐµÑĢ Ð½
ĠÐºÓ©Ò£ ÑĸÐ»
ĠÐ¾ÑĢÑĤ Ð°Ð»ÑĭÒĽ
ĠÑģ ÑĭÑĢÑĤ
ĠÐ¾Ð½ Ð´Ð°
ĠÒĽÐ°Ð» Ð°ÑģÑĭÐ½ÑĭÒ£
Ð¼ ÐµÐº
ĠÑģ ÐµÐº
ĠÑĤÓ©ÑĢ Ð°Òĵ
ĠÑģÐ°Ñı ÑģÐ°ÑĤ
ĠÐ´ Ð°Ñĥ
ĠÐ± ÐµÐ¹
ÒĽÐ¾ÑĢ Ð»ÑĭÒĽ
Ð¸Ñģ ÑģÐ¸Ñı
Ñĸ Ð³ÐµÑĢ
Ð´Ð°Ð¹ Ð´Ñĭ
ÑĸÐ½Ðµ Ð´Ñĸ
Ð¾Ð³ ÑĢÐ°ÑĦ
ĠÒ¯ Ð½
ĠÑħ Ð°ÑĤ
ĠÑĪÐ°ÑĢÑĥÐ° ÑĪÑĭÐ»ÑĭÒĵÑĭ
ĠÑĤ Ð¾Ð±
Ġ T
ÑĤÐ°Ð¼ Ð°
ĠÐ±ÑĸÑĢ Ð°ÒĽ
ĠÑĪÐµÑĤ ÐµÐ»
ĠÐ¶Ò¯Ð¹ ÐµÑģÑĸ
ĠÐºÓĻÑģÑĸÐ¿ Ð¾ÑĢÑĭÐ½
ĠÐ¾ÑĢÑĤ Ð°Ð»ÑĭÒĵÑĭ
ÑĭÑģ ÑĤÑĭÒĽ
ĠÐ± Ð¸Ð·Ð½
ÑĭÐ¼ Ð°Ð»
Ð°Ð»Ð°ÑĢ ÒĵÐ°
ĠÑģÐ°Ñı ÑģÐ¸
Ð°Ð±Ð°ÒĽ ÑĤÑĭÒ£
ĠÒĽ Ð°Ð·Ð°ÒĽÑģÑĤÐ°Ð½
ĠÑĢ ÐµÑĤÑĤ
Ð¾ÑĢ Ð»Ð°ÑĢ
ĠÒĽÐ°Ð» Ð°ÑģÑĭÐ½Ð´Ð°
. ,
Ð»ÐµÑĢ ÑĸÐ½
ĠÐºÓ©ÑĢ ÑĸÐ½
Ġ1 00
ĠÑĤ ÐµÐ¼
ÑĤÐ°Ð» Ð°Ð´Ñĭ
ĠÑģÐ°Ð» Ð°ÑģÑĭÐ½Ð´Ð°ÒĵÑĭ
Ð¸Ð´Ðµ Ð¾
ÐµÐ¼ ÐµÐ½
ĠÐºÓ©ÑĢÑģÐµÑĤ ÑĸÐ»ÐµÑĤÑĸÐ½
ĠÑĤÐ°ÒĽÑĭÑĢ ÑĭÐ¿
ÐµÒ£ Ð³ÐµÑĢ
ĠÑĤÐ°Ò£ Ð´Ð°
ĠÐº Ðµ
ĠÒĽÐ°ÑĢ ÑĭÐ¼
ÐµÑĤ ÐºÐµ
ĠÐ¡Ð¾Ð½ ÑĭÐ¼ÐµÐ½
ĠÐ°Ð»Ð´ ÑĭÐ½
ĠÒļ Ò±
ĠÐ´ Ð¸ÑĢÐµÐºÑĤ
ĠÑĪ Ð°Ð¼
Ð°Ñģ Ð°
ÒĽ Ð°ÑĤ
ÑĮ Ñİ
201 8
Ð¸Ð½ Ð°
ĠÐŁÑĢÐµÐ·Ð¸ Ð´ÐµÐ½ÑĤ
_ _
ĠÑĪÑĭÒĽ ÒĽÐ°Ð½
Ġ201 6
ĠÒĽÐ°Ð»ÑĭÐ¿ÑĤ Ð°ÑģÑĤÑĭÑĢÑĥ
ĠÑģÒ±ÑĢ Ð°ÒĽ
Ð°Ð» Ð´ÑĭÒĽ
ĠÐĺ Ð½
ĠÓ©ÑĤÐºÑĸÐ· Ñĥ
Â» .
ĠÑįÐ»ÐµÐºÑĤÑĢ Ð¾Ð½
Ð¿Ð°Ñģ Ó©Ð·
ĠÐ±ÐµÐ» ÑģÐµÐ½Ð´Ñĸ
ÑĤÐºÐµÐ½ Ñĸ
ĠÒ¯ ÐºÑĸÐ¼
ĠÐ¼ Ð¸Ð»Ð»
ĠÒĽÐ°ÑĢ Ð°Ð¿
ĠÐ·Ð°Ò£ Ð½Ð°Ð¼
ÑĭÐ¼ Ð´ÑĭÒĽ
Ġ I
Ð´Ðµ Ð»Ñĸ
ĠÒĽ Ò±Ð»
ÑĥÑĢ Ð½Ð°Ð»
Ð´Ñĭ Òĵ
ÐµÐ¹ ÑĤ
ĠÑĸÑģÑĤ ÐµÑĢ
Ð» Ð°Ð¿
ÑĤÐµ Ð³Ñĸ
ÑĤ Ð°ÑĤ
ĠÐ½ÐµÐ³ÑĸÐ· ÑĸÐ½Ð´Ðµ
Ð¾Ðº ÑĥÑĢ
ĠÐºÓ©Ð¿ ÑĤÐµÐ³ÐµÐ½
ĠÐ±ÐµÑĢ ÐµÑĤÑĸÐ½
ÐºÐµÐ½ ÑĤ
ÑĭÑģ Ð°Ð»Ñĭ
ĠÐ¶ÐµÐ» ÑĤÐ¾ÒĽÑģÐ°Ð½
ĠÐ±ÐµÑĢ ÑĸÐ»Ð³ÐµÐ½
ĠÑģÐ°Ð» ÑĭÐ½
Ð¹ ÑĤÐºÐµÐ½Ñĸ
ĠÐ¶ Ñĥ
ĠÓ©Ð· Ð°ÑĢÐ°
Ð± ÐµÑĤ
ĠÑĤ ÑĭÒ£
Òļ Ð°ÑĢ
Ġ .
ĠÐµÐ½Ð³ÑĸÐ· Ñĥ
ĠÐ°Ñĥ ÑĭÑĢ
Ñĥ ÑĪÑĭÐ»ÑĭÒĽ
Ðŀ ÒĽ
Ð« Òļ
ĠÓ©Ð» ÐµÒ£
Ð°Ð» ÑĭÐ¿
Ð¾ÑĢ Ð¸Ñı
ĠÐ¼Ð°Ð· Ð¼Ò±
Ð¼ Ð°ÒĵÐ°Ð½
ĠÐ±Ó©Ð» ÑĸÐ½
ĠÐ°Ð½ÑĭÒĽ ÑĤÐ°Ñĥ
ĠÑģÓ©Ð· Ð´ÐµÑĢ
ĠÐ¼ Ð°ÑĥÑģÑĭÐ¼
ÐµÐ¼Ð»ÐµÐº ÐµÑĤ
Ð± Ð°Ð¿
ĠÐ¶Ð°Ñģ Ð°Ð¿
ĠÐ±Ð°ÒĵÐ´Ð°ÑĢÐ»Ð°Ð¼ Ð°ÑģÑĭ
ĠÒĽÑĭÐ·Ð¼ ÐµÑĤÑĸÐ½
Ġ Ñĩ
ÐµÑĢ Ð»ÑĸÐº
ĠÐ±Ð¾Ð¹ Ñĭ
ĠÑģ ÑĸÐ»
ĠÐ¶ ÐµÐº
ĠÐ±Ð°Ð¹Ð»Ð°Ð½ ÑĭÑģ
ÓĻÑģ ÑĸÐ»
Ð°ÒĵÐ°Ð½ Ð´Ð°
ĠÐŀ ÑĤÐ°Ð½
ĠÐ¼ ÐµÒ£Ð³ÐµÑĢ
ÐĲ ÑģÑĤÐ°Ð½Ð°
ĠÑĢ ÐµÑģÐ¿ÑĥÐ±Ð»Ð¸ÐºÐ°Ð»ÑĭÒĽ
ĠÐ¾ Ð¿ÐµÑĢ
ĠÑĤÒ±ÑĢ Ð°Ð´Ñĭ
ĠÐ¶Ð°ÒĵÐ´Ð°Ð¹ Ð»Ð°ÑĢ
ĠÐ°ÒĽ ÑĭÐ½
ĠÑĤÐ°ÑĢÐ¸Ñħ Ð¸
Ġ N
ĠÐ¶Ð°Ñģ ÑĤÐ°ÑĢ
. )
a t
Ð°Ñĥ ÒĵÐ°
Ò¯ Ð·
ĠÐĲÒļ Ð¨
ĠÐ¾ÑĢ ÑĭÐ½Ð´Ð°Ñĥ
ÐµÐ´ Ð¶
Ð°ÑĨÐ¸Ñı Ð»ÑĭÒĽ
ĠÒĽÐ°Ð·Ð°ÒĽÑģÑĤÐ°Ð½ Ð´ÑĭÒĽ
ĠÑĪÐ°ÑĢ ÑĤ
ĠÑĤÐ°Ð» Ð´Ð°Ñĥ
ĠÐ¢ ÓĻ
ĠÒĵ Ð¾Ð¹
ĠÒĽÐ°ÑĢ Ð°ÑģÑĤÑĭÑĢ
ĠÒĽÐ°ÑĤÑĭÑģ Ñĥ
ĠÐºÐµÐ» Ð´Ñĸ
2 00
ĠÒĽÐ¸ ÑĭÐ½
ĠÒĽÑĭÐ·Ð¼ ÐµÑĤÑĤÑĸ
ĠÐ¿ ÑģÐ¸Ñħ
Ð´Ð°ÑĢ ÑĭÐ½Ð´Ð°
ÐĿ Ò±ÑĢ
ĠÐ°Ð¹ÑĤ ÑĤÑĭ
ĠÐ¾ÑĢÑĤ Ð°Ð»ÑĭÒĵ
ĠÐļ Ð¾Ð½
ÑĤÑĭÑĢ Ð°Ñĥ
ĠÐ¾ÑĢÑĭÐ½Ð±Ð°Ñģ Ð°ÑĢÑĭ
ĠÐº Ð¾ÑĢ
ĠÐ°Ð» Ð°Ò£
ĠÐ¼ÐµÐ´Ð¸ÑĨÐ¸Ð½ Ð°Ð»ÑĭÒĽ
ĠÒĽÒ±ÑĢ Ñĥ
ĠÒĽÒ±ÑĢÑĭÐ» ÑĭÑģ
ĠÑĤÓĻÐ¶ÑĸÑĢÐ¸ Ð±
Ðº ÑĥÑĢÑģ
Ðĳ ÑĸÐ·
ĠÐ´ Ð¾
Ð¼ ÐµÐ¹Ð´Ñĸ
ĠÐ· Ð¾ÑĢ
ĠÒĽ Ð°
ĠÐķ Ð³ÐµÑĢ
ÐµÐ¼ Ð¿
ÑĤÑĢ Ð°ÑĤÐµÐ³
Ð°ÑĢ ÑĤÐ°Ð¼
ĠÐ°Ð» Ð¼Ð°Ð¹
ĠÓĻÑģÐºÐµÑĢ Ð¸
ĠÐºÓ© Ð±
Ñģ Ò±Ð»ÑĤÐ°Ð½
ĠÑĤÐ°ÑĢÐ¸Ñħ Ñĭ
Ð¿ Ðµ
ĠÐķ ÑĥÑĢ
ĠÐ¸Ð½ ÑģÑĤÐ¸ÑĤÑĥ
ĠÐ°ÒĽ ÑĪÐ°
ÑĸÐ» Ð´Ðµ
Ðĳ Ð°Ð»
ĠÒĽÐ¾Ð»Ð´Ð°Ð½ Ñĥ
Ð°Ð¹ ÑĭÐ¼
ĠÐ°Ð» Ð°
Ð½ Ð´Ñĸ
ĠÐ°ÑĪ ÑĭÒĽ
ÑĤ Ò¯ÑĢ
h t
ÒĵÑĭ ÑĪ
Ġ201 5
ĠÐºÐ¾Ð¼ Ð¸ÑĤ
ÓĻÑĢ ÐµÐº
ĠÒĽÐ°Ò£ ÑĤÐ°ÑĢ
ÑĸÑģ ÑĸÐ½
i ÑĢ
ĠÐ½ ÓĻÑĢ
ĠÐ¾ Ð±ÑĬÐµÐºÑĤ
Ñģ Ð°ÑĢ
ĠÐºÐ¾Ð¼ Ð¿
ĠÑĤÒ¯ÑĢ Ñĸ
ÐĨ ÐĨ
Ð°Ð»Ð°ÑĢ ÑĭÐ½ÑĭÒ£
Ð°ÒĵÐ°Ð½ Ð´Ñĭ
ÐµÐ¼ ÑĸÐ½
Ġ B
ÒĽ Ð°Ð¹
ĠÐ´ Ð°Ð¹
ĠÓĻ Ò£Ð³ÑĸÐ¼
ĠÐ¡ ÑĸÐ·
ĠÑĤÐ°Ð» ÒĽÑĭÐ»
ÑĸÐ» Ñĥ
ĠÐ±Ð°Ñģ Ð¿Ð°ÑģÓ©Ð·
Ò£ ÑĤÒ¯ÑģÑĤÑĸÐº
ĠÐ¾ÑĢÑĭÐ½ Ð´Ð°Ð»
Ð¿ Ð¸
ĠÐ½ Ð¾ÑĢÐ¼
ĠÒĽÒ±ÒĽÑĭÒĽ ÑĤÑĭÒĽ
ĠÐ¼ÑĸÐ½Ð´ ÐµÑĤÑĤÑĸ
ĠÐ´ÐµÐ¿ Ð°ÑĢÑĤÐ°Ð¼
ĠÐ±ÐµÐº ÑĸÑĤ
Ðľ Ò±
ĠÑĤÓĻ ÑĥÐµÐ»
ĠÐľÒ± Ð½
i Ò£
Ð± Ð°ÑĢ
Ð´ÐµÐ» Ð³ÐµÐ½
ĠÑĤÐ°Ð½ ÑĭÑģ
ĠÒĽÐ°Ð±ÑĭÐ» Ð´Ð°Ð½
Ð´ ÑĢ
ÐµÐ¼Ð¿ Ð¸Ð¾Ð½
Ð°Ð²Ð» Ð¾
Ðº ÑĸÑĢ
ĠÑĤ ÑĸÐº
/ /
Ð»Ñĸ Ð³ÑĸÐ½
Ð± ÐµÐ½
ÐµÐº Ñģ
a l
ĠÑĤÓ©Ð» ÐµÐ¼
ĠÐ±Ð°Ð¹ ÒĽÐ°Ñĥ
Ðµ Ð´ÐµÐ»
ĠÐºÐµÐ·Ð´Ðµ Ñģ
ÑĪ ÑĭÒĽ
ĠÐ½ Ò±Ñģ
ĠÒĵ Ð°Ð»ÑĭÐ¼
1 5
ĠÑĤÐµÑħÐ½ Ð¸ÐºÐ°Ð»ÑĭÒĽ
ĠÒĽÐ¾Ð· ÒĵÐ°Ð»
Ð°Ð²Ð»Ð¾ Ð´Ð°ÑĢ
ĠÐ¾ÑĢ Ð°Ð¹
ĠÑĪ ÑĭÒĵÑĭ
ĠÑģÓĻ ÑĤ
ĠÑĤÐ°ÑĢ Ð°Ð¿
ĠÐ¾ÑĢ ÑĭÑģ
ĠÓĺ Ð»
ĠÐ¿ Ð¾
ĠÑĢ Ðµ
ÑĪ ÑĸÐº
ĠÐ± ÐµÑģ
ĠÐ¼ÓĻÑģÐµÐ» ÐµÐ»ÐµÑĢÑĸ
ĠÓ©Ð·Ð³ÐµÑĢ ÑĸÑģÑĤÐµÑĢ
ÑĢ Ð´
ĠÒĽ ÑĭÑģ
Ð¸Ñħ Ð°ÑĤ
ĠÑģÐ°Ñĥ Ð´Ð°
ÐºÐµÐ» Ð³ÐµÐ½
ĠÐ½ Ð°Ð·Ð°ÑĢ
ĠÐ±Ð¾Ð» ÑģÑĭÐ½
Ð´ÐµÑĢ Ð³Ðµ
Ð°Ð± Ñĭ
ĠÐ° Ðº
ĠÐ°Ð» Ð°ÑĤÑĭÐ½
ÑĸÐ¼ Ð´ÑĸÐº
ĠÐĳ Ð°Ð¹
ĠÐµÐ½ Ð´Ñĸ
ĠÐ¾ÑĢ ÑĭÐ½Ð´Ð°
ĠÐ¶Ò¯ Ðº
Ð¼ Ð°ÒĵÑĭ
Ġ C
ĠÐ´ Ð°Òĵ
ÑĥÑĪÑĭÐ»Ð°ÑĢ Ð´ÑĭÒ£
ĠÑĸÑģÑĤ ÐµÑĥ
ÑĭÒĵ ÑĭÑģ
Ñģ ÑĸÑĢ
ĠÒ¯Ð· Ð´ÑĸÐº
ĠÐ½ ÐµÑģ
ĠÐ· Ð°ÑĤÑĤÐ°ÑĢ
Ð°Ð¼ ÑĭÐ½
Ð¼ ÐµÐ¹
ĠÐº ÑĸÐ¼
ÑĤ Ð°Ð¹Ð´Ñĭ
ÒĽ Ò±
o l
ĠÐ°Ñģ Ð°
ĠÐ¶Ð°Ð¹ Ð»Ñĭ
ĠÐ¼ Ð°Ð»
ÐµÐ¼ Ð°ÑĤ
ĠÐ°ÑĥÑĭÐ» Ð´ÑĭÒĽ
ÐµÑĢ Ð»ÐµÑĢ
ÐµÐ» ÐµÐ¹
ĠÐ¾ ÑģÑĭÐ½Ð´Ð°Ð¹
ĠÑĪ Ð°ÒĵÑĭÐ½
ĠÑĸÑĢ Ñĸ
ĠÐº Ñĥ
Ðĳ Ð°Ñģ
ĠÒĽ Ð°ÑĪ
ĠÐ´ÓĻ ÑģÑĤÒ¯ÑĢ
ĠÐ¸Ð½ Ð²ÐµÑģÑĤÐ¸ÑĨÐ¸Ñı
ÐµÐ½ ÑĨÐ¸Ñı
ĠÑĤÓĻÑĢ ÑĤÑĸ
ĠÐ¼ÓĻÐ»ÑĸÐ¼ ÐµÑĤÑĤÐµÑĢ
Ð°Ñĥ Ð°Ð·
ĠÐĸ Ð¾Ð»
ÐµÐ»ÐµÑĢ ÑĸÐ½
ĠÑĥ ÓĻ
Òļ Ðŀ
ĠÐ¿ Ð°ÑĢÑĤ
3 0
ÑĭÐ» Ð¾ÑĢÐ´Ð°
Ð¸Ð½ Ð°ÑĢ
ĠÑģÐ¾Ð½ ÑĭÐ¼ÐµÐ½
Ð± ÑĭÑĢ
ĠÐµÑĤ ÑĸÐ¿
ĠÑģÑĤÐ°Ð½ Ð´Ð°ÑĢ
Òļ ÑĭÐ·
ĠÐ¼ ÑĥÐ·
ÐºÐ¾Ð½Ð¾Ð¼ Ð¸ÐºÐ°Ð»ÑĭÒĽ
Ð» ÑĭÒĵÑĭÐ½
ĠÐ¶ÑĭÐ» Ð´Ð°ÑĢÑĭ
Ð°Ð· Ð°
Ð¾ ÑĦ
Ð¶ Ð°Ð¹
ĠÐĸ Ð°ÑĢ
ÐµÐ½ ÑĤÑĸ
ĠÐºÐ¾Ð¼ Ð¸ÑģÑģÐ¸Ñı
ÑĥÑĢ ÑģÑĤÐ°ÑĢ
ĠÑĤÐµÐºÑģÐµÑĢ Ñĥ
ĠÑĤÒ¯Ñģ ÐºÐµÐ½
1 4
Ð¸ Ð´Ð°
Ðº ÓĻÑģÑĸÐ¿
Ġ ÑĨ
Ð¿ Ð°Ð»
Ñĥ Ð°ÑĢ
1 7
ĠÑģÒ±ÑĢ Ð°ÒĽÑĤÐ°ÑĢ
Ð¸Ñı Ð½ÑĭÒ£
ĠÐ¼Ð°ÒĽ Ð°Ð»
Ð»ÑĸÐº ÑĤÑĸ
Ð¾ ÑģÑĤÐ°Ð½
ĠÒĽÐ°Òĵ Ð°Ð·
ĠÓĻÑĢ Ð±ÑĸÑĢ
ÑĤÑĭ Ñģ
ĠÐķ Ò£
t p
Ð¶ ÑĭÐ»
ÑĸÐ»ÐµÑĢ Ñĸ
ĠÑĤÐµ Ð³ÑĸÐ½
ĠÒ® ÐºÑĸÐ¼
ĠÐ±ÐµÐº Ñĸ
ĠÐ¶Ð°Ñģ Ð°Ð»ÒĵÐ°Ð½
" ,
ĠÐĳ Ò±
ÓĻÑĢ Ð±Ð¸
ĠÐ±Ó©Ð» ÑĸÐ¼Ñĸ
ĠÑģÐ°Ð¹ ÑĤ
Ð°Ð ¸
ĠÐ¼ÐµÐ½ ÑĸÒ£
ÓĻÑģÑĸ Ð±Ð¸
ĠÑģ Ð°ÑĢÐ°Ð¿
ĠÑį Ð½ÐµÑĢÐ³
ĠÓĻÐºÑĸÐ¼ ÑĪÑĸÐ»ÑĸÐº
ÑĤÐµÑĢ ÑĸÐ½ÑĸÒ£
: //
Ð³Ñĸ ÑĤ
Ð¶ ÑĭÐ¼
Ð½ Ðµ
ĠÐ¶Ð¸ ÑĭÐ½
ĠÐ» Ð°ÑĥÐ°Ð·
ht tp
Ðľ ÐµÐ½
ÑĸÐº ÑĤ
ÐĲ Ð¡
ĠÐºÐµÒ£ ÐµÑģ
ÑĸÐ»Ñĸ Ð³ÑĸÐ½
ÐĲ Ñĥ
ĠÐ¿ÑĢ Ð¾ÐºÑĥÑĢ
ĠÐºÓ©ÑĢÑģÐµÑĤ ÑĸÐ»Ð³ÐµÐ½
ÑĤÐ°ÑĢ ÑĭÐ½ÑĭÒ£
ĠÐ¼ Ð¾Ð½
Ðļ Ó©
ĠÑĤÐ°ÑĢ ÑĤÑĥ
ÑĤÑĭ Ð¼Ð°ÒĽ
ÐĲ ÑĢ
ÐµÑĤÑĤ iÐº
Ð¾Ð² ÑĤÑĭÒ£
ĠÐºÐµÐ·Ð´Ðµ ÑģÑĥ
ĠÑģÐ°Ð» Ñĥ
d e
ĠÐµÑĤ ÐµÑĤÑĸÐ½
Ò±Ð¼ ÑĭÑģ
ĠÐ¼ÓĻÐ´ÐµÐ½Ð¸ ÐµÑĤ
ÐĲ Ð¢
Ð¿ Ð°Ð·
Ð°ÑĤÐ¸Ð² ÑĤÑĸÐº
ĠÐ¶ÐµÐ¼ ÒĽÐ¾ÑĢÐ»ÑĭÒĽ
Ð°Ð½ Ð°
ĠÐ± ÑĸÑĤ
a z
ĠÐ¼Ð°Ò£ÑĭÐ· Ñĭ
ĠÒĽÐ¾Ñģ ÑĭÐ¼ÑĪÐ°
ĠÑĪ Ñĭ
ĠÐºÐµÐ¹ Ð±ÑĸÑĢ
ÓĻ Ð¹
1 6
ĠÓ©Ð½ Ð´ÑĸÑĢÑĥ
Ð´Ð° ÒĵÐ°Ð½
Ð¸ ÒĵÐ°
ĠÑĦ Ð°ÐºÑĤ
ĠÐ±ÑĸÐ» Ñĥ
ÐµÑĤÑĤÐµÑĢ ÑĸÐ½
ÑĭÐ¼ ÐºÐµÐ½ÑĤ
ĠÐµÐ» Ð´ÑĸÒ£
Ð°ÑĤ ÑĢ
ĠÐ¶ÐµÑĤ ÐµÐº
Ó¨ Ð·
ĠÐ± ÐµÑĤÑĸÐ½
ÐµÐ¹Ð½ ÐµÑĤ
ĠÐ¶ ÑĥÑĢÐ½Ð°Ð»
ĠÐºÓ©ÑĢÑģÐµÑĤ ÐºÑĸÑĪ
ĠÐºÐµÐ» ÐµÑģÑĸ
ĠÑĤÒ¯ÑĢ Ð»ÐµÑĢÑĸ
ĠÐ¶Ò±Ð¼ ÑĭÑģÑĤÐ°ÑĢÑĭ
ÐºÐ° Ð´ÐµÐ¼
ĠÐ¶Ð°ÑĤ Ð°Ð´Ñĭ
ĠÐ¡Ð¾Ð½ Ð´Ð°Ð¹
ĠÒĽÐ°ÑĢ Ð°Ð¶
Ð¾Ð» ÑĮ
ĠÐŁÑĢÐµÐ·Ð¸ Ð´ÐµÐ½ÑĤÑĸ
ÑĤÐ°ÑĢ Ð»ÑĭÒĽ
ĠÐ¿ÑĢ ÐµÐ·Ð¸
ĠÐ°ÑĢ Ð°Ð»
ĠÑįÐºÐ¾Ð½Ð¾Ð¼ Ð¸Ðº
ĠÓ©ÑĤÑĸÐ½ ÑĸÑĪ
ĠÐ¶Ó©Ð½ ÑĸÐ½Ð´Ðµ
ĠÐľ ÓĻÑģ
ĠÓ©ÑĤÐµ Ð´Ñĸ
ĠÒĽÐ°Ð» Ð°Ð»ÑĭÒĽ
ÑĭÐ¼ÑĭÐ· Ð´ÑĭÒ£
ĠÐ±Ð°Ñģ ÑĤÐ°Ñĥ
Ð´Ñĸ Ð³ÑĸÐ½ÑĸÒ£
ĠÐ¶Ð°Ñģ Ð°ÒĵÐ°Ð½
ĠÐ· Ð¸Ñı
ĠÑĩ ÐµÐ¼Ð¿Ð¸Ð¾Ð½
ĠÐ¸Ð½ ÑĦ
ĠÐ± Ó©
Ġ2 4
ÑħÐ°Ð½ Ð°
ÐµÐº ÑĤÐµÐ¿
ĠÑĤÒ¯Ñģ ÑĸÑĢ
ĠÐº ÐµÑĢ
ĠÑĪÐ°ÑĢÑĥÐ° ÑĪÑĭÐ»ÑĭÒĽ
ÑĸÐ¼ Ð½ÑĸÒ£
2 5
Ð½ Ð¾Ð²
ÐµÑģÑĤ ÐµÑĢ
ĠÑģ Ð¾Ð¼
Ðķ Ð¢
ĠÐ½ Ð°ÑĥÑĢÑĭÐ·
ĠÑĤÐ¸ ÑĸÑģÑĤÑĸ
ĠÓĺ Ð±
ĠÐ±ÐµÑĢ Ñĸ
ÑģÑĤÐµÐ¼ ÐµÐ»ÑĸÐº
ĠÐĲ Ð±Ð°Ð¹
ĠÐ´ Ð¾Ð»
Ð» ÐµÑĤ
ĠÐ¶Ð¾Ð» Ñĭ
ĠÒĽÒ±Ð½ Ð´Ñĭ
ĠÑĤÓ©Ð» ÐµÑĥ
ĠÐ´ÐµÐ½ ÑģÐ°ÑĥÐ»ÑĭÒĽ
Ðĸ Ð°Ñģ
Ðµ Ñı
Ð¼ Ð°ÑĤ
ĠÒĽÐ°Ð· Ð°Ð½
ĠÐ°ÑĥÐ´Ð°Ð½ ÑĭÐ½ÑĭÒ£
ĠÐ°ÑĢ Ð°Ð»ÑĭÒĵ
ÓĻ Ð¼
ĠÑĦ Ð¾ÑĢÐ¼
ĠÑĪÑĭÒĵÐ°ÑĢÐ¼Ð° ÑĪÑĭÐ»ÑĭÒĽ
1 3
i k
ĠÐ¼Ð» ÑĢÐ´
Ġ P
Ð¹ ÑĢ
ÒĽ ÑĭÑĢ
Ð¸Ð¼ Ð°ÑĢ
ÑĢÑĤ Ð°Ð»ÑĭÒĽ
Ð°Ñĥ ÑĭÑĢ
ĠÐļ ÐµÒ£
Ð¸Ð» ÑĮ
ĠÑĢÑĥ ÑħÐ°Ð½Ð¸
ĠÓĻÐºÑĸÐ¼ ÑĸÐ½ÑĸÒ£
Ðľ ÐµÐ¼Ð»ÐµÐºÐµÑĤÑĤÑĸÐº
Ñģ ÐµÐº
ĠÑĤÐ°ÒĽÑĭÑĢÑĭÐ± Ñĭ
Ò±ÑĢ ÑĤ
ÒĵÐ°Ð½ Ð´Ð°
ÑĭÐ» ÑĥÑĭ
ĠÒļ Ð°Ð¹
Ð°Òĵ ÑĭÐ¼
ĠÓ©Ð½ ÑĸÐ¼Ð´ÐµÑĢ
ÐµÑĦ Ð¾Ð½
ĠÐµ ÑģÑĤ
Ðĳ Ò¯Ð³ÑĸÐ½
Ð¡ Ð°Ð±Ð°ÒĽÑĤÑĭÒ£
ĠÐ° ÑĤÑĭ
o m
ĠÐ¶ÐµÒ£ ÑĸÐ»
Ð´ Ñĥ
ĠÒĽÒ±Ð¶ Ð°ÑĤ
ĠÐµÐ» ÑĸÐ¼ÑĸÐ·
ĠÐ¶Ð°Ð· Ñĥ
ĠÒĽÐ°Ð» Ð´Ñĭ
ĠÑħ Ð°Ð½
Ġ2 3
ĠÐ°ÑĢ ÑĤÑĭÒĽ
Ð°Ñģ ÑĤÐ°Ð½
ĠÐµÐ» Ð´ÐµÑĢ
ĠÐ¼ÐµÑĢÐ· ÑĸÐ¼
Ðķ ÐĿ
ĠÐ¾Ð±Ð»ÑĭÑģ ÑĭÐ½Ð´Ð°
% -
ĠÐĸ Ð°Ò£Ð°
Òļ Ð°Ð·
Ð´Ð° ÒĽ
ĠÐ¿ Ð°ÑĤ
ĠÒ±Ð» ÑĤ
ĠÑĤÒ¯ ÑģÑĤÑĸ
ÑĤÐµ ÑħÐ½
ĠÐ±Ð°Ñģ ÑĤÐ°Ð´Ñĭ
Ð´ÑĭÒĽ ÑĤÐ°ÑĢ
ĠÐĲ Ð½
ÑĥÐ»ÑĮ ÑĤ
ĠÒĽ Ð°Ð·ÑĸÑĢ
Ñı Ð½
ĠÐ¼Ð°Ð¼ ÑĭÑĢ
Ð¼Ð°Òĵ ÑĭÐ½Ð´Ð°
Ñģ Ð°Ð¼
ĠÐļ Ð¾Ð¼
ĠÑģÓ©Ð¹ Ð»
ĠÐº ÐµÑĤÑĤÑĸ
ĠÐ ¯
ĠÓĻ Ñĥ
ÑĪÑĭÐ» ÑĭÒĵ
Ð´ ÐµÑĤ
ĠÒĽÐ°Ð¼ ÑĤÑĥ
ĠÐº Ð°ÑĢÑĤ
Ð°Ñģ ÑĭÐ½Ð°Ð½
ĠÐ°Ð¹ÑĤÑĥ ÑĭÐ½ÑĪÐ°
ĠÓĻÑĢ ÑĸÐ¿
ĠÐ¼Ó©Ð»ÑĪ ÐµÑĢ
I I
Ó©Ð· Ñĸ
Ð¿ Ð°ÑĢÑĭ
Ġ5 0
ÑĤÑĭÐ¼Ð°ÒĽ ÑĤÐ°Ñģ
ĠÑĤÓĻÑĢ ÑĤÑĸÐ¿
ĠÐĲ Ð·Ð¸Ñı
ĠÐ°Ð»Ð´ ÑĭÐ½Ð´Ð°
ĠÑĤÑĸÑĢ ÐºÐµÑĥ
ĠÐ´ ÐµÑĢ
Ġ M
ĠÐ±ÐµÐ» Ð³Ñĸ
ĠÐ¼Ð¸Ð»Ð» Ð¸Ð¾Ð½
ĠÑħÐ°Ð»ÑĭÒĽ ÑĤÑĭÒ£
Ð±Ð°Ð¹ Ð»Ð°Ñģ
ĠÐ¾ÑĢ Ð½Ñĭ
ĠÒĽÐ¾ Ñİ
Ð°ÑĢ Ð´ÑĭÒ£
ÐµÐ¹ ÑĸÐ½
ĠÐ¶Ñĸ Ð³ÑĸÑĤ
Ð¸Ð¼ ÑĭÐ»
ĠÐ¸ Ð´Ðµ
ĠÓ© ÑĤÑĥ
ĠÐ¶Ð°ÒĽ ÑĭÐ½
ĠÒļ Ð¾ÑĢ
ĠÐºÑĥ ÓĻ
ĠÑĪÑĭÒĵÐ°ÑĢ Ñĥ
ÑĭÒĽ ÑĤÑĭÒĽ
ĠÐ± Ð°ÑıÐ½
ÒĽ Ð°ÑĤÑĭÐ½Ð°Ñģ
Ð°Ò£ ÒĵÑĭ
ĠÑĤÐ°Ð± ÑĭÑģ
Ð¨ Ð¡
ĠÐ±Ð¾Ð» Ð°
ĠÐĿÒ±ÑĢ ÑģÒ±Ð»ÑĤÐ°Ð½
ĠÐº Ð¾Ð»
ÐµÐ¹ ÑĸÐº
ĠÐµÑģ ÐµÐ±
Ġ Ð°Ð±
ÑĢ ÐµÐ´
ĠÐµÑĢÐµÐºÑĪ ÐµÐ»ÑĸÐº
Ð°Ð» Ð°Ð¹
ĠÐ´ÓĻÑĢ ÐµÐ¶
Ð» ÐµÐ½
ĠÑģÑĸÐ» ÑĤÐµÐ¼
ĠÑĤ ÓĻÑģÑĸÐ»
Ò±Ð» Ð´Ñĭ
ĠÐ´ÓĻÑĢ ÑĸÐ³ÐµÑĢ
ÐĶ ÐĲ
ĠÐĸ Ð°Ð½
ĠÑĤÓĻÑĢÐ±Ð¸ Ðµ
ĠÑĦ ÑĥÐ½
ĠÓĻ Ð»Ñĸ
ĠÐº ÐµÐ¿
ÑģÑĭÐ» Ð°Ð¹
ĠÐºÓ©Ð»ÐµÐ¼ Ñĸ
ĠÒĽÑĭÑĢ ÐºÒ¯Ð¹
ÐµÑģÑĤ ÑĸÐº
ĠÑĪÑĭÒĵ ÑĭÐ½
ĠÐ°ÒĽ ÑĪ
Ð¾Ð» Ð°
ÒĵÐ°ÑĢ ÒĵÑĭ
Ð¼ Ð°Ð¹Ð´Ñĭ
ĠÐ¶Ð¾Ñģ Ð¿Ð°ÑĢÑĭ
ĠÑĤÐ°Ð±Ð¸Òĵ Ð¸
Ð¸Ð¼ Ð¿Ð¸
ĠÐ¶Ð¸Ð½ Ð°ÒĽ
Ð°Ð» Ð°ÑĤÑĭÐ½
ĠÐº ÓĻÑģÑĸÐ±Ð¸
ĠÑĪ ÑĭÒĽÑĤÑĭ
ĠÑģ Ð°ÑĢ
ĠÐŀ Ð»Ð°ÑĢÐ´ÑĭÒ£
ĠÑģÐ°Ð¹ ÑĤÑĭ
ĠÒļÐ°Ð·Ð°ÒĽÑģÑĤÐ°Ð½ Ð´Ð°
ĠÓ©Ò£ Ð´ÐµÑĥ
Ð»Ð°ÑĢ ÒĵÐ°
ÑĭÑĢ ÑĭÐ¼
ĠÐ±ÐµÑĢ ÑĸÐ»ÐµÐ´Ñĸ
ÑĦÐµÑĢ ÐµÐ½ÑĨÐ¸Ñı
ĠÐĳ ÑĸÐ»ÑĸÐ¼
a s
ĠÐºÓ©ÑĢ Ð¼
ĠÐ°Ð¹ ÒĽÑĭÐ½
ĠÐ¼ ÐµÐ¹
Ñı ÑĢ
ĠÑĤ ÐµÑģÑĤ
Ñģ Ð»Ð°Ð¼
ÐµÑĤÑĤ ÐµÐ½
Ð»ÐµÑĢ Ð´ÑĸÒ£
ĠÐ°ÑĤ Ð°Ð»ÒĵÐ°Ð½
ĠÐ¶Ð°Òĵ ÑĭÐ½Ð°Ð½
ĠÐ¼ Ð¾Ð»
ÑĪ ÑĸÐ»ÑĸÐ³Ñĸ
Ò±Ð»Ð´Ñĭ Ð·
Ðŀ ÑĢ
ĠÐ°ÑĤ Ð°Ñĥ
ĠÐ±Ð¸Ð·Ð½ ÐµÑģ
ĠÒ±Ð· Ð°ÒĽ
ĠÑĤÐµÑĢ ÐµÒ£
ÒĵÐ° Ð´Ñĭ
ĠÐ¶ÑĭÐ» Ð´Ð°ÑĢ
ĠÐ¶Ð°Ñģ ÑĤÐ°ÒĵÑĭ
ÑĭÑĢ Ð°ÒĽ
ĠÐĸ Ð¨Ð¡
ĠÑĤÒ¯ Ð·
ÑĤÐµÑĢÐ½ ÐµÑĤ
ĠÐĲÐ» Ð°Ð¹Ð´Ð°
ĠÐ°Ð³ ÐµÐ½ÑĤ
ĠÑĤÓĻÑĢÐ±Ð¸ ÐµÐ»ÐµÑĥ
Ðĳ Ð°ÑģÑĤÑĭ
Ð»Ð°ÑĢ ÑĭÐ½ÑĭÒ£
ĠÑĤ Ð¾Ð¹
ĠÐº ÐµÑģÑĤ
ĠÐ±ÓĻÑĢ Ñĸ
âĢ ľ
ĠÐºÓĻÑģÑĸÐ¿ ÐºÐµÑĢÐ»ÑĸÐº
ĠÑģ Ð°Ð±
Ñĥ Ð´ÑĭÒ£
ĠÑĤÒ¯ÑģÑĸÐ½ ÑĸÐº
ĠÒ¯Ð» Ð³Ñĸ
iÐ½ Ð´Ðµ
Ð¸Ð² ÑĤÑĸ
ĠÐ· ÐµÐ¹Ð½ÐµÑĤ
ÐĨ ÐĿ
ĠÒļ ÑĭÑĤÐ°Ð¹
ĠÐ°ÒĽ ÑĭÐ»
Ġ Ð°Ð¼
ĠÑĭÐ½ ÑĤÑĭÐ¼Ð°ÒĽÑĤÐ°Ñģ
ĠÐ´ Ð¸
ÐµÐ³ÑĸÐ· Ð³Ñĸ
ĠÐ±Ð°ÑģÒĽÐ°ÑĢÐ¼ Ð°ÑģÑĭ
w s
Ð¸ÑĤ Ð¾ÑĢ
ĠÒĵ Ð¸Ð¼Ð°ÑĢ
ĠÑĤÐµÐ» ÐµÑĦÐ¾Ð½
ĠÐ±ÐµÐºÑĸ ÑĤÑĥ
ĠÑĤÒ±ÑĢ Ð°ÑĤÑĭÐ½
ÐºÑĸ ÑģÑĤÐ°Ð½
Ð ¯
ĠÒĽÒ± ÑĤÑĤÑĭÒĽ
Ð°Ð¹ ÑĭÒĽ
Ð»Ñĸ Ð³ÑĸÐ½ÑĸÒ£
ĠÐŀ Ð½
ĠÐ± Ð°Ð·
ĠÒ±ÑģÑĤ Ð°Ð·
ĠÑĪ ÐµÐ±
ĠÑĢÐµÑĤÑĤ ÐµÑĥ
ĠÑģÓĻ ÑĥÑĸÑĢ
Ðķ ÑĢ
ÑĤÐ° ÑĨÐ¸Ñı
ĠÒĽÐ¾Ñģ Ð°
Òļ Ðł
Ġ2 2
Ð°Ð¼ Ð±ÑĭÐ»
ĠÐµÐ» ÑĸÐ¼ÑĸÐ·Ð´ÑĸÒ£
ÑĤÑĭ Òĵ
ĠÐĲ Ñģ
ĠÐĲÐ» Ð»Ð°
ĠÑģÑĭÑĢÑĤ ÒĽÑĭ
ĠÑĭÒĽ Ð¿Ð°Ð»
ĠÑĢ Ò±ÒĽ
ÒĽ Ò±Ð»
Ð¶ ÐµÑĤ
Ñĭ ÒĵÐ°Ð½
ĠÐº Ð¾Ð´
ÑĭÒ£ ÒĵÐ°Ð¹
ÐµÐ³ ÑĸÐ½Ð´Ðµ
ĠÐ± Ð°ÑĤÑĭÑĢ
ĠÐ¸ Ð¼
ĠÓ©ÐºÑĸÐ» Ð´ÐµÑĢÑĸ
ÑĪ ÐµÐº
ĠÑĪ ÑĸÐ»Ð´Ðµ
ĠÐ°Ð¹Ð½Ð°Ð» ÑĭÑģ
ĠÐķ Ñģ
Ð¼ ÐµÑĢ
ĠÐ±Ð°ÒĵÑĭÑĤ ÑĤÐ°Ð»ÒĵÐ°Ð½
ĠÐ´Ð¸ÑĢÐµÐºÑĤ Ð¾ÑĢÑĭ
ĠÐºÒ¯ÑĢ ÐµÑģ
ĠÒĽÑĭÐ» Ð¼ÑĭÑģÑĤÑĭÒĽ
ĠÑįÐºÐ¾Ð½Ð¾Ð¼ Ð¸ÐºÐ°
ĠÐ¶ÑĭÐ» Ð´ÑĭÒĽ
ĠÐ°Ñģ Ð¿
e s
ĠÑĤÑĸÐº ÐµÐ»ÐµÐ¹
ĠÐ¿Ð°Ð¹ Ð´
ĠÐ±Ò¯ ÐºÑĸÐ»
ÑĭÑģ ÑĭÐ½Ð°
ÐµÐ»ÐµÑĢ ÑĸÐ½ÑĸÒ£
Ġ K
ĠÐ¶ Ò±
Ð°Ð¹ ÑĤÑĥ
Ð¸ Ð¾
ĠÐºÐ¾Ð¼Ð¼ ÑĥÐ½
Ð¶ Ð°ÑĢ
ĠÑĤ ÑĭÑģ
ĠÐ°Ð´Ð°Ð¼ Ð´Ð°ÑĢÐ´ÑĭÒ£
Ðĺ Ð½
ÑĭÐ» Ñĥ
ĠÐ±Ð°ÑĢ Ð»ÑĭÒĵÑĭ
ĠÐ°Ð¹ ÑĭÐ½Ð´Ð°
ÑĤÐ°ÑĢ ÑĭÐ½Ð°
ĠÒĽÐ°ÑĤ ÑĤÑĭ
ĠÐ±ÐµÐ»Ð³ÑĸÐ» ÐµÐ½Ð³ÐµÐ½
ĠÐ¶Ð°ÑĢ ÑĭÒĽ
ÑĭÑģÑĤ Ð°
Ð´ Ð¸Ñı
ĠÐº ÐµÑģ
ÑĤÒ¯ÑĢ Ð»Ñĸ
ÑĪ ÑĸÐ½ÑĸÒ£
ĠÐ± ÓĻÑģ
ÐµÐ¹ ÑĤÑĥ
i p
ÐµÒ£ Ð±ÐµÑĢ
ĠÐľ ÑĭÑģÐ°Ð»Ñĭ
ĠÑħÐ°Ð»ÒĽ ÑĭÐ½ÑĭÒ£
Ð» Ð¾Ð¼
ÑĸÑģ ÑĸÐ½ÑĸÒ£
ĠÐ¶Ð°ÑĥÐ°Ð¿ ÐºÐµÑĢ
Òļ Ò±ÑĢ
Ð°ÑĤÑĤÐ°ÑĢ Ñĭ
ĠÑĤÓ© ÑĢÑĤ
ĠÑĪÐµÑĪ Ñĥ
Ð´ÑĭÑĢ ÑĭÐ»ÒĵÐ°Ð½
ĠÑĪÑĭÒĵÑĭ Ð¿
ÐµÐº ÐµÐ»
ĠÐ± ÑĭÐ»
Ð¸ÑģÑĤ ÐµÑĢ
Ð»Ð°Ð½ Ð´ÑĭÑĢÑĥ
ÐĶ Ð«
00 0
Ð°Ð½ ÐºÑĤ
Ð¸ÑģÑĤ ÑĸÐº
ÐĨ Ðľ
ĠÒ± Ð¼
ĠÐĲ ÑģÑĤÐ°Ð½
Ð¡Ð¾Ð½ ÑĭÐ¼ÐµÐ½
Ñģ ÑĭÐ½Ð°
ĠÐ¼ ÓĻÑĢ
Ðº ÐµÑĤ
Ġ- -
ĠÓĻ ÐºÐµÐ»
) ;
Ð°Ð½ ÑĤ
Ðķ Ðļ
ĠÓ©Ð· ÑĸÐ½Ðµ
âĢ ¢
ĠÐ±ÐµÑĢ ÑĸÐ¿
ĠÐ±Ð¾Ð»Ð¼ Ð°Ð¹Ð´Ñĭ
ĠÐ¼Ò±Ð½ Ð´Ð°Ð¹
Ð± Ð°Ð±
ĠÐ¾ÒĽÑĥ ÑĪÑĭ
ĠÐ´ÐµÐ¿ ÑĥÑĤ
ÑĭÐ» Ð°ÑĢ
ĠÐ±Ó©Ð»ÑĸÐ¼ ÑĸÐ½ÑĸÒ£
Ð°Ñģ ÑĭÐ¼ÐµÐ½
ĠÐºÐµÐ» ÐµÑĤÑĸÐ½
Ð½ ÐµÐº
ĠÐ¡ Ð¾
Ð°ÑĤ Ð¾ÑĢ
Ð¾ÑĢ ÑĥÐ¼
ĠÐĲÒĽ ÑĤÓ©Ð±Ðµ
Ġ2 7
i l
ĠÐ´ÐµÐ¿Ð°ÑĢÑĤÐ°Ð¼ ÐµÐ½ÑĤ
ĠÐ¶ÐµÑĢ Ð»ÐµÑĢ
ĠÐŁ Ð°ÑĢ
Ð¸Ð½ Ðµ
ĠÐ¶Ñĥ ÑĭÒĽ
ÑĤÐµÑĢ Ð»ÑĸÐº
ĠÐ¶ ÑĭÑĢ
ĠÑĤ Ð°
ĠÐĸ Ð¾
iÐ½ iÒ£
ĠÐĳ Ò¯Ð³ÑĸÐ½
ĠÐ°Ð²ÑĤ Ð¾Ð¼
ÒĽÐ° ÑĪ
ĠÒĽÐ°Ð½ Ð°
ÑĸÐ»Ð´Ñĸ ÑĢÑĥ
ĠÒļ Ð°Ð·ÑĸÑĢÐ³Ñĸ
ĠÑĤÓ©ÑĢÐ°Òĵ Ð°ÑģÑĭ
ÑĥÑĤ Ð±Ð¾Ð»
ĠÐ¼ ÐµÑĤÑĢ
Ġ201 4
ĠÑģÐ°Ð» ÑĭÑģÑĤÑĭÑĢ
ÐĲÒĽ Ð¿Ð°ÑĢÐ°ÑĤ
ĠÐ¶ ÓĻÑĢ
ĠÐ°ÑĢÐ°Ð»ÑĭÒĵ ÑĭÐ½Ð´Ð°
ĠÐ¢ Ð°ÑĢ
ĠÒĽÐ°Ñĥ ÑĭÐ¼
ĠÐºÐ¾Ð½ ÐºÑĥÑĢÑģ
ĠÐ±Ð°ÑģÒĽÐ°ÑĢÐ¼ Ð°ÑģÑĭÐ½ÑĭÒ£
Ðĸ Ð°Ò£Ð°
ĠÐ´ÓĻÐ» ÐµÐ»
ĠÐ± Ðµ
ĠÑĢ ÐµÑĦ
Ð« ÐĽ
ĠÑģÐ°Ð¹ Ð»Ð°Ñĥ
ĠÑĤ Ð¾Ð½
ĠÐ±Ð°Ñģ ÑĪ
or g
ĠÒ±Ð» Ñĭ
ĠÐĲ Ð´Ð°Ð¼
ÑĪ Ð°ÒĵÐ°Ð½
Ð¾Ð» ÑĭÒĽ
Ð»Ð°Ð¼ ÐµÐ½ÑĤ
Ñħ Ð°Ð¼
e di
ĠÐ´Ð°Òĵ Ð´Ñĭ
ĠÐ¼Ð°ÒĽ Ñģ
Ñį ÐºÐ¾Ð½Ð¾Ð¼Ð¸ÐºÐ°Ð»ÑĭÒĽ
ĠÐ±Ó©Ð» Ñĸ
ĠÓ¨ Ð¹ÑĤÐºÐµÐ½Ñĸ
ĠÐĸ ÐµÑĢ
ĠÐµÑĤ ÑĤÑĸ
Òĵ ÑĭÐ½ÑĭÒ£
ĠÐ¼Ð°Ð·Ð¼Ò± Ð½
ĠÐ±ÑĸÑĢ ÐµÑĥ
ĠÐ¼Ò¯ Ð´
ĠÑģ ÑĤÑĢÐ°ÑĤÐµÐ³
ĠÑĤÒ¯ Ð¹
ĠÐ¾ÒĽÑĥÑĪÑĭÐ»Ð°ÑĢ Ð´ÑĭÒ£
ÒĽ Ð°Ñģ
ĠÐ±Ó©Ð» ÑĸÐ³Ñĸ
ĠÑĪ ÐµÒ£Ð±ÐµÑĢ
ĠÒ¯Ð¹ÑĢ ÐµÐ½
ĠÑģÐ°ÒĽ ÑĤÐ°Ð½Ð´ÑĭÑĢÑĥ
ÐĲ ÐĹ
ÑĪÑĭÐ»Ð°ÑĢ Ð´ÑĭÒ£
ÑĤÐ°Ð» ÑĭÐ¿
Ð· Ð°Ð¼
ĠÐ±Ð¾Ð» Ð°ÑĪÐ°ÒĽ
ĠÐŀ Ò£ÑĤÒ¯ÑģÑĤÑĸÐº
ĠÐ¶ÐµÑĤÐºÑĸÐ· Ñĥ
ĠÒ± ÒĵÑĭÐ¼
ĠÐºÐ¾Ð¼ Ð°Ð½Ð´
ĠÒĽÒ±ÑĢ Ð°Ð¹Ð´Ñĭ
ĠÒĽÑĭÐ·Ð¼ÐµÑĤ ÑĸÐ½ÑĸÒ£
ĠÑģÐ°Ð» Ð°
ĠÒĽÐ°Ð¶ ÐµÑĤÑĤ
ĠÐ¾ÒĽ ÑĭÐ¿
ĠÐ³ Ðµ
ĠÐºÐ¾Ð½ ÑĨ
ĠÑģ ÑĭÑĢ
ĠÐ¶ÐµÑĤ ÑĸÐ»Ð´ÑĸÑĢÑĥ
ĠÐºÓ©Ð¼ ÐµÐºÑĤ
ĠÐ´ÑĸÐ½ Ð¸
ĠÐ¶ Ð°Ð¿
Ð¶ Ð°ÒĽÑĤÑĭ
Ð°Ð» ÑĭÑģ
Ġ2 8
Ð´Ð°ÑĢ Ð¼ÐµÐ½
ĠÑģÐ°Ð½ Ð°ÑĤÑĭ
Ð°ÒĽÑĭ ÑĤÑĭ
ĠÐ°Ð» ÑĤÑĭÐ½
Ġ W
ÐµÐ´ ÑĢ
ĠÒĽÐ°ÑĢÐ¶ ÑĭÐ»ÑĭÒĽ
ĠÐĸ Ð°Ñģ
Ð¸Ñı ÑģÑĭÐ½ÑĭÒ£
ĠÒĽÐ°ÑĥÑĸÐ¿ ÑģÑĸÐ·Ð´ÑĸÐº
ÐºÐµÑĢ Ñĸ
ĠÐ¥Ð°Ð»ÑĭÒĽ Ð°ÑĢÐ°Ð»ÑĭÒĽ
ĠÐ°Ð¹ ÑĭÐ¿
ĠÐ°Ñĥ ÑĭÐ·
Ð¶ Ð¾Ð»
ĠÑĤ Ð°Ð¼ÑĭÐ·
ĠÑį ÑĤ
ĠÐºÓ© Ðº
ĠÐ¾ÑĤ Ð±Ð°Ñģ
ÐµÑĢÑĤ ÑĤÐµÑĥ
ĠÐ¶Ò¯Ð¹ ÐµÑģÑĸÐ½
ĠÓ© Ðº
âĢĿ ,
ÑĤ Ð¾ÑĢ
ĠÑĤÒ±Ð» ÒĵÐ°
ĠÑĤ ÑĢ
ĠÐ¼ÐµÐºÑĤÐµ Ð±
Ð°Ð» Ñİ
ĠÒ¯ ÑĢ
ĠÒ±ÑĢ Ð¿Ð°ÒĽ
ĠÐĸ Ð°Ð»Ð¿Ñĭ
ĠÐŀ ÑĢÑĤÐ°Ð»ÑĭÒĽ
ĠÑĪÐ°ÑĢ Ð°Ð»Ð°ÑĢ
ĠÒĽÐ°ÑĢÐ° ÑĪÐ°
Ġ2 6
Ð°Ð½ Ð´ÑĭÑĢÑĥ
ÑĨ Ð¸Ð¿
ĠÑĤÒ¯ÑģÑĸÐ½ Ð´ÑĸÑĢ
ĠÐ¼Ò±Ð½ Ð°Ð¹
ĠÐ¾ÑĤ Ð±Ð°ÑģÑĭ
ĠÐĳ Ð¸
Ġ4 0
ĠÐ±Ð°Ð¹ ÒĽ
Ð´Ð° Ð´Ñĭ
Ð°Ð½ Ð´ÑĭÒĽ
ĠÐºÓ©ÑĢÑģÐµÑĤ ÐµÐ´Ñĸ
ĠÒĽÒ±ÑĢÑĭÐ» ÑĭÑģÑĭ
ĠÒĽÐ°ÑĢ Ð°Ñĥ
201 6
Ð¸Ð¿ Ð»Ð¾Ð¼
ĠÐ¼ Ð¾
ĠÐ° ÐºÐ°Ð´ÐµÐ¼
ĠÐ¼Ð¸Ð½Ð¸ÑģÑĤÑĢ Ð»ÑĸÐ³Ñĸ
ÒĽÑĭ ÑĪ
ĠÑĥ Ñĩ
ĠÐ±Ð¸ ÑĭÐ»
Ð´Ñĭ ÒĵÑĭÐ½
ĠÐºÒ¯Ð½ Ð´Ðµ
ĠÐ¶Ò±Ð¼ÑĭÑģ Ð¿ÐµÐ½
ĠÑįÐ»ÐµÐºÑĤÑĢÐ¾Ð½ Ð´ÑĭÒĽ
ĠÐ¶Ð°Ð± Ð´ÑĭÒĽ
Ð´Ðµ Ð´Ñĸ
ĠÐľ Ð°ÒĽ
ĠÑģÐ°Ð» Ð°ÑģÑĭÐ½Ð´Ð°
ĠÑĢ Ð°Ñģ
ÐµÐ± ÐµÐ±Ñĸ
ĠÐ± Ð°
Ð´Ðµ Ð³ÐµÐ½
Ġ i
ĠÑĤÑĸÐ» ÑĸÐ½Ð´Ðµ
Ð½ ÐµÐ¼ÐµÑģÐµ
ÒĽ ÑĭÐ¼
Ð¼ ÓĻ
ÐµÐ»ÐµÑĢ Ð´Ñĸ
ĠÐ¼ÓĻÑģÐµÐ» Ðµ
ĠÓ©ÑĤ ÑĸÐ¿
ĠÐ¡ ÐµÑĢ
Ð¾ÑĤ Ð¾
Ñ ī
ĠÒ¯ Ð¼
ĠÐ¼ÓĻÑģ Ð»
ĠÐĸ Ð°Ò£
ĠÐ¾ ÑĤÐ°Ð½
Ð±Ð» ÐµÐ¼
Ð¼ Ð¾Ð»Ð°
ĠÐ°Ð·Ð°Ð¼ Ð°ÑĤÑĤÑĭÒĽ
Ð´Ð°ÑĢ ÑĭÐ½Ð°Ð½
ĠÒ± ÒĽ
ĠÐ±Ð°Ð» Ð°Ð½ÑĭÒ£
ĠÑĤ ÑĭÐ½
ĠÒ¯Ð½ ÐµÐ¼
ĠÐ¼ÑĭÐ½Ð° Ð´Ð°Ð¹
ĠÐ¿ÐµÐ´Ð°Ð³Ð¾Ð³ Ð¸ÐºÐ°Ð»ÑĭÒĽ
ĠÒĽÒ±ÑĢÐ°Ð¼ ÑĭÐ½Ð°
ĠÐķÑĥÑĢ Ð¾Ð¿
ĠÑĤ Ð°ÒĽ
Ó© Ð¼ÑĸÑĢ
ÑĸÐ»ÑĸÐº ÑĤÑĸ
Ð°Ð½Ñĭ ÑĪ
ĠÑĢ ÓĻÑģ
ĠÐ¾Ð¹ Ð»Ð°Ñĥ
ĠÐµ Ð³ÐµÑĢ
ĠÒĽÐ°ÑĢÐ¶ ÑĭÐ»
Ð°ÑĦ ÐµÐ´ÑĢ
ÑģÑĸÑĢ ÐµÑģÐµ
ÓĻÑĢÐ±Ð¸ Ðµ
ÐµÑĤÑĤÐµÑĢ Ð´Ñĸ
ĠÑĪÐµÐº ÑĤÐµÑĥ
ĠÑĢ Ó©Ð»
ĠÐĲ ÑĤÑĭÑĢÐ°Ñĥ
Ð´ ÐµÐº
ĠÐ¾ÒĽ Ð¸Òĵ
ÑĸÐ¼ ÑĸÐ½
ĠÑĤÑĸÐ» ÑĸÐ½
edi a
ĠÐ¼ Ð°ÑĢ
Ð°Ð½ Ð´Ð°
ÑĢÐµÐ´ Ð¸ÑĤ
Ð± ÑĢ
Ñĥ Ð½Ð°Ð»
ÐµÐº ÑĤÐµ
ĠÐ°ÒĽ Ð¿Ð°Ð½
ĠÑģ Ò¯
ĠÒĽÑĭÐ· ÑĭÒĵ
ÒĵÐ°Ð½ Ñĭ
2 4
Ðľ ÓĻ
ĠÐŁ Ð°Ð²Ð»Ð¾Ð´Ð°ÑĢ
Ð» Ð´Ðµ
Ð» Ð°ÒĵÐ°Ð½
ÒĽÐ°ÑĤ Ð°ÑĢ
ĠÒļÐ°ÑĢ Ð°ÒĵÐ°Ð½Ð´Ñĭ
ĠÐ±Ð°Ñģ ÑĭÐ¼
ÑĪÑĭÐ» ÑĭÒĵÑĭÐ½
Ð¸ Ñĩ
Ðµ Ð´ÐµÑĢ
p h
ĠÐ¡ ÓĻ
ĠÑĢÒ±ÒĽ ÑģÐ°ÑĤ
ÑĪ Ð°ÒĽ
Ð¿ Ð°
ÑĤÐµÑĢ ÑĸÐ½Ðµ
ĠÒĽÐ¾ Ñı
ĠÑģÑĥ Ð±ÑĬÐµÐºÑĤ
ĠÐº Ð°Ð¿
Ð³ ÑĸÐ»Ñĸ
ĠÐ¶Ò±Ð¼ ÑĭÑģÑĭ
ĠÐµÐ» Ð´Ñĸ
ĠÑģÑĥÑĢ ÐµÑĤ
Ġ2 9
ÐµÐ¼ Ð¸Ð½Ð°ÑĢ
ĠÑĤÒ± ÑĤÑĭÐ½
ÐĨ Ðļ
ĠÑĪÑĭÒĵÐ°ÑĢ Ð¼
ĠÐºÒ¯ÑĢ Ð´ÐµÐ»Ñĸ
ĠÐº Ð¼
ĠÐº Ð¾
ĠÐºÓ©ÑĢ Ð³ÐµÐ½
ĠÓĻÐºÑĸÐ¼ Ð´ÑĸÐ³ÑĸÐ½ÑĸÒ£
ww w
Ðķ Ð¡
ĠÑĤ ÐµÐ·
ĠÒĽÐ°ÑĥÑĸÐ¿ ÑģÑĸÐ·
ĠÑĤÓĻ Ñĥ
ĠÐ¼ÑĥÐ· Ñĭ
Ð¼ ÐµÐ³ÐµÐ½
ĠÐ±Ò± Ð¹ÑĢ
ĠÐºÐµÑĪ ÐµÐ½
ĠÐ¾Ð¿ÐµÑĢ Ð°ÑĨÐ¸Ñı
Ð³ Ð°Ð»
ĠÐ°Ð´Ð°Ð¼ ÒĵÐ°
ĠÓ©Ð» ÑĪ
Ð¥ Ð°Ð»ÑĭÒĽ
ĠÒĽÒ± ÒĽ
Ð»Ð°Ð¹ Ð½
ĠÐ¾Ð¹ Ð½
ĠÐ¶Ò¯ÑĢ ÑĸÐ¿
Ð± Ð°ÑģÑĭÐ½ÑĭÒ£
ĠÐ½ÓĻÑĤÐ¸Ð¶ ÐµÑģÑĸÐ½Ð´Ðµ
ĠÐº Ð»Ð°Ñģ
ĠÐ¶ ÐµÐ´ÐµÐ»
ĠÒ° Ð»Ñĭ
Ð¸ ÑĤÐ°Ð»
Ġ #
ĠÑģÐ¾Ð½ ÑĭÒ£
ĠÐ°ÐºÑĤ ÑĸÐ»ÐµÑĢ
ĠÐ´Ð°Ð¼ ÑĥÑĭ
Ġ2 1
ĠÑĭÐ½ÑĤÑĭÐ¼Ð°ÒĽÑĤÐ°Ñģ ÑĤÑĭÒĽ
Ð´Ð°ÑĢ Ð´Ð°
ĠÐ±Ð¸ Ð»ÑĸÐº
ĠÐ¸Ð´Ðµ Ñı
ĠÐ°ÑĤÒĽÐ°ÑĢ ÑĥÑĪÑĭ
ĠÑģ Ò±
ĠÐ¿Ð°Ð¹Ð´Ð°Ð»Ð°Ð½ ÑĥÒĵÐ°
ĠÐ°Ð¹ÑĤ Ð°Ð´Ñĭ
ĠÐ¼ Ð°Ð¹
ĠÐ°Ð½ Ð°
Ð» ÐµÐ´Ð¶
http s
ĠÐºÓ©ÑĪ ÐµÑģÑĸ
Òļ Ð°Ð·ÑĸÑĢÐ³Ñĸ
ĠÐ¾Ð»Ð°ÑĢ ÒĵÐ°
ĠÐ¼Ð¸Ð½ ÑĥÑĤ
ĠÓĻÐ»ÐµÐ¼ Ð´ÑĸÐº
ÑĢ Ð°ÒĽ
Ñĥ ÑĪÑĸ
ÒĵÑĭ ÑĢÑĥ
ĠÐľ ÐµÐ¼Ð»ÐµÐºÐµÑĤ
Ð°Ð· Ð°Ñħ
ÑĥÐ½Ð°Ð» Ð´ÑĭÒĽ
ĠÑĤÐ°Ð¼ Ð°ÒĽ
ĠÐµÑĤ ÐºÐµÐ½
ÑĮ ÐµÑĢ
ÐµÑģÑĤ Ñĸ
ĠÒļÑĭÐ· ÑĭÐ»Ð¾ÑĢÐ´Ð°
ĠÐ±Ð°ÑĢ ÑĭÐ¿
ĠÓ© ÑĢÑĤ
ĠÐ±ÐµÑĤÑĸÐ½ ÐµÐ½
19 9
a m
ÐºÑĸÐ» ÐµÑĤÑĤÑĸ
i c
ĠÐ±Ð°Ñģ ÑĤÐ°Ð¼
ĠÓĻÑĢ ÑĤÒ¯ÑĢÐ»Ñĸ
ÑĸÐ¼ Ð¿Ð°Ð·
ĠÐ° ÐºÑĨÐ¸Ñı
ĠÒļ Ð°Ð·ÑĸÑĢ
Ð¸ÐºÐ° ÑĨÐ¸Ñı
Ġ Â
Ð° Ò»
ĠÐ¶Ð¾Ð± Ð°ÑģÑĭ
ĠÐ¶Ð°Ð½ ÑĥÐ°ÑĢ
Ðŀ ÑĢÑĤ
ĠÒĽÐ°Ð¹ ÑĤÐ°ÑĢ
ĠÐºÓ©Ð· ÒĽÐ°ÑĢ
ĠÐ¶Ò±Ð¼ÑĭÑģÑĤÐ°ÑĢ ÑĭÐ½
ĠÑĤ ÑĭÑĢ
r o
ĠÑĤÒ±ÑĢ ÒĵÑĭ
ĠÑĦ Ð¸Ð·
ĠÐ¶Ò±Ð¼ÑĭÑģ ÑĭÐ½
Ðķ Ò£
ĠÐ¿ÑĢÐ¾ ÑĦ
Ñħ Ð°ÑĤ
ĠÐ±ÑĸÐ» ÑĸÐºÑĤ
w ik
ĠÐ¶Ð¾ Ð±Ð°
ĠÐ°Òĵ ÑĭÐ»
ĠÐ°Ð´Ð°Ð¼ Ð´Ñĭ
ÑĮ Ð¼
ĠÐ´Ð°Ð¹ ÑĭÐ½Ð´Ð°Ñĥ
Òļ Ð°Ð¹
ĠÐ¼ÑĸÐ½ ÐµÐ·
Óĺ ÑĢ
ĠÐ´ ÑĭÐ±
Ð´Ñĸ Ð¼
ĠÐ¶ÐµÑĤ ÑĸÑģÑĤÑĸÐº
ĠÑĢÐµ Ð´Ð°
Ġ Ð°Ð¶
ĠÐºÐ¾Ð¼Ð¿ ÑĮÑİ
ĠÐ §
Ò° Ð»
ĠÓĻÐ´Ñĸ Ñģ
ĠÑħÐ°Ð±Ð°ÑĢÐ» Ð°Ð´Ñĭ
Ðŀ Ð»
ÐŁ ÑĢ
Ñħ Ð¼ÐµÑĤ
ÐµÑĤ ÑĸÐ½Ð´Ðµ
ÐµÒ£ ÑĸÐ·
ĠÐ¡ ÐµÐ½
ÑģÑĤ Ð°Ñĥ
ĠÐºÐ» ÑĥÐ±
Ñĭ ÑģÑĤÐ°Ð½
Ð±ÐµÐº Ð¾Ð²
Ñĥ ÑĪ
Ð´Ð°Ð¹ ÑĤÑĭÐ½
ĠS t
k k
Ðµ Ð´Ðµ
Ð»ÑĭÒĽ ÑĤÐ°ÑĢ
ĠÐ¶Ð°ÑģÐ°Ñĥ ÒĵÐ°
ĠÐ¼ Ð°ÑĪ
ĠÐ¶Ð°Ò£ ÒĵÑĭÑĢÑĥ
Ð¼ ÐµÑĤÑĤÑĸ
ĠÐ¼ Ð°ÑĢÐ°Ð¿
e ws
ĠÐ¼ÓĻÑĢ ÑĤÐµ
ĠÐ¡ ÐµÐ±ÐµÐ±Ñĸ
Ñĥ ÑĸÐ½Ðµ
ĠÑĤÐ°Òĵ Ð°Ð¹ÑĭÐ½
Òļ Ò±
ĠÐ°Ð·Ð°Ð¼ Ð°ÑĤ
Ó©Ð» ÑĸÐº
ĠÐ°Ð¹ ÑĤÑĭÐ»
ĠÒĽ ÑĭÑģÒĽÐ°
Ð°ÑĤ ÑĮ
ĠÐ°Ñĥ ÑĭÑģ
ĠÐ¶Ð¸ Ñĸ
ĠÐ´Ð° ÑıÑĢ
ĠÐ¿Ð¾Ð» Ð¸ÑĨÐ¸Ñı
ĠÐ¨ ÑĭÒĵÑĭÑģ
ï »
ĠÐ°Ð»Ð´Ñĭ Ð¼ÐµÐ½
ĠÐ¿Ð¾ÑĢ ÑĤ
ĠÒ± Ð½
ï» ¿
ĠÒ± Ð¹
Ð¼ÐµÐ½ ÑĤ
ĠÐ¿ÑĢÐ¾ Ð±Ð»ÐµÐ¼
Ð¸Ð½ Ð¸ÑģÑĤÑĢ
ÐµÑĤ ÑĸÐ½Ðµ
ĠÐºÐ¾Ð½ ÑĦÐµÑĢÐµÐ½ÑĨÐ¸Ñı
Ð°ÑĢ Ð´
ĠÐ¿ÑĢÐ¾ÐºÑĥÑĢ Ð°ÑĤÑĥÑĢ
ĠÐ°ÒĽÐ¿Ð°ÑĢÐ°ÑĤ ÑĤÑĭ
Ð¿ ÑĢ
ĠÐ± Ð°Ð¿
ĠÐ´ÐµÐ½ Ðµ
ĠÐ´ Ð¾Ñģ
Ð± Ò±
Ð¼ ÑĸÐ·
Ðº Ð¾Ð¼
ĠÐ´ÐµÐ³ÐµÐ½ ÑĸÐ¼ÑĸÐ·
ĠÒĽÐ¾ÑĢ Ñĭ
Ñģ ÐµÐ¼
ĠÐºÓ©ÑĢ ÐºÐµÐ¼
ĠÐĶ ÐµÐ½
Ñĥ Ñħ
ÑĸÑģ ÐºÐµ
ĠÐ°Ñĥ Ð¼Ð°ÒĽ
ĠÐ°Ð¹ÑĤÒĽÐ°Ð½ Ð´Ð°
ĠÐ±ÑĸÑĢÐ» ÐµÑģ
ÑģÑĭÐ» Ð¼Ð°Ð½
Ð±Ð¸ Ð»ÑĮ
ĠÐľ Ð°ÑĢ
ĠÐµÑĢ ÐºÑĸÐ½
ĠÑĪÐµÑĤÐµÐ» Ð´ÑĸÐº
ĠÐ¶Ð°ÑĥÐ°Ð¿ ÑĤÑĭ
ĠÒĽÐ°ÑĢ Ð°ÒĵÐ°Ð½Ð´Ð°
ĠÒ¯ÑĪÑĸÐ½ ÑĪÑĸ
ĠÐ°ÑĢÑĤ ÑĤÑĭÑĢ
Ð°Ñĥ Ð°Ð¿
ĠÒĽÐ°ÑĢ Ð°Ð¼
Ð±Ð°ÐµÐ² Ð°
ĠÐ² Ð¸Ð´ÐµÐ¾
ĠÑĤ ÑĸÐ¿ÑĤÑĸ
ĠÐ¶ÑĭÐ» Ð´Ð°Ð¼
Ðµ Ð³ÑĸÐ½
ÑĤ Ò±ÑĢ
ĠÒ¯Ð¹ Ð»
ĠÒĽÑĭÐ·Ð¼ÐµÑĤÐºÐµÑĢÐ»ÐµÑĢ Ñĸ
ĠÐ°Òĵ ÑĭÐ¼
ĠÒĽÐ¾Ð¹ Ð´Ñĭ
ĠÑĦÑĥÐ½ ÐºÑĨÐ¸Ñı
ĠÑģÐ°Ð» ÑĭÐ¿
ĠÑĢÐµÑģ ÑĥÑĢÑģÑĤÐ°ÑĢ
Ð´ÐµÑĢ ÑĸÐ½Ðµ
ÒĽ Ð¸Ð¼ÑĭÐ»
ÑģÑĤ Ð²
Ð°Ð¹ Ð»
ĠÐ±Ò±ÑĢÑĭÐ½ ÒĵÑĭ
Ð´ ÓĻ
ÐºÑĤ ÐµÐ¼
ĠÑģÐµÐ½ ÑĸÐ¼
ÒĽ Ò±ÑĢ
2 3
ĠÒ± Ñı
ĠÐºÓ©ÑĢ ÑĸÐ¿
ĠÑģÑĭ Ð±Ð°Ð¹Ð»Ð°Ñģ
K Z
ĠÐ¼ÐµÐ½ ÑĪÑĸÐº
ĠÐ»Ð°ÑĥÐ°Ð· ÑĭÐ¼
ĠÑĤÐµ Ð°ÑĤÑĢ
ĠÐ¼ÓĻ ÑĤÑĸÐ½
ÐµÐºÑĤ Ð¾ÑĢ
Ð¼Ð°Òĵ ÑĭÐ½Ð°
Ð¶ ÑĸÐ»
ĠÐ¼ Ð°ÒĵÐ°Ð½
ĠÐ¢ÓĻ ÑĥÐµÐ»
Ò¯ ÑĪ
ĠÐ°ÑĪ Ñĥ
ĠÐ¶Ð°Ñģ Ð°Ð¹Ð´Ñĭ
201 5
ÒĽ Ð¾Ð»
ĠÐ´ ÐµÐ»
ÐµÐ¼ ÐµÐ¹
ĠÒ¯Ð¼ ÑĸÑĤ
ĠÐ°ÑĢ ÒĽ
ĠÐ¶Ò±Ð¼ÑĭÑģ ÒĽÐ°
ÑĤÐ°Ð¹ ÑĤÑĭÐ½
ĠÐ¶Ð°ÒĵÐ´Ð°Ð¹ Ñĭ
Ð°Ð» Ð°Ð¼
ÐŀÑĢÑĤ Ð°ÒĽ
Ġ E
ĠÐ±Ð°Ñģ ÑĤÐ°ÒĵÐ°Ð½
ĠÐ¶ÐµÑĢ Ð³Ðµ
ĠÑĢ ÐµÐ¶
ĠÒĽÐ°Òĵ Ð¸Ð´
ÑĸÐ½ ÑĪÐµ
Ġ G
Ð¸Ñħ Ð°Ð½
ĠÐ´Ð°Ð¼Ñĥ ÑĭÐ½Ð°
) )
ÑĸÑĢ ÑĸÐ¿
ĠÑĤÒ¯ Ð½
ÑĥÑĢ Ð³
ÑĸÑĢ Ð³ÐµÐ½
Ñģ ÑĭÒ£
ĠÑĦ ÑĥÑĤÐ±Ð¾Ð»
] .
ÑĸÐ¼ÑĸÐ· Ð´Ñĸ
Ð¸Ðº Ð°ÑģÑĭ
ĠÓ©Ð·ÑĸÐ½ Ð´ÑĸÐº
ĠÒĽÐ°ÑĤÑĭÑģ ÑĥÑĪÑĭÐ»Ð°ÑĢ
Ð½Ð¾Ð² Ð°ÑĨÐ¸ÑıÐ»ÑĭÒĽ
Ð¸ ÐµÐ½ÑĤ
ĠÐº Ð°ÑĦÐµÐ´ÑĢ
ĠÐºÐµÐ¹ÑĸÐ½ Ð³Ñĸ
Ð´Ð°Ð» ÒĵÐ°Ð½
e t
ĠÐ¼ÐµÐºÑĤÐµ Ð±Ñĸ
ĠÐ¼ ÐµÑĤ
ĠÐ¢ Ò±ÑĢ
Ð°Ð´Ð° ÒĵÐ°Ð»
Ð´ÑĭÒĵ ÑĭÐ½Ð°
ÒĽÑĭÐ· Ñĭ
ĠÑĤÒ¯ÑģÑĸÐ½ Ð´ÑĸÑĢÑĥ
Ġ H
ÑĤÐ°Ð½ Ñĥ
ĠÐ¼Ò±ÒĵÐ°Ð» ÑĸÐ¼Ñĸ
. -
ip edia
Ò£ ÒĵÑĭÑĪ
ĠÑĢ ÐµÑģÐ¿ÑĥÐ±Ð»Ð¸Ðº
ĠÑģÐµÐ± ÐµÐ±Ñĸ
ĠÐ¾ÑĢÑĤ Ð°ÒĽ
ĠÑĦÐ¸Ð» ÑĮÐ¼
ĠÑģÑĸÐ»ÑĤÐµÐ¼ Ðµ
Ð¶ Ñĭ
ĠÑĥ Ð°ÒĽÑĭÑĤÑĭ
ĠÒĽÒ± ÒĽÑĭ
ĠÐ¨ ÑĭÐ¼ÐºÐµÐ½ÑĤ
ĠÑĦ Ð°Ðº
Ð¾Ðº Ñģ
ÑĪÑĸÐ»ÐµÑĢ Ð´ÑĸÒ£
Ð°Ò£ÒĵÑĭ ÑģÑĤÐ°Ñĥ
ĠÐ¶Ð°Ð· ÑĭÐ»ÒĵÐ°Ð½
ĠÐķÐ» Ð±Ð°ÑģÑĭ
ĠÓĺ Ð´Ñĸ
ÑĭÐ½ Ñĭ
ĠÐ±ÐµÑĢÑĥ Ð³Ðµ
Óĺ Ð»
ĠÒĽÐ¾Ð¹ ÒĵÐ°Ð½
Ð³ ÑĢ
ĠÑģÐµÐº ÑĸÐ»Ð´Ñĸ
ĠÐ¸ Ð³ÐµÑĢ
wik ipedia
ĠÐ°Ð¹ ÑĤÐ°
ĠÓ©ÑĤ ÐµÑĤÑĸÐ½
2 2
ĠÐ´Ò¯Ð½Ð¸ ÐµÐ³Ðµ
ĠÒĽÐ¾Ð½ Ð°ÒĽ
ĠÐĳÑĸÐ· Ð´ÑĸÒ£
ĠÒļ Ð°Ð½
t it
ĠÐ±Ó©Ð» Ñĥ
ĠÐ±ÑĸÑĢ ÒĽÐ°ÑĤÐ°ÑĢ
Ð°Ð¹ ÑĭÐ¿
ĠÐ±Ð°Ð»Ð°Ð»Ð°ÑĢ Ð´ÑĭÒ£
Ðº Ó©
ĠÐ¶ÐµÐ¼ÒĽÐ¾ÑĢÐ»ÑĭÒĽ ÒĽÐ°
Ð¿Ð°ÑĢ Ð°ÑĤÑĭ
ÐĲ ÐĻ
ÑĭÒĽ ÑĤÑĭÑĢÑĥ
ĠÒĽÒ± Ð±ÑĭÐ»
ĠÐ¶Ð°ÑĢ ÑĤÑĭ
ĠÐķ Ð½Ð´Ñĸ
Ð± Ð°Ð½
ĠÐ¼ÐµÐ¼Ð»ÐµÐº ÐµÑĤÑĤÑĸÒ£
Ð³ÐµÐ½ Ñĸ
ĠÑĤÐ¾Ð± Ñĭ
Ð¶ ÐµÐ»
ĠÐºÒ¯ ÑĤ
ĠÐºÒ¯Ð½ Ð³Ðµ
Ð»ÐµÑĢ Ð´Ñĸ
ĠÐ± Ð¸Ð»
ĠÐº ÐµÐ½
ĠÐºÒ¯Ð½ ÑĸÐ½Ðµ
ĠÑĤÐ°Ò£ Ð´Ð°Ñĥ
ĠÒĽ Ð°Ð´Ð°ÒĵÐ°Ð»
ĠÑħ Ð¸Ð¼
Ð· Ð°ÑĤ
de x
ĠÐ¿ ÓĻ
ĠÐ¶Ð°ÒĽ ÑģÐ°ÑĢ
ĠÐ¶Ò¯Ð¹ ÐµÑģÑĸÐ½ÑĸÒ£
ĠÐ±Ò± ÒĵÐ°Ð½
ÐĲ Ð´Ð°Ð¼
Ġ201 3
ĠÐ¼Ð°ÑĢÐ°Ð¿ Ð°ÑĤ
ĠÒĽÒ±ÑĢ ÑĭÐ»ÒĵÐ°Ð½
ĠÐ±Ð¾Ð» Ð°ÑĢ
ĠÐ¶ Ò±ÑĢÑĤ
ĠÐ¼Ò¯Ð¼ÐºÑĸÐ½ Ð´ÑĸÐ³Ñĸ
Ġ Ð°ÑĤÑĭÐ½
ÐŀÑĢÑĤÐ°ÒĽ ÒĽÐ¾ÑĢ
Ð¶ ÑĭÑĢÑĭÐ¼
ÑĭÐ¼ÑĭÐ· Ð´Ñĭ
ĠÑģÐ¾ ÒĵÑĭÑģ
ÐµÐ¼Ð°ÑĤ Ð¸ÐºÐ°
ĠÐ°ÒĵÑĭÐ» ÑĪÑĭÐ½
Ġ D
ĠÐ¼Ò¯ Ð»ÑĸÐº
Ð¾Ò£ ÒĵÑĭ
ĠÐµÑģÐºÐµÑĢ ÑĤ
ĠÐ±Ð¾Ð» Ð¶
ĠÑĤÐ°Ñģ ÑĭÐ¼Ð°Ð»
ph p
ĠÐºÐ¾Ð» Ð»ÐµÐ´Ð¶
ĠÑĤ ÓĻÐ½
ĠÐ¼ÐµÐ¼Ð»ÐµÐº ÐµÑĤÑĤÐµÑĢ
ĠÑĤÒ±Ð»Òĵ Ð°Ð»Ð°ÑĢ
Ð± ÑĸÑĤ
Ð± Ð°ÒĽ
ÑĭÑģ ÑĤÑĭÒ£
Ġ Ð°Ò£
Ð ¦
Ñģ Ð°Ò£
ĠÒĽÐ° Ð´Ð°Ð¼
ÐĲ Ðľ
ÐµÐ½Ð´Ñĸ ÑĢÑĥ
ĠÒ± Ð¶ÑĭÐ¼
ĠÐ°Ð³ÐµÐ½ÑĤ ÑĤÑĸ
ĠÐ¼ Ð¾Ð¹
ĠÑĤÐµ Ð¾ÑĢ
Ð» Ð°Ð´Ñĭ
ĠÑģ ÑĤ
ĠÐ¼Ò±ÒĵÐ°Ð» ÑĸÐ¼
ÑĸÐº ÑĤÑĸÑĢ
ĠÑįÐº Ñģ
ĠÑĤÐ°ÑĢÐ°Ð¿ ÑĭÐ½Ð°Ð½
Ð± ÐµÑģ
ĠÓ©Ñģ ÑĸÐ¼Ð´ÑĸÐº
ĠÐ±Ð°Òĵ Ð°
ĠÒļÐ¾ ÒĵÐ°Ð¼
ĠÐ² Ð°Ð»Ñİ
ĠÐĸ Ðŀ
in dex
ĠÒ¯ÑĢ Ð´Ñĸ
ÑģÑĤ ÐµÑĢÑĸ
Ð°Ð¹ Ð»Ñĭ
ĠÐ¼ Ð°Ñģ
di d
ĠÐ±Ó© Ð»ÐµÐº
ÐĲ Ð£
ĠÐºÓ©Ð¼ÐµÐºÑĤ ÐµÑģ
Ó© ÑģÐ¿
ÑģÑĭÐ½ ÑĭÐ¿
Ð« Ò¢
Ð¼Ð°Ð¹ ÑĤÑĭÐ½
ĠÐ «
ĠÑĥÑĩ Ð°Ñģ
ÑģÑĤ Ð°
ĠÒĽÐ°Ñĥ Ð»
ĠÐ±ÑĸÑĢ Ð´ÐµÐ¹
ÐĶ ÐĨ
Ð´Ð° ÑĥÒĵÐ°
ĠÒĽÐ¾ÑĢÑĭÑĤÑĭÐ½Ð´Ñĭ ÑģÑĭ
Ð°ÑĤ ÑĭÐ½ÑĭÒ£
ÐµÑģÑĤ ÑĸÒ£
tit le
Ðº ÐµÐ¹
ĠÑĦ Ð¾ÑĢÑĥÐ¼
Ð´ÐµÐ¹ Ð´Ñĸ
ĠÐ¸Ð½ ÑĤÐµÑĢÐ½ÐµÑĤ
ĠÐŀ ÒĵÐ°Ð½
ĠÒĽÒ± Ð½Ñĭ
ÑĤÑĭ ÒĵÑĭ
ÑĸÐ» ÑĥÑĸ
ol did
Ðĳ ÑĸÐ»ÑĸÐ¼
Ð¢ Ò¯ÑĢ
Ð°ÑĨÐ¸Ñı ÑģÑĭ
ĠÐ± Ð°ÒĽÑĭÑĤ
ÑĤÐµÑħÐ½ Ð¸ÐºÐ°Ð»ÑĭÒĽ
Ó©ÑģÐ¿ ÑĸÑĢ
ĠÑį Ð»ÐµÐ¼
ĠÐ±Ð°ÑģÑĪ ÑĭÑģÑĭÐ½ÑĭÒ£
ĠÑĥÐ½Ð¸Ð²ÐµÑĢÑģÐ¸ÑĤ ÐµÑĤÑĸ
ÒĵÐ°Ð½ ÑĭÒ£
Òĵ ÑĭÑģÑĭ
ĠÑĤÓĻÑĢÑĤÑĸ Ð±
ĠÐ¤ ÑĢÐ°Ð½
Ð»Ð°Ð½ Ð´Ñĭ
ĠÐ¼Ð¸Ð½Ð¸ÑģÑĤÑĢ Ñĸ
ĠÐ¼ÐµÑĢÐ· ÑĸÐ¼Ð´Ñĸ
ĠÐ¾ÑĢÐ½ ÑĭÐ½Ð°
ĠÐ°Ñĥ Ð°
ĠÓĻÑĢÐµÐº ÐµÑĤ
Ð°Ñħ Ð°Ð±
Ðķ Ð³ÐµÑĢ
Ðĳ Ð¾Ð»
Ġ F
ĠÐ¶Ó©Ð½ Ð´ÐµÑĥ
Ð°Òĵ ÑĭÐ½Ð°
ĠÑĤÐµÒ£ ÑĸÐ·
ĠÑĤÓĻÑĥÐµÐ» ÑģÑĸÐ·
ĠÐ¶Ð°Ò£ Ð°Ð»ÑĭÒĽ
ĠÐ¶Ð°ÑĤ ÑĤÑĭÒĵ
ĠÒĽÐ°ÑĢ ÑĭÐ·
ĠÐ´Ò¯Ð½Ð¸ Ðµ
ĠÓĻ Ðº
ĠÒĽÐ°Ð» Ð´ÑĭÑĢ
ĠÑĤÐ°Ð±Ð¸Òĵ Ð°ÑĤ
ĠÐ¼ÐµÐºÐµÐ¼ ÐµÐ»ÐµÑĢ
ĠÐ±Ð°ÒĵÐ´Ð°ÑĢÐ»Ð°Ð¼ Ð°
Ð¾ÑĢ ÑĤ
ÐµÑĤ ÐµÑĢ
2 1
ĠÐ¶Ð¾Ð» Ð´Ð°ÑĢÑĭ
ĠÐ¶Ð°Ñģ Ð°Ð´Ñĭ
ĠÐ¼ Ð°ÒĵÑĭÐ½
Ð°Ñģ Ñĥ
ĠÐ¼Ò¯Ð´ Ð´Ðµ
Ð°Òĵ Ð´Ð°ÑĢÐ»Ð°Ð¼
Ð³ ÑĸÐ»ÐµÑĢ
ĠÐµÑģÐµÐ¿ ÐºÐµ
Ð°ÐºÑĤ Ð¸ÐºÐ°Ð»ÑĭÒĽ
ĠÐ±ÐµÑĢ ÑĸÐ»Ð´Ñĸ
Ġ6 0
ĠÐ¼ÓĻÑģÐµÐ» ÐµÑģÑĸ
ĠÑĥÓĻ ÐºÑĸÐ»ÐµÑĤÑĤÑĸ
ĠÐ°Ð»Ð¼ Ð°Ð¹Ð´Ñĭ
Ð°Ð» Ð°Ð½
i Ð·
ÑĤ ÒĽÐ°ÑĢ
ĠÑĪ Ð°Ð±
Ð°ÑĢ ÑĤÑĥ
ĠÐ¼ÓĻÐ½ Ñĸ
ĠÑĤÐµÐ¼ ÑĸÑĢ
ĠÒĽÒ±ÒĽÑĭ ÒĵÑĭ
Ðķ Ñģ
ĠÑĤÐµÐ» Ðµ
.. ..
ĠÑĤ Ñĭ
Ð¸ ÑĤÐ°ÑĢÐ»ÑĭÒĽ
ÑĸÐ¼Ð´Ñĸ Ð»ÑĸÐº
ĠÐĸ Ò±Ð¼
Ðº ÑĢ
ĠÓĻÐ´ÐµÐ±Ð¸ ÐµÑĤÑĸ
ĠÑĤÐ°ÑĢ Ð¼Ð°ÒĽ
ĠÐ°ÑģÑĭÑĢ ÑĭÐ»Ð°Ð´Ñĭ
ĠÐº Ð¸Ð½
ĠÒļ Ð°Ð»
ĠÑģ ÑĸÒ£
Ð°ÑĤ Ð°
ĠÒĽÐ°Ð¹ ÑĤÐ°Ð»
ĠÒĽÐ°Ð» Ð°ÑģÑĭÐ½Ð´Ð°ÒĵÑĭ
ĠÑħÐ°Ð±Ð°ÑĢ Ð»Ð°Ð¼
ÐµÐ¶ Ò¯Ð·
ĠÑģÐ°Ð¿ Ð°ÑģÑĭÐ½
Ò£ ÑĸÑĢ
ĠÐ±Ð°Ð»Ð°Ð»Ð°ÑĢ ÒĵÐ°
ÑĤ Ò±
Ð¸ÑĦ ÑĢ
ÐĿ Ð°Ð·Ð°ÑĢÐ±Ð°ÐµÐ²
ĠÐ°Ð¹Ð½Ð°Ð» ÑĭÐ¼
Ð»ÐµÐºÑĤÑĢ Ð¾Ð½
Ð¾ ÑĪ
ĠÐ¶Ð¾ ÒĵÐ°Ð»
Ð¸Ñı Ð´Ð°
ĠÓ©Ð½Ð´ÑĸÑĢ ÑĸÑģ
ÐµÐ» ÐµÐº
Ðļ Ó©ÑĢ
4 0
ĠÐ¼ ÐµÐ·
ĠÐĳ Ð¾Ð»
ÑĪÐ°ÑĢ Ð°Ð»Ð°ÑĢ
! Â»
ÑĸÐ½ Ñĸ
ĠÐ½ Ð°Ñĥ
ĠÒĽÐ¾Ð» ÒĵÐ°
Ñģ Ð°Ð»
ĠÑħÐ°Ð» ÒĽÑĭ
ĠÐ¼Ð¸Ð½Ð¸ÑģÑĤÑĢ Ð»ÑĸÐ³ÑĸÐ½ÑĸÒ£
ĠÐ¢ Ó©ÑĢ
ĠÐ±ÑĭÐ» Ð°Ð¹
Ð³ ÑĸÐ»
ÐµÐ¼ ÑĮÐµÑĢ
ĠÒ¯Ð¹ÑĢ ÐµÑĤÑĥ
ĠÐ¸Ð½ÑģÑĤÐ¸ÑĤÑĥ ÑĤ
ĠÐ½ ÑĭÒĵ
ÑĪÑĸ ÑĤ
Ðĳ Ð°Ð¹
ĠÐºÓĻÑģÑĸÐ¿ ÐºÐµÑĢÐ»ÐµÑĢ
ÓĻ Ð´Ñĸ
Ð´Ñĥ ÑģÑĤÑĢ
ĠÐ°ÑĥÑĭÐ» Ñĭ
Ð± ÐµÐ»ÑĸÐº
2 8
ĠÐ°Ñĥ Ð´
ĠÐ¶ÐµÒ£ ÑĸÐ¼Ð¿Ð°Ð·
ĠÐ¼ÐµÒ£Ð³ÐµÑĢ Ñĥ
ĠÑģÐ¾ Ð·
ĠÐºÑĸÑĤÐ°Ð¿ ÑħÐ°Ð½
ĠÑĤÐ¸ Ð³ÑĸÐ·
ĠÐ±Ð°ÒĵÐ´Ð°ÑĢÐ»Ð°Ð¼ Ð°Ð»Ð°ÑĢ
ĠÐ¶ÐµÑĤ ÐºÐµÐ½
ĠÐ¢ ÐµÐº
ĠÐŀ Ð¹
ĠÑĤÐµÑĢ Ð³Ðµ
Ð¢ ÓĻ
ĠÐ¶Ð¾ Ñİ
ÒļÐ°Ð·Ð°ÒĽÑģÑĤÐ°Ð½ Ð½ÑĭÒ£
Ð°ÑĢ Ð½
ĠÐ¶Ð°Ñģ ÒĽÐ°
Ðº Ð¸Ð½
ĠÑģÑĤÐ°Ð½Ð´Ð°ÑĢ ÑĤ
Ðº Ð¾
ĠÐºÓ©ÑĢ Ñģ
2 6
ĠÐ¼ ÑĭÑģ
ĠÐºÓ©Ð· Ð´ÐµÐ»Ð³ÐµÐ½
ĠÐ½ÐµÑģ Ð¸Ðµ
ĠÐ¼ÐµÐ¼Ð»ÐµÐº ÐµÑĤÑĤiÐº
ÑĭÐ± Ñĭ
Ð°Ð´ ÑĢ
ĠÐ°Ñĥ Ð¼Ð°ÒĵÑĭÐ½Ð´Ð°
! !
ĠÓ©Ð· ÐµÐ½
ĠÑģÐ°Ð» ÑĤÐ°Ð½
ĠÐļÐ¾Ð½ ÑģÑĤÐ¸ÑĤÑĥ
Ðľ Ð°ÒĽ
ĠÒĽÐ°Ð¹ ÑĢÐ°ÑĤ
Ð»ÑĭÒĵ ÑĭÐ½Ð°
ÑĨÐ¸Ñı ÑģÑĭ
ÐµÑģ ÑĸÐ·
ĠÓĻÐ´Ñĸ ÑģÑĤÐµÑĢ
Ð´Ð°ÑĢ ÑĭÐ¼ÐµÐ½
Ð» Ð°ÑĤ
ĠÓĻÐ·ÑĸÑĢ Ð»ÐµÑĥ
ÑģÐº Ð¸Ð¹
ĠÐľÒ±Ð½ Ð´Ð°Ð¹
Ðĸ ÐµÑĢ
e l
ĠÒĽÐ°Ð·Ð°ÒĽ ÑĤÑĭÒ£
ĠÑĤÐ°Ð¿ÑģÑĭÑĢ Ð¼Ð°
Ð´ Ð°Ð³
ĠÐ¶ Ò±Ð»Ð´ÑĭÐ·
ÐµÐ· ÐµÐ½
ÑĥÐ» ÐµÑĤ
ĠÐ´ÐµÐ½ ÑģÐ°Ñĥ
ĠÑĤÐ°Ñĥ ÑĭÐ¿
ĠÓ©Ð½ÐµÑĢ ÐºÓĻÑģÑĸÐ¿
ÑĸÑĢ Ð¼
ĠÓ©Ð½Ð´ÑĸÑĢ ÑĸÑģÑĤÑĸÐº
Ð± ÐµÐ»
ĠÐ±Ð°Òĵ Ð´Ð°ÑĢ
ĠÒĽÐ¾ÑĢ ÑĪÐ°ÒĵÐ°Ð½
ĠÐ°ÑĥÐ´Ð°Ð½ ÑĭÐ½Ð´Ð°
ÒĽ Ð¾Ñģ
ĠÐ·ÐµÐ¹Ð½ÐµÑĤ Ð°ÒĽÑĭ
Ð°Ð»Ð°ÑĢ ÑĭÐ½Ð´Ð°
Ð¿Ð¾ÑĢ ÑĤÑĤÑĭÒĽ
Ġ ÑĸÐ»
ÑĤÐ°ÑĤ Ð¸ÑģÑĤ
ÐµÑĥ Ñĸ
ĠÐ¶Ð°Ð· ÑĭÐ¿
ÒĵÐ°ÑĪ ÒĽÑĭ
ĠÑĢ Ð°Ð´
ĠÒĽÐ°ÑĢ Ð°ÑģÑĤÑĭ
Ðķ Ðľ
ĠÐ±ÑĸÐ»ÑĸÐ¼ Ð´Ñĸ
ĠÐºÐµÑĤ ÐµÐ¹ÑĸÐº
ÑģÑĤÐ°Ð½ Ð°Ð¹
ĠÓ©ÑĤÐºÑĸÐ· ÑĸÐ»Ð´Ñĸ
ĠÑĤ Ð¾
ĠÐ¼ Ð°Ò£
ĠÐļ ÐµÐ»
ĠÐ°ÑĤ Ð°ÑĥÑĭ
ĠÒĽÐ°Ð» Ð¿
ĠÐĳ Ð°ÑĤÑĭÑģ
ĠÒĽÐ°Ð½ ÑĪÐ°
ĠÒļ ÑĭÑĢ
ÑĪ ÑĸÐ»Ñĸ
u r
Ð¸ Ð°
Ð°Ñģ Ð¸ÑħÐ°ÑĤ
ĠÑĦÐ°Ðº ÑĥÐ»ÑĮÑĤ
ĠÑĤÒ±ÑĢ ÑĭÐ¿
ĠÑįÐº Ð¾Ð»Ð¾Ð³Ð¸ÑıÐ»ÑĭÒĽ
ĠÐµÑĤÑĥ Ð³Ðµ
ÑĭÐ» ÑĭÑģ
Ð¸Ð¼Ð¿Ð¸ Ð°Ð´Ð°
ÒĽÐ°Ð½ Ð´Ð°Ð¹
Ð¡ Ðł
ĠÐĸ Ð°Ð¼Ð±ÑĭÐ»
ĠÐ¼Ò± ÑģÑĭÐ»Ð¼Ð°Ð½
ĠÐ¾Ð½ Ð»Ð°Ð¹Ð½
ĠÒĽÑĭÐ» Ð¼ÑĭÑģ
ĠÐ´ÐµÒ£Ð³ÐµÐ¹ Ð´Ðµ
ĠÑĤÑĸÑĢ ÐºÐµÐ»
ĠÒ±ÑĪ ÑĭÑĢ
ĠÐ±ÐµÐºÑĸÑĤ ÑĸÐ»Ð³ÐµÐ½
ÑģÑĤ Ð°ÑĢÑĭ
ĠÒĽÑĭÐ·Ð¼ÐµÑĤ ÑĸÐ½Ðµ
Ðĳ Ð¸
ĠÐ°Ñģ ÑĤÐ°Ð½
ĠÒĽÐ¾Ð»Ð´Ð°Ð½ ÑĭÐ»Ð°Ð´Ñĭ
Ð¡Ð¢ ÐĲÐĿ
ĠÐ¾ÒĽ Ð¸ÒĵÐ°
ĠÐºÐ¾ÑĢ Ð¿Ð¾ÑĢ
ĠÐ±Ó©Ð» ÑĸÐ½ÐµÐ´Ñĸ
ĠÑĤÒ± Ð¶ÑĭÑĢÑĭÐ¼
Ð°Ð¼ Ð°Ð·
ĠÑĤÒ¯Ñģ ÑĸÐ¿
ĠÐ°Ð¶ ÑĭÑĢ
ĠÒĽÒ± Ð¿
ĠÐļ Ð¾ÑĢ
ĠÐļ Ò¯Ð½
ÑĤÐ°Ð½ Ñĭ
Ġ201 2
ĠÐ¿ÓĻÐ½ Ñĸ
ÐµÐºÑĤ ÐµÐ½
ĠÐ¶Ò¯ Ð»Ð´Ðµ
ÐµÑģ ÐµÐº
ĠÐ¿ÑĢÐµÐ·Ð¸ Ð´ÐµÐ½ÑĤÑĸ
Ġ Ð°Ð¼Ð°Ð½
ÐĨ ÐĽ
a k
ĠÐ±Ò±Ð· ÑĥÑĪÑĭÐ»ÑĭÒĽ
Ð³i Ð·
ĠÐ¿Ð¾ÑĢÑĤ Ð°Ð»Ñĭ
ĠÐ±ÑĸÐ· Ð³Ðµ
ĠÐµÑĢ ÑĤÐµ
Ð°Ñĥ ÑĭÑĤ
i m
ÑģÑĭÐ»Ð°Ð¹ ÑĪÐ°
Ð¾Ð³ÑĢÐ°ÑĦ Ð¸ÑıÐ»ÑĭÒĽ
2 7
ĠÐĸ ÑĭÐ»
Ġ7 0
ĠÐ±Ó©Ð»ÑĸÐ¼ ÑĪ
ĠÐ½ Ó©Ð¼ÑĸÑĢ
ĠÓĺ Ð¹
Ġ V
Ð¾ Ð¶
ĠÐĳ Ð°ÑĢ
ĠÐ´Ð°Ð¼ÑĭÑĤÑĥ ÒĵÐ°
ĠÐķÒ£ Ð±ÐµÐº
ĠÐĨ ÐĨ
ĠÐ±Ð¸ ÑĸÐº
ĠÐ¼ÐµÑĢÐ· ÑĸÐ¼Ñĸ
ĠÐ¾ÑĢÑĤÐ°Ð»ÑĭÒĵ ÑĭÐ½ÑĭÒ£
ĠÒ± ÑģÑĤÐ°Ð½
ĠÓĻÐ»ÐµÐ¼ Ð´ÐµÐ³Ñĸ
ĠÐ±ÑİÐ´Ð¶ ÐµÑĤ
Ð°Ð» Ð°Ð¿
ĠÑĪÑĭ ÒĵÐ°Ð´Ñĭ
ĠÐ´ Ð¸Ð¿Ð»Ð¾Ð¼
ĠÐµÑĪ ÐºÑĸÐ¼
ĠÒĵÐ°ÑģÑĭÑĢ Ð´ÑĭÒ£
Ð» Ð¸Ð½
ĠÑģ ÑĭÐ·
ĠÐļ Ó©ÑĢ
Ð¡ ÐŁ
ĠÒĽÒ±ÑĢ Ð°Ð´Ñĭ
ĠÑĤÐ°Ð½ ÑĭÑģÑĤÑĭÑĢ
ĠÐºÐµÐ·ÐµÒ£ Ñĸ
ĠÐºÒ¯Ð½ Ð½ÐµÐ½
ÒĽÑĭÒĽ ÑĤÑĭÒĽ
Ð¼ ÐµÐ¹ÑĤÑĸÐ½
ĠÒ® Ð¹
ĠÐ½Ð°ÑĢ ÑĭÒĽ
ÑĤÐ°ÑĢ Ð´Ð°
ĠÐĸ Ð°ÒĽ
ĠÐ´Ð°Ð¹ÑĭÐ½ Ð´ÑĭÒĽ
? Â»
__ __
ĠÐ± ÐµÐ½
Ðĸ Ð°Ð»Ð¿Ñĭ
Ġ201 1
Ð¿ ÐµÐ¹
ĠÑģÐ°Ð¿ Ð°Ð»Ñĭ
ĠÐŀÒĽ ÑĥÑĪÑĭÐ»Ð°ÑĢ
ĠÐµÑģ ÑĸÐ¼
Ġ19 8
ĠÐ¿ ÐµÑĢ
Ð°Ð»Ð°ÑĢ ÑĭÐ½Ð°
Ð½Ñĭ Ð¹
Ð¡ ÑĸÐ·
Ð¶ Ð°Ñģ
ĠÑĪÐµÒ£Ð±ÐµÑĢ ÑĸÐ½Ð´Ðµ
ÑĭÒĵ ÑĭÐ¼ÐµÐ½
ĠÑĤÐ°Ð½ ÑĭÐ¼Ð°Ð»
ĠÐ³Ð°Ð· ÐµÑĤÑĸ
Ð¼ Ð°Ð»Ñĭ
ĠSt an
Ð³ ÑĸÐ¼ÐµÐ½
Ð»Ð°ÑĢ ÑĭÐ½Ð°
ĠÐ·Ð¸Ñı Ð½
ĠÐĳ ÐµÑĢ
ĠÐ¢Ò¯ÑĢ ÐºÑĸÑģÑĤÐ°Ð½
ÐĲÒĽ ÑĤÓ©Ð±Ðµ
Ðº Ð¸
d o
ĠÒĽÑĭÑĢÐºÒ¯Ð¹ ÐµÐº
ĠÐ¼Ð°Ð¼Ð°Ð½ Ð´ÑĭÒĽ
Ð´Ð°Ð¼ Ð°
ĠÓĻÐ´Ñĸ ÑģÑĸ
ÑĭÐ¼ ÑĪ
ĠÓ©Ð·Ð³ÐµÑĢ ÑĤÑĥ
ĠÐ¯ ÒĵÐ½Ð¸
ĠÑĤÒ¯Ñģ ÐµÐ´Ñĸ
ÑĪ Ð°ÑĢÑĤ
ÑĤÑĭ Ð¼
ÑĤ ÑĤÑĸ
Ð°Ð» Ð»
Ð°Ñı ÑģÐ¸
Ġ/ /
Ð°ÑĤÑĤÐ°ÑĢ Ð´Ñĭ
Ð³ ÐµÐ»
ĠÐ½Ò±Ñģ ÒĽ
ĠÐ±Ð°Ñģ ÑĤÐ°Ð»Ð´Ñĭ
ĠÐ½Ðµ Ð³Ðµ
ĠÐ°ÑĪÑĭÐ» Ð´Ñĭ
ÐµÑĢ Ð¼Ð°Ð½
ĠÐ°Ð» Ð°ÑģÑĭÐ·
ÑĢÐ°Ð½ Ñģ
ĠÐŀ Ð½Ñĭ
ĠÐ±ÑĸÑĢ Ð´ÐµÐ½
ĠÐ¶ ÐµÑĤÑĤÑĸ
ĠÑģÒ±ÑĢ Ð°Ð½
ĠÑģÐ°Ð»ÑĭÐ½ ÒĵÐ°Ð½
ĠÐµÑģ ÐºÐµ
Ð´ Ð¸Ð½
ÑĢ ÐµÑģ
ĠÒ±ÒĽ Ñģ
ÑĸÑģ ÑĸÐ½Ðµ
ĠÐķ ÐºÑĸ
ĠÐ¶Ð°Ð· ÒĵÐ°Ð½
ÑĤ ÒĽÐ°Ð½
ĠÐ¶Ð¾ ÒĵÐ°ÑĢÒĵÑĭ
Ð´Ð°Ð½ ÑĭÒ£
ĠÐ´ÓĻ ÑĥÑĸÑĢ
ĠÐŁÑĢÐµÐ·Ð¸Ð´ÐµÐ½ÑĤ ÑĸÐ½ÑĸÒ£
ĠÐ¶Ð°Ð· Ð±Ð°
ĠÐ¼Ò¯ Ð»
ĠÐ¼Ò±ÒĵÐ°Ð» ÑĸÐ¼Ð´ÐµÑĢ
ĠÐ´ÐµÒ£Ð³ÐµÐ¹ Ñĸ
Ð´ÑĭÒ£ ÒĵÑĭ
Ġ X
ĠÐ°Ð»ÒĵÐ°Ð½ Ð´Ð°
ĠÐ¶ Ð¾Ð¹
ĠÐºÒ¯Ð½ Ð´ÐµÑĢÑĸ
ÑĸÐ½ Ð³ÐµÐ½
Ð³ÐµÑĢ Ñĸ
ĠÐ¶Ð°ÑĢÐ¸Ñı Ð»Ð°Ð½ÒĵÐ°Ð½
ĠÐ°Ð» ÒĵÑĭÑģ
ĠÑĤÓĻÐ¶ÑĸÑĢÐ¸ Ð±Ðµ
ĠÐ°Ð¿ Ð¿Ð°ÑĢÐ°ÑĤÑĭ
Ðŀ Ð±Ð»
Ðļ ÐµÐ»
ĠÐ°Òĵ Ð°ÑĪ
ĠÒĽÐ°ÑĢÐ°Ð¿ Ð°Ð¹ÑĭÐ¼
ĠÑįÐ»ÐµÐ¼ ÐµÐ½ÑĤ
Ð· ÑĭÑĢ
ĠÐ±Ð°Ñģ ÑĭÐ»ÑĭÐ¼
Ð¾Ð³ÑĢÐ°ÑĦ Ð¸Ñı
ĠÑĤÑĸÑĢ ÐºÐµÐ»Ð³ÐµÐ½
ĠÒĽÐ°Ð»ÑĭÐ¿ÑĤ Ð°ÑģÑĤÑĭÑĢ
ĠÐľ ÐµÐ½ÑĸÒ£
Ð³Ñĸ ÑĪ
Ġ201 0
ÑĤÐµÑĢ Ð¼ÐµÐ½
ĠÑĤÑĭ Ð¹ÑĭÐ¼
ĠÒĽÐ¾Ð¹ ÑĭÐ»ÒĵÐ°Ð½
Ð°Ð· Ñĭ
ĠÐ¼Ò¯ÑĪ ÐµÑģÑĸ
ĠÑģ ÐµÐ¼Ð¸Ð½Ð°ÑĢ
ÐĲÐ» ÑĤÑĭÐ½
ĠÒļÐ¾ ÑģÑĤÐ°Ð½Ð°Ð¹
ĠÐµ Ð³
Ð´Ð°Ð» Ð´Ñĭ
ĠÐ°Ñĥ Ð¼Ð°ÒĵÑĭ
ĠÐ¾Ð¹ Ð»Ð°Ð¹
ĠÐºÐµÐ¿ ÑĸÐ»
Ġ R
ĠÓĻÑĢÑĸÐ¿ ÑĤÐµ
Ñĥ Ð´Ðµ
ÑĤ ÑĸÐ·
ĠÐ± Ð¾ÑģÑĤÐ°Ð½
ÑĸÐº ÑĤÐµ
ĠÐ¾ÑĢÑĤÐ° ÑĪÐ°
ĠÒĽÒ±Ð¶Ð°ÑĤÑĤÐ°ÑĢ Ð´Ñĭ
Ð°Ð± Ð¸Òĵ
ĠÐ¶Ð°Ò£ ÒĵÑĭÑĢ
Ð°Ð± Ð¸
ĠÐºÐ¾Ð¼Ð¼ ÑĥÐ½Ð°Ð»Ð´ÑĭÒĽ
ÒĽÑĭ ÑĤÑĥ
ĠÐº ÑĥÑĢÑģ
ĠÐ· Ð°ÑĢ
ĠÐ¶ ÐµÐ»Ñĸ
ĠÐ±ÑĸÐ» ÑĥÐ³Ðµ
i Ð¿
ĠÑįÐ½ÐµÑĢÐ³ Ð¸Ñı
ÑĤ ÑĸÐ»ÑĸÐº
ĠÐ¶Ð¾Ð» Ð°Ñĥ
ĠÐ³ Ò¯Ð»
ÑĸÐ»Ñĥ Ð´Ðµ
ĠÐ½ÓĻÑĢ Ñģ
ĠÒĽÐ°Ð¹ ÑĤÑĭÑģ
ĠÐ¶Ð¾ÑģÐ¿Ð°ÑĢ Ð»Ð°Ñĥ
ĠÐºÒ¯ Ð·
ÑĤÐµÐ½ ÑĪÐµ
ĠÐµÑģÐµÐ¿ ÑĤÐµÑĥ
ĠÐ¼ Ð°Ð³
ĠÐ¼Ð°ÑĤÐµÑĢÐ¸Ð°Ð» Ð´ÑĭÒĽ
ÑĤÐ°Ð¼ Ð°ÑģÑĭ
ĠÐ°ÑĢÒĽ Ð°ÑģÑĭÐ½Ð´Ð°
Ð¾ÑĢ Ð»ÑĭÒĽ
Ġ L
Ð¾Ñģ Ð¾ÑĦ
Ðļ Ð¾Ð½
ĠÐ¶Ð°ÑĥÐ°Ð¿ÐºÐµÑĢ ÑĪÑĸÐ»ÑĸÐº
ÐµÑģÑĤ Ð¸Ð²
ÑĤÐµÑĢ Ð´Ðµ
Ó©Ð½ ÐµÑĢ
ĠÐ¿ÑĢÐ¾ÑĦ ÐµÑģÑģ
ÑĸÒ£ÑĸÐ· Ð³Ðµ
ĠÐ±Ð°Ñģ ÑĭÐ¿
ĠÓĻÐ¹ÐµÐ» Ð´ÐµÑĢ
ĠÐ±ÐµÑĢ Ðµ
Ñĥ Ð´Ñĸ
Ð°Ñģ ÑĭÐ¿
ĠÐ¶Ò±Ð¼ Ñģ
Ð°Ñħ Ð¼ÐµÑĤ
Ðº Ð¾Ð½
ĠÐļÓ© Ð¿
ĠÐĲÑĥ ÑĭÐ»
ĠÑĤÒ¯ÑĢ Ð»ÐµÑĢ
Ð¡ Ð¾Ð»
ĠÐ±Ð°Ñģ ÑĭÐ½Ð´Ð°
Ð± Ð°Ð»
ĠÐ¾ÑĢ Ð¼Ð°Ð½
ĠÐ°Ñģ ÑĤ
ĠÑĤ Ð°Ð·Ð°
ÐµÐº ÐµÐ½
Ð»Ð°Ð½ ÑĭÐ¿
ĠÐºÐ°Ð¿ Ð¸ÑĤÐ°Ð»
ĠÐ¶ÑĭÐ» Ð´Ð°ÑĢÒĵÐ°
Ð¶ ÓĻÐ½Ðµ
ÒĽÐ°ÑĪ Ð°Ð½
ÐĿ ÐµÐ³ÑĸÐ·Ð³Ñĸ
ĠÐº Ð°ÑĢ
Ð´ÐµÐ½Ð¸ ÐµÑĤ
Ð¸ÑĤ ÑĭÐ½
ĠÑĤÒ¯ÑĢ ÑĸÐ½Ð´Ðµ
ĠÒĽÐ¾ÑĢ ÒĵÐ°Ð½
ÐºÐ° Ñĩ
ÑĸÐ» ÐµÑĥ
ĠÑĸÑģ Ñĸ
i s
c h
ĠÐ°ÑĤ Ð°Ð»Ð°Ð´Ñĭ
ĠÐºÓ©Ð· Ñĸ
ĠÐºÐµÐ·ÐµÒ£ Ð´Ðµ
ĠÑĪ Ð°ÑĪ
Ð¾ Ð±Ð¸Ð»ÑĮ
ĠÑģÐ°Ð¿ Ð°ÑĢ
Ðķ ÐĽ
Ðº Ó©ÑĢ
Ñĥ Ð»Ñĭ
ĠÐ±ÑĸÑĢ Ð»ÑĸÐº
ĠÒĽÐ°Ð· Ð°
ĠÒļÐ°Ð·Ð°ÒĽÑģÑĤÐ°Ð½ Ð´Ð°ÒĵÑĭ
ĠÐº ÑĥÑĢ
Ð°Ñĥ Ð»Ñĭ
6 0
ÐµÐ´ Ð¸Ñı
ĠÐ°ÑĥÑĢÑĥ ÑħÐ°Ð½
ĠÐ°Ð» Ð´Ð°ÒĵÑĭ
ĠÐ¶ÐµÑĤ Ðº
Ñĥ Ð½Ð¸
â Ĩ
ĠÐ´ Ð°ÑĢ
ĠÑĤÐµÒ£Ð³Ðµ Ð³Ðµ
ĠÑĤÐ¾Ð¿ ÒĽÐ°
Ð¢ Ð°ÑĢ
Ð¶ ÐµÐ½
Ð¾ÑĢ Ð¼Ð°
Ð°Ð» Ñĥ
ĠÐ± Ð°Ð½ÐºÑĤ
i on
ĠÐ¶ÑĭÐ» Ð´Ð°
Ðľ ÐµÐ½ÑĸÒ£
ĠÑģÐ°Ð» ÑĤ
ÑĸÐ½ Ð´Ñĸ
ÑĭÐ»ÑĭÐ¼ Ð¸
ĠÑĤ ÑĭÒĵ
Ðĳ Ò±
ĠÐ±Ð¾Ð»Ð¼ Ð°ÑģÐ°
ĠÐ± Ð°ÑĥÑĭÑĢ
7 0
ĠÐ¶Ð°ÑĤÑĤÑĭÒĵ Ñĥ
ĠÑĸÑģÑĤ ÐµÐ¹Ð´Ñĸ
ĠÐ°Ð¹ ÑĤÑĭÐ»ÒĵÐ°Ð½
Ò¯ÑĢ Ð³ÑĸÐ·
ĠÐºÓ©ÑĢÑģ ÐµÑĤÑĤÑĸ
ĠÐ±ÑĸÐ»Ð´ÑĸÑĢ ÐµÐ´Ñĸ
ĠÒĽ ÑĭÐ¼
a g
Ð» Ñı
ĠÑģÓ©Ð¹ Ð»ÐµÑĥ
Ð°ÑĢÑĭ ÑĪ
ÑĭÐ½Ð´Ð° ÒĵÐ°Ð½
ĠÑĤÐµÑĢ Ð¼Ð¸Ð½
ĠÐµÑĢÐµÐºÑĪ ÐµÐ»Ñĸ
ĠÑģÐ¾Ò£ ÑĭÐ½Ð´Ð°
ĠÐ¼ÑĸÐ½Ð´ ÐµÑĤÑĤ
ĠÑģÐ¾Ð½ Ð´ÑĭÒĽÑĤÐ°Ð½
Ġ8 0
2 9
ĠÐ± Ð°ÒĽ
Ðĸ Ð¾
ĠÐ· Ð°Ð»
ĠÑįÑĤ Ð½
ĠÑĤÓĻÑĢÑĤÑĸ Ð±Ñĸ
ĠÐĲ ÑħÐ¼ÐµÑĤ
ÐµÐ³ ÑĸÐ¼ÐµÐ½
ÑĭÐ½Ð´Ñĭ ÒĵÑĭ
ĠÑĤÐµÑħÐ½Ð¾Ð»Ð¾Ð³Ð¸Ñı Ð»Ð°ÑĢ
ÐºÐ°Ñĩ Ð°ÑĤÑĮ
ĠÐ¾ÑĤÑĭÑĢ Ð°Ð´Ñĭ
ĠÐŀÒĽ Ñĥ
ĠÑĤ Ð°Ð½Ñĭ
ĠÐºÓ© Ð»
Ð´Ðµ Ñģ
ĠÐºÐ¸ ÑĸÐ¼
ĠÐ°Ð¿ Ð¿Ð°ÑĢÐ°ÑĤ
ĠÒ±ÑģÑĭÐ½ ÑĭÑģÑĤÐ°ÑĢ
Ð°Ð½ Ñĥ
ĠÑĪ Ð°ÒĵÑĭÐ¼
ĠÐľ Ðľ
ĠÐ± Ð¾ÐºÑģ
Ð°Ñĥ Ð¸
ĠÐ¸Ð½Ð²ÐµÑģÑĤÐ¸ÑĨÐ¸Ñı Ð»ÑĭÒĽ
ĠÐºÐ¾Ð¼Ð¸ÑĤ ÐµÑĤÑĸÐ½ÑĸÒ£
ĠÐ¿Ð°Ð¹Ð´ Ð°Ð»Ñĭ
ÑĥÑĢ ÐµÑĤ
ĠÐ±ÐµÑĢÑĥ ÑĪÑĸ
Ð»Ð°Ð¹ Ð´
ĠÐĳ Ò¯
ĠÐ¶Ò¯Ð¹ Ðµ
ĠÐĲ Ð±
ĠÐ¿ Ðµ
ĠÐ¶Ò¯ÑĢ ÐµÐº
Ðľ ÐµÐºÑĤÐµÐ¿
ĠÐ¤ÑĢÐ°Ð½ ÑĨÐ¸Ñı
Ñģ Ó©Ð·
ÑĪ Ð°Ð»ÑĭÒĽ
ĠÐºÒ¯ Ð¼
Ðŀ Ðł
ĠÐ½ÐµÑģ Ð¸
ĠÑĤÑĭÑĢ ÑĭÑģ
ĠÐ¼ÓĻÑģÐ» Ð¸ÑħÐ°ÑĤ
ĠÐ½ Ð°ÑģÐ¸ÑħÐ°ÑĤ
ĠÑįÐ»ÐµÐºÑĤÑĢÐ¾Ð½ Ð´Ñĭ
ĠÐ´ Ð°Ð»
ĠÑĤÐ¾Ð½ Ð½Ð°
u s
ĠÐºÑĸÑĢ ÑĸÑģ
ĠÐ±Ð¾Ð» Ð°ÑĪ
ĠÒĽÒ± Ð·ÑĭÑĢ
ĠÐĲ Ð²
a y
ĠÑĤÐ°Ð± ÑĭÐ»Ð°ÑĤÑĭÐ½
Ð¼ ÑĭÑĪ
Ð¾ ÒĵÐ°Ð¼
Ð¾Ñģ ÑĭÐ½
ÑĭÒĵ Ð°ÑĢ
Ġ ÉĻ
ĠÐĸÐ¾Ð» Ð´Ð°Ñĥ
ĠÓ©Ð· Ð´ÐµÑĢÑĸÐ½ÑĸÒ£
ĠÑĤÐ¾Ð»ÑĭÒĽ ÑĤÑĭÑĢÑĥ
3 1
Ð´Ñĭ Ð¼
Ġ3 1
ĠÐ°Ð· ÑĭÒĽ
ĠÒ±Ð¹ÑĭÐ¼ Ð´Ð°ÑĢ
ĠÐº ÑĸÑĪ
Ð°Ð½Ð´ Ð¸Ð´Ð°
ĠÑĤÐ°Òĵ Ð°Ð¼
ÑĭÐ¼ÑĭÐ· ÒĵÐ°
ĠÒĽÐ¾Ð¹ ÑĭÐ¿
Ðľ ÐµÐ¼Ð»ÐµÐºÐµÑĤ
ĠÓ©ÑĤÐºÑĸÐ· Ð´Ñĸ
Ð´Ðµ ÑģÑĥ
ĠÓĺ Ð»ÐµÐ¼
ĠÒ¯Ð» ÐµÑģ
Ð¸ÑĨ ÐµÐ¹
ĠÐ¢ Ó©
ĠÐ±Ð°Ð» Ð°Ð±Ð°ÒĽ
Ðŀ Ð¹
ĠÐºÐ»Ð°Ñģ Ñģ
ĠÐ½ÐµÐ³ÑĸÐ· Ñĸ
ĠÑĸÑģÑĤ ÐµÑĢÑĸ
ĠÐ¶Ð°Ð» ÒĵÑĭÐ·
ĠÐķÑĥÑĢÐ¾Ð¿ Ð°
ÐµÐº Ñĸ
ĠÑĤÐ°Ð¿ ÒĽÐ°Ð½
Ð¡Ð¾Ð½ Ð´Ð°Ð¹
ĠÐºÓ©ÑĢÑģÐµÑĤ ÑĸÐ¿
ĠÐ¢Ò¯ÑĢ Ðº
ÐµÐ³Ðµ Ð¹
ÐµÑĤ Ð¸ÐºÐ°Ð»ÑĭÒĽ
ĠÐ´ÓĻÑģÑĤÒ¯ÑĢ Ð»Ñĸ
ÐµÐ»ÐµÑĢ Ð´ÑĸÒ£
ĠÐº ÑĸÑĤ
Ñĥ ÑĭÐ»
ÐµÐ¼ ÐµÑĤ
Ð³Ðµ Ð´ÐµÐº
ĠÐµÐ´Ñĸ Ð¼
ĠÐ¿Ð°Ð¹ÑĭÐ· ÒĵÐ°
ĠÐ±Ð°Òĵ Ð°ÑģÑĭ
ĠÐº ÑĸÑģÑĸ
ĠÓ©ÑĢ ÐºÐµÐ½
c om
Ðĸ Ð°ÑĢ
ĠÓ©Ð» ÑĤÑĸÑĢ
ÓĻÑĢ Ñĸ
ÑĸÐ¼ÑĸÐ· Ð´Ðµ
ĠÒ¯Ð½ÐµÐ¼ Ñĸ
ĠÑģÓ©Ð· Ñĸ
ĠÑģÐµÐ½ ÑĸÐ¼Ð´Ñĸ
Ð´ ÐµÑĤÑĤÐµ
Ð± Ò±Ð»
ĠÐĸÐ°Ò£ Ð°Ð»ÑĭÒĽÑĤÐ°ÑĢ
ĠÐ´ÐµÑĢÐµÐº ÑĤÐµÑĢ
ĠÐ¶Ð°ÑĤ Ð°ÑĤÑĭÐ½
ÑĥÑħ Ð³Ð°Ð»
ĠÑģÐ°Ð» Ð°ÑģÑĭ
ĠÐ¿ÑĢ Ð¸Ð½
ÑĸÑģÑĤ ÑĸÒ£
ĠÐ± Ð°Ð±
ĠÓ©Ð· ÐµÐºÑĤÑĸ
ĠÐ¼Ðµ ÑħÐ°Ð½
ĠÐµÑģÐµÐ¿ ÑĤÐµÐ»
ĠÒĽÐ°ÑĤÑĭÑģ ÑĭÐ¿
ÑĢÐ°Ð¼ Ð¼
ÐĲ Ð½
4 5
ĠÐ¶Ò¯ÑĢÐ³ÑĸÐ· ÑĸÐ»ÐµÐ´Ñĸ
Ð° ÑĪÐ°
ĠÑĤÒ±Ð»Òĵ Ð°Ð»Ð°ÑĢÐ´ÑĭÒ£
u t
Ð°ÑĤ ÒĽÐ°
Ðº Ð¾Ð²
ÑĸÒ£ÑĸÐ· Ð´Ñĸ
ĠÒĽÐ°ÑĢÐ¶ÑĭÐ» Ð°Ð½Ð´ÑĭÑĢÑĥ
ÑģÐ°Ð¼ Ð±Ð»
ĠÐ¾ÒĽ Ð¸
ĠÓĻÐ´ÐµÐ±Ð¸ ÐµÑĤ
ĠÑĤÐ¾ÒĽ ÑĤ
U R
ĠÒĽÒ±ÑĢ Ð°Ð»Ñĭ
ÑĦ ÑĢ
ĠÒĽÐ°Ð» Ð°Ð´Ñĭ
ÑĸÐ¼ÑĸÐ· Ð³Ðµ
ĠÐº Ð°Ð±
ĠÓĻÐ·ÑĸÑĢ Ð»
ÑĭÐ¼ Ð°
ĠÒĽÐ¾ÒĵÐ°Ð¼ Ð½ÑĭÒ£
ĠÒĽÐ°Ð»Ð¿ ÑĭÐ½Ð°
ĠÒĽÐ¾Ñģ Ñĥ
Ó© Ò£Ð³
ÐµÐ³ÐµÐ½ Ð¼ÐµÐ½
ĠÐ°ÑĢ Ð´Ð°Ð³
Ð°Ð± Ð°ÐµÐ²
Ð°Ð¹ ÑĤ
ĠÐ±Ð¾Ð»Ð¼ Ð°ÒĵÐ°Ð½
ĠÐ¼ÑĥÐ·Ñĭ Ðº
Ðĺ Ðļ
ÓĻ ÐºÑĸÑĢ
Ò±ÑĢ ÑĭÐ»ÑĭÐ¼
ÒĵÑĭÐ» Ð°ÑĢ
ĠÑĤÑĭÒĵ ÑĭÐ·
ĠÐ¶ Ð°Ð¼Ð°Ð½
ĠÑĥÐ½Ð¸Ð²ÐµÑĢÑģÐ¸ÑĤ ÐµÑĤÑĸÐ½ÑĸÒ£
ÑĤÐ° ÐµÐ²
Ð»ÑĭÒĽ ÒĽÐ°
ÐµÐ¼ ÑĸÑĢ
ÑĭÑģÑĤ Ð°ÒĵÑĭ
ĠÐ¼Ò¯ÑĪ ÐµÐ»ÐµÑĢÑĸ
ĠÐ°ÑĢ Ñħ
Òļ Ð¾ÑĢ
ÑĪÑĸÐ»ÐµÑĢ Ñĸ
ĠÐļÐµÒ£ ÐµÑģ
u n
ÂŃ ÂŃ
ÑģÐµÐ½ Ð±Ñĸ
Ð¿ÐµÑĢ Ð°ÑĤÑĥÑĢ
ÐµÐ·ÐµÐ½ ÑĤÐ°ÑĨÐ¸Ñı
ĠÑĤÑĸÐ» ÑĪÑĸÑģÑĸ
Ð· Ð°
Ð±ÐµÐº ÑģÑĤÐ°Ð½
ÒĽ Ð°Ð·
Ð°Òĵ ÑĭÐ·
ĠÐ¡Ð¾Ð» ÑĤÒ¯ÑģÑĤÑĸÐº
ĠÐľ ÐµÐºÑĤÐµÐ¿
ĠÐ¾ÑĢÐ³Ð°Ð½ Ð´Ð°ÑĢÐ´ÑĭÒ£
ĠÐ½ Ð¸
ÒĵÐ°Ð¼ Ð±Ð°ÑĢ
ĠÑħÐ°Ð»ÑĭÒĽ ÒĽÐ°
ĠÑĪ ÑĭÑĢ
ĠÐ¶Ð°ÒĽÑģÐ°ÑĢ ÑĤÑĥ
ĠÐ¿ Ð°
ĠÐ½ ÐµÐ¼
ĠÒĽÐ°Ð´Ð°ÒĵÐ°Ð» Ð°Ñĥ
ĠÐºÓ©ÑĢ ÑĸÐ½ÐµÐ´Ñĸ
r e
ĠÐĲ Ð¼Ð°Ð½
ĠÓĻÐ» ÐµÑĥ
Ð±Ò± Ð´Ð°Ð½
Ð¼Ð¸Ð½ Ð¸ÑģÑĤÑĢ
iÐ½ Ðµ
o v
ĠÐ¾ÑĢÐ³Ð°Ð½ Ð´Ð°ÑĢ
Ð´ Ð¸
ĠÐºÓ©ÑĢÑģÐµÑĤ ÑĸÐ»ÐµÐ´Ñĸ
ĠÐ°ÑĪ ÑĭÐ¿
Ð°ÑĤÑĭÐ» ÒĵÐ°Ð½
Ð°ÒĽÑĭÑĢ ÑĭÐ±Ñĭ
ĠÐ¾ÒĽ ÑĥÒĵÐ°
ĠÐµÑģÐµÐ± ÑĸÐ½ÐµÐ½
ĠÐ´Ð°Ñĥ ÑĭÑģ
ÐµÑģ ÑĸÒ£
ĠÐ¶Ð°Ñģ Ó©ÑģÐ¿ÑĸÑĢ
ĠÓĻÐ´Ñĸ ÑģÑĤÐµÐ¼ÐµÐ»ÑĸÐº
ÒĴ Ð«
ĠÐºÐµ Ð´ÐµÐ½
Ò±ÑĢ Ð°ÒĽ
ĠÐ°ÑģÑĭÑĢ Ð°Ð´Ñĭ
Ð½Ð¸ ÑĢ
ĠÑĤÒ±ÑĢÒĵÑĭ Ð´Ð°Ð½
ĠÒĽÐ°ÑĤÑĭÑģ ÒĽÐ°Ð½
Ðĺ Ð¯
ÑĤ Ð¾Ð¼
Ñĥ ÒĵÐ°Ð½
Ðµ Ð´ÐµÐ½
Ð°ÑĤ ÒĽÐ°Ð½
ĠÐ´Ð°Ð¼ ÑĭÒĵÐ°Ð½
ÑģÑĭÐ» ÑĭÒĽ
ĠÐºÒ¯ Ð»
Ñĥ Ð¼ÐµÐ½
ĠÐļ Ð°Ð·Ð°Ñħ
Ð³ÐµÑĢ ÑĪÑĸÐ»ÑĸÐº
ĠÐŀ Ð±Ð»
ĠÐ¾Ð±ÑĬÐµÐºÑĤ ÑĸÐ»ÐµÑĢ
ĠÐº Ð°Ð½Ð´Ð¸Ð´Ð°
ĠÒĽÐ°ÑĢÐ°Ð¼ Ð°ÑģÑĤÐ°Ð½
ÑĪ ÐºÑĸ
ÐĲÐ¹ ÑĤÐ°
ĠÐ¾ÑĢÐ³Ð°Ð½ Ð´Ð°ÑĢÑĭ
o o
ĠÐ¼ÐµÐºÑĤÐµÐ¿ ÐºÐµ
ĠÐ¿ÑĢ Ð¾Ð³
Ò±Ð» Ñĥ
ÐĳÑĸÐ· Ð´ÑĸÒ£
Ðº ÑĨÐ¸Ð¾Ð½
Ð» Ð¾Ð³
ÐĲ ÑģÑĤÐ°Ð½
ĠÑģÓ©Ð¹ Ð»ÐµÐ¼
Ð¼ Ð°Ñģ
ĠÐ°ÑģÑĭÑĢ ÑĥÒĵÐ°
Ð¡ Ð°Ð½
Ñĥ Ð¼Ð°Ð½
ĠÐĳÒ¯Ð³ÑĸÐ½ Ð³Ñĸ
ĠÐ¢ Ó©Ð»
ÒĽ Ð°Ð»
Ðĸ ÑĭÐ»
ĠÑģÐ°Ð½ Ð°Ð»Ð°Ð´Ñĭ
ĠÑģ Ð°Òĵ
ÒĽ ÑĭÐ¼Ð´Ñĭ
ĠÐ¼Ð°Ð·Ð¼Ò± Ð½Ñĭ
ĠÐµ Ðº
ĠÐĳ ÐĲÒļ
ĠÐ¡ Ó©Ð¹
ÐµÑĢÑĤ Ð¸ÑĦ
Ðĵ ÐĨ
Ð°Ñĥ Ð»
ĠÐ¾Ò£ Ð°Ð¹
Òĵ Ð°ÒĽ
ĠÐ±Ð°ÑĢ Ð°
ĠÐ¾ÑĢÐ³Ð°Ð½ Ð´Ð°ÑĢÑĭÐ½ÑĭÒ£
ĠÐ¼ÓĻÐ»ÑĸÐ¼ ÐµÑĤ
Ð¸Ñģ Ñģ
ĠÑĤÒ¯ÑĢ Ð»ÐµÑĢÑĸÐ½
ĠÒĽÒ±ÑĢ Ð¼ÐµÑĤ
Ð»ÑĭÒĽ ÑĤÑĭ
ĠÐ´Ð¾ ÐºÑĤ
ÒĽ Ð°Ð±
Ñĥ Ð´ÑĸÒ£
Ð»ÐµÑĢ Ð³Ðµ
Ð´Ð°Ð½ Ð´ÑĭÑĢÑĥ
ÑģÑĤ Ð°Ð·
ĠÑĪ Ð¾ÑĤ
ĠÒļÐ°Ð· ÐĲÒĽÐ¿Ð°ÑĢÐ°ÑĤ
ĠÐ´Ð¾Ð» Ð»Ð°ÑĢ
ĠÑĥÐ°ÒĽÑĭÑĤ ÑĪÐ°
ĠÐ½ÓĻÑĤÐ¸Ð¶ ÐµÑģÑĸ
Ð´ÐµÐ¼ Ñĸ
ĠÐ±Ð°Òĵ Ð°Ð»Ñĭ
ĠÐĿ Ð°ÑĥÑĢÑĭÐ·
ĠÒĽÐ°Ð¹ ÑĭÑĢ
ĠÒĽÒ±ÑĢÑĭÐ»ÑĭÐ¼ Ñĭ
Ġ ?
Ġ t
ĠÐ°ÑģÑĭÑĢ Ð°ÑĤÑĭÐ½
ĠÐ¶Ð°Ñģ ÑĭÑĢ
ĠÓ©Ð¼ÑĸÑĢ Ñĸ
ĠÐ±Ð°Ñģ ÒĽ
ĠÐºÓ©ÑĢÑģÐµÑĤ ÐºÐµÐ½
Ġ3 5
ĠÐ¿ÑĢÐµÐ·Ð¸ Ð´ÐµÐ½ÑĤ
Ðļ Ðŀ
ÑĢÐ°ÒĽ Ò±ÑĢÑĭÐ»ÑĭÐ¼
ĠÐ¶Ð°ÒĵÐ´Ð°Ð¹Ð»Ð°ÑĢ Ð´Ð°
ÑĭÑĢ Ð¼Ð°Ð½
ĠÑĤ Ð°Ð·
ĠÑĪ Ð¾
Ðº Ð»
ĠÐ¾ Ð·
Ġ Ð°ÒĵÐ°
ĠÐºÐµÒ£ ÐµÑģÑĸÐ½ÑĸÒ£
ÐµÐ¶Ò¯Ð· ÑĸÐ»ÑĸÐº
ÐĳÐ¾Ð» Ð°ÑĪÐ°ÒĽ
ĠÐ°Ð¿ ÑĤÐ°
ĠÐ¿Ð°ÑĢÑĤ Ð¸Ñı
ĠÐ°ÑĢ Ð¼Ð°Ð½
Ò°Ð» ÑĤÑĤÑĭÒĽ
Ñĥ ÐµÐ·
Ð¼ ÐµÐ´
ĠÐ¼ÐµÐºÐµÐ¼ ÐµÑģÑĸ
ĠÐµÐºÐµÐ½ Ð´ÑĸÐ³ÑĸÐ½
ĠÐ¾ÐºÑĢÑĥ Ð³Ñĸ
ĠÐ°Ð» ÒĵÐ°
ĠÑĪÐ°ÑĢ Ð°
Ò±ÑĢ ÑĭÐ½
ÒĽ Ð°Ð·Ð°ÒĽ
ĠÐĳ ÐµÐ»
ĠÓĻ ÑģÑĸÑĢÐµÑģÐµ
ĠÐ¼Ð°Ð¼Ð°Ð½ Ð´Ð°ÑĢ
ĠÑĤÑĥÑĢ Ð¸Ð·Ð¼
ĠÑĪÑĭÒĵ Ñĥ
Ð¼ Ð°ÑĢ
ĠÐ¼ÐµÐ½ Ñĸ
Ò® Ð¹
ÑĢ ÐµÐº
ĠÐ¢ Ò±
ĠÑĪÐ°Ð¼ Ð°ÑģÑĭÐ½Ð´Ð°
Ð¸ Ð°Ð»Ñĭ
ĠÑģÐ¾ ÒĽ
ĠÐ¶ÐµÑĢ Ñĸ
Ðľ ÐĶ
ĠÐºÓ©Ð¿ ÑĪÑĸÐ»ÑĸÐº
ĠÒĽÑĥ Ð°Ð½ÑĭÑĪ
ĠÐ´ Ð¸Ñģ
ĠÒļ Ð°Ñģ
ĠÓĻÐ» ÑĸÐ¿
ĠÐ¾ÑĢÑĤ Ð°ÒĵÐ°
ĠÐ¼ÓĻÑĢÑĤÐµ Ð±
ĠÐĲÒĽ Ð¼Ð¾Ð»Ð°
ĠÐ¶ÓĻÑĢ Ð´ÐµÐ¼
ÒĽ Ð¾Ð¹
Ð¿ ÑĭÐ½
ĠÑĪ Ò±
ĠÑģÒ¯ ÑĤ
Ġ9 0
Ð°Ñģ ÒĽÐ°Ð½
ÐµÐºÑĤ ÑĸÒ£
ĠÒĽÒ±ÑĢÐ°Ð¼ Ñĭ
ĠÐ¶Ð°Ñģ Ð°Ð¹
ĠÐ¼Ðµ ÑĪÑĸÑĤ
Ð¿Ð°Ð½ Ð¸ÑıÑģÑĭ
Ñĸ ÑĤÐ°Ð¿
ĠÑĤÐµÑĢ ÑĢ
Ð´ Ð°ÑģÑĤÑĭÑĢÑĥ
ĠÐĳ Ð°Ð½Ðº
ĠÐºÐ¾Ð´ ÐµÐºÑģ
Ðĸ Ò±Ð¼ÑĭÑģ
ĠÐºÑĸ ÑĪÑĸ
ĠÐĳ Ð°ÑĢÐ»ÑĭÒĽ
ĠÐ°ÐºÑĤ Ð¸Ð²
Ð¡ ÓĻ
Ð¾Ð½ ÑĭÒ£
ÐµÑĢÑĤÐ¸ÑĦ Ð¸Ðº
ĠÐĶ Ð¶
ÐµÐº ÐµÐ³Ðµ
Ñģ ÑĸÒ£
3 5
ĠÐ°Ñĥ ÑĭÑģÑĤÑĭÑĢ
Ðļ Ð¾Ð¼
ÑģÑĤ ÑĸÒ£
ĠÐļ ÐµÐ¹
ĠÑĢÐµÐ¶ Ð¸Ð¼
Ð°Ð» Ð´Ð°ÑĢ
Ð¶ Ð°Ð¹Ñĭ
ĠÐ°ÒĵÑĭÐ¼ Ð´Ð°ÒĵÑĭ
ĠÐºÒ¯Ð½ ÑĤÑĸÐ·
Ð¾Ð» Ñİ
ĠÐĲÑģÑĤÐ°Ð½ Ð°Ð´Ð°
ĠÒ¯ÐºÑĸÐ¼ ÐµÑĤ
ĠÐ¿Ð¾ÑĢ Ð½Ð¾
ĠÑģÐ°ÒĽ ÑĤÐ°Ð»
ĠÐ¾ÐºÑĢÑĥ Ð³
ĠÑĤÑĥ ÑĭÐ½
ĠÐ½ÓĻÑĢ ÑģÐµ
Ð°Ñĥ ÑĭÐ½
ĠÑģÐ°Ð¿ Ð°ÑģÑĭ
Ð°Ñģ ÑĤ
ĠÑģÐ°Ñı ÑģÐ°ÑĤÑĭ
ĠÑĦÐ¸Ð» Ð¸Ð°Ð»
ÐĲ Ð±Ð°Ð¹
ĠÐ¶Ð°Ð¹ ÑĭÐ½Ð´Ð°
ÑĸÐ¼ Ð´Ðµ
Ð» Ð°Ð¹Ð´Ñĭ
ÑĤÒ¯ Ð»ÑĸÐº
ĠÐº Ð°Ð´ÑĢ
ĠÐŀÑģÑĭ ÒĵÐ°Ð½
Ð» Ð°Ð²
ĠÐ¶Ò¯ ÐºÑĤ
ĠÐ¾ÑĤÐ°Ð½ Ð´ÑĭÒĽ
ÑĪ Ð°Ð¼Ð°
ÐĶ Ðķ
ĠÐµÐ¼ Ð´ÐµÑĥ
ĠÐ±ÑĸÑĢ ÑĸÐ½
ÑĢÐ¸ ÑĤÐ°Ð½
Ðŀ ÐĽ
ĠÐ¶ ÑĭÐ½
ĠÐľÓĻÑģ ÐµÐ»ÐµÐ½
ÑĸÒ£ Ð´Ñĸ
ĠÐºÓĻÑģÑĸÐ¿ ÑĤÑĸÐº
ĠÐºÐµ Ð´ÐµÑĢ
a c
ĠÐ°Ð» ÑĤÑĭ
ĠÐ¼ÑĭÒ£ Ð½Ð°Ð½
ĠÑĤÒ±Ð» ÒĵÐ°Ð½ÑĭÒ£
ĠÐ¼Ð°ÑĤÐµÑĢÐ¸Ð°Ð» Ð´Ð°ÑĢ
ĠÐ±ÑĸÐ»Ð´ÑĸÑĢ Ð´Ñĸ
ĠÐµÑģÐºÐµÑĢÑĤ ÐºÑĸÑĪ
Ð°ÑĪ Ð°ÑĢ
ĠÒĽ Ð°ÑĤÑĭÐ½
ĠÑģÐ°Ð±Ð°ÒĽ ÑĤÐ°ÑĢ
ĠÒĽÑĭÐ¼ Ð±Ð°ÑĤ
ÑĭÑģ ÑĭÐ¼ÐµÐ½
Ð´ÑĭÒĽ ÒĽÐ°
3 6
ĠÑģÐ°Ð½ Ð°ÑĤ
Ġ +
ĠÐ¾ÒĽ Ñĭ
Ð¸ÑĨ ÐµÐ½
ĠÐ¢ ÑĸÐ»
ĠÑģ Ð°ÑĤÑĥ
Ð¡ ÐµÐ½
ĠÐºÓ©Ð·ÒĽÐ°ÑĢ Ð°Ñģ
ĠÐ¡ ÐµÐ¼ÐµÐ¹
Òļ Ð¾ÑģÑĤÐ°Ð½
ĠÐ½ÑĭÒĵ Ð°Ð¹ÑĤÑĥ
ĠÐ´Ð¸ Ð°Ð³
ĠÐ´ÐµÒ£Ð³ÐµÐ¹ ÑĸÐ½
ĠÑĪ Ð°ÒĽ
ĠÐ±Ð°Ð»Ð°Ð»Ð°ÑĢ Ð´Ñĭ
ĠÐĸ Ð°Ð·
Ð¸Ðº Ð°Ð½ÑĭÒ£
Ð°Ð»Ð°ÑĢ Ð´Ð°
ĠÒĽÐ°ÑĤÑĭÑģÑĥ ÑĭÐ¼ÐµÐ½
ÑĤ ÓĻ
ĠÐ¿Ð°ÑĢ Ð°ÒĽ
ĠÒĽÐ¾Ñģ Ð¿
ĠÑĤÐ°Ð»Ð°Ð¿ ÑĤÐ°ÑĢ
ĠÐ¿ÑģÐ¸Ñħ Ð¾Ð»Ð¾Ð³Ð¸ÑıÐ»ÑĭÒĽ
Ð» ÑĭÐ¼
ĠÑĤÒ±ÑĢÒĵÑĭÐ½ Ð´Ð°ÑĢÑĭ
8 0
ĠÒ¯ Ð´ÐµÑĢ
ĠÐ±Ð°Òĵ Ñĭ
ĠÐ°Ð·Ð°Ð¼Ð°ÑĤÑĤÐ°ÑĢ Ð´ÑĭÒ£
Ð« Ð¡
ĠÑĤÐµÐ¼ Ð¿ÐµÑĢÐ°ÑĤÑĥÑĢ
Ð°ÑĤ ÑĤÐ°Ð½
ĠÐĺ ÑģÐ»Ð°Ð¼
Òĵ Ò±ÑĢ
ÓĻ Ð»Ñĸ
ĠÐ ®
ÑĤÑĸ Ð³ÑĸÐ½
Ð°Ñı Ñĥ
ĠÐ¶Ð°Ð· Ð°Ð´Ñĭ
ĠÒĽÒ±ÑĢÐ°Ð» Ð´Ð°ÑĢÑĭ
ĠÒ±ÑģÑĤ Ð°Ð¿
Òĵ ÑĭÐ½Ð°
Ð¸Ðº Ð»
ÐĳÐ°Ð» Ð°Ð»Ð°ÑĢ
ÑĤ Ð¿
ĠÑģÒ± Ñħ
ĠÑĸÑģÑĤ ÐµÐ¹ÑĤÑĸÐ½
Ð°Ð» Ð¸ÑĤ
ĠÐŀÐ½ Ð´Ð°
ĠÐ±Ð°Ð» Ð°ÑģÑĭ
ĠÐ¶ÐµÑĤ Ñĸ
201 4
ĠÒĽÐ¾Ð¹ ÑĭÐ»Ð°ÑĤÑĭÐ½
ĠÐ½Ò±Ñģ ÒĽÐ°Ñĥ
Ò¯ Ñģ
ĠÐ¾ÑĢÐ½ ÑĭÐ½
ĠÑģÐµÑĢ ÑĸÐºÑĤÐµ
Ð´Ð° ÑĥÑĭ
ĠÒ¯ÑģÑĤ ÐµÐ»
ĠÑģÑĸÐ· Ð´ÑĸÒ£
ĠÐºÑĸÑĢ ÐµÐ´Ñĸ
Ñĥ ÑħÐ°Ð½Ð¸
ĠÐµÑĢÐµÐºÑĪÐµÐ»ÑĸÐº ÑĤÐµÑĢÑĸ
ÐµÑģ ÑģÐ¸Ñı
ĠÐ°Ð»Ñĥ ÑĪÑĭ
ÑĪ ÑĸÐ»
ĠÑģÐ°Ð» Ð´Ð°ÑĢÑĭÐ½Ð°Ð½
ÐĲ ÑĤÑĭÑĢÐ°Ñĥ
ĠÑĤÑĥÑĢ Ð°
Ðĸ Ð°Ð½
ĠÐ±Ð°Ñģ ÑĤÐ°Ð»Ð°Ð´Ñĭ
ĠÓĻÐ» Ð´Ðµ
Ð°Ð· Ð¸Ñı
ĠÐ³ ÑĢÐ°Ð½
ĠÐ¶Ð°Ñĥ ÑĭÐ½
ĠÐĳÑĸÑĢ ÑĸÐ½ÑĪÑĸ
ÑĤ Ð°Ð¶
ĠÐ¼Ó©Ð»ÑĪ ÐµÑĢÑĸ
ĠÒĽÐ¾ÑĢ Òĵ
ĠÐ½Ð°ÑĢ ÑĭÒĵ
ĠÐ¿ÑĢÐ¸Ð½ ÑĨÐ¸Ð¿
ĠÓ© Ð¹ÑĤÐºÐµÐ½Ñĸ
ĠÐĵ ÐµÑĢÐ¼Ð°Ð½
ĠÐ±Ð¾Ð» ÑĥÒĵÐ°
ĠÐ¼Ð¾Ð½ Ð¸ÑĤÐ¾ÑĢ
ĠÒļÒ± Ð´Ð°Ð¹
ĠÒĽÒ±Ð¿ Ð¸Ñı
ĠÑĪ Ð°Ð¹
ÐľÒ± Ð½
ÑĨ Ð¸
Ð°ÑĤÐµÐ³ Ð¾ÑĢÐ¸Ñı
ĠÑģÐ°Ð»ÑĭÑģÑĤÑĭÑĢ ÒĵÐ°Ð½Ð´Ð°
Ġ O
ĠÐļ ÐµÐ·
ĠÑĨ Ð¸ÑĦÑĢ
ĠÐ·ÐµÑĢÑĤÑĤÐµÑĥ Ð»ÐµÑĢ
ÒĽ Ð°ÑĤÑĭÐ½
Ð¾Ðº ÑĢÐ°ÑĤ
ĠÐĸ Ò±Ð¼ÑĭÑģ
Ð°Ð¿ Ð°ÑĢ
ĠÑĸÑģÑĤ ÐµÐ¿
ĠÐ¾ÑĢÑĭÐ½ Ð´Ð°ÑĢÑĭ
ĠÒĽÐ¾Ñģ ÒĽÐ°Ð½
ÑĭÒ£ÑĭÐ· ÒĵÐ°
Ò¯ ÐºÐµÐ½
ÑĤÐ°Ñĥ ÒĵÐ°
ĠÐ´Ð°ÑıÑĢ Ð»Ð°Ñĥ
Ð½Ð°Ð¼ Ð°
Ð´ ÑĭÐ½
ĠÑģ Ð¼
ĠÐ¶Ð°ÑĢ Ð°ÒĽ
ĠÐ¸Ð½ Ð½Ð¾Ð²Ð°ÑĨÐ¸ÑıÐ»ÑĭÒĽ
ĠÐºÐµÐ» Ñĥ
ĠÑĪÐµÐ± ÐµÑĢ
ĠÑĤÐµÐ»Ðµ Ð°ÑĢÐ½
Ò° Ò°
ÑĤ Ð°Ð±
ÑĸÐ¼ Ðµ
ĠÐ°Ð´Ð°Ð¼ Ð´Ð°ÑĢÒĵÐ°
ĠÐ¼Ò± ÒĽ
ÑĭÑĢ Ð°Ñĥ
ĠÐĳÐ°Ð» Ð°Ð»Ð°ÑĢ
ĠÒĽÐ°Ð±ÑĭÐ»Ð´Ð°Ð½ ÒĵÐ°Ð½
Ò£ ÑĭÐ·
ĠÒĽÑĭÐ· ÑĭÒĽÑĤÑĭ
ĠÑĪÐ°Ð± ÑĥÑĭÐ»
Ð¾ ÑģÑĤ
ÐµÐ´ Ð¾Ð¼
Ð½ Ð°Ñı
ĠÐ¼ÐµÐ´Ð¸ÑĨÐ¸Ð½ Ð°
ĠÐ¡Ð¾Ð½ Ð´Ð°
ĠÐ¼Ð°ÒĽÑģ Ð°ÑĤÑĤÐ°ÑĢ
ÐĲÐĽ Ð«Òļ
ĠÑĤÑĥ ÑĭÐ½Ð´Ñĭ
ĠÐĲ Ð·Ð°Ð¼
ĠÐ¼ÑĸÐ½Ð´ ÐµÑĤÑĤÐµÑĢ
Ð¼ ÑĥÐ½
ĠÐ±Ó©Ð» ÑĸÐ¿
ĠÐµÐ»ÑĸÐ¼ÑĸÐ· Ð´Ðµ
ÒĽÐ°ÑĢ Ð°Ð»ÑĭÒĽ
ĠÐ¼ÓĻÐ»ÑĸÐ¼ Ð´ÐµÐ´Ñĸ
ĠÐļÓ© Ðº
ĠÐ¿Ð¾ ÑĪ
Ñģ ÑĭÐ¼ÐµÐ½
ÑĢ Ð°Ð´
ĠÑģÑĤÑĥÐ´ÐµÐ½ÑĤ ÑĤÐµÑĢ
ĠÐ¶Ò¯Ðº ÑĤÐµÑĥ
Ð³ ÑĸÑĢ
Ð½ Ð¸Ðº
ĠÐ±Ð°ÒĵÐ´Ð°ÑĢÐ»Ð°Ð¼ Ð°ÑģÑĭÐ½
ĠÐ±Ð°ÑģÑĤÐ°Ñĥ ÑĭÑĪ
ĠÓ©Ð»ÑĪ ÐµÐ¼
Ð¾ Ñı
ĠÐ¶ÑĭÐ» Ð´ÑĭÒĵÑĭÐ½Ð°
ĠÐ¸Ð½ÑĦ ÑĢÐ°ÒĽÒ±ÑĢÑĭÐ»ÑĭÐ¼
ĠÒĽÑĭÐ·Ð¼ÐµÑĤ ÐºÐµÑĢ
ĠÐºÐ¾Ð¼Ð¸ÑĤ ÐµÑĤÑĸ
ĠÐ¼ Ð¸Ðº
Ñĥ Ð´
ĠN UR
ÑĤ ÐµÐº
ĠÑĤÐ¸ Ð¿
ĠÐ¾Ð±Ð» ÑĭÑģÑĤÐ°ÑĢ
ĠÐ¾ÑĢÑĭÐ½ Ð´Ñĭ
ĠÐ¼ÑĸÐ½Ð´ ÐµÑĤÑĤÐµÑĢÑĸ
Ġ Ñĭ
ĠÑģÐ°Ð» Ð¼Ð°ÒĽ
ĠÐ¾ÑĢÐ½Ð°Ð» Ð°ÑģÑĤÑĭÑĢ
ĠÐºÐ¾Ð¼Ð¼ ÐµÑĢ
ÑĭÒ£ Ð´Ð°ÑĢ
ĠÐ±Ð°Ñģ ÑĪÑĭÐ»Ð°ÑĢÑĭ
ĠÐºÐµÑĤ ÐµÐ´Ñĸ
Ġ www
ĠÑģ ÑĤÐ°ÑĤÐ¸ÑģÑĤ
ĠÐµÑĪ ÒĽÐ°Ð½Ð´Ð°Ð¹
ĠÑĤÐµÑĢÐ³Ðµ Ñĥ
ĠÑĤÒ±ÑĢ Ð¼ÑĭÑģ
ÐµÑģ Ñĥ
ĠÓ©Ð½ ÑĸÐ¼Ð´Ñĸ
ĠÐ¶ÐµÐº Ð¿Ðµ
ĠÐµ ÐºÐµÑĥ
ÑĪ ÐµÑĤ
ÑĮ Ñı
Ð°Ñģ Ð¿
ĠÐµÐ½ ÐµÐ´Ñĸ
ĠÑĸÐ· Ð´ÐµÐ½
ĠÑĦÐ¸Ð» Ð¾ÑģÐ¾ÑĦ
ÑĥÐµÐ· Ð¾Ð²
ĠÑĤÑĥÑĢ Ð½Ð¸ÑĢ
ĠÓĻÐ´Ñĸ ÑģÑĤÐµÑĢÑĸ
ĠÐ±ÐµÑĢ ÑĸÐ»ÐµÑĤÑĸÐ½
Ð¼Ð° ÑĪÑĭÐ»ÑĭÒĽ
ÐŀÒĽ ÑĥÑĪÑĭÐ»Ð°ÑĢ
Ðľ Ð£
ĠÐ±Ò± Ð¹ÑĭÐ¼
ÐµÑģ ÑĸÐ¼ÐµÐ½
Ñĸ Ð±ÐµÐº
ĠÐ±ÐµÐ¹ ÑĸÐ¼
ĠÐ¶ÑĭÐ» ÑĭÐ½Ð°
ĠÐ» Ð¾Ð³
ĠÐĵ Ò¯Ð»
Ð¿ ÑĸÑĢ
ĠÑĤÒ¯ Ð»ÐµÐº
ĠÐ¸Ð½ Ð´ÑĥÑģÑĤÑĢ
ĠÐ± Ð°Ð»ÑĭÒĽ
ĠÐ±ÑĸÐ» ÐµÐ´Ñĸ
ĠÒĽÑĭÐ· ÑĭÒĽ
ĠÐºÓ©Ð¼ ÐµÐ³ÑĸÐ¼ÐµÐ½
ĠÐ½Ð¾ÑĢÐ¼ Ð°ÑĤÐ¸Ð²ÑĤÑĸÐº
Ð± ÐµÐ¹
Ð· Ð°ÒĽ
Ðĳ Ð¢
ĠÐ±Ð°Ñģ ÑĭÐ½
ÐµÑĢ Ð¼ÐµÐ½
ĠÐºÐ¾Ð½ÑĨ ÐµÑĢÑĤ
ÐµÑĢ Ð²
Ðµ ÑħÐ½
ÑĤÐ°Ñĥ ÑĭÑĪ
Ð± Ð°Òĵ
Ð±ÐµÑĤ Ð¾Ð²
ĠÐ·Ð°ÑĢ Ð´Ð°Ð¿
ÐµÐ»ÐµÑĢ ÑĸÐ½Ðµ
ÐµÑĥ Ð³Ðµ
ĠÐ¼Ò¯ Ð³ÐµÐ´ÐµÐº
ĠÐµÒ£ Ð±Ðµ
Ð´Ð°Ñģ ÑĤÑĭÒĽ
ĠÐ¼ÐµÐºÑĤÐµÐ± ÑĸÐ½ÑĸÒ£
Ó©Ò£Ð³ ÐµÐ»ÐµÐº
Ð´Ñĸ Ð³ÑĸÐ½Ðµ
ĠÑĤÐ°Ð½ ÑĭÐ¼Ð´ÑĭÒĽ
ĠÐŀÑĢ Ð°Ð»
ĠÐ¸Ð½ ÑģÐ¿
Ð» ÐµÐ¿
ĠÐ´ÐµÐ¼ Ð°Ð»ÑĭÑģ
ĠÐ¼Ð°ÑĪ Ð¸Ð½
ÑĸÐº ÑĤÐµÑĥ
iÐ» i
ĠÒĽÒ±Ð½Ð´Ñĭ Ð»ÑĭÒĽ
ĠÐµÑģÐµÐ¿ ÑĤ
ĠÐ±ÑĸÑĢ Ð°Ð·
ĠÐ¡Ð¾Ð½ ÑĭÒ£
ÒĽÒ± ÒĽÑĭÒĽÑĤÑĭÒĽ
Ð°ÑħÐ°Ð± Ð±Ð°ÑĤ
Ġ5 00
ĠÐ±ÑĸÑĢ ÑĸÐºÑĤÑĸÑĢ
ĠÐ± iÑĢ
ÑĤ Ð°Ò£
ĠÐ°Ð½ÑĭÒĽ ÑĤÐ°Ð¼
ÒĵÐ°Ð» Ð¸
ĠÐºÐ¾Ð¼ Ð¿Ð°Ð½Ð¸ÑıÑģÑĭ
ĠÐ¶Ð°Ð½ ÑĭÐ½Ð´Ð°ÒĵÑĭ
Ð« Ðł
ĠÑĪÐµÑĪ ÑĸÐ¼Ð´ÐµÑĢ
ĠÑĤÑĸÑĢ ÑĪÑĸÐ»ÑĸÐº
ĠÐ¼ÐµÐ¹ ÑĢÐ°Ð¼
ĠÒĽÐ°Ð» Ð°Ð½ÑĭÒ£
ĠÐ±Ð°Òĵ Ð°Ð¼
ĠÐ¶Ð¾Ð» ÑĭÐ½
ĠÐº ÑĸÐ½
ÑĤÐ°Ð½ ÑĭÒ£
ĠÐº ÐµÑĢÑĸ
ĠÐļ Ð¾Ð´
ĠÑĪÐµÐºÑĤÐµÑĥ Ð»Ñĸ
ĠÐĲÐ» ÑĤÑĭÐ½
ĠÐ±Ð¾Ð»ÒĵÐ°Ð½ Ñĭ
in g
Ð°Ð½ Ð°Ð»Ð°ÑĢ
Ð´Ðµ ÑĥÐ³Ðµ
ĠÐļ ÓĻÑģÑĸÐ¿
ĠÑħÐ°Ð»ÑĭÒĽ ÑĤÑĭ
ĠÐ±ÑĸÑĢ ÑĭÒ£ÒĵÐ°Ð¹
Ð¸Ð· Ð°
Ð¶ ÐµÐº
ĠÒ¯Ð» ÐµÑģÑĸ
ÐĶ ÐµÐ½
ĠÑĤÒ¯ Ð¿
ÒļÐ°Ð·Ð°ÒĽÑģÑĤÐ°Ð½ Ð´Ð°
ĠÐ½ÐµÐ³ÑĸÐ· Ð´ÐµÑĢÑĸ
ĠÒ¯Ð¹Ð» ÐµÑģÑĤ
ĠÒĽÒ±ÒĽÑĭÒĽ ÑĤÐ°ÑĢÑĭ
ÐµÐ·Ð¸ Ð´ÐµÐ½ÑĤ
ĠÓ© Ð»ÑĸÐ¼
Ð¢ Ò±ÑĢ
ĠÒ±ÑģÑĭÐ½ Ð°Ð´Ñĭ
ĠÐ¼ÐµÐ´ Ð¸Ð°
ĠÐľÓĻÑģ ÐºÐµÑĥ
ĠÑĪÐ°Ð¼ Ð°Ð¼ÐµÐ½
ÒļÐ¾ÑģÑĤÐ°Ð½ Ð°Ð¹
ĠÑĪÑĭÒĵÐ°ÑĢ ÑĭÐ¿
ĠÑĤÑĸÐ· ÑĸÐ¼Ñĸ
ĠÐ¼ÓĻÑģÐµÐ»ÐµÐ»ÐµÑĢ Ð´Ñĸ
ĠÐ±ÑĸÐ»ÑĸÐ¼ Ð´ÐµÑĢÑĸÐ½
Ð¼ Ð°Ñĥ
Ð°ÑĤÑĤÐ°ÑĢ Ð´ÑĭÒ£
Ġ 000
ĠÐ¢ ÓĻÑĢÐ±Ð¸Ðµ
ĠÑĢÐµÐ´Ð° ÐºÑĨÐ¸Ñı
ĠÑĤÑĸÐ» Ð´Ñĸ
ĠÐĿÐ°Ð·Ð°ÑĢÐ±Ð°ÐµÐ² ÑĤÑĭÒ£
ĠÐ¿ÓĻ ÑĤÐµÑĢ
Ðļ Ð¡ÐŁ
Ð« ÐĹ
ĠÐ» Ð°ÑĤÑĭÐ½
ĠÒ® ÑĪ
Ð° Ð´Ð°Ð¼
ĠÑĦ ÐµÑģÑĤÐ¸Ð²
Ð¸Ð½ Ð°Ð»
ÑĤ Ð°Ð»ÑĭÒĽ
ĠÑĤÑĸÐ» ÐµÐº
3 7
Ð½ Ð°ÑĢ
ÑĭÐ¼Ð´Ñĭ Ð»ÑĭÒĽ
Ð´ÐµÑĢ Ð´Ðµ
Ð· ÐµÑĢÑĤÑĤÐµÑĥ
ĠÐ· Ð°ÑĤ
ĠÓĻÐ´Ñĸ ÑģÑĤÐµÐ¼
ĠÑĤÐ°Òĵ Ð´ÑĭÑĢ
ĠÐĲ ÑĤÐ°
ÒĵÑĭÐ· ÑģÑĤÐ°Ð½
ĠÓ©Ðº ÑĸÐ»Ñĸ
Ð¾ÑĢ Ð´
ĠÓĺÑĢ Ð¸Ð½Ðµ
ĠÐ¾ÒĽ ÑĭÑĢÐ¼Ð°Ð½
ĠÑĥÑĩÐ°Ñģ Ðº
ĠÒĽÐ¾Ð» Ð°Ð¹Ð»Ñĭ
ĠÓĻÒ£Ð³ÑĸÐ¼ Ðµ
ÑĸÑĢ ÐµÐº
ĠÐºÒ¯ Ð´ÑĸÐº
ĠÐºÓ©ÑĢÑģÐµÑĤ ÐµÑĤÑĸÐ½
ĠÐ±Ð¾Ð»ÒĵÐ°Ð½ Ð´ÑĭÒĽÑĤÐ°Ð½
ĠÐ¡ Ð°Ñĥ
ĠÒĽÐ°Ð¹ Ð´Ð°
Ð¸Ñı Ð´Ð°ÒĵÑĭ
ĠÒĵ Ð°ÑĢÑĭÑĪ
ĠÐĶ ÐµÐ³ÐµÐ½Ð¼ÐµÐ½
ĠÑĢ ÐµÑĤÑĤÐµ
Ð¤ Ð°ÑĢ
Ð¸Ñı ÒĵÐ°
Ð± Ó©Ð»
ĠÐµÐºÐµÐ½ Ñĸ
ĠÐ¶Ð°Ò£ÒĵÑĭÑĢ ÑĤÑĥ
ĠÐ±Ð°Ñģ ÑĭÐ½Ð°Ð½
ĠÐ¡Ð¾ Ð´Ð°Ð½
ĠÑĤÐ°Ð¿ ÑĤÑĭ
ĠÒĽÐ°ÑĤÐ°ÑĢ ÑĭÐ½Ð°
ĠÐ±Ð°ÑĢ ÑĭÐ½ÑĪÐ°
ĠÓ©Ñģ ÑĸÐ¿
ĠÑĤÐ°ÒĽÑĭÑĢÑĭÐ± ÑĭÐ½Ð´Ð°
ĠÑģÐµÐ· ÑĸÐ¼
ĠÒĽÐ°Ð½ Ð°ÒĵÐ°ÑĤ
ĠÒĽÑĭÐ· Ð´Ð°ÑĢ
Ð¸Ñı ÑĤ
ĠÐºÐµÐ·Ð´ÐµÑģ ÐµÐ´Ñĸ
ĠÑĤÓ©Ð» ÐµÐ½
ĠÐ¶Ð¾Ð± Ð°ÑģÑĭÐ½
ĠÐ·Ð°Ð¼Ð°Ð½ Ð°ÑĥÐ¸
ĠÐ°Ð» ÒĽ
ÐºÐµÐ½ ÑĤÐ°Ð¹
Ð°ÑĤ ÑĭÐ½Ð´Ð°
ĠÓ©Ð· ÑĸÐ½Ð´Ðµ
ĠÐ±Ð°Ð» Ð°Ð½Ñĭ
ÑĭÒ£ÑĭÐ· Ð´Ñĭ
ĠA l
ĠÐ ¦
ĠÐ±Ð°Ñģ ÑĪÑĭÐ»ÑĭÒĽ
ĠÐºÐµÒ£ ÑĸÐ½ÐµÐ½
ĠÐľ Ð°Ò£ÒĵÑĭÑģÑĤÐ°Ñĥ
ĠÐºÐµÐ»ÑĤÑĸÑĢ Ñĥ
ĠÐłÐµÑģÐ¿ÑĥÐ±Ð»Ð¸Ðº Ð°ÑģÑĭÐ½Ð´Ð°ÒĵÑĭ
Â ²
ÑĭÐ½ ÑĭÐ¿
ĠÓĻÐºÑĸÐ¼ Ð´ÑĸÐ³Ñĸ
ĠÐ´Ð°Ð¼ÑĭÑĤÑĥ Ð´ÑĭÒ£
ĠÒĽÐ°Ð± ÑĸÐ»ÐµÑĤÑĸÐ½
ĠÐ°Ð½ÑĭÒĽ ÑĤÐ°Ð»Ð´Ñĭ
ĠÑĤÐµÑħÐ½ Ð¾Ð»Ð¾Ð³Ð¸ÑıÐ»ÑĭÒĽ
ÐļÐ¡ÐŁ Ðŀ
ĠÑĤÐ°Ð± Ñĥ
ĠÐ½ÓĻÑĤÐ¸Ð¶ ÐµÐ»ÐµÑĢÑĸ
ĠÒĽÐ¾Ð»Ð´Ð°Ð½ ÑĭÑģÒĽÐ°
ĠÐ¢ Ð°Ð»
ĠÑģ ÐµÑĢÑĤÐ¸ÑĦÐ¸Ðº
ÐµÐ² Ð°
ÐŀÒĽ Ñĥ
Ð¾ Ñĩ
ĠÑĢÐµÑĦ Ð¾ÑĢÐ¼
ĠÑĤÐ°ÑĢ ÑĤÑĭÐ»
ĠÑħÐ°ÑĤ ÑĪÑĭÑģÑĭ
Ð°Ð½ ÒĵÐ°Ð½
ĠÑĤÐ°ÑĢ Ð°ÑĤÑĥ
ÐµÐº ÑĨÐ¸Ñı
ĠÐ¤ ÐµÐ´ÐµÑĢ
ĠÐ±ÑİÐ´Ð¶ ÐµÑĤÑĤÑĸÐº
Ð´ÓĻ ÑģÑĤÒ¯ÑĢ
ĠÓĻÐ»ÑĸÐ¿ Ð±Ð¸
ĠÒļ Ð¾Ñģ
ĠÐ¸Ð½ ÑĤÐµÑĢ
ĠÐ¼ ÐµÐ¼
Ð¢ Ð¢
ĠÑĤÐ°Ð½ Ñĥ
ĠÑģÒ¯Ð¹ ÐµÐ½
ĠÐ°ÒĽ Ð¿Ð°ÑĢ
? !
ĠÐº ÑĢÐµÐ´Ð¸ÑĤ
ĠÐĶ ÐµÐ¼
ĠÑĪÐ°ÒĽÑĭÑĢ ÑĭÐ¼
ÐµÐ´Ð¾Ð¼ ÑģÑĤÐ²
ĠÐ¸ ÐµÑģÑĸ
ĠÐĸ ÐµÑĤ
ĠÐ¼ ÑĭÒĽÑĤÑĭ
ĠÐ¼ÐµÐºÑĤÐµÐ¿ ÑĤÑĸÒ£
ĠÑģÐµÐ±ÐµÐ¿ ÑĤÑĸ
ĠÐ¶Ð°Ð»Òĵ Ð°ÑģÑĤÑĭÑĢ
ĠÐºÓ©Ð»ÐµÐ¼ ÑĸÐ½Ð´Ðµ
ĠÑĤÑĸÐ· ÑĸÐ¼
Ð°Ð¶ Ð°Ð¹
en t
ÐĲÐĹ ÐĲÒļ
ĠÐ°Ðº ÑĨÐ¸Ð¾Ð½
Ðµ Ñħ
ĠÐºÐ°Ð± Ð¸Ð½
ĠÐŁÐ°ÑĢ Ð»Ð°Ð¼ÐµÐ½ÑĤ
ĠÐ¨ Ð°ÑĢ
ĠÐºÐµÑĤ ÑĸÐ¿
ĠÓĻÐ»ÐµÐ¼ Ð½ÑĸÒ£
ĠÐºÐµÒ£ ÐµÐ¹ÑĤÑĥ
ÑĪÐ°ÑĢ ÑĥÐ°
ĠÐ¾ÐºÑĢÑĥ Ð³ÑĸÐ½ÑĸÒ£
ĠÐ¾ÑĢÐ½Ð°Ð» Ð°ÑģÑĤÑĭÑĢÑĥ
Ð¶ÐµÐ» Ð³Ñĸ
Ðŀ Ò£ÑĤÒ¯ÑģÑĤÑĸÐº
r u
ĠÐ¿ Ð°Ð»
ĠÑĤÓ©Ð¼ÐµÐ½ Ð³Ñĸ
ĠÑĪÑĭÐ½ ÑĭÒĽÑĤÑĭÑĢÑĥ
ĠÓ¨Ð· Ð±ÐµÐºÑģÑĤÐ°Ð½
Ð· Ð°Ð»
ĠÐ±Ð¾Ð» ÑģÐ°ÒĽ
ĠÐļ Ð°ÑĢ
ĠÐ±Ð°ÒĵÑĭ ÑĤÑĭ
ÑĸÑģ ÑĸÐ½Ð´Ðµ
ĠÑĪ Ð°Ò£
ĠÐµÑģ Ðµ
ĠÒĽÑĭÑģ ÒĽÐ°ÑĢ
ĠÒĽÒ±ÑĢÐ°Ð¼ ÑĭÐ½Ð´Ð°
ĠÒĽÐ°ÑĢÐ°Ð¶ Ð°ÑĤ
ĠÐł ÐµÑģÐ¿ÑĥÐ±Ð»Ð¸ÐºÐ°Ð»ÑĭÒĽ
ĠÐ¼ÑĸÐ½Ð´ÐµÑĤÑĤ ÐµÐ¼
Ġ4 5
Ð» ÐºÐµÐ½
Ðŀ Ð½ÑĭÒ£
ĠÐ±ÐµÑĢÑĥ Ð´ÑĸÒ£
ÐµÑģ ÑĸÐ½Ð´ÐµÐ³Ñĸ
ĠÒĽÐ°Ð»ÑĭÐ¿ÑĤÐ°Ñģ ÒĽÐ°Ð½
ÐŁ Ð°Ð²Ð»Ð¾Ð´Ð°ÑĢ
ĠÓĻ ÐºÐµ
Ġ3 6
ĠÒĽÒ± ÑĤÒĽÐ°ÑĢ
ĠÑģÑĥ Ð±
Ò£ Ð³ÑĸÐ»ÑĸÐº
ĠÐ±ÐµÑĢÑĥ Ð´Ñĸ
ĠÒĽÐ°Ð·Ð°ÒĽ ÑĪÐ°
ĠÑĤÐ°ÑģÑĭÐ¼Ð°Ð» Ð´Ð°Ñĥ
ĠÑĤÒ± Ò£ÒĵÑĭÑĪ
ĠÑĪÐ°ÑĢÑĥÐ° ÑĪÑĭÐ»ÑĭÒĵ
ÑĤÑĸÐ½ ÑĪÑĸ
Ñģ Ð¾Ð½
Ð¸Ðº Ð¸Ð¿
ĠÐ¾ÒĽÑĥ Ð»ÑĭÒĽ
ĠÐľ Ð°ÑĤ
Ð¶Ð°Ð½ Ð¾Ð²
ÑĪÐ°Ð»ÑĭÒĽ ÑĤÑĭ
ÑĤ Ð¾Ð¿
Ð»Ñĸ Ð³ÑĸÐ½Ðµ
Ñģ Ð°Ð¹
ĠÐ½ Ð°
ĠÒĽÑĭÐ· ÑĭÐ»
ĠÐ· Ð°ÑĥÑĭÑĤ
ĠÑĤÐµÐ¾ÑĢ Ð¸ÑıÐ»ÑĭÒĽ
Ð°ÑĤ ÑĥÒĵÐ°
ĠÑģÓĻÐ¹ ÐºÐµ
ĠÐ¼Ð¾ Ð´ÐµÐ»
Ðº Ó©Ð»
Ò° Ð»Ñĭ
ĠÐ¼Ð°Ð¼Ð°Ð½ Ð´Ð°Ð½
ĠÑĤÐµÒ£ Ð³ÐµÐ½Ñĸ
ÑĦ Ð¾ÑĢÐ¼
ÐºÑĢ Ð°Ð¸
ĠÐ±Ð°Ñģ ÑĪÑĭÐ»Ð°ÑĢ
ĠÐ¶Ð°Ò£ Ð°ÑĢ
ĠÐ½ Ð¾Ð¼
ĠÐ¼Ð°Ð¼ Ð°Ð½Ñĭ
Ðķ ÐºÑĸ
ĠÐµÐ» Ð³Ðµ
ĠÑĤ ÑĢÐ°Ð½Ñģ
ĠÐ±ÐµÐ»Ð³ ÑĸÐ»ÐµÑĢÑĸ
ĠÐ±Ð¾Ð»Ð¶ Ð°Ð¼
ĠÐķ ÐºÑĸÐ½ÑĪÑĸ
ÐŀÑĢÑĤÐ°ÒĽÒĽÐ¾ÑĢ Ð´Ð°ÒĵÑĭ
ĠÐ¶ÐµÑĤÐºÑĸÐ· Ð´Ñĸ
ĠÒĽÐ°ÑĢ Ñĥ
Ġ U
ÐĲ Ð²
ĠÐ¼ ÑĭÐ½
3 8
ÐµÐ» ÐµÐ³ÐµÐ½
Ðº ÐµÐ·
ĠÐ° Ð´Ð°Ð»
ĠÐ¶ÑĭÐ» Ñĥ
ĠÐĸ ÐµÒ£
Ð¢ ÑĸÐ»
Ðł ÐµÑģÐµÐ¹
ÑĥÑħÐ³Ð°Ð» ÑĤÐµÑĢÐ»ÑĸÐº
ĠÐ°Ð²ÑĤ Ð¾Ðº
ĠÓĻÐ½ ÑĪÑĸ
Ð¿ ÐµÐ¹Ð´Ñĸ
ÐĲÑĥ Ð´Ð°Ð½
ĠÐ¾Ò£ ÑĤÒ¯ÑģÑĤÑĸÐº
3 4
ĠÐ¶Ð°Ñģ Ð°Ð»
ĠÐ¶ÐµÐ» ÑĸÐ»ÐµÑĢ
ĠÓ¨ Ð¼ÑĸÑĢ
ĠÐºÐµÑĪ ÐµÐ½Ð´Ñĸ
Ð°Ð½ Ñģ
ĠÐ´Ð¸ÑĢÐµÐºÑĤ Ð¾ÑĢ
ĠÐºÒ¯Ð½Ð´Ðµ Ð»ÑĸÐºÑĤÑĸ
Ðļ ÐµÐ·
ÑģÐº ÐµÐ¼ÐµÐ½
ÑĸÐ· Ð´Ñĸ
ĠÐ¼ÐµÐ½ ÐµÐ´Ð¶
ĠÐļ ÐµÐ½
Ð´ ÐµÑĤÑĥ
Óĺ Ð»ÐµÐ¼
Ð¸Ð¼ Ð½
ĠÒĽÐ°ÑĤÑĭÑģ Ð°Ð´Ñĭ
ĠÐ°Ð³ÐµÐ½ÑĤÑĤÑĸ Ð³Ñĸ
ÑĤÐ°ÑĢ ÑĭÐ½Ð´Ð°
ĠÓ© ÑĤÐµÑĥ
ĠÐ±ÐµÐ»Ð³ ÑĸÐ»ÐµÑĢ
st an
Ð´i Ò£
ĠÒ±Ð¹ÑĭÐ¼ Ð´Ð°ÑĢÐ´ÑĭÒ£
Ð±ÑĸÑĢ ÑĸÐ½Ðµ
ĠÐ°Ð¹ ÑĭÐ½ÑĭÒ£
ĠÐºÐ¾Ð¼Ð¼ÑĥÐ½ Ð¸ÐºÐ°ÑĨÐ¸Ñı
Ð°ÒĽÑĭÑĢ ÑĭÐ¿
ĠÐ±ÐµÐ¹ Ð±ÑĸÑĤ
ĠÒĽÐ¾Ð»Ð´Ð°Ð½ ÑĥÒĵÐ°
ĠÐ´ÐµÐ¿Ð°ÑĢÑĤÐ°Ð¼ÐµÐ½ÑĤ ÑĸÐ½ÑĸÒ£
ĠÐºÓĻÑģÑĸÐ¿ ÐºÐµÑĢ
ĠÐ°Ð²ÑĤÐ¾Ð¼ Ð¾Ð±Ð¸Ð»ÑĮ
ĠÑĤÐ°Òĵ Ð°Ð¹
ĠÒĽÑĭÐ·ÑĭÒĵ Ñĥ
ĠÑħÐ°Ð»ÒĽ ÑĭÐ½Ð°
ĠÑģÐ°Ñĥ Ð°Ð»
ĠÐ°Ñģ ÑĭÐ»
ĠÐ³ ÑĢÐ°ÑĦ
ĠÐµ ÑĤÐµ
ĠÐ´ÐµÒ£Ð³ÐµÐ¹ Ð´ÐµÐ³Ñĸ
a d
ĠÐ¼ÑĸÐ½Ð´ ÐµÑĤÑĸ
Ġ200 7
ÒļÐ°ÑĢ Ð°ÒĵÐ°Ð½Ð´Ñĭ
ÑĭÐ» ÑģÑĭÐ½
ĠÐĳ Ð°ÒĽÑĭÑĤ
ÐķÐ» Ð±Ð°ÑģÑĭ
Ð´ÑĭÑĢ ÑĭÐ¿
ĠÒĽÐ¾Ð»Ð´Ð°Ð½ ÑĭÐ»Ð°ÑĤÑĭÐ½
ĠÒ° Ð¹ÑĭÐ¼
ĠÐ¡ Ð°Ð»
ĠÐ±ÐµÑĢÑĥ ÑĪÑĸÐ½ÑĸÒ£
ÑģÐ°Ð¼Ð±Ð» ÐµÑı
Ñĸ ÑĪÑĸ
ĠÐ±Ð°ÒĵÐ´Ð°ÑĢÐ»Ð°Ð¼ Ð°ÑģÑĭÐ½ÑĭÒ£
ÓĻÐ´Ñĸ ÑģÑĤÐµÐ¼ÐµÐ»ÑĸÐº
ĠÐĳÒ± ÒĵÐ°Ð½
ĠÐ¡ Ð¾Ò£ÒĵÑĭ
e d
Ð»Ð°Ñĥ ÒĵÐ°
ÑĤÐµ ÑģÑĤ
ĠÑģ Ð¸Ð¼
ĠÐ¼Ð°ÒĽ Ð°Ð»Ð°
Ġ3 00
ĠÐ±ÑĸÐ» Ð³ÐµÐ½
ĠÐ±Ó©Ð» ÑĸÐº
ĠÐ¶Ð¸Ð½ Ð°Ñĥ
Ð± Ò¯ÑĢ
ĠÐ¶Ð¾Ð» ÑĭÐ½Ð´Ð°
Ðľ Ð¸Ð½Ð¸ÑģÑĤÑĢ
ĠÐ¶Ò¯Ð¹ ÐµÐ»Ñĸ
Ð¸ÐºÐ¸Ð¿ ÐµÐ´Ð¸Ñı
ÐĲ Ð·Ð°Ð¼
ÉĻ Ð½Ðµ
ĠÐ½ÐµÐ³ÑĸÐ· Ð´ÐµÐ»Ð³ÐµÐ½
ĠÑĪÐ°ÑĢ ÑĤÑĤÐ°ÑĢ
ĠÑĤÐ¾Ð»ÑĭÒĽ ÑĤÑĭÑĢ
ĠÐ¶Ð°ÒĵÐ´Ð°Ð¹ ÑĭÐ½Ð´Ð°
ÑĭÐ¼ Ð½ÑĭÒ£
ĠÐºÓ©Ð± ÐµÐ¹
ĠÐľÓĻ Ð´ÐµÐ½Ð¸ÐµÑĤ
ĠÐ¼Ð°Ð¼Ð°Ð½ Ð´ÑĭÒĵÑĭ
ĠÑĪ Ð¸Ðº
ĠÐ¾ÒĽÑĥ ÑĪÑĭÐ»Ð°ÑĢÑĭ
ĠÑĤÑĸÐ» ÑĸÐ½ÑĸÒ£
ĠÐĶ Ò¯Ð½Ð¸
ĠÐ¾ÑĢÐ³Ð°Ð½ Ð½ÑĭÒ£
ĠÑģÐ°ÒĽ ÑĤÐ°Ð¿
ĠÒĽÒ±ÑĢÑĭÐ» Ð´Ñĭ
ÐķÐ¢ Ð¢
ĠÒ±ÑģÑĭÐ½ Ñĥ
ĠÑĤ ÐµÐ½
ĠÐ°ÑĤÑĭÐ½ Ð°Ð½
ĠÑĤÐ°ÑĢÐ¼Ð°ÒĽ ÑĪ
ĠÐ½ÐµÐ³ÑĸÐ· ÑĸÐ½
ĠÐ±ÓĻÑĢ ÑĸÐ½
ĠÐĲÐ»Ð»Ð° Ò»
ĠÐ°Ð¹ÑĭÑĢ Ð±Ð°Ñģ
ĠÐ¡ Ð°Ð±Ð°ÒĽÑĤÑĭÒ£
ĠÑģ Ð¿Ð¾ÑĢÑĤÑĤÑĭÒĽ
ĠÐ¡ Ð°ÑĢ
ĠÒĽÐ¾Ñģ ÑĭÐ¿
ÐĳÒ¯Ð³ÑĸÐ½ Ð³Ñĸ
ÐĲ ÒĴ
ÑĢ ÑĭÒĽ
ĠÐĲÒĽ Ð¿Ð°ÑĢÐ°ÑĤ
Ð¿ Ñĥ
Ð¿ ÐµÐº
Ð¾Ð½ Ñĭ
ĠÐ³ ÐµÐ½
ĠÐºÓ©ÑĪ ÑĸÑĢÐ¼
ĠÐºÐ¾Ð¼Ð¼ÐµÑĢ ÑĨÐ¸ÑıÐ»ÑĭÒĽ
Ðĳ Ð°ÑĢ
ÒļÑĭÐ· ÑĭÐ»Ð¾ÑĢÐ´Ð°
ÑĸÑģ Ñĥ
ĠÐ¸Ð½ Ð¶ÐµÐ½
ĠÐ¼Ð°Ð³ Ð¸ÑģÑĤÑĢ
ĠÐ¿Ð°ÑĤ ÑĢÐ¸
ĠÐĲ Ð¼ÐµÑĢ
ĠÐºÐµÑĤ Ñĥ
ĠÐ· ÐµÑĢ
ĠÐ¶Ð¾Ð± Ð°Ð»Ð°ÑĢ
ĠÐľÒ± ÑħÐ°Ð¼
ĠÒ±ÑģÑĭÐ½ ÑĭÑģ
ĠÐ¢ÓĻÑĥÐµÐ» ÑģÑĸÐ·Ð´ÑĸÐº
Ð» Ðµ
ĠÐºÓ©ÑĢÑģÐµÑĤ ÑĥÐ³Ðµ
ÐµÐ´ Ð¸
ĠÑĪÐµÐº Ð°ÑĢ
ĠÐĳ ÐµÐº
Ñĥ Ð°Ð½
ÐµÑĤ Ð¸ÐºÐ°
ĠÑĤÐ°Ð¿ÑģÑĭÑĢÐ¼ Ð°Ð»Ð°ÑĢ
Ð¾Ð» Ð¾Ð²
Ð»ÐµÐºÑĤÑĢÐ¾Ð½ Ð´ÑĭÒĽ
ĠÐ¿ÑĢÐ¾ÑĦÐµÑģÑģ Ð¾ÑĢ
ĠÐķÐ» Ð±Ð°ÑģÑĭÐ½ÑĭÒ£
Ġ ÑĭÑģÑĤÑĭÒĽ
ĠÐ±Ð°Ñģ ÑĤÐ°Ð¹Ð´Ñĭ
ĠÐ¾ÑĢÐ½ Ð°ÑĤÑĥ
ĠÐ¼ÑĥÐ· ÐµÐ¹
Ð· Ð´ÑĸÐº
ĠÐ¶Ð°ÒĵÐ´Ð°Ð¹ ÑĭÐ½
Ð¾ ÑĤÑĤÑĭÒĽ
Ð¨ ÑĭÐ¼ÐºÐµÐ½ÑĤ
Ð¼ Ð°ÑģÑĭ
Ð¡ Ð°Ð±Ð°ÒĽ
ĠÑĤÐ¾Ð» ÑĤÑĭÑĢ
ĠÑĤÒ± ÒĽÑĭÐ¼
ĠÐŀÑĢ ÑĤÐ°
0 7
ĠÐĳ ÐµÐ¹
ÐµÐ» Ð³ÐµÐ½
ĠÐ¾ÑĢÑĤ Ð°Ð»ÑĭÒĽÑĤÐ°ÑĢ
ĠÒĽ Ð°ÒĽ
ĠÐŀ Ð´Ð°Ð½
ĠÐ°Ð¹ ÒĽ
ĠÐļÐ°Ð·Ð°Ñħ ÑģÑĤÐ°Ð½
ĠÐ°Ð»Ð´ ÑĭÐ½Ð°
ĠÑģÒ±Ñħ Ð±Ð°ÑĤ
ÑĢ Ð°
ÑĪ Ð°ÑĢÐ°
ĠÒĽÐ°ÑĤÑĭÐ½Ð°Ñģ ÑĤÐ°ÑĢ
ĠÐµÑģÐºÐµÑĢ Ðµ
3 9
ĠÑĦÐ°ÐºÑĤ Ð¾ÑĢ
ĠÒĽÐ°Ð» Ð°Ð¼
ĠÒĽÐ¾Ñģ ÑĭÐ»ÒĵÐ°Ð½
Ð¿ ÑĸÐ½
ÑĪ i
ĠÑĤÒ± ÑĤÐ°Ñģ
Ò¯ÑĢÐ³ÑĸÐ· ÑĥÑĪÑĸ
ĠÑĢ ÐµÐ³
ĠÐº Ð°ÑĤÐµÐ³Ð¾ÑĢÐ¸Ñı
Ð¶ Ð±Ò¯ÑĢ
ĠÓĻ Ð´ÐµÐ¼Ñĸ
ĠÐºÐµÑĢ ÐµÐ¼ÐµÑĤ
ĠÐ¢ ÑĸÐ¿ÑĤÑĸ
ĠÐ±ÑĸÑĢÐ» ÐµÑģÑĤÑĸÐº
g r
ĠÒĽÐ¾ Ò£
Ġ200 9
ĠÐ¶Ò±Ð¼ÑĭÑģÑĤÐ°ÑĢ Ð´Ñĭ
Ð°Ð¿ Ð¾Ð½
ÑĭÒĵ ÑĭÐ½Ð°
ĠÐĳÐ¸ ÑĭÐ»
Ġ %
ĠÐ±ÓĻÑģ ÐµÐºÐµÐ³Ðµ
ĠÒĽÐ°ÑĥÑĸÐ¿ ÑĤÑĸ
ĠÐ°ÑĥÐ´ Ð¸ÑĤ
ÑĢ Ð¾Ð¼
ĠÐ´Ð°Ð¼Ñĥ ÑĭÐ½ÑĭÒ£
ĠÐ´ÐµÐ¿Ð°ÑĢÑĤÐ°Ð¼ ÐµÐ½ÑĤÑĸ
ĠÑĤÑĥ ÒĵÑĭÐ·
ÑĢ Ð¾Ð½
ĠÐ±Ð°ÑģÑĤÐ°Ð¿ ÒĽÑĭ
0 5
ĠÐ¼ÓĻÐ´ÐµÐ½Ð¸ ÐµÑĤÑĸ
ÒĽ Ñĥ
ĠÐ¶ ÉĻÐ½Ðµ
ĠÐ¾Ð¹ÑĭÐ½ Ð´Ð°ÑĢ
ĠÐĸÐ¾ ÒĵÐ°ÑĢÑĭ
ĠÐ°Ð²ÑĤ Ð¾Ð±
ĠÐ¶ÐµÑĤÐµÐº ÑĪÑĸÑģÑĸ
ĠÐ» Ð¸ÑĨÐµÐ½
ĠÒĽÑĭÐ·Ð¼ÐµÑĤÑĤÐµÑĢ Ð´Ñĸ
Ġ( Â«
Ñĥ Ðº
ĠÂ ·
Ñģ Ð°Ò£ÑĭÐ·
7 7
ĠÐ±Ð¾Ð» Ð¼Ð°ÒĽ
Ð»Ð°ÑĢ Ð´Ð°
ÐµÐ´ i
ĠÐŁÑĢ ÐµÐ¼ÑĮÐµÑĢ
ĠÑģÐ°Ð»ÑĤÐ°Ð½ Ð°ÑĤÑĤÑĭ
ĠÒ¯ÑģÑĤ ÑĸÐ½Ðµ
Ð°Ð½ ÐºÑĸ
ĠÒļ ÑĭÐ»
ĠÓĻÐ» ÐµÑĥÐ¼
Ð°Òĵ Ð°Ð¹
ĠÐ°Ð» ÑĭÐ½Ð´Ñĭ
ĠÐ¶ Ð°ÑĢÑĭ
ĠÐĶÐµÐ½ ÑģÐ°ÑĥÐ»ÑĭÒĽ
ĠÐ¶Ð°Ñģ Ð°ÑĢ
Ò® ÑĪ
ĠÑĸÐ· Ð´ÐµÑĥ
ĠÒļ Ð¾Ð»
ÒĽÐ°Ð¹ Ñģ
ÑĨ ÐµÐ½
Ð°Ñı ÒĽ
ĠÐ¶Ð°Ò£Ð°Ð»ÑĭÒĽ ÑĤÐ°ÑĢÑĭ
ÐĲÑĥ ÑĭÐ»
ĠÐ¶Ð°ÑģÓ©ÑģÐ¿ÑĸÑĢ ÑĸÐ¼Ð´ÐµÑĢ
ĠÓ©Ð½ÑĸÐ¼Ð´ÐµÑĢ ÑĸÐ½
ĠÐ±Ð°Ð» Ð°ÒĵÐ°
ĠÐ¼Ð°ÒĽ ÑĤÐ°Ð½
ĠÐ±Ó©Ð»ÑĸÐ½ Ð³ÐµÐ½
ĠÐ°ÑĤÒĽÐ°ÑĢ Ð°Ð´Ñĭ
Ð¿ Ò±Ð»
ĠÐļ Ð¡Ðł
h e
Ð² Ð¸Ð´ÐµÐ¾
ĠÐ´ Ð°Ò£
ÑĤ Ð¸Ð¼
ĠÒ¯Ð¹ Ð´ÑĸÒ£
ĠÒ®ÐºÑĸÐ¼ ÐµÑĤÑĸÐ½ÑĸÒ£
ĠÓĻÒ£Ð³ÑĸÐ¼ ÐµÐ»
ĠÐ¿Ð°Ð¹Ð´Ð°Ð»Ð°Ð½ Ð°
ĠÐºÓ© Ð¼ÑĸÑĢ
ĠÐĺ Ñģ
Ð¶ Ð°Ð·
ĠÒĵÐ°Ð»ÑĭÐ¼ Ð´Ð°ÑĢ
ĠÐŁ Ð°Ð¹
ĠÒļÐ°ÑĢ Ð¶Ñĭ
ĠÐĲÑĥ Ð´Ð°Ð½
ĠÒ±ÒĽÑģ Ð°Ñģ
ĠÑĪ Ð°Ð»
ĠÐ±ÑĸÑĢÐ»ÐµÑģ ÐºÐµÐ½
ĠÒ¯Ð¹ Ð´Ðµ
ĠÒĽÐ°Ð±ÑĸÐ» ÐµÑĤÑĤÑĸ
ĠÑĤÐµÑħÐ½ Ð¸Ðº
ĠÐ± ÑĥÑĭÐ½
Ð°ÑĤ Ð¸ÐºÐ°
Ð¼Ð°Òĵ ÑĭÐ½ÑĭÒ£
ÐķÒ£ Ð±ÐµÐº
ĠÑĢÓĻÑģ ÑĸÐ¼
ĠÐ¼ Ð°Òĵ
Ð°ÑĤÑĭÐ½ ÑĭÐ½
ĠÒĽÐ°ÑĢ Ð°Ð»Ð´Ñĭ
ĠÑģ ÑĭÐ½Ð´Ñĭ
ĠÐ±Ð°Ñģ ÑĤÐ°Ð»ÒĵÐ°Ð½
ĠÐ¶ÐµÑĤ Ñĥ
ÑĭÑģÑĤÐ°ÑĢ Ð´Ñĭ
Ð»ÑĭÒĵ ÑĭÐ½ÑĭÒ£
Ðĸ Ð°ÒĽ
Ð°ÐºÑĤ Ð¸Ð²ÑĤÑĸ
Ðľ Ðľ
ĠÐĲÐ» ÑĭÐ¿
Ð¸ÑĢ ÐµÐº
ĠÐ¶Ò±Ð¼ÑĭÑģ ÑĤÑĭ
ĠÑģÑĤÑĢÐ°ÑĤÐµÐ³ Ð¸ÑıÐ»ÑĭÒĽ
Òĵ Ð°Ð»Ñĭ
ĠÑģÑĸÐ· Ð³Ðµ
ĠÐ±ÑĸÐ» ÐµÑĤÑĸÐ½
ĠÐ¶ÑĥÑĢÐ½Ð°Ð» Ð¸ÑģÑĤ
ĠÑĤÓĻÑĥ ÐµÐºÐµÐ»
ĠÐ±ÐµÑĢ ÑĸÐ»
ĠÑģÐ°Ð» ÒĵÐ°Ð½
Ġ20 20
ĠÐ¼Ð¸Ð»Ð» Ð¸
ĠÒļ Ð°ÑĢÐ°
e b
ĠÒĽÒ±ÑĢ Ð¼
Ð´ÑĢ Ð¾Ð»ÑĭÒĽ
ĠÐľÒ±Ð½ Ð´Ð°
ĠÐºÒ¯ ÑĪÑĸ
ĠÐ± ÐµÐ·
ĠÐ±Ð°Ñģ ÑĤÐ°Ð»
Ġ3 4
ĠÐ°ÑĥÑĭÐ» ÑĭÐ½Ð´Ð°
ĠÐ°ÑĤ Ð°Ð½Ð´Ñĭ
Ð°Ð» Ð¸
Ð°Ð± ÑĭÐ»
ĠÐºÐµÐ·Ð´Ðµ ÑģÑĤÑĸ
Ð´ÐµÑĢ ÑĸÐ½Ð´Ðµ
ĠÐ£ Ð½Ð¸Ð²ÐµÑĢÑģÐ¸ÑĤ
ĠÒ¯Ð¹ÑĢ ÐµÑĤ
ĠÒ±ÑĢ Ð¿
Ð¤Ð°ÑĢ Ð°Ð±Ð¸
ĠÐĳ Ò°Ò°
ĠÐ± Ð¾ÑĢ
ÒĵÐ°Ð» ÑĸÐ¼
ĠÐ°Ð¹ Ð¼Ð°ÒĵÑĭÐ½Ð°
ÐĲÒļ Ð¨
ĠÐºÐ°ÑĢÑĤ Ð°ÑģÑĭ
Ð¸ÑĨ Ðµ
ĠÑĤÐ¾ÒĽ ÑģÐ°Ð½
ĠÐ¿Ð¾ Ñį
ĠÐµÐ½Ð³ÑĸÐ· ÑĸÐ»Ð³ÐµÐ½
ĠÐ¿Ð°Ð¹ÑĭÐ· Ñĭ
ĠÑĤÐ¾Ð»ÑĭÒĽÑĤÑĭÑĢÑĥ Ð»Ð°ÑĢ
ĠÐ³ ÐµÐº
ĠÐ¾ÑĢÑĭÐ½ ÒĵÐ°
ĠÐļ ÐµÐ¹ÑĸÐ½
ĠÒ¯ÑĪ iÐ½
Ð°Ð¼ ÑĭÑĢ
ĠÐ¶ÐµÑĢ Ð´ÐµÐ½
ĠÐºÓ©ÑĢ Ñĥ
ĠÐľ ÑĸÐ½Ðµ
ĠÐ° Ñħ
Ġ200 8
ĠÐºÓ©ÑĤÐµÑĢ Ñĥ
ÒĽ ÑĭÐ½Ð´Ñĭ
ĠÐ°Ð¹ÑĤÑĥ ÒĵÐ°
Ðļ Ò¯Ð½
ÐĨ Ò¢
ĠÓĻÐ´Ñĸ Ð»
ĠÐ´ÐµÑĢ Ð±ÐµÑģ
Ò¯ Ðº
ĠÑģÐ¾ Ð´Ð°Ð½
ĠÑĢÑĥ Ñħ
ĠÐ±Ò¯ Ð³ÑĸÐ½Ð´Ðµ
ĠÑģÑĥÑĢ ÐµÑĤÑĤÐµÑĢ
ĠÒĽÐ°Ð±ÑĸÐ» ÐµÑĤÑĤ
Ð¶ Ð°ÑĥÐ°Ð¿
ÐµÐ»ÐµÑĢ Ð³Ðµ
ĠÑĤÐ°Ð¼ Ð°ÑĪÐ°
ĠÒĽÐ¾Ñı Ð´Ñĭ
0 4
ĠÓ©Ð· Ð´ÐµÑĢÑĸ
ĠÐ¸ ÑģÐ»Ð°Ð¼
0 2
Óĺ ÐĿ
ĠÒĽÐ°ÑĤÑĭÑģ ÑĥÒĵÐ°
ĠÒļÐ°Ð·Ð°ÒĽÑģÑĤÐ°Ð½ ÒĵÐ°
ĠÒ±ÑģÑĤ Ð°Ñĥ
ĠÐĨ ÑĪÐºÑĸ
ÐµÑģÑĤ Ðµ
) :
ĠÐ¼ÐµÐ¹ ÑĸÑĢ
ĠÐ¼ÓĻ Ð¶Ð±Ò¯ÑĢ
ĠÒĽÑĭÐ·ÑĭÒĵ ÑĥÑĪÑĭÐ»ÑĭÒĽ
ĠÑĸÑĪ ÑĸÐ½Ð´ÐµÐ³Ñĸ
ĠÐ´ ÐµÐº
ĠÐ±Ð°Ñģ Ñĭ
ĠÒ¯Ð¹ Ð»ÐµÑĢ
ĠÒĽÐ°Ð¼ ÑĤÐ¸
ÓĻ Ð·
ĠÐºÐ» Ð¸ÐµÐ½ÑĤ
ĠÐº ÑĢ
ĠÐ¶Ð°Ð· Ð´Ñĭ
ĠÐ¶Ð¾Ð» Ð´Ð°ÑĢÑĭÐ½
Ðļ ÓĻÑģÑĸÐ¿
ĠÐ°Ð´Ð°Ð¼ Ð³ÐµÑĢÑĪÑĸÐ»ÑĸÐº
ÑģÑĭÐ· Ð´ÑĭÒĽ
ĠÐµÑĢÐµÐºÑĪÐµÐ»Ñĸ Ð³Ñĸ
ĠÐľ Ð¸Ð½Ð¸ÑģÑĤÑĢ
ĠÑĤÒ¯ Ð±
ĠÐ½ÐµÐ³ÑĸÐ· ÑĸÐ½ÐµÐ½
Ò±Ð» ÑĭÐ½ÑĭÒ£
Ðĸ Ð¾Ð»
Ð³ÐµÑĢ Ð»ÑĸÐº
Ð³ Ò¯Ð»
ĠÐ°Ð´Ð°Ð¼ Ð´Ð°ÑĢÐ´Ñĭ
ĠÐ±ÑĸÑĢÐ»ÐµÑģ ÑĸÐ¿
Ð´ÑĭÑĢ Ð°ÑĤÑĭÐ½
ĠÒĽÐ°Ð¼ ÒĽÐ¾ÑĢ
ĠÒĵÑĭÐ»ÑĭÐ¼ Ð´Ð°ÑĢÑĭÐ½ÑĭÒ£
ĠÐ¶ÐµÑĢ ÑĸÐ½Ð´Ðµ
201 3
ĠÓ©Ð¼ÑĸÑĢ Ð³Ðµ
ĠÐ°Ð½ÑĭÒĽ ÑĤÐ°Ð¼Ð°
ĠÐ¼ÐµÐºÑĤÐµÐ¿ ÑĤÐµ
ĠÒ®ÐºÑĸÐ¼ ÐµÑĤ
ĠÑĤÐ¾Ð± ÑĭÐ½ÑĭÒ£
ĠÓĻÑĢÐµÐº ÐµÑĤÑĤÐµÑĢ
ÑĭÑĢÑĤ ÒĽÑĭ
ĠÒĽ Ò±Ð¼
ĠÑĤ Ð°Ð¹
ÑĭÐ¼ Ñĭ
ĠÐ¡ Ð°Ð¹
ĠÑĤÐ°Ð½ÑĭÑģ ÑĤÑĭÑĢÑĥ
ĠÐ±ÑĸÐ»ÑĸÐ¼ Ñĸ
ĠÐ¶Ò¯Ð· ÑĸÐ½Ð´Ðµ
ĠÐºÐµÐ·ÐµÒ£ ÑĸÐ½Ð´Ðµ
Ðº Ñģ
ĠÐ¶Ò±Ð¼ÑĭÑģ ÑĭÐ½ÑĭÒ£
ĠÑĤÐ°Ð¼ ÑĭÑĢ
ĠÐºÐµÐ· ÐµÐºÑĤÑĸ
ÐĶ ÐĲÐł
l o
ÐµÐ¹ÑĤ Ð¾Ð¹
ĠÐ°ÑĤ Ð°Ð»
Ð´Ðµ ÑģÑĤ
ĠÑħÐ¸Ð¼ Ð¸ÑıÐ»ÑĭÒĽ
Ó© Ð¿
ÑĭÒ£ Ð´Ñĭ
ĠÒĽÐ°Ð±ÑĭÐ» Ð´Ð°Ð´Ñĭ
Ð«ÐĿ Ð«Ò¢
Ð« Ðľ
ĠÑģÑĥÐ±ÑĬÐµÐºÑĤ ÑĸÐ»ÐµÑĢ
ĠÐ¾ÑĤÑĭÑĢ ÑĭÑģÑĭ
Ðĺ Ð¢
ĠÐ¸Ð½ÑģÑĤÐ¸ÑĤÑĥ ÑĤÑĭ
ĠÐĲ Ð·
ĠÑģÐ¾ÑĤ ÒĽÐ°
ĠÐ¾ÒĽÑĭÑĤÑĥ Ð´ÑĭÒ£
ĠÐŀÒĽ ÑĥÑĪÑĭÐ»Ð°ÑĢÐ´ÑĭÒ£
ĠÐĶ Ð¾Ñģ
ĠÒ¯Ð» Ð³ÐµÑĢ
Ġ20 50
ĠÐ±ÑİÐ´Ð¶ ÐµÑĤÑĤÐµÐ½
Òļ Ð°Ð»
ĠÐ¶Ð°ÑĤ ÒĽÑĭÐ·
ĠÐĲÐ» Ð°ÑĪ
ĠÐļÐ¾Ð½ÑģÑĤÐ¸ÑĤÑĥ ÑĨÐ¸Ñı
ĠÒ± Ð¿Ð°Ð¹
o f
ÑĪ Ð°Ð¼
Ð°Ð· Ð¸ÑıÐ»ÑĭÒĽ
ĠÐĶ ÓĻ
ÐĸÐ¾ ÒĵÐ°ÑĢÑĭ
ĠÒĽÑĭÐ·Ð¼ÐµÑĤ ÐºÐµ
ĠÐłÐµÑģÐ¿ÑĥÐ±Ð»Ð¸Ðº Ð°ÑģÑĭÐ½Ð´Ð°
ĠÐµÐ» Ð´Ðµ
ĠÐºÒ¯Ð½ÑĤÑĸÐ· Ð±ÐµÐ»ÑĸÐº
ĠÐ£ Ð¸ÐºÐ¸Ð¿ÐµÐ´Ð¸Ñı
ĠÐ¶Ð°Ñģ ÑĤÐ°ÑĢÐ´ÑĭÒ£
ĠÐ¾ÑĤÑĭÑĢ Ð¼ÑĭÐ·
ÐµÐ³ ÑĸÐ½Ðµ
ĠÒĽÐ¾Ð» Ð¶ÐµÑĤ
ÑĥÐ½Ð¸ ÑĨÐ¸Ð¿
Òĵ Ñĥ
ĠÐ°Ð²ÑĤ Ð¾ÑĢ
3 2
ĠÑĤÐµ Ð¾ÑĢÐ¸Ñı
Ñģ ÐµÐ»
Ð¶ Ð°Ð±
ĠÑĤÒ±ÑĢÒĵÑĭÐ½ Ñĭ
Ð¥Ð°Ð»ÑĭÒĽ Ð°ÑĢÐ°Ð»ÑĭÒĽ
ĠÑĤÐ°Ð± ÑĭÑģÑĤÑĭ
Ð´Ð° ÒĵÑĭÐ½ÑĭÒ£
ĠÑĤÐ°ÒĵÐ°Ð¹ÑĭÐ½ Ð´Ð°Ð»Ð´Ñĭ
Òļ Ð°Ð½
ÐµÑĤÑĤ i
ĠÑģÐ¾Ð» ÑĤÒ¯ÑģÑĤÑĸÐº
ĠÑĤÑĭÒ£ Ð´Ð°Ñĥ
ĠÒĽÒ±ÒĽ ÑĭÒĵÑĭÐ½
Ð´Ð°Ð½ Ñĥ
ĠÑģÑĭÐ¹ Ð»ÑĭÒĽ
ĠÑģ Ð°
ĠÐ±Ó©Ð» Ð¼
Ðº Ò¯Ð½
ĠÐºÒ¯ ÑĤÑĸÐ¿
ÐĨ Ðł
Ð¼ Ð¾Ð½
ĠÒĽÒ±ÑĤÑĤÑĭÒĽ ÑĤÐ°Ñĥ
Ġ b
ĠÑģ Ð¸
Ġ ÑĭÒ£ÒĵÐ°Ð¹
Ð¼ Ð±
ĠÑĢ ÐµÐ¹ÑĤ
ĠÑģÐ°Ñı ÑħÐ°ÑĤ
ĠÐ² ÐµÐ´Ð¾Ð¼ÑģÑĤÐ²
ĠÐ»Ð°ÑĥÐ°Ð· ÑĭÐ¼Ð´Ñĭ
ĠÐºÐ¾Ð¼Ð¼ÑĥÐ½ Ð°
ð Ł
Ð°Ð± ÑĭÐ½
ÒĵÑĭ Ð¿
ĠÐ¶ Ð°Ò»
ĠÒĽÑĭÐ» Ð¼
ĠÑĪÐ°ÑĢ Ð°Ð»Ð°ÑĢÑĭ
ĠÒĽÐ°Ð¶ÐµÑĤÑĤ ÑĸÐ»ÑĸÐº
ĠÐ°Ð» Ð°Ð¼ÑĭÐ·
ĠÒĽÐ°Ð± ÑĭÑĢ
ĠÒĽÐ°ÑĤ Ð°Ò£
ĠÒĽÐ°Ð»ÑĭÐ¿ ÑĤÑĭ
ĠÑģÒ¯ÑĢ Ñĥ
ĠÐ°Ñĥ ÒĽÑĭÐ¼Ð´Ñĭ
ĠÐºÓ©ÑĪ Ð±Ð°Ñģ
ÑħÐ°Ð½ Ð¾Ð²
ĠÓ©Ò£ÑĸÑĢ Ð»ÑĸÐº
0 3
ÑĤ ÑĥÑĢ
ĠÐ¶Ð°ÑĤÒĽÐ°Ð½ ÑĭÐ½
Ð´Ð°ÑĢ Ð´Ð°Ð½
ĠÑĤÐµÑħÐ½Ð¾Ð»Ð¾Ð³Ð¸Ñı Ð»Ð°ÑĢÐ´Ñĭ
Ð°Ñĥ Ð´Ð°Ð½
Óĺ Ð¹
Ò¯ Ð¼ÐºÑĸÐ½
ĠÐ½Ð°Ñĥ ÒĽÐ°Ñģ
Ġ >
Ġ19 6
Ð»Ð°ÑĢ ÑĭÐ½Ð´Ð°
ĠÑģ ÐµÐºÑĤÐ¾ÑĢ
ĠÒĽÑĭÐ·Ð¼ ÐµÑĤÑĤÑĸÒ£
ĠÐĳÐ°Ñģ ÒĽÐ°ÑĢ
ÐºÑĸ ÑĪÑĸ
ĠÐ±Ò± ÒĽÐ°ÑĢÐ°Ð»ÑĭÒĽ
ĠÐĳ ÑĸÐ»
a q
ĠÐ¾Ð¹ Ð»Ð°Ð¿
Ñģ Ð°ÑıÑģÐ¸
ĠÐ¶Ð¾ ÒĵÐ°ÑĢ
ÐºÐ¾Ð½Ð¾Ð¼ Ð¸ÐºÐ°
i Ñģ
ĠÐºÓ© ÐºÑĤÐµÐ¼
ĠÐµÐ½Ð³ÑĸÐ· ÑĸÐ»ÐµÐ´Ñĸ
ÐµÐ¹ Ð¼ÑĸÐ½
ĠÐŀ ÑģÑĭÐ»Ð°Ð¹ÑĪÐ°
ĠÐµÑĢ ÑĤÐµÒ£
Ð¾Ñģ ÑĦÐµÑĢ
ĠÐ¡ÐµÑĢ ÑĸÐº
ÐµÑĤÐµÑĢ Ð¸Ð½Ð°ÑĢ
ĠÐ°ÑģÐ¿ Ð°Ð¿
Ð´Ð°Ð» Ð°Ð´Ñĭ
ĠÐ¡ Ð°Ð±Ð°ÒĽ
ĠÐļÐ¾ÑĢ ÐµÑı
ÐµÐ´ Ð¸ÑĨÐ¸Ð½
ĠÒĽÐ¾Ð½ Ð°ÒĽÑĤÐ°ÑĢ
ĠÐ°ÑĤ Ð°Ð»Ð°ÑĤÑĭÐ½
Ð»Ð°Ð½ ÑĭÒ£
Ð §
ĠÐŀ ÑģÑĭÐ½Ð´Ð°Ð¹
Ð¸Ñı ÑĢ
ÐµÐ´Ð°Ð³Ð¾Ð³ Ð¸ÐºÐ°Ð»ÑĭÒĽ
ĠÑģÐ¾Ð¼ Ð°ÑģÑĭ
ÑĭÐ¼ÑĭÐ· Ð´Ð°
Òļ Ð¾ÒĵÐ°Ð¼
ĠÒĽÐ¾ÑĢ ÒĵÐ°Ð»
ĠÐ¾ÑĢÑĤÐ°Ð»ÑĭÒĵ ÑĭÐ½Ð´Ð°
ĠÒļÐ°Ð¹ ÑĢÐ°ÑĤ
ÑĤÐ°ÑĢÐ»ÑĭÒĽ ÑĤÐ°Ð¹
ĠÐºÐµÐ· ÐµÐ³ÑĸÐ½Ð´Ðµ
ĠÑģ Ò±Ð»Ñĥ
ÒĵÑĭÑģ ÑĭÐ½Ð°Ð½
Ð¾Ñģ Ð¿Ð°ÑĢ
Ð°ÑĨÐ¸Ñı ÑģÑĭÐ½ÑĭÒ£
ĠÑģÐ°Ð» Ð´Ñĭ
ĠÐ¼Ð¸Ð»Ð»Ð¸ Ð°ÑĢÐ´
ÑĪÐµÑĤ Ð°Ñĥ
ÐĲ Ñģ
ĠÐ°ÑĥÐ¼Ð°ÒĽ ÑĤÑĭÒĽ
Ð´ ÓĻÑĢ
ĠÑģ Ð¸Ð½
ĠÐ±Ð¾Ð¹ ÑĭÐ½Ð´Ð°
ĠÒĽÑĭÐ· Ñĭ
ĠÐºÐµÐ» ÑģÐµ
Ð°Ð´Ñĭ Ð¼
ĠÐ±Ó©Ð» ÑĪÐµÐº
ĠÒĽÒ± Ð±ÑĭÑĢ
ĠÓĺÐ´Ñĸ Ð»ÐµÑĤ
Ðł ÑĥÑħÐ°Ð½Ð¸
ĠÐºÐµÐ»Ð³ÐµÐ½ Ð´Ðµ
ĠÐ´ Ò¯ÐºÐµÐ½
Ð¼ Ð¾
ĠÓĺ ÐºÑĸÐ¼
ĠÒĽÐ°Ð» Ð´ÑĭÒĽ
ĠÐ¢ Ð¾Ð¿
ĠÑĪÐ°ÑĢ ÑĤÑĭ
Ð¶ ÐµÐºÐµ
ĠÐ¾ÑĢ ÑĤÐ°Ð½Ñĭ
ĠÒ¯Ð¹ Ð³Ðµ
ĠÐ¼ÓĻÑģÐµÐ» ÐµÐ½Ñĸ
ĠÐ±Ð°ÒĵÑĭÑĤ ÑĤÐ°
ĠÐ¶ÐµÑĤÐº ÑĸÐ»ÑĸÐºÑĤÑĸ
Ð´ Ð°ÑģÑĤÑĭ
ÑĤÐµÑĢ ÑĸÐ½Ð´Ðµ
ĠÐ°Ð¼ Ð°Ð»
ĠÐ¿ÓĻÐ½ ÑĸÐ½ÑĸÒ£
7 5
ÑĦ Ð¾Ð½
Ð¾ÑĢ ÒĵÐ°Ð½
ÑĥÐ¼Ð°Ð½ Ð¸ÑĤÐ°ÑĢÐ»ÑĭÒĽ
ĠÐ´ ÐµÑģ
Ð°ÑĤÐ¸Ð² ÑĤÑĸ
Ð¢ÓĻ ÑĥÐµÐ»
ĠÐºÐµÐ¹ ÑĸÐ¿
Ð½Ð¾ ÑģÑĤ
Ð± Ð°Ð»Ð°ÑĢ
ĠÑģ Ð°ÑĤÑĭ
ĠÒĽÐ°Ð¼ÑĤÐ¸ Ð´Ñĭ
ĠâĢ ¦
ÑĨ Ð¸Ð°Ð»
ÓĺÐ» ÐµÑĥÐ¼ÐµÑĤÑĤÑĸÐº
ĠÐ¶Ð¾Ð»Ð°Ñĥ ÑĪÑĭÐ»Ð°ÑĢ
Óĺ Ð´Ñĸ
ĠÑĤÒ¯ÑĢ ÐºÑĸ
ÑĤÑĭÐ» Ð°Ð¹
ĠÐĳÒ± Ð´Ð°Ð½
ÐļÐµÐ» ÐµÑģÑĸ
Ð´ Ð¾
ĠÐº ÑĸÐ»
ĠÐķ Ð½
ĠÐ´ Ð¾Ð¼
ĠÐ°Ð» Ð´ÑĭÒ£ÒĵÑĭ
ÓĻÑĢÐµÐº ÐµÑĤ
ĠÒĽÐ¾Ð¹ Ð½
ÑĸÑģ Ð¿ÐµÐ½
ÑĤ Ð¾
ĠÑģÓ©Ð· Ð´ÐµÑĢÐ´Ñĸ
ĠÐ°Òĵ Ð·
ĠÑĤÐ°Ð»Ð°Ð¿ ÑĤÐ°ÑĢÑĭÐ½Ð°
3 3
ĠÐ±Ð°ÑĢ Ð°Ð´Ñĭ
ĠÒĽÒ±ÑĢÐ°Ð» Ð´Ð°ÑĢ
ĠÐ¼Ò±Ð½ Ð´Ð°
Â», -
ĠÐµÑģÑĤ Ðµ
Ð¾Ð· Ð¸ÑĨÐ¸Ñı
ĠÐ±Ð°Ñģ Ð¿Ð°Ð½
Ð¨ ÑĭÒĵÑĭÑģ
ĠÐ°Ð»Ð´ ÑĭÐ½Ð´Ð°ÒĵÑĭ
ÐĲÒĽ Ð¼Ð¾Ð»Ð°
Ð±Ð°Ð± ÑĭÐ½ÑĭÒ£
ĠÐ°Ð¹Ð½Ð°Ð» Ð´Ñĭ
ĠÒ±Ð» ÒĵÐ°Ð¹
ĠÐ¿Ð¾ÑĢ ÑĤÐ°Ð»
ĠÐ±ÐµÐ»Ð³Ñĸ ÑģÑĸ
ĠÑģÓĻ Ð±Ð¸
ĠÐĲÐ»Ð¼Ð°ÑĤÑĭ Ð´Ð°
ĠÐ¶Ð°Ð·Ð±Ð° ÑĪÐ°
ĠÑģ Ð»Ð°Ð¹Ð´
Ð´ÐµÑĢ ÑĸÐ¼ÐµÐ½
ĠÑĢÐµÐ´Ð° ÐºÑĤ
ÐĲÑģÑĤÐ°Ð½ Ð°Ð´Ð°
ĠÓĻ Ð¶
ĠÒĽÑĭÐ·Ð¼ÐµÑĤ ÑĪÑĸÐ»ÐµÑĢ
Ð° Ð´Ð°ÒĵÑĭ
ĠÐ°Ð¹ Ð»ÑĭÒĽ
ĠÒ¯ÑģÑĤ ÑĸÐ½Ð´Ðµ
ĠÐµÐ» Ð´ÐµÑĢÐ´ÑĸÒ£
Ð¾Ð· Ð¸ÑĤ
ĠÐ¶ÐµÑĤÐµÐº ÑĪÑĸ
Ð¿ Ð°Ð»Ñĭ
Ð¸ÐµÐ² Ð°
ĠÑĤÓĻÑĢÑĤÑĸÐ¿ Ð¿ÐµÐ½
Ð°Ð¼ Ð´Ñĭ
ĠÐ°ÑĢÐ½ Ð°ÑĥÐ»Ñĭ
Ò° Ðł
ĠÑĤÓĻÑĢÑĤÑĸÐ± ÑĸÐ½
ÓĻÐºÑĸÑĢ ÑĤ
ĠÐ¿ ÑĸÑĪ
ĠÒĽÑĭÐ·Ð¼ÐµÑĤ ÐºÐµÑĢÑĸ
Ñģ Ð°ÑĤÑĭÐ½
Ð³ÐµÑĢ Ð»ÐµÑĢ
Ð±Ð°ÐµÐ² ÑĤÑĭÒ£
ĠÐ°Ð½ÑĭÒĽ ÑĤÐ°Ð»ÒĵÐ°Ð½
ĠÐ¶Ð°Ñģ Ð°Ð¹ÑĤÑĭÐ½
ĠÐºÐµÐ· ÐµÐº
ĠÐ¢Ð°ÑĢ Ð°Ð·
ĠÐ½ Ð°ÑĪÐ°ÑĢ
ĠÐľÓĻ Ð¶ÑĸÐ»
ĠÐºÐµÐ¿ÑĸÐ» Ð´ÑĸÐº
ĠÐ¼ÐµÑħÐ°Ð½ Ð¸Ð·Ð¼
ĠÐĸÐ¾ ÒĵÐ°ÑĢÒĵÑĭ
ĠÐ¶Ò¯ÑĢÐ³ÑĸÐ·Ñĥ ÑĪÑĸ
ĠÐ°Ñħ Ñĥ
ĠÐ¼Ð°ÑĤ ÐµÐ¼Ð°ÑĤÐ¸ÐºÐ°
0 9
ĠÐºÐ¾Ð¼Ð¿ÑĮÑİ ÑĤÐµÑĢ
Òĵ Ð¾Ð»
ĠÐ°Ð· Ð°Ð¹ÑĤÑĥ
ĠÑĤÐ°Ð¿ÑģÑĭÑĢ ÑĭÑģ
ĠÑĤÐ°Ð»ÒĽÑĭÐ» Ð°Ñĥ
Ð°Ð¼ Ð°Ð»
Ð± Ð°Ð»Ñĭ
ĠÐ½Ðµ ÑĪÐµ
ĠÐĳ Ð°ÒĵÐ´Ð°ÑĢÐ»Ð°Ð¼
Ðº ÐµÒ£
ĠÐ¶Ò±Ð¼ÑĭÑģ ÑĭÐ½Ð°
Ð° Ð´Ð°Ð½
ĠÐĳ Ð°ÑıÐ½
ÐºÑĸÐ½ ÑĸÑĪ
ĠÐ¼ÑĸÐ½Ð´ ÐµÑĤ
ĠÑĤÐµÑĢ ÐµÐ·
Ñĸ Ð³ÑĸÐ½
Ð¶ Ó©Ð½
Ð°ÑĤ ÑĭÐ½Ð°
ĠÒĽÐ¾Ñģ ÑĭÐ»
ĠÑĪÐ¸Ðº ÑĸÐ·
ĠÐ¾ Ð¿
Ġ p
ĠÒĽÐ°ÑģÐ¸ ÐµÑĤÑĤÑĸ
Ð°Ð½ Ð¾Ð²
ĠÓĻ Ð´ÐµÑĤÑĤÐµ
ÐĲ Ðĳ
ÑĢ ÐµÐ½
Ðº ÐµÑģÑĸ
ĠÐ¡ Ð¾ÑĤ
ĠÐ±Ð°ÑĢ ÒĵÐ°Ð½
ĠÐĲ ÑĤÐ°Ð»ÒĵÐ°Ð½
ĠÐ¢ ÐµÐ¼ÑĸÑĢ
ĠÑģÐ°Ð½ ÑĭÐ½
ĠÐ¶ÐµÑĤ ÐµÐ´Ñĸ
ĠÐĸ ÐµÐºÐµ
Ð¿ Ð°Ð¹Ð´Ñĭ
ĠÓ©Ð½ ÐµÑĢÑĸ
ĠÐ¶Ð°Ð¿ Ð¿Ð°Ð¹
ÒļÐ°Ð·Ð°ÒĽÑģÑĤÐ°Ð½ Ð´ÑĭÒĽ
ĠÐ´Ð¾ ÑģÑĤÐ°ÑĢ
ĠÐºÓ©ÑĢ ÐµÑĢÐ¼ÐµÐ½
ĠÒĽÐ°ÑĪ Ð°Ð½
Ġ http
ĠÑĤÐ¸ÑĸÐ¼Ð´Ñĸ Ð»ÑĸÐ³ÑĸÐ½
ĠÐ°Ð¹ ÑĤÐ°ÑĢÐ»ÑĭÒĽÑĤÐ°Ð¹
ĠÐ¶Ð°Ð½ÑĥÐ°ÑĢ Ð»Ð°ÑĢ
ĠÐ·Ð°Ò£ ÑģÑĭÐ·
ĠÑĢ ÐµÐ·
ĠÑĤÐµÑħÐ½ Ð¸ÐºÐ°
ĠÐ¿Ð°ÑĢÐ°ÒĽ ÑĪ
Ġ s
Ð°Ñģ ÑĭÒ£
Ð± ÑĭÐ·
Ð¢ Ð£
ĠÐ±ÐµÑĢ Ð¼
Ó©Ð½ Ð´ÑĸÑĢ
ĠÐ°Ð»Ñĥ Ð´Ñĭ
ĠÐ¼ÐµÐ´ Ð°Ð»ÑĮ
ĠÒĽÐ°ÑĢÐ°ÑģÑĤÑĭÑĢ ÑĭÐ»ÒĵÐ°Ð½
ĠÒļÐ¾ÒĵÐ°Ð¼ Ð´ÑĭÒĽ
Ð¶ Ð¾
Ð» Ð¸
ĠÐ°ÑĢ ÑĭÐ·
ĠÑĤÒ¯Ð· ÐµÑĤÑĥ
ĠÐ¶ÐµÐº ÐµÐ»ÐµÐ³ÐµÐ½
Ð¼ÓĻ Ð´ÐµÐ½Ð¸
Ðĸ Ð°Ð¼Ð±ÑĭÐ»
ĠÑĤÐ°ÑĢ ÑĤÑĭÐ¿
ÑĥÐ½Ð¸ÑĨÐ¸Ð¿ Ð°Ð»Ð¸ÑĤ
ĠÐ±Ð¾Ð»Ñĥ ÑĭÐ½Ð°
ĠÐµ Ð»Ñĸ
m a
Ð´ Ð¾Ð½
Ñģ ÑĭÐ½Ð´Ð°ÒĵÑĭ
ĠÐ¡ Ñĥ
Ð³Ñĸ Ð¿
ĠÐ¶Ò¯ÑĢÐ³ÑĸÐ· ÑĥÐ³Ðµ
ÑĤ Ð¸ÑħÐ°Ð½
ĠÐ°Ð»Ñĥ ÑĪÑĭÐ»Ð°ÑĢ
ĠÐ¼ÐµÑĢ ÐµÐ¹ÑĤÐ¾Ð¹
ĠÐ´ÐµÐ» ÑĸÐ½Ð³ÐµÐ½
Ð°Ð»Ñĭ ÒĵÑĭÐ½
ĠÐ°Ð½ Ð°ÑģÑĭ
ĠÐ¿ÑĢÐ¾ÑĨ ÐµÑģÑĤÐµÑĢ
Ð°ÑĤ ÑĤÐ°Ñĥ
Ð°Ð¼ ÐµÑĤÑĢ
ĠÐ¼Ð°Ð¼Ð°Ð½Ð´Ð°Ð½ Ð´ÑĭÑĢÑĭÐ»ÒĵÐ°Ð½
ÐµÑĤ ÐµÐ»
ĠÐºÐ¸Ð½ Ð¾
Ð°ÒĽ ÑĭÐ¼
ĠÒļÑĭÑĢ ÒĵÑĭÐ·ÑģÑĤÐ°Ð½
Ð±ÐµÑĢ Ð³ÐµÐ½
i v
Ð¶ Ð°ÒĽ
ĠÐ±Ð¾Ð»ÒĵÐ°Ð½ ÑĭÐ½
ĠÐĳ Ð°Òĵ
Ð´ÑĭÑĢ Ð°Ð´Ñĭ
ĠÐ¶Ð°ÑĢ ÑĭÑģ
ĠÐĳÒ¯ Ð³ÑĸÐ½Ð´Ðµ
ĠÑĤÐ¾Ð» ÒĵÐ°Ð½
ÐĳÑĸÑĢ ÑĸÐ½ÑĪÑĸ
ĠÒĽÑĭÐ·Ð¼ÐµÑĤÐºÐµÑĢÐ»ÐµÑĢ ÑĸÐ½ÑĸÒ£
ĠÐ¼Ð°Ð·Ð¼Ò±Ð½ ÑĭÐ½
Ð°ÑĢ Ð¸
ĠÐ¼Ð¸Ð½Ð¸ÑģÑĤÑĢ ÑĸÐ½ÑĸÒ£
ĠÑģÓ©Ð· Ð´ÑĸÐº
ĠÐ¢ÓĻÑĥÐµÐ» ÑģÑĸÐ·
ĠÑĪ ÐµÐºÑĤ
ĠÐ±Ð°Ñģ ÑĭÐ½Ð°
ĠÒĽÐ¾Ð¹ Ð¼Ð°Ð¹
ĠÑģÐ¾Ò£ ÑĭÐ½Ð°
ĠÑĤÓĻÐ¶ÑĸÑĢÐ¸Ð± ÐµÑģÑĸ
ĠÑĩÐµÐ¼Ð¿Ð¸Ð¾Ð½ Ñĭ
ÑĭÐ¿ ÑĤÑĭ
ĠÒĽÐ°Ð» ÑĭÒ£
ĠÐ±Ð¸ÑĭÐ» ÒĵÑĭ
Ġ200 6
ĠI n
ĠÐ± Ð»Ð¾Ð³
ĠÐ¾ÑĤ Ð±
ĠÒļÑĭÐ· ÑĭÐ»
Ð°Òĵ ÑĭÐ½Ð´Ð°
Ġ19 4
ĠÐ¾Ð¹Ð»Ð°Ð¹ Ð¼ÑĭÐ½
ĠÒĽÐ°Ð±ÑĸÐ» ÐµÑĤÑĤÐµÑĢÑĸÐ½
ÐĨÐĨ ÐĨ
ĠÑĪÐ°ÑĢ ÑĪÑĭ
ĠÑĤÑĸÐ» Ð´Ðµ
ĠÐ¡ Ð°Ð½
ÑĭÐ¼ Ð´Ð°ÑĢ
ĠÑĢÐµÑĦ ÐµÑĢ
ÒĽ Ò±Ð¼
Ñİ ÑĢ
Ð¾Ð»Ð¾Ð² ÐºÐ¸Ð½
Ð¼ Ð¸ÑĤ
Ò±ÑĢ Ð°ÑĤ
ÐĲÐ¡ Ð«
ĠÐ¡ ÑĭÑĢ
ĠÐ¶Ð¸Ð½ Ð°ÒĵÑĭ
ĠÐºÐ¾ÑĢ Ð¿Ñĥ
ĠÑģ Ð°ÑĤÑĭÐ»
ĠÐºÐµÐ´ÐµÑĢ Ð³Ñĸ
ĠÐ¼ÐµÑĢÐµÐº ÐµÐ»ÑĸÐº
ĠÒĽÐ°ÑĢ ÑģÑĭÐ»
ÑĤÑĭÐ¼ Ð´Ñĭ
ĠÐ°ÑĤ Ð°Ð¹Ð´Ñĭ
ĠÐ´ÓĻÑĢ Ñĸ
ĠÓ©Ð½ÐµÑĢ Ðº
Ð°Ð¼ÑĭÐ· Ð´ÑĭÒ£
Ð¾Ð¿ ÐµÑĢ
ĠÑĤÐ¾Ð» Ð¼Ð°ÒĵÐ°Ð½
o t
ĠÑģ ÓĻÐ½
ĠÑģÐ¾Ð» Ð°Ð¹
Ð¿ ÐµÐ³ÐµÐ½
ĠÐ´ Ó©Ò£Ð³ÐµÐ»ÐµÐº
Ð±ÐµÐº Ð¾Ð²Ð°
ĠÑĤÒ±ÑĢ ÒĵÑĭÑģÑĭÐ½Ð°Ð½
Ð°Ð¼ ÐµÑĢ
ÐµÐºÑĤ Ð¾ÑĢÑĭ
Ðĸ ÐµÐºÐµ
ĠÑħ Ð°Ð½Ð´Ñĭ
ĠÐ¾ÒĽÑĥ ÑĪÑĭÐ½ÑĭÒ£
ĠÐ¼ÓĻÐ»ÑĸÐ¼ÐµÑĤÑĤÐµÑĢ Ð´Ñĸ
Ð¸ÑĢ Ð°
ĠÑĦÐ¸Ð» Ð¸Ð°Ð»Ñĭ
ĠÐ¼ÐµÒ£Ð³ÐµÑĢÑĥ ÑĪÑĸÑģÑĸ
Ð¸ ÑĢÑĥ
ĠÒ±Ð¹ÑĭÐ¼ ÑĭÐ½ÑĭÒ£
ĠÑģÐ°ÒĽÑĤÐ°Ñĥ ÒĵÐ°
Ð¢ Ðŀ
ĠÐ¿Ð°Ð» Ð°ÑĤ
ĠÒĽÐ¾Ð»Ð´Ð°Ð½ Ð°
ĠÐ¼ÓĻÑģÐµÐ»ÐµÐ»ÐµÑĢ ÑĸÐ½
Ò¯ ÐºÑĤ
Ð¢ Ð°ÒĽÑĭÑĢÑĭÐ±Ñĭ
ĠÑĤÑĸÐ· Ð±
ĠÐ±ÐµÐ»Ð³Ñĸ ÑģÑĸÐ·
ĠÐºÓ©ÑĢÑĸÐ½ ÑĸÑģ
ĠÐ°Ñģ ÑĤÑĭ
ÐĲÐ»Ð¼Ð°ÑĤÑĭ Ð´Ð°
ĠÑĤÐ°Ð½ ÑĭÑĤ
ĠÒĽÐ° Ð´ÑĸÑĢ
ÑĸÐ¼Ð´ÐµÑĢ ÑĸÐ½
ĠÐ¾ÑĤÑĭÑĢ ÑĭÑģÑĭÐ½Ð´Ð°
ĠÑĤÑĸÐ» ÑĸÐ½ÐµÐ½
ĠÐ°Ð¹Ð½Ð°Ð» ÑĭÐ¿
ÐĳÐ¸ ÑĭÐ»
ĠÐ°Ð» ÑĥÑĭ
ĠÐºÐµÐ·Ð´Ðµ Ð³Ñĸ
ĠÑģÓĻ ÑĥÐ»ÐµÑĤ
ÓĻÑĢ ÑĸÐ¼
ĠÒĽÒ± Ð¹
ĠÐĸÐŀ Ðŀ
ĠÑĥÐ½Ð¸Ð²ÐµÑĢÑģÐ¸ÑĤ ÐµÑĤ
ĠÑĤÒ¯Ñģ ÐµÑĤÑĸÐ½
Ð°Ñģ Ñģ
ĠÑĤÒ±ÑĢ Ð°ÒĽ
ĠÐ°Ð¹ Ð½Ð°Ð»ÒĵÐ°Ð½
ĠÐ¶Ð°Ñģ Ð°Ð»Ð°Ð´Ñĭ
ĠÒ±Ð¼ ÑĭÑĤ
Ð¿ ÑĮÑİ
ĠÐ¼Ò¯Ð¼ÐºÑĸÐ½ Ð´ÑĸÐ³ÑĸÐ½
Ġ200 5
ĠÑģÐ¾ Òĵ
Ð´ÑĸÒ£ ÑĸÐ·
ĠÓ©ÑĤÐºÑĸÐ· ÑĸÐ¿
Ð´ÑĭÒĽ ÑĤÑĭ
ĠÐ¶Ð°Ð» ÒĵÐ°Ð½
ĠÐĵÐµÑĢÐ¼Ð°Ð½ Ð¸Ñı
ĠÐ¶Ò¯ÑĢ ÐµÐ´Ñĸ
ĠÐºÑĸÑĢ ÑĸÑģÑĤÐµÑĢ
ĠÐ¶Ò¯ Ð³ÑĸÐ½
ĠÐºÐµÐ» ÑĸÐ½
ĠÑĤÑĸÑĢ Ñĸ
0 6
ĠÒĽÐ°ÑĪ ÑĭÒĽÑĤÑĭÒĽ
ÑĤ Ð¾Ð½
ĠÒ¯Ð¹Ð»ÐµÑģÑĤ ÑĸÑĢÑĥ
ĠÐ¾ ÑģÑĭÐ»Ð°Ð¹
Ðĳ Ð°ÑĤÑĭÑģ
Ó© Ò£
ĠÐºÐµÐ¹ Ð´Ðµ
ĠÑĪÒ± ÒĵÑĭÐ»
ĠÑĪÑĭÐ½ Ð°Ð¹Ñĭ
ĠÐºÑĸÑĪ ÐºÐµÐ½ÑĤÐ°Ð¹
ĠÐ±Ò± Ð´Ð°Ð½
ĠÐ¶Ð¾ÑģÐ¿Ð°ÑĢ Ð»Ð°Ð½ÒĵÐ°Ð½
ĠÑģ ÐµÐ»
Ð¸Ð¼Ð¿Ð¸ Ð°Ð´
ÐľÐ°ÒĽ ÑģÐ°ÑĤÑĭ
ĠÐ¶Ò¯ÑĢ ÐµÑĤÑĸÐ½
ÒĵÑĭÐ» Ñĭ
ĠÐ±Ó©Ð»Ñĸ Ð³ÑĸÐ½
ĠÐŀ ÑĤ
ĠÐ¾ Ð´Ð°ÒĽ
ÑĭÑģÑĤÐ°ÑĢ Ð´ÑĭÒ£
ĠÑĤÓ©Ð¼ÐµÐ½ Ð´ÐµÐ³Ñĸ
ĠÐ±Ð°ÒĽÑĭÑĤ ÑĤÑĭ
ĠÐ¼ÐµÐºÐµÐ¼ ÐµÑģÑĸÐ½ÑĸÒ£
Ð¾Ð¼ ÐµÑĤÑĢ
Ð¢ ÑĥÒĵÐ°Ð½
ĠÒĽÒ±ÑĢ Ð°ÑģÑĤÑĭÑĢ
ĠÐºÒ¯Ð½ ÑĸÐ½ÐµÐ½
ĠÒĵ Ð°Ð»Ð°Ð¼
Ġ )
ĠÐ½ Ð°Ð½
ĠÐ¥ Ð¥
Ð¸ ÑĭÐ½
ĠÐ½ Ð°Ð¼Ð°Ð·
ĠÐµÐ» ÐµÑĥ
Ð°ÑĥÑĭÑĢ Ð¶Ð°Ð½
ĠÐºÑĸÑĤÐ°Ð¿ ÑħÐ°Ð½Ð°
1 00
Ð°ÑĤ Ð°ÑĢ
Ð°Ñĥ ÑĭÐ»
Ð¸Ñı Ð½
ĠÐ¡ Ó©Ð·
ĠÐĸ ÐµÐ»
ĠÒĽÐ¾ÑĢ ÑĭÐ½ÑĭÒ£
ĠÐŀÐ» Ð¸Ð¼Ð¿Ð¸Ð°Ð´Ð°
ĠÐ°ÑĥÐ´Ð°ÑĢ Ñĥ
ĠÑĦ ÐµÐ´ÐµÑĢ
ĠÐºÐµÑĪ ÐµÐ½Ñĸ
ĠÐ¿ÓĻÐ½ ÑĸÐ½ÐµÐ½
ĠÐ°ÑĢÐ°Ð» Ð°Ñģ
a in
ĠÒļ Ñĥ
ĠÑĤÐµ Ð³Ñĸ
ĠÓĻÑĥ Ðµ
ĠÒ±ÑģÑĭÐ½ ÒĵÐ°Ð½
Òļ Ð¾Ð»
ĠÒ¯Ð¹ Ñĸ
ĠÐ°ÑıÒĽ ÑĤÐ°Ð»ÒĵÐ°Ð½
Ðµ Ð¿Ð°ÑĢ
ĠÐ¶Ð°Ð» ÒĵÐ°
Ġ &
ĠÐ± Ò¯Ð»
ĠÐ±Ð¾Ð»ÒĵÐ°Ð½ Ð´Ð°
ĠÓ©Ñģ Ñĥ
ĠÑįÐº ÑģÐ¿
ĠÑĤÑĭÐ½ ÑĭÑĪ
at ion
ĠÒĽÐ¾ Ð¶
ĠÑģÓĻ ÑĥÐ»
ĠÒĽÐ¾Ñģ ÑĭÐ¼ÑĪ
ĠÐ¢ Ò¯
Ð°ÑĤ ÑĤÐ°
ĠÐĸ Ð°Ð»
ĠÐ¶ÐµÐ»ÑĤÐ¾ÒĽÑģÐ°Ð½ Ð´Ð°ÒĵÑĭ
ĠÐ±ÓĻÑģ ÐµÐºÐµÐ»
ĠÐ± ÐµÑģÐ¿
ĠÑģ ÑĤÑĥ
Ð°Ð± ÑĭÐ½Ð°
ÑĸÐº ÐºÐµÐ½
ĠÑĤÐµÑĢ ÑĸÑģ
ÐµÑĤ iÐ½
ĠÐ¶Ò±Ð¼ÑĭÑģ ÑĤÑĭÒ£
ĠÐ² Ð¸ÑĨÐµ
ÓĻÐ¼ ÐµÐ»
ĠÑģÐ°Ð» Ð°ÑģÑĭÐ½ÑĭÒ£
ĠÐ¾ÒĽÑĥÑĪÑĭÐ»Ð°ÑĢ ÒĵÐ°
ÐĲ ÑĤÐ°
ĠÒĽÐ¾ ÑĪ
ĠÐ¿ÑģÐ¸Ñħ Ð¾Ð»Ð¾Ð³Ð¸Ñı
Ðĳ ÑĸÐ»
ĠÑģÓĻ Ð»ÐµÐ¼
ĠÐĳ Ó©
ĠÐ°ÑĢ Ð°Ð´Ð°
ĠÑĤÐ°ÑĢÐ¸Ñħ ÑĭÐ½
Ð»Ð°ÑĤ Ð½Ð¾
ĠÐºÓ©ÑĢÑģÐµÑĤ Ðµ
Ðĳ ÐĽ
Ð´ÑĭÑĢ ÒĵÐ°Ð½
ĠÒĽ Ð°ÑĤÑĭ
ÑĭÐ¼ Ð´Ð°
ĠÐ±Ð°Òĵ ÑĭÐ½
ĠÑģÐµÐ· ÑĸÐ½
ĠÑįÐºÑģ Ð¿Ð¾ÑĢÑĤ
ĠÑģÐ°Ð» ÑĥÒĵÐ°
ĠÐ»Ð¸ÑĨÐµÐ½ Ð·Ð¸Ñı
Ñħ ÑĤÐ°ÑĢ
ĠÑĪÐ°ÑĢ Ñĥ
ĠÒĽÐ°ÒĵÐ°Ð· Ð´Ð°ÑĢ
Ð°Ð½ ÑĭÐ¿
ĠÐµÒ£Ð±Ðµ Ð³Ñĸ
ĠÐµÐ½Ð³ÑĸÐ· ÑĸÐ»Ð´Ñĸ
ĠÒĽÒ±ÑĢ Ð°Ð¹ÑĤÑĭÐ½
ĠÐ¶Ò¯Ð¹ ÐµÑģÑĸÐ½Ðµ
ĠÒĽÐ°ÑĥÑĸÐ¿ÑģÑĸÐ· Ð´ÑĸÐ³Ñĸ
ĠÒĽÐ°Ð¹ÑĢÐ°ÑĤ ÐºÐµÑĢÑĸ
ĠÐĲ Ð»ÐµÐº
ĠÑĸÑĢ ÑĸÐºÑĤÐµÑĥ
II I
ĠÑĤÒ¯ÑĢ ÑĸÐ½
ĠÐ¿ ÐµÑĢÑģ
ĠÓ©Ð·Ð³ÐµÑĢ ÑĸÑģ
ÑģÑĭÐ½ Ð°Ð½
ĠÑĤÐ¸ ÐµÑģ
ĠÒĽ ÑĭÑĤÐ°Ð¹
ĠÓĻÑģÐµÑĢ Ñĸ
ÑĭÐ¼ ÑģÑĭÐ·
ĠÐ¶Ð°Ñģ Ð°Ð»Ð´Ñĭ
ĠÐ¢Ð°ÑĢ Ð¸Ñħ
ÑģÑĤ ÑĢÑĥ
Ð¶ Ð°Ð»
Ð¾ÑĤ ÐµÐº
ĠÐ°Ð¹Ð¼Ð°ÒĽ ÑĤÑĭÒĽ
ĠÒĽÐ¾ÑģÐ¿ Ð°ÒĵÐ°Ð½Ð´Ð°
ĠÒĽ ÑĭÑĪ
ĠÒ±Ð¹ÑĭÐ¼ Ñĭ
Ġ200 0
ĠÑĤÐµÑģÑĤ ÑĸÐ»ÐµÑĥ
ĠÑģÓ©Ð· ÑĸÐ½
ĠÐ´ÓĻ Ð¼
ĠÐ¶Ð°ÑĢÐ¸Ñı Ð»Ð°Ð½Ð´Ñĭ
ÑĪ ÑĸÐ»ÑĸÐ³ÑĸÐ½
ĠÐ±ÑĸÐ»ÑĸÐ¼ ÑĸÐ½
ÑĤÒ±ÑĢ ÑģÑĭÐ½
ĠÐ¶Ò¯ÑĢÐ³ÑĸÐ· ÑĸÐ»Ð³ÐµÐ½
ĠÑĤ Ð¾ÑĢ
Ð¸Ð°Ð» Ð¾Ð³
ĠÒ±Ð¼ ÑĤÑĭÐ»
ĠÐºÒ¯Ð½ Ð´Ñĸ
ĠÐ°Ð²ÑĤ Ð¾ÑĢÑĭ
ÐµÐ» ÐµÐ½Ð³ÐµÐ½
ÑĤÑĢÐ°ÑĤÐµÐ³ Ð¸Ñı
ĠÒĽÐ°Ð±ÑĭÐ»Ð´Ð°Ð½ Ð´Ñĭ
Ð¶ Ð°Òĵ
Ð±ÑĸÑĢ ÐµÐº
ĠÐ±Ð°Ð½Ðº ÑĤÐµÑĢ
ĠÐ±ÐµÑģÐ¿ Ð»Ð°ÑĤÐ½Ð¾
a b
ĠÑģÐ°Ñĥ Ð°ÑĤÑĤÑĭ
Ðĸ Ð°Ò£
ĠÑģ ÐµÐ³ÑĸÐ·
ÑĦ Ð¾ÑĤÐ¾
ĠÐ¸Ð½ Ð²ÐµÑģÑĤ
ĠÐ¾ÑĢÑĭÐ½ Ð´Ð°ÑĢÑĭÐ½ÑĭÒ£
19 8
ĠÐµÐ» ÑĸÐ½ÑĸÒ£
ĠÐ¶Ð¸Ð½Ð°ÒĽ ÑĤÐ°Ñĥ
ĠÒĽ Ð°Ð¿
ĠÐ¶Ò¯ÑĢÐ³ÑĸÐ· ÐµÐ´Ñĸ
ĠÑĦÐ°ÐºÑĤ Ð¾ÑĢÐ»Ð°ÑĢ
ÑĪ Ð°ÑģÑĭ
ĠÐĺ ÑĢÐ°Ð½
ĠÐ±Ó©Ð»Ñĸ Ð³ÑĸÐ½Ð´Ðµ
Ð³ Ð°Ð·
Ð¸Ð½ Ð½ÑĸÒ£
ÐĲ Ð½Ð°
ĠÐ¶ÐµÒ£ ÑĸÑģÐºÐµ
ĠÐ¿ÑĢ Ð°ÐºÑĤÐ¸ÐºÐ°Ð»ÑĭÒĽ
ÑĸÑģÑĸÐ½ ÑĪÐµ
ĠÐ¼ÑĥÐ·ÑĭÐº Ð°Ð»ÑĭÒĽ
ĠÐ½ÓĻÑĤÐ¸Ð¶ Ðµ
ĠÐ¿ÑĢ Ð°ÐºÑĤ
ĠÐ¶Ð¾Ð± Ð°Ð»Ð°ÑĢÐ´Ñĭ
ĠÐ¶ÐµÒ£ ÑĸÐ¿
ĠÐ± Ð¾Ð¿
ĠÒĽÐ°ÑĢ ÑģÐ°Ò£
ĠÐ¡ Ò±Ð»ÑĤÐ°Ð½
ĠÑĥÐ°ÒĽÑĭÑĤ ÒĽÐ°
ĠÐ°Ð¹ÑĭÐ¿ Ð¿Ò±Ð»
ÐĲ Ò¢
Ðŀ ÐĴ
ĠÒĽÒ± Ñģ
Ġ3 8
ĠÑĤÓ© ÑĤÐµÐ½ÑĪÐµ
ÐºÐµÑģ ÑĸÐ½ÑĸÒ£
ĠÒ¯ÑĢÐ´Ñĸ Ñģ
ÓĺÐĿ Ðķ
ĠÑĤ ÑĥÑĭ
ĠÐº Ð²
ĠÑĤÐ°ÒĽ ÑĤÐ°
ĠÑģÓ©Ð· Ð´Ñĸ
ĠÐµÑģÐºÐµÑĢ ÑĤÑĥ
ĠÐ¡Ó©Ð¹ ÑĤÑĸÐ¿
Ð»ÑĸÐº ÑĤÑĸÒ£
ĠÒĽÐ°Ð¼ ÑĤÑĭÐ»ÒĵÐ°Ð½
ĠÐ¾ Ð¹ÑĭÐ¼
ĠÑĸÑģÑĤ ÐµÐ³ÐµÐ½
ĠÑĤÐ°ÑĥÐ°ÑĢ Ð»Ð°ÑĢ
ĠÑĤÐµÒ£Ð³Ðµ Ð´ÐµÐ½
ĠÐ·Ð°Ð¼Ð°Ð½ ÒĵÑĭ
ĠÑįÐºÐ¾Ð½Ð¾Ð¼Ð¸Ðº Ð°Ð½ÑĭÒ£
ĠÒĽÒ±ÑĢÐ°Ð» Ð´Ð°ÑĢÑĭÐ½
Ð½ ÐµÑģ
Â» ;
Ġ3 7
ĠÐºÐ¾Ð½ Ñģ
ÑģÐºÐµÑĢ ÑĤÑĥ
ÑĦ Ð¸ÑĢ
, -
5 5
Ð°Òĵ Ð°ÑĪ
ĠÐ´ Ð°Ð½
Ġ15 0
ĠÓ©Ð· ÑĸÐ¼
ĠÐµÒ£ Ð±
Ð°Ð¹ Ð¼ÑĭÐ·
ĠÑĪ ÑĭÒ£
ĠÑĪÐµÐº ÐºÐµÐ½
ĠÐ¼ ÑĭÑģÐ°Ð»Ñĭ
ĠÑĤÒ±ÑĢÒĵÑĭÐ½ Ð´Ð°ÑĢÑĭÐ½ÑĭÒ£
ĠÑģÐ°ÑĢÐ°Ð¿ ÑĤÐ°Ð¼Ð°
Ġ3 9
ĠÐ°ÑĪÑĭÐ» ÒĵÐ°Ð½
ĠÐ´ÐµÐ³ÐµÐ½ Ð´Ðµ
ĠÐ´Ð°Ð¼ Ñĭ
ĠÒĽÐ°Ð±ÑĭÐ» Ð´Ð°ÒĵÐ°Ð½
ĠÐº ÐµÐ½ÑĤ
ÒĽ Ð°ÒĽ
ÑĭÒĽ ÑĤÐ°ÑĢ
ĠÐĸ ÓĻÐ½Ðµ
ĠÐºÐµÒ£ ÐµÑģÑĸ
Ð°ÑĤ Ð°Ð»
ĠÑĪÐµÑĪ ÑĸÐ¼Ñĸ
Ð¿ Ð°ÒĵÐ°Ð½
ĠÑĤÒ±ÑĢ Ñĥ
ĠÑģÒ±ÑĢÐ°ÒĽÑĤÐ°ÑĢ ÒĵÐ°
ĠÐºÓ©ÑĢ Ð½ÐµÐº
ÐļÓ© Ð¿
az ak
Ð½ Ð´ÑĸÑĢ
ÐĶ Ð°Ð¼
ĠÑĤÐµÑħÐ½Ð¾Ð»Ð¾Ð³Ð¸Ñı ÑģÑĭ
ĠÐ¡ ÐµÐ¹
ĠÓĺ ÑģÑĸÑĢÐµÑģÐµ
ÑĤ Ð¸ÐºÐ°Ð»ÑĭÒĽ
ĠÐ¡ Ð°Ð»ÑĭÒĽ
ĠÐ´Ð°ÒĵÐ´Ñĭ Ð»Ð°ÑĢÑĭÐ½
ĠÐĲ Ñı
ĠÐ°Ð²ÑĤÐ¾Ðº Ó©Ð»ÑĸÐº
ĠÐºÒ¯ÑĪ ÑĤÑĸ
ĠÑģ Ð°ÒĵÐ°Ð½
ĠÑĪ Ð°Ð¿
ĠÐ¢ ÐµÑĢ
ĠÐ¼ÑĭÒ£ ÒĵÐ°
ÑĸÑĢ ÑĤ
ÑĸÐ½ ÐµÑģÐµ
ĠÐ°Ð»Ñĥ ÑĪÑĭÐ½ÑĭÒ£
Ð´ Ð°ÑģÑĭ
ĠÒĽÒ± ÒĽÑĭÐ»Ñĭ
ĠÐ¶Ð°ÒĵÐ´Ð°Ð¹ Ð´Ñĭ
ĠÐ°Ð½ÑĭÒĽ ÑĤÐ°Ð»Ð°Ð´Ñĭ
ĠÐ°Ð·Ð°Ð¼ Ð°ÑĤÑĭ
ÐµÐ» ÐµÐ¿
ĠÐºÐ¾Ð¼ Ð°Ð½Ð´Ð°
Ð¸Ð»ÑĮ Ð¼
ÑĪÑĭÐ½ Ñĭ
Ð³ Ñĥ
ÐµÐ¼Ð°ÑĤ Ð¸ÐºÐ°Ð»ÑĭÒĽ
ĠÓ¨ ÑĤÐºÐµÐ½
ĠÐ½Ð°ÑģÐ¸ÑħÐ°ÑĤ ÑĤÐ°Ñĥ
ĠÐ¼ÓĻ Ð¶ÑĸÐ»
ĠÐ¶Ò¯ÑĢÐ³ÑĸÐ· ÑĸÐ¿
Ð´Ðµ ÑĪÐµ
ĠÐĸ ÓĺÐĿÐķ
ĠÑĤÑĸÐ» ÑĸÐ½Ðµ
ĠÒ±ÑģÑĭÐ½ Ð´Ñĭ
Ðĳ Ð°ÑĢÐ»ÑĭÒĽ
ĠÒĽÐ°ÑĤÑĭÑģ ÑĥÑĪÑĭ
t er
Ð¡ ÐµÑĢ
Ġ19 7
Ð°ÑĤÑĤÐ°ÑĢ ÒĵÐ°
ĠÐ±Ð°ÑĢ ÑĭÑģÑĭ
Ð³ Ð¾ÑĢ
ĠÐµÑģ ÐºÑĸ
ĠÑģÐ¾Ð½ Ð´Ð°
Ð¡Ð°Ð½ Ð°ÑĤ
ĠÑĢÐ°Ð´ Ð¸Ð¾
ÑĸÒ£ Ðµ
ĠÐ±ÑĸÐ» ÑĸÐºÑĤÑĸ
Ð±ÑĸÑĢ ÑĸÐ¼ÐµÐ½
ĠÐ¾ÑĢ Ð°Ð¹Ð´Ð°
ÑĤÐµÑĢ ÑĸÐ¼ÐµÐ½
ĠÐ¼ÑĭÑģ Ð°Ð»
Ġ200 3
ÑĸÐ» Ðµ
Ð´ÑĭÒĵ ÑĭÐ½Ð°Ð½
Ð» Ñİ
ĠÐµ ÐºÑĸÐ½
ĠÑĤÐ°Ð¼ Ð°ÑĪ
ĠÑĢ Ð¾Ð¼
Ðĺ ÐĿ
ĠÐ±Ð°Ð½ÐºÑĤ ÑĸÒ£
ĠÑĢ ÐµÐº
ĠÑģ ÐµÐ¿
ĠÐµ ÑģÑĤÑĸ
ĠÐ±Ð¾Ð»Ð°ÑĪ Ð°ÒĵÑĭ
e st
Ð» Ð¾Ð²
Ð¸ Ð´Ñĭ
Ð¾Ð» Ð°ÑĢ
ĠÐ¶Ð¾Ð» ÒĵÐ°
ĠÑĭÐ½ ÑĤÐ°Ð»
ĠÐ±ÑĸÑĢ Ð´Ðµ
Ð¢ ÐĲ
ĠÐ¼ÐµÑĢÐµÐº ÐµÑģÑĸ
ĠÐ¶ÐµÑĢÐ»ÐµÑĢ Ð´Ðµ
ĠÐ¼ÐµÑĤ Ð°Ð»Ð»
i Ð»ÐµÑĢ
ĠÐµÑģÐµÐ¿ ÑĤÑĸ
ĠÐºÐ¾Ð´ ÐµÐº
ĠÑģ Ð¿
Ð°ÑĤ Ð°Ð´Ñĭ
Ñĭ Ð±Ð°Ð¹Ð»Ð°Ñģ
ĠÐ¼Ð°Ð¼Ð°Ð½ Ð´Ð°ÑĢÑĭ
ĠÐ½ Ð¾
ĠÑĦ Ð¸ÑĢ
ĠÒĽÐ°Ð¼ ÑĤÑĭÐ»
ĠÐ±Ð¾Ð»Ð°ÑĤÑĭÐ½ ÑĭÐ½
ÑĭÑĢ Ð¼Ð°
Ðķ ÑĥÑĢ
Ð°ÑĤÑĤÐ°ÑĢ ÑĭÐ½ÑĭÒ£
Ð¼ Ð°Ð½Ñĭ
Ðº Ð¾Ð»Ð¾Ð³Ð¸ÑıÐ»ÑĭÒĽ
Ð± ÑĢÐ¸ÑĤÐ°Ð½
ĠÑģÐ¾ ÒĵÐ°Ð½
ĠÐ°Ñģ ÑĭÐ¿
ĠÐ½ Ð°ÒĵÑĭÐ·
Ð¼ ÐµÐ¼Ð»ÐµÐºÐµÑĤÑĤÑĸÐº
ÑĤÐ°Ð¼ ÑĭÐ·
ĠÑģÒ±ÑĢ Ð°Ñĥ
Ð³ ÑĸÐ¼
ÑģÑĤ Ðµ
Ġ m
Ð¸ ÑĤÐ°ÑĢ
ĠÒĽÐ¾ÑĢ ÑĭÐ½
Ð¸Ð½ Ð³Ñĸ
ĠÐĺ ÑĤÐ°Ð»
ĠÒĽÐ°ÑĢ ÒĽÑĭÐ½Ð´Ñĭ
ĠÐ¾ÒĽ ÑĭÒĵÐ°Ð½
ĠÐ¿Ð°Ð¹Ð´Ð°Ð»Ð°Ð½ ÑĭÐ¿
ĠÑĤÓĻÑĥÐµÐ» ÑģÑĸÐ·Ð´ÑĸÐº
Ðķ ÐºÑĸÐ½ÑĪÑĸ
ĠÒĽÐ°Ð½ ÑĪÐ°Ð»ÑĭÒĽÑĤÑĭ
Ð«ÐĿ ÐĶÐĲ
ĠÑĪ ÓĻÐºÑĸÑĢÑĤ
ÐŀÑĢÑĤÐ°ÒĽÒĽÐ¾ÑĢ Ð´Ð°
ĠÐ´Ð¾ÐºÑĤ Ð¾ÑĢÑĭ
ĠÐ¼ Ð°ÑħÐ°Ð±Ð±Ð°ÑĤ
ĠÒĽÐ¾Ð»Ð¶ÐµÑĤ ÑĸÐ¼Ð´Ñĸ
ÑģÐ¸ Ð´Ð¸Ñı
ĠÒĽÒ±ÑĢÑĭÐ»ÑĭÐ¼ Ð´ÑĭÒĽ
ĠÐ¼ÓĻÑģÐ» Ð¸Ñħ
ĠÑģÐ° ÑħÐ½
Ð½ ÐµÐ¼
ÑĤ i
Ð· Ð°Ð½
ĠÐ°Ñĥ Ð»
ÑĤÒ¯ ÑģÑĤÑĸ
Ð¼ Ð°Ð´Ñĭ
ĠÐ´Ð°ÑĢ ÑĭÐ½Ð´Ñĭ
ĠÐ°Ð» ÑĭÑģ
ĠÐ¶ÐµÑĤ ÑĸÐ¿
ĠÐļÐ¾Ð´ ÐµÐº
ĠÐĿ ÓĻÑĤÐ¸Ð¶
ĠÑĤÑĥÑĢ Ð¸ÑģÑĤÑĸÐº
ĠÐ¶Ð°Òĵ Ð°Ð»Ð°Ñĥ
ÑĸÐ¼Ð´ÐµÑĢ Ð´Ñĸ
Ð¿ ÑĢÐ¾
ĠÓ©Ñģ ÐºÐµÐ½
ĠÐ±ÐµÐ»Ð³ÑĸÐ» ÐµÐ½
ĠÐ±ÑĸÑĤ ÑĸÑĢÐ³ÐµÐ½
ĠÐ¼Ð¾Ð½Ð¸ÑĤÐ¾ÑĢ Ð¸Ð½Ð³
ĠÐºÐµÐ» Ñĸ
ĠÐ´ÐµÐ³ÐµÐ½ Ð´Ñĸ
ĠÐºÓ©ÑĢÐ¼ ÐµÑģÑĸ
ĠÐ¸ ÐµÐ»ÐµÐ½
ĠÑĤÓĻÑĥÐµÐ» Ð´Ñĸ
azak h
ĠÐ¶Ò¯ÑĢÐ³ÑĸÐ· ÑĸÐ»ÑĸÐ¿
ÑĭÐ» ÑĥÐ´Ð°
ĠÐ´Ð°Ð¼ ÑĭÐ¿
ÐĹ Ð°Ò£
ĠÐºÐ¾Ð¼Ð¿Ð°Ð½Ð¸Ñı ÑģÑĭÐ½ÑĭÒ£
ÐºÐµÑĤ Ð¸Ð½Ð³
ĠÑĪ Ð¾Ð»
ĠÐ¼Ò¯Ð¼ÐºÑĸÐ½Ð´ÑĸÐº ÑĤÐµÑĢÑĸ
ĠÐ½Ð°ÑĢ ÑĭÒĽÑĤÑĭÒĽ
ÑĸÐ» Ð´ÑĸÑĢ
ĠÐ¾ÒĽÑĥ ÑĪÑĭÑģÑĭ
Ð¢ Ó©ÑĢ
ĠÑĢÐµÑģ ÑĥÑĢ
ĠÑĦÐ¸Ð· Ð¸ÐºÐ°Ð»ÑĭÒĽ
Ð°Ñĥ ÑĸÐ¿
Ðĸ Ò±Ð¼
ĠÑı Ð´ÑĢÐ¾Ð»ÑĭÒĽ
ĠÐ¶Ð¾Ð± Ð°Ð»Ð°Ñĥ
ĠÐ´ÐµÐ¿Ð°ÑĢÑĤÐ°Ð¼ÐµÐ½ÑĤ ÑĸÐ½Ð´Ðµ
ĠÑĤÒ¯Ñģ Ñĥ
ĠÑĸÐ· Ð´ÐµÐ¿
ÑĢ Ð°Ð·
ĠÐ±Ð°ÑģÒĽÐ°ÑĢ Ð¼Ð°
Ð¶ ÐµÑĢ
Ð´ÐµÐ¹ ÑĤÑĸÐ½
Ðľ Ð°ÑĤ
Ð¿ Ñĸ
Ġ3 3
ĠÑĤÐ°Ð½ ÑĭÐ¼
ĠÒ±Ð¹ÑĭÐ¼Ð´Ð°ÑģÑĤÑĭÑĢÑĥ ÑĭÐ¼ÐµÐ½
Ð°Ñģ ÑĤÐ°ÑĢ
Ñį Ð½
ĠÑĦ Ð¾ÑĤÐ¾
ĠÐĶ Ð°Ð¼
ĠÐ°ÑĢ ÑĤÑĭÐ¿
ĠÐ¶Ò¯ÑĢ Ñĥ
ĠÐ¶Ð¾Ð» Ð¼ÐµÐ½
Ð°Òĵ ÑĭÐ»
ĠÐ¿ÑĢ ÐµÐ·ÐµÐ½ÑĤÐ°ÑĨÐ¸Ñı
ĠÒ±ÑģÑĭÐ½ ÑĭÐ»ÒĵÐ°Ð½
ĠÐĲ Ð½Ð°
Ð¢ Ðķ
ĠÐºÓ©ÑĢ Ð´Ñĸ
ĠÐ± Ñĥ
ĠÑĤÓ©ÑĢÐ°Òĵ Ð°ÑģÑĭÐ½ÑĭÒ£
ĠÐ±Ó©Ð»ÑĸÐ½ ÑĸÐ¿
p p
ĠÐ¾Ð¹ÑĭÐ½ Ñĭ
ĠÐ¼ÐµÐºÐµÐ¼ Ðµ
ĠÑĤÐ¾Ð» Ñĭ
ĠÒ±Ð· ÑĭÐ½Ð´ÑĭÒĵÑĭ
Ñħ Ð°Ð»ÑĭÒĽ
ĠÑĤÐ°Ð± Ð°
ÒĴ ÐĲ
ĠÐ¾ÑĢÑĭÐ½Ð´Ð° ÑĥÒĵÐ°
ĠÒĽÒ±ÑĢ Ð°ÑģÑĤÑĭÑĢÑĥ
ĠÐĿ ÐµÐ³ÑĸÐ·Ð³Ñĸ
ĠÐ¿Ð°ÑĢÑĤ Ð¸ÑıÑģÑĭ
an d
ĠÐ¨ ÑĭÐ½
4 7
Ð¢ Ð¾Ð¿
Ð°ÑĤÑĤÐ°ÑĢ ÑĭÐ½
ĠÑĢ ÐµÐ²
ĠÑĦ Ð°Ð¹Ð»
ĠÐ¾ÑģÑĭ ÒĵÐ°Ð½
Ð» ÐµÑģ
ĠÑĤÐ¾ÒĽ ÑĤÐ°ÑĤ
ĠÐ¶ Ð°ÒĽÑĤÑĭ
ĠÐĲÑģ ÑģÐ°Ð¼Ð±Ð»ÐµÑı
ĠÐ°Ð¹ Ð½
ĠÐ°Ñģ ÒĽÐ°Ð½
Ð»Ð°Ð¼ ÐµÐ½ÑĤÑĸ
ĠÐ¼ÑĸÐ½Ð´ ÐµÑĤÑĤÐµÑĢÐ´Ñĸ
ĠÑĢÓ©Ð» Ñĸ
ÒĵÒ±ÑĢ Ð»ÑĭÐ¼
ÑĭÒĽ ÑĤÑĭÒ£
ĠÑĤÒ± ÑĤ
ĠÐºÑĸÑĢ ÑĸÐ¿
ĠÐºÓ©Ð»ÐµÐ¼ ÑĸÐ½
Ð´ iÐº
ĠÐ´Ð°Ð¹ÑĭÐ½ Ð´Ð°Ð»
Ð°ÑģÐ¿ Ð¸Ð¹
ÑĢÑĭÒĽ ÑĪÐ°
Ġ20 01
Ðĸ Ð°Ð·
ĠÑĤ ÑĭÐ¼
ĠÐ±Ð¾Ð¹ ÑĭÐ½Ð°
ĠÐ¥ Ð°Ð±Ð°ÑĢ
ĠÐºÓ©ÑĤÐµÑĢ ÑĸÐ¿
ĠÐ°Ð»Ð¼ Ð°Ñģ
ĠÐºÓĻÑģÑĸÐ¿Ð¾ÑĢÑĭÐ½ Ð´Ð°ÑĢ
Ð± ÑĸÐ·
Ð± Ð¸Ð½
Ġ7 5
ĠÐ´Ð°Òĵ Ð´Ð°ÑĢ
ÑĪÑĸÐ»ÐµÑĢ Ð³Ðµ
ĠÐ± Ð°ÑĤÑĭÑģ
ĠÐ±Ó©Ð» ÑĸÑģ
ĠÐ°ÑĤÒĽÐ°ÑĢ ÒĵÐ°Ð½
ĠÐ¶ÑĭÐ» Ð¶ÑĭÐ¼
ĠÑĤÐ°Ð» Ð°Ð¹
ĠÐ°ÑĢ Ð°Ð±
ĠÐ¢Ò¯ÑĢÐº Ð¸Ñı
ĠÒĽÐ°ÑĢÑģÐ°Ò£ ÑĭÐ½Ð´Ð°
Ġ200 4
ĠÐ¼ÑĥÐ·Ñĭ ÐºÐ°
Ð¾Ð» Ð¸Ðº
Ð¶ ÐµÐ¹
ĠÐº ÓĻ
ĠÐ°Ñģ Ð¿Ð°Ð½
ĠÐµÐ½ Ð³ÐµÐ½
ĠÐ¼Ò± Ð·
i r
Ð» Ð°Ð´
ĠÑĦÐµÑģÑĤÐ¸Ð² Ð°Ð»
ĠÒĽ Ð¸Ð¼ÑĭÐ»
ĠÐ¸Ð¼ Ð°Ð¼
ĠÑĤÒ¯ÑģÑĸÐ½ Ñĥ
ĠÐµÑĪ ÑĤÐµÒ£
Ð±ÑĭÐ» Ð°Ð¹
Òĵ ÑĭÐ½Ð´Ð°
ĠÑģÑĤÑĥÐ´ÐµÐ½ÑĤ ÑĤÐµÑĢÑĸ
ĠÐ°ÑĢ Ð°Ð»ÑĭÒĽ
ĠÑģÓĻÑĤ ÑĤÑĸ
ÑĤ Ð°ÒĽ
ĠÐ¶Ð°Ð» Ð°ÒĽ
ÒļÐ°Ð·Ð°ÒĽ ÑĪÐ°
ĠÐ± Ð°ÑĥÐ»
ĠÑģÐµÑĢ Ð²
ĠÐ± Ð°ÒĽÑĭÐ»
ĠÐºÓ©ÑĢ ÑĥÐ³Ðµ
ĠÐ°ÑĤ ÑĤÐµÑģÑĤ
ÑĤÒ± Ð·
ĠÐ±ÐµÑĢ Ð¼ÐµÐ¹Ð´Ñĸ
ĠÓĻÐºÑĸÐ¼ Ð´ÑĸÐº
ĠÑĤÐ°Ð»ÒĽÑĭÐ» Ð°Ð½Ð´Ñĭ
ÑĤ ÓĻÑģÑĸÐ»
ĠÓĺÐ» ÐµÑĥÐ¼ÐµÑĤÑĤÑĸÐº
ĠÑĤÐ¸ÐµÑģ ÑĸÐ»Ñĸ
Ġ5 5
ĠÐºÐµÐ· ÑĸÐ½Ð´ÐµÐ³Ñĸ
ĠÐµÑģ ÐµÐ±Ñĸ
Ġ3 2
Ó©Ð½ Ð´ÑĸÑĢÑĥ
4 8
Ð¸ÑģÑĤ Ð¸ÐºÐ°Ð»ÑĭÒĽ
ĠÐ¡ Ð°ÒĵÑĭÐ½
ÐĲÐĹÐĲÒļ Ð¡Ð¢ÐĲÐĿ
Ð´ÐµÑĢ Ð´ÐµÐ½
ĠÐ°Ð»Ð¼Ð°Ð¹ ÑĤÑĭÐ½
ÑĪÐ°ÑĢÑĥÐ° ÑĪÑĭÐ»ÑĭÒĽ
ĠÐºÓ© ÑĪÐµ
as h
ĠÐĶ ÑĸÐ½
ĠÒ±Ð¹ÑĭÐ¼Ð´Ð°ÑģÑĤÑĭÑĢ ÑĭÐ»ÒĵÐ°Ð½
ĠÐ¶Ò¯ÑĢÐ³ÑĸÐ· ÑĸÐ»Ð´Ñĸ
ĠÐ°ÑĤÐ°Ð» Ð¼ÑĭÑĪ
ĠÐºÒ¯Ð½ Ð½ÑĸÒ£
Ð¾Ð½ ÐµÐ½ÑĤ
ĠÐ¶Ð°ÑĢ ÑĤÑĭÐ»Ð°Ð¹
ĠÐ°ÑıÒĽ ÑĤÐ°Ð»Ð´Ñĭ
Ðľ Ð°Ò£ÒĵÑĭÑģÑĤÐ°Ñĥ
ĠÒ±Ð¹ÑĭÐ¼Ð´Ð°ÑģÑĤÑĭÑĢ ÑĭÐ»Ð´Ñĭ
ĠÐ³ ÑĢÐ°Ð¼
ĠÐµÐ»ÐµÑĥ Ð»Ñĸ
ĠÐŀÐ¹ ÑĭÐ½
Ð¼ Ð°ÒĵÑĭÐ½
Ð¶ Ò±Ð¼
ÐºÐµÑĢÐ»ÐµÑĢ Ñĸ
ÐµÐ½ Ð¸Ð½Ð³
ĠÐ´ Ð°Ð½Ð°
ÒļÒ±ÑĢ Ð¼ÐµÑĤÑĤÑĸ
Ðĳ Ò¯
ĠÒĽÐ¾Ð¹ ÑĭÐ»Ð´Ñĭ
ĠÐ°ÑĤÒĽÐ°ÑĢ Ñĥ
Ð´Ð°Ð¹ ÑĭÐ¼
ĠÐ¼Ò¯ ÑĪÐµ
ĠÓĺ Ð½
ĠÐ¶Ð°Ð· ÑĥÑĪÑĭ
ĠÐºÓ©Ð¼ÐµÐºÑĤÐµÑģ ÐµÐ´Ñĸ
ĠÐµ ÑĥÑĢ
Ðľ Ð°ÑĢ
ĠÐ´ÐµÐ¼ Ð¾ÐºÑĢÐ°ÑĤ
Ðº Ó©Ð·
ĠH D
ĠÐ¾Ð±Ð»ÑĭÑģ ÑĤÑĭÒ£
Ð°ÑĤ Ð°Ñĥ
ĠÑĪ ÑĤÐ°ÑĤ
ĠÐļ ÐµÑĢ
ĠÐ±ÑĸÐ»ÑĸÐºÑĤ ÑĸÐ»ÑĸÐ³ÑĸÐ½
ĠÐŀÑĢ ÑĭÐ½
ĠÒĽÐ°Ð¹ÑĭÑĢ ÑĭÐ¼Ð´ÑĭÐ»ÑĭÒĽ
o d
Ñģ Ð¾
ĠÐ» Ð°Ð¹
ĠÐ¼ÓĻÑģÐµÐ» ÐµÑģÑĸÐ½
ĠÐ±ÑĸÐ»ÑĸÐºÑĤ ÑĸÐ»ÑĸÐº
ĠÓĺÑĢ Ð±ÑĸÑĢ
ĠÐĳ Ð°Ð»Ð°
ĠÒĽÐ°ÑģÐ¸ ÐµÑĤÑĤÐµÑĢ
ĠÑĪÐµÑĪ ÑĥÐ³Ðµ
ĠÐ±Ð°ÒĵÑĭÑĤ ÑĤÐ°ÑĢÑĭ
ĠÑĤÐ°Ð± ÑĭÐ»ÒĵÐ°Ð½
ĠÐµÐ¼ ÑĤÐ¸ÑħÐ°Ð½
ĠÐĲÐ» ÒĵÐ°ÑĪÒĽÑĭ
ĠÑĦ Ð¾ÑĤ
ĠÒ±Ð¹ÑĭÐ¼ Ð´Ð°ÑĢÑĭÐ½ÑĭÒ£
ĠÒ° ÐĳÐ¢
ĠÐºÐµÐ»ÑĸÑģÑĸÐ¼ ÑĪÐ°ÑĢÑĤ
Ð± Ð´ÐµÐ½
ĠÒļÑĭÐ» Ð¼ÑĭÑģÑĤÑĭÒĽ
ĠÐ±Ð°Òĵ Ð°Ð»
Ó¨ Ð¼ÑĸÑĢ
ĠÓ©Ð½ÐµÑĢÐº ÓĻÑģÑĸ
ĠÒĽÐ¾ÑĢÒĵÐ°Ð½ ÑĭÑģ
ĠÓ©Ð¼ÑĸÑĢ Ð´Ðµ
201 2
ĠÐ°Ð»Ð¼ Ð°ÑģÑĥ
Ġi Ñģ
ĠÐłÐµÑģÐµÐ¹ Ð´ÑĸÒ£
ÐļÓ© Ðº
ĠÓĻÑĢ Ð¸Ð½Ðµ
es s
ĠÑģ Ð°Ð¼
ĠÐ¶ Ð¾ÑĢ
ĠÐ°ÑĢÑĤÑĤÑĭÑĢ ÑĥÒĵÐ°
ĠÐºÓ© Ð±ÑĸÑĢÐµÐº
ĠÐ¶Ð¸ÑĭÐ½ ÑĤÑĭÒĵÑĭ
Ð»Ñı ÑĨÐ¸Ñı
u b
ÓĻ Ðº
ĠÐ±Ð°ÒĵÐ´Ð°ÑĢÐ»Ð°Ð¼ Ð°Ð»ÑĭÒĽ
ĠÐĲ ÑĪÑĭÒĽ
ÑĦ Ð¸ÑĨ
ĠÐ°ÑĤÒĽÐ°ÑĢ Ð°ÑĤÑĭÐ½
ĠÑĤÐ°ÒĵÐ°Ð¹ ÑĭÐ½Ð´Ð°Ñĥ
Ð¾ÑĢ Ð¸Ð·Ð¼
ĠÐ¡ Ð°ÑĢÑĭ
ĠÑĪÑĭÒĵÐ°ÑĢ ÒĵÐ°Ð½
ĠÐ½ÑĭÑģ Ð°Ð½Ñĭ
i d
Ð± Ð°Ð±Ñĭ
ĠÐ¼ÐµÐ· Ð³ÑĸÐ»
Ð½ Ò±Ñģ
ĠÓ© ÑĪ
ĠÐ¼Ð°ÑĢÐ°Ð¿Ð°ÑĤ ÑĤÐ°Ð»Ð´Ñĭ
ĠÐ°ÐºÑĨÐ¸Ð¾Ð½ ÐµÑĢÐ»ÑĸÐº
6 5
Ð¾ ÑģÑĭ
Ð»Ð°Ð½ Ð°Ð´Ñĭ
ÒĽÐ°ÑĢ Ð°
ĠÐ¶ Ð°ÑģÑĭ
ĠÒĽÐ°Ð±ÑĭÐ» Ð´Ð°Ð¹Ð´Ñĭ
ĠÑĤÐ¾ ÒĵÑĭÐ·
Ġ c
ĠÐ¶ Ò±ÒĽ
iÐ½Ð´Ðµ Ð³i
ĠÒļÐ°Ñģ ÑĭÐ¼
ĠÐĸ Ð°Ð¿Ð¾Ð½
ĠÑģÐ°Ñı ÑģÐ°ÑĤÑĭÐ½
ĠÑĦÐ¸Ð· Ð¸ÐºÐ°
ÑĤ Ð°ÑģÑĭ
ÑĪ Ð°ÒĵÐ°
ĠÒ¯Ð¹ ÑĸÐ½Ð´Ðµ
ĠÒĽÑĭÐ·ÑĭÒĵÑĥ ÑĪÑĭÐ»ÑĭÒĵÑĭÐ½
ĠÐ² ÐµÐ±
ĠÐ¶Ò¯Ð¹ ÐµÐ»ÐµÑĢ
ĠÒĽÐ°ÑĤÐ°ÑĢ ÑĭÐ½Ð´Ð°
ĠÒĽÒ±Ð¶Ð°ÑĤÑĤÐ°ÑĢ Ð´ÑĭÒ£
Ð´ÐµÑĢ Ð¼ÐµÐ½
ĠÓ©ÑĤÐºÑĸÐ· ÑĸÐ»ÐµÐ´Ñĸ
ĠÑģÒ±ÑĢÐ°ÒĽ ÑĤÐ°ÑĢÑĭ
Ð°Ð¹ Ð¼ÑĭÐ½
ĠÐ¶Ð¾Ð± Ð°Ð½Ñĭ
Ð½ ÐµÐºÑĤÑĸ
ÐµÑģ ÑĸÐ½ÐµÐ½
ĠÐ¶Ð°Ð»Òĵ Ð°Ñģ
Ð°Ðº ÑĨÐ¸Ñı
ĠÑĤÑĸÐ» ÑĸÐ½Ð´ÐµÐ³Ñĸ
ĠÑģÑĭÐ½ Ð°ÒĽ
ĠÓ©Ð½ÑĸÐ¼ Ð´ÐµÑĢÑĸ
Ġ19 5
ĠÒĽÒ±ÒĽÑĭÒĽ ÑĤÐ°ÑĢÑĭÐ½
Ðº i
ĠÐ± Ð¾Ñı
ĠÐ¡ ÑĭÑĢÑĤÒĽÑĭ
ĠÐĿ Ðµ
Ðĳ ÐµÐ»
ĠÐ°Ð¿ Ð°ÑĢ
ĠÓĻÑģÐµÑĢ ÑĸÐ½
ÐµÑĤÑĢ Ð¾Ð¿
ĠÐºÐµÑĪ ÑĸÑĢ
ĠÐ¾ ÑĤÑĭÐ½
ĠÐ¢ Ð°Ñĥ
ĠÐľ Ð°Ð¹
ĠÓĻÐº iÐ¼
ĠÐ±Ð°ÑģÑĤÑĭ ÒĵÑĭ
ĠÑģ ÑĤÐ°
Ó¨ ÑĤÐºÐµÐ½
ĠÐ±ÑĸÐ» Ð¼ÐµÐ¹
ĠÐ± ÐµÑĤÑĤÐµÑĢ
Ð¼Ð°Òĵ ÑĭÐ½Ð´Ð°ÒĵÑĭ
ĠÐ¼Ò¯ÑĪ ÐµÐ»ÐµÑĢÑĸÐ½ÑĸÒ£
ĠÐµ Ð´ÑĸÐº
ĠÐľ ÐµÑĢ
ĠÐºÓĻÑģÑĸÐ¿ Ð¾ÑĢ
ĠÐ¿Ð¾ÑĪ ÑĤÐ°
0 8
Ð ®
ĠÐµÐ» Ð´ÐµÑĢÑĸ
ĠÐ·Ð°ÑĤÑĤÐ°ÑĢ Ð´Ñĭ
ÒĽÒ±Ð» Ð¾Ð²
ĠÑģ ÑĥÒĵÐ°
ĠÐ¶Ð°ÒĵÐ´Ð°Ð¹ ÒĵÐ°
Ð¼Ð°Ð½ Ð¾Ð²
20 20
ĠÑĤÑĭÐ½ ÑĭÑģ
ĠÑĸÑģ ÐºÐµÑĢÐ»ÑĸÐº
ĠÐ¶Ð°Ð· Ð°
Òļ Ðļ
ĠÐ¶ÐµÒ£ÑĸÐ» Ð´ÑĸÐº
ĠÐ¼ Ð¸
ĠÑĤÒ¯ÑĢ ÑĸÐº
ĠÒĽÐ°ÑģÐ¸ ÐµÑĤÑĤÐµÑĢÑĸ
ĠÐ¿ÑĢÐ¾Ð³ ÑĢÐ°Ð¼Ð¼
ĠÐ°ÑıÒĽ ÑĤÐ°Ð»
ĠÑĪÑĭÒĵ ÑĭÑģ
Ð² ÑĢ
ĠÐ°Ð¹ ÑĢÑĭÒĽÑĪÐ°
ÑĥÐ» Ð°ÑĤ
ĠÑĪÐ°ÑĢ Ð°Ð»Ð°ÑĢÐ´Ñĭ
ĠÑĸÑĢ Ð³
ĠÐºÐµÐ´ÐµÐ½ Ð´ÑĸÐº
Ó©Ð½ÐµÑĢ ÐºÓĻÑģÑĸÐ¿
ĠÐļÐ¡Ðł Ðŀ
ĠÐ¶Ò± Ð¿
ĠÒĽÐ°Ð±ÑĸÐ» ÐµÑĤÑĸ
ĠÐºÓ©ÑĢ Ð¼Ðµ
ĠÑĤÓĻÑĢÐ±Ð¸ ÐµÑģÑĸ
ĠÐ¼Ð¾Ð´ÐµÐ» ÑĮ
Ð± ÑĸÐ»ÑĸÐ¼
Ð´ÑĸÐ³ÑĸÐ½ ÐµÐ½
ÐĿÒ±ÑĢ Ð»Ñĭ
ĠÐºÓ© Ð½Ðµ
ĠÐ´ ÑĢÐ°Ð¼
en gr
ĠÓ©ÑĤÐºÑĸÐ· ÑĸÐ»Ð³ÐµÐ½
ĠÑģÑĤÑĢÐ°ÑĤÐµÐ³ Ð¸Ñı
ĠÐºÐµÐ· ÐµÐºÑĤÐµ
" .
ÐºÐµÑĢÐ»ÐµÑĢ Ð´ÑĸÒ£
ĠÓ¨ ÑģÐºÐµÐ¼ÐµÐ½
ĠÐ¶ÐµÑĢ Ð´ÑĸÒ£
ĠÐ¾Ð· ÑĭÒĽ
ÐµÑģ Ð¼Ð¸
ĠÑį Ð½
Ð°ÑĤÑĭÐ» Ð´Ñĭ
ĠÐ¾ÒĽÑĥÑĪÑĭÐ»Ð°ÑĢ Ð´Ñĭ
ĠÑĢÐµÑģ ÐµÐ¹
ÑĭÑģ Ñĥ
ÒļÐ°Ð¹ ÑĢÐ°ÑĤ
ĠÑĦÐ¾ÑĢÑĥÐ¼ Ñĭ
ĠÐ¶ Ð°Ð¼
ĠÑģÒ±ÑĢ Ð°Ð¿
ĠÑĤ Ð¾Ð¼
ĠÒĽÒ±ÒĽ ÑĭÒĵ
ĠÓ©ÑĤÐºÑĸÐ· ÑĥÐ³Ðµ
ĠÐ±ÐµÐ»Ð³ÑĸÐ» ÐµÑĥ
Ð»ÑĭÒĵ ÑĭÐ¼ÐµÐ½
ĠÐ´Ð¾Ñģ ÑĤÑĭÒĽ
ĠÐºÒ¯Ð¼ ÑĸÑģ
4 6
ĠÐ± ÐµÐ´ÐµÐ»
Ð»ÐµÑĢ ÑĸÐ½ÑĸÒ£
ĠÑĦ Ð¸Ð½Ð°Ð»
ĠÑĤÐ°ÑĢ Ð°Ñĥ
ĠÐ£ ÐºÑĢÐ°Ð¸
ÐµÐ½ ÐºÐ¾
ĠÐ¶Ð¾ÑģÐ¿Ð°ÑĢ ÑĭÐ½
ĠÐ²Ð°Ð»Ñİ ÑĤÐ°
ÑĭÐ» Ð°
ĠÐ¢ Ð°Òĵ
ĠÓ©Ð·Ð³ÐµÑĢ ÑĤ
ĠÐ±Ð°Ð»Ð°Ð±Ð°ÒĽ ÑĪÐ°
ĠÑģÑĥÐ± ÑģÐ¸Ð´Ð¸Ñı
Ġ k
ĠÐĲ Ðº
ĠÐºÐµÐ»ÑĸÑģ ÑģÓ©Ð·
ĠÐ°ÑģÑĤ ÑĭÐ½Ð´Ð°
Ð°Ð½ Ð½ÑĭÒ£
Ð±Ð¾Ð» Ð°ÑĤ
ĠÑģ Ð¾ÑĢ
ÐµÐ» ÐµÐ´Ñĸ
Ð£ Ðł
Ð¸Ñģ ÑģÐµÑĢ
ĠÓĻÑĥ ÐµÐ¶
ĠÐ¶Ð¸Ð½ Ð°Ð¿
ĠÐ°Ð»Ð¼ Ð°ÒĵÐ°Ð½
ĠÐ°Ð³ ÑĢ
ĠÐ¼Ð°Ñģ Ñģ
Ñģ ÐµÐ¹
Ð°ÑĤÑĭÐ½ Ñĭ
ĠÓĻ Ð·
ĠÐ±ÑĸÐ» ÑĸÐ¿
ĠÐ¸Ð½ ÑĤÐµÐ»
ĠÐ¢ ÑĥÑĢ
ĠÐĶ Ð°Ð½
ĠÐ¶Ð°Ð±Ð´ÑĭÒĽ ÑĤÐ°Ñĥ
ĠÐĨ Ñģ
Ð°Ð» ÒĽÑĭ
ĠÑĤ ÐµÐ¿
ĠÑĤÒ±Ð»Òĵ Ð°Ð»Ð°ÑĢÒĵÐ°
ĠÐ¼ÓĻÑģÐ»Ð¸ÑħÐ°ÑĤ ÑĭÐ½ÑĭÒ£
Ò± Ñı
Ñħ Ð¸Ð¼
ĠÒĽÐ°Ð» Ð°Ñĥ
Ðĸ ÐµÑĤ
ÑĤÐ°Ñģ ÑĭÐ½Ð°
ÐĹ ÐµÑĢÑĤÑĤÐµÑĥ
ĠÓ©Ñģ ÑĥÑĸ
ĠÐ±ÑĸÑĢ ÐµÐ³ÐµÐ¹
Ðľ Ðļ
ÐµÑĤÑĤÐµ Ð³Ñĸ
Ð¢Ò¯ÑĢ ÐºÑĸÑģÑĤÐ°Ð½
ÑĢÐ¸ ÑĦ
Ð¸Ñı Ð»
Ð´Ð° ÑĤ
ĠÐļ ÑĸÑĤÐ°Ð¿
Ðŀ Ð½
ĠÑĤÒ±ÑĢÒĵÑĭÐ½ Ð´Ð°ÑĢ
ÑĤÐµÑĢ Ð´ÐµÐ½
ĠÑĸÑģÑĤ ÐµÐ¹
Ð¿ ÐµÑĥ
ĠÐĲÐ·Ð°Ð¼ Ð°ÑĤÑĤÑĭÒĽ
ĠÒĽÒ±ÑĢ Ð¼ÐµÑĤÑĤÑĸ
ĠÐ¶ÐµÑĢ Ð´Ñĸ
ĠÐ¶Ð¸Ð½ Ð°Ð»ÒĵÐ°Ð½
Ð» Ð¸Ñı
Ð°Ð± Ð°Ð¹
ĠÐ¿ ÑĸÑģ
ÐĲÐĽ Ð«
ĠÑĪÐ°ÑĢ Ð°Ð»Ð°ÑĢÑĭÐ½
ĠÐĵ Ð¾Ð»Ð¾Ð²ÐºÐ¸Ð½
ĠÑģÐ°Ð½ Ð´ÑĭÒĽ
ĠÐ°Ð½ÑĭÒĽ ÑĤÐ°Ð¹Ð´Ñĭ
ĠÐ±Ð°ÑģÑĤÑĭ ÑģÑĭ
ĠÑĪÑĭÒĵÐ°ÑĢ Ð´Ñĭ
Ðº ÑĥÑĢ
ĠÐ¾ Ñı
ĠÐµÑĪ ÒĽÐ°ÑĪÐ°Ð½
ĠÑĸÑģÑĤÐµÑĥ Ð³Ðµ
ĠÐ¶ÑĥÑĢÐ½Ð°Ð» Ð¸ÑģÑĤÐµÑĢ
ĠÒĽÐ°Ð» Ð°Ð»Ð°ÑĢ
ÑĤÑĥ ÒĵÐ°
ĠÐ¢ Ð°Ð±Ð¸Òĵ
ĠÐµÑĢ ÐµÑģÐµÐº
ĠÑģÐ°Ð±Ð°ÒĽ ÒĽÐ°
ÑĤÑĭ ÒĵÑĭÐ½
in ews
ĠÒ±Ð¹ÑĭÐ¼ Ð½ÑĭÒ£
Ð°ÒĽÑĤÑĭ ÒĵÑĭ
ĠÐ¶Ð°ÑĢÐ¸Ñı Ð»Ð°Ð´Ñĭ
ĠÐ´ Ð°Ð»Ð°
Ñħ Ð¸ÑĤ
ĠÐ·ÐµÑĢÑĤ ÑħÐ°Ð½
Ð°Ð³ ÐµÑĢ
ĠÐ¸Ð½ÑģÑĤÐ¸ÑĤÑĥÑĤ ÑĭÐ½ÑĭÒ£
ĠÓ© ÐºÑĸÐ¼
ĠÐ°Ð»Ñĥ Ð°Ð½
ĠÐ¼ Ð¾ÑĢ
ĠÐ°Ðº Ðº
ĠÑħÐ°Ð±Ð°ÑĢ Ð»Ð°Ñĥ
ÑĭÒĽ ÑĤÐ°Ñĥ
ĠÐºÑĥÓĻ Ð»Ð°Ð½
ĠÐ¶Ò¯Ð¹ ÐµÑģÑĸÐ½Ð´Ðµ
Òļ ÑĭÑĤÐ°Ð¹
ĠÐ°ÑĥÑĭÑģ ÑĤÑĭÑĢÑĥ
ÐºÓ©ÑĢ ÑģÐµÑĤ
ĠÐ°Ð¹ÑĭÑĢÐ±Ð°Ñģ ÑĤÐ°Ñĥ
ĠÐĲ ÑĤ
ĠÐ°Ð´Ð°Ð¼ Ð·Ð°ÑĤ
do c
ĠÑĪÐ°ÑĢÑĤ ÑĤÐ°ÑĢÑĭ
ÒĽ Ð¾Ð½
Ð°Ð¿ ÑģÑĭÑĢ
ĠÐ¡ÑĸÐ· Ð´ÑĸÒ£
ÑĥÐ» Ð»Ð¸Ð½
ÑĭÑĪ ÑĤÑĭ
ĠÐ±Ð°Ð¹ÒĽ Ð°Ð»Ð°Ð´Ñĭ
Ðŀ ÑĤ
ĠÑģ Ð°ÑĤ
ÐķÐł ÐĨ
ĠÑĤÓ©Ð»ÐµÐ¼ Ð´ÐµÑĢ
ĠÐ´ Ð¾Ð¿
ĠÐ¶Ð°ÑĢ ÒĽÑĭÐ½
ĠÐ±Ó©Ð»ÑĸÐ¼ ÑĸÐ½Ð´Ðµ
ĠÐ¶ Ð¶
ĠÑĤÒ±Ð¶ÑĭÑĢÑĭÐ¼ Ð´Ð°Ð¼
Ð· Ñĭ
ÐµÑĤÑĢÐ¾Ð¿ Ð°Ð²Ð»
ĠÐµÐ» Ð´ÐµÑĢÑĸÐ½ÑĸÒ£
ĠÒ° ÑģÑĤÐ°Ð·
ĠÐ¶Ð°Ò» Ð°Ð½Ð´ÑĭÒĽ
ÑĭÐ¼ ÑĭÐ½
4 9
Ð»ÑĭÒĽ ÑĤÑĭÒ£
ĠÐ¶Ò¯ÑĢÐ³ÑĸÐ· ÑĸÐ»ÑĥÐ´Ðµ
Ò¯Ñģ ÑĸÐ¿
Ð°Ðº Ñģ
ÓĻÐ» ÐµÑĥÐ¼ÐµÑĤÑĤÑĸÐº
ĠÑģÑĸÒ£ ÑĸÑĢÐ³ÐµÐ½
Ð» ÐµÒ£
ĠÒĽÐ°ÑĢ ÒĽÑĭÐ½
ĠÑįÐº ÑģÑĤÑĢ
ĠÐºÐ¾ÑĢÐ¿Ð¾ÑĢ Ð°ÑĨÐ¸Ñı
ĠÐ°Ð¹ ÑĤÐ°ÑĢ
ĠÐµÑĤ ÑĸÐ»ÐµÐ´Ñĸ
Ð± Ð°ÒĵÐ°Ð½
ĠÐ¶Ð°Ò£Ð° Ð´Ð°Ð½
ÑĥÑĢÑģ ÑĤÑĭÒĽ
Ðķ ÑģÐºÐµÑĢÑĤÑĥ
ĠÒļÐ°Ð·Ð°ÒĽ ÑĪÐ°
- -
ĠÑĪ Ñĥ
ĠÑĤÐ°Ð± ÑĭÐ»Ð´Ñĭ
ĠÒĽÐ°Ð±ÑĭÑĢ Òĵ
engr inews
ÑĭÑĢ Ð·
ĠÐºÐµÑĢÐµÐº ÑĤÑĸÐ³ÑĸÐ½
Ò® Ð·Ð´ÑĸÐº
Ð¸Ð· Ð°ÑĨÐ¸Ñı
Ð¡ Ð¾Ò£ÒĵÑĭ
ĠÑĤÐ°Ò£ Ð´Ð°Ð¿
Ġ Ð°Ò£ÑĭÐ·
ĠÒ±ÑģÑĤÐ°Ð· Ð´Ð°ÑĢ
ĠÑĤÓĻÑĥ Ð»ÑĸÐº
ĠÑģÐ°Ð» Ð°Ð´Ñĭ
ĠÐĳÐ°Ñģ ÒĽÐ°
ĠÐ¼ÐµÑĢÐµÐº Ðµ
ĠÓ©Ð½ÑĸÐ¼ Ð½ÑĸÒ£
ĠÓĺ ÑĥÐµÐ·Ð¾Ð²
ĠÑģÐ°Ð»ÑĭÐ½ Ð°Ð´Ñĭ
ĠÐ¸ ÑĤ
ĠÑĤÐ¾Ð¿ ÑĭÑĢÐ°ÒĽ
ÑĨ Ð¸ÐºÐ»
ĠÐ¼Ò±ÒĽ ÑĤÐ°Ð¶
ÐµÐ¹ Ð¼ÐµÐ½
ÐºÑĤ i
Ð¸Ð½ Ð¾
ĠÐºÐµÑģÑĤ ÐµÑģÑĸ
ĠÓ©Ð¼ÑĸÑĢ ÑĸÐ½
ĠÐ¼Ð°ÑĥÑģÑĭÐ¼ Ð´Ð°
ĠÐº Ð³
ĠÐºÐ¾Ð¼Ð°Ð½Ð´ Ð°ÑģÑĭ
ĠÐºÐµÐ» Ð¼ÐµÐ¹Ð´Ñĸ
or t
ÑĥÐ· Ñĭ
ĠÐ¼Ò±ÑĢ Ð°Ð¶Ð°Ð¹
ĠÒĽÐ°ÑĢ Ð°ÑģÑĤÑĭÑĢÑĥ
ÑĤÓĻ Ð¶ÑĸÑĢÐ¸
ĠÐĿÒ±ÑĢ Ð»Ð°Ð½
ĠÑĤÐ¾Ð» ÑĭÒĵÑĭÐ¼ÐµÐ½
ĠÐ¼Ò¯Ð» Ð´ÐµÐ¼
Òļ Ð°Ð·ÑĸÑĢ
Ð°Ð¼ Ð±ÐµÑĤ
iÐ» iÐº
ĠÐĲÐ» Ð»Ð°Ð½ÑĭÒ£
ĠÐ±Ð°Ð» Ð°Ð¼
ĠÑģÐ°Ð¹ÑĭÐ½ ÒĵÑĭ
ĠÐºÐ¾Ð¼Ð¸ÑģÑģÐ¸Ñı ÑģÑĭÐ½ÑĭÒ£
e m
Ðº ÐµÐº
Ð¾Ð¿ Ð¾Ð»
ĠÐ´ÐµÐ¼ Ð°Ð»
ĠÐ°ÑĪÑĭÐ» Ñĥ
ÑĸÐ¼ÑĸÐ· Ð´ÐµÐ³Ñĸ
Ġ4 00
ĠÒĽÐ°ÑĥÑĭÐ¼ Ð´Ð°ÑģÑĤÑĭ
ĠÓĻÑĢ ÒĽÐ°Ð¹Ñģ
ĠÐ¿ÑĢÐ¾ÑĨ ÐµÑģÑģ
Ð°Òĵ ÑĭÐ½ÑĭÒ£
ÐĨ ÐĹ
ĠÓ©ÑĢÐºÐµÐ½ Ð¸
ĠÐ¢Ò± Ò£ÒĵÑĭÑĪ
ĠÐĲÐ¹ ÑĤ
ĠÐ·Ð°Ò£Ð½Ð°Ð¼ Ð°ÑģÑĭÐ½Ð°
âĨ Ĵ
Ð¿ ÐµÐ»Ñĸ
ĠÐ¼ÓĻ Ð¼
ĠÐºÒ¯Ð¹ ÐµÑĥ
ĠÓĻÑĢÑĸÐ¿ÑĤÐµ ÑģÑĤÑĸÐº
Ð¶ Ð°ÑĤÑĤÑĭ
ĠÐ¿ÑĢÐ¾ÑĨ ÐµÑģÑĸ
4 1
Ð°ÑĤ Ð°ÐµÐ²
ĠÑĢÐµÐ· ÐµÑĢÐ²
Ð¼ ÐµÒ£
ÑģÑĤÐ°Ð½ Ñĥ
Ð¨ Ð°ÑĢ
ĠÐºÐ¾Ð½ÐºÑĥÑĢÑģ ÑĤÑĭÒĽ
ĠÑĪ ÐµÐ³
ĠÐ´ÐµÐ¿ÑĥÑĤ Ð°ÑĤÑĭ
ĠÐ°ÑĥÐ´Ð°ÑĢ Ð¼Ð°
Ð¹ ÑĭÒĽ
ĠÐ¶Ð°Ò£ Ð°ÑĢÑĤÑĥ
ĠÒ¯Ð¹ ÑĸÐ½Ðµ
Ð» Ò±Ð¼
ĠÑĪÐµÐ± ÐµÑĢÐ»ÑĸÐº
Ð¢Ð°ÑĢ Ð¸Ñħ
ĠÐ°Ð¿Ð¿Ð°ÑĢÐ°ÑĤ ÑĭÐ½ÑĭÒ£
ĠÐ½Ð¸ ÐµÑĤ
ĠÒĽÒ±ÑĢÐ¼ ÐµÑĤÑĤ
ÑĤÐ°ÑĢ Ð¼Ð°ÒĽ
ĠÑģÐ°Ð» Ð¼Ð°ÒĵÑĭ
ĠÐºÐ°ÑĦÐµÐ´ÑĢ Ð°ÑģÑĭÐ½ÑĭÒ£
ĠÑģÑĤÐ°Ð½ ÑĨÐ¸Ñı
Ð± ÑĥÑĢÐ³
Òļ Ð¾Ñģ
ĠÐľÒ± Ð½ÑĭÒ£
ĠÑĤÐ°Ñģ ÑĤÐ°Ð¿
u m
ĠÐ¶Ð°Ñģ ÑĭÐ»
ĠÐ¼ÓĻÐ´ÐµÐ½Ð¸ ÐµÑĤÑĸÐ½
ÑĪ ÑĸÐ½
Ð±Ð°Ñģ ÑĤÒ±Ð·
g ov
ĠÐ·Ð°Ò£Ð½Ð°Ð¼ Ð°Ð»ÑĭÒĽ
ĠÐ°Ð± ÑĭÑĢ
ĠÑħÐ¸Ð¼ Ð¸Ñı
Ðķ Ð½Ð´Ñĸ
ĠÑģÐ°Ð» Ð°Ñĥ
ĠÐ³Ð°Ð· ÐµÑĤ
Ð°Ð± ÐµÐº
ĠÐµÑģÐµÐ¿ÑĤÐµÐ» ÐµÐ´Ñĸ
ĠÐ¶ÐµÑĤ Ðµ
ĠÐĳ Ð°ÑĥÑĭÑĢÐ¶Ð°Ð½
Ð´Ð°Ð½ ÒĵÐ°Ð½
Ð¾Ð¹ ÑĭÐ½
o s
ĠÐµÑģ ÑĸÐº
ÐĶ Ð¾Ñģ
ĠÐ±Ð¾Ð»Ð¼ Ð°ÑĥÑĭ
ĠÑģÐ°Ð» Ð°ÑģÑĭÐ½Ð°
ĠÑĪÑĭÒĵÐ°ÑĢ ÑĭÐ»ÒĵÐ°Ð½
i g
Ð³ÐµÐ½ ÑĸÒ£
Ð»Ð°ÑĢ Ð¼ÐµÐ½
ĠÐºÐµÒ£ ÑĸÑģÑĤÑĸÐº
ĠÐµÑĤ ÑĸÐ»Ð³ÐµÐ½
Ð¢ ÐµÐº
Ð¸ÑģÑģ Ð¸ÑıÑģÑĭ
Ð¸Ð¼ Ð¸ÑĢ
ĠÐ°Ð»Ð¼ Ð°Ð´Ñĭ
ĠÐŃ ÐļÐ¡ÐŁÐŀ
ĠÐ¾ ÑģÑĭÐ½
Ð¡ Ó©Ð·
ĠÐ¾Ð½ Ð´Ð°Ð¹
ĠÐºÓ©ÑĪ Ñĥ
Ð± Ð½
ĠÐ¿ÑĢ Ð¾Ð²
Ġ4 8
ĠÓ©ÐºÑĸÐ» Ð´ÐµÑĢÑĸÐ½ÑĸÒ£
Ð°Ð½ ÑĤÑĤÑĭ
ÑĤÐµ Ð³ÑĢ
ĠÐ°Ð½ÑĭÒĽ ÑĤÐ°Ð¿
ĠÐ°ÑĢ Ð½Ð°Ð»
ĠÐ¶Ò¯ Ð³
ÑĭÒ£ÑĭÐ· Ð´Ð°ÑĢ
!! !
ĠÓ©ÑĤÐºÑĸÐ· ÐµÐ´Ñĸ
ĠÑĤ ÓĻÑģ
ĠÐ±Ð°ÒĵÐ´Ð°ÑĢÐ»Ð°Ð¼ Ð°ÑģÑĭÐ½Ð°
ĠÐ°Ð¼ ÐµÑĢ
ĠÐ°ÐºÐ°Ð´ÐµÐ¼ Ð¸ÑıÐ»ÑĭÒĽ
ĠÓ©Ñģ ÑĸÑĢÑĥ
Ġ 01
ĠÐºÒ¯ÑĪ ÑĸÐ½Ðµ
ĠÐĲÐ¼ÐµÑĢ Ð¸ÐºÐ°
ĠÐºÐµÐ·Ð´ÐµÑģ ÐµÑĤÑĸÐ½
Ð°Ð» Ð°Ñģ
Ð´ÑĸÐº ÑĤÐµÐ½
Ðº ÑĥÐ»
ĠÐ¶ÑĸÐ±ÐµÑĢ Ñĥ
ĠÐĲÐ» ÑĮ
ĠÑĤÒ±ÑĤÑĭÐ½ Ñĥ
ÑĭÐ» Ð¼Ð°Ð¹Ð´Ñĭ
201 1
ĠÐĹÐ°Ò£ ÑĭÐ½ÑĭÒ£
ĠÓĻ Ð±Ð´ÐµÐ½
ĠÓ©Ð½ÐµÑĢÐºÓĻÑģÑĸÐ¿ ÑĤÑĸÐº
ÐĲ ÑĤÐ°Ð¼
Ð½ Ð¸ÑĤ
Ð³ ÐµÐ¼ÐµÐ½
Ð³ Ð°
ĠÑĤ Ò±Ð¼
ÑģÐº Ð°Ñı
ĠÐĶÐµÐ¼ ÐµÐº
Ð² Ð°ÑĢ
ĠÐ±ÑĸÑĢ Ð»ÑĸÐ³Ñĸ
ĠÑĤÓĻÑĢ ÑĸÐ·Ð´Ñĸ
ÓĻÐ¼ÐµÐ» ÐµÑĤÐºÐµ
Ð°ÑĤÑĭ Ð»Ñĭ
ĠÐºÓ©ÑĢ Ðµ
ĠÐĲ ÑĤÐ°Ð¿
Ð¾Ð»Ñİ ÑĨÐ¸Ñı
ĠÐºÐµÑĤ ÐµÑĤÑĸÐ½
ÑģÐ°Ð½ Ð´ÑĢ
ĠÐ°Ð»ÑĭÐ½ ÑĭÐ¿
ĠÒĽÐ°ÑĤÑĭÐ½Ð°Ñģ ÑĤÐ°ÑĢÑĭ
ĠÑĤÒ¯ Ð³ÐµÐ»
ĠÑģÑĤÐ°Ð½Ð´Ð°ÑĢ ÑĤÑĤÐ°ÑĢ
ĠÐ¢Ó©ÑĢ Ðµ
Ó©Ò£ Ð´ÐµÑĥ
ĠÐ¢ Ð¾ÑĢ
ĠÐ¶Ð¾ÒĵÐ°ÑĢÑĭ Ð´Ð°
ĠÐ°ÑĥÐ´Ð°Ð½ ÑĭÐ½Ð´Ð°ÒĵÑĭ
ĠÑħÐ°Ð±Ð°ÑĢ Ð´Ð°ÑĢ
ĠÐ°Ð»Ð´Ñĭ Ð¼
ÐµÐ½ Ð½
C ÑĤÑĢÐ°ÑĤÐµÐ³Ð¸Ñı
ĠÐ¶ ÓĻ
ÑĤÑĭÑĢ ÑĭÐ¿
ĠÐĨÐĨ ÐĶ
ĠÐ½Ð¾Ð¼ Ð¸Ð½
ÒĽÐ¾Ñģ ÑĭÐ¼ÑĪ
. [
ĠÐ¸ Ð¼Ð°Ð½
ĠÐ°Ñģ Ð°Ð´Ñĭ
ĠÓĻÐ»ÐµÐ¼ Ð³Ðµ
ĠÐ´ Ð¸Ð·
ĠÐºÓĻÑģÑĸÐ¿Ð¾ÑĢÑĭÐ½ Ð½ÑĭÒ£
ĠÐµÐ»ÑĸÐ¼ÑĸÐ· Ð´ÐµÐ³Ñĸ
ÒĽÐ°Ð½ Ñĭ
ĠÑĤÒ±ÑĢÒĵÑĭ Ð´Ð°
ĠÐ² ÐµÑĤÐµÑĢÐ¸Ð½Ð°ÑĢ
ĠÐ¶Ð¸Ð½ Ð°Ð»
ĠÐ¶Ð¾ÒĵÐ°ÑĢ ÑĭÐ»
ĠÑģÒ¯Ð¹ ÑĸÑģÐ¿ÐµÐ½
4 4
ĠÐ¼ÐµÐºÑĤÐµÐ¿ ÑĤÐµÑĢ
ĠÒĽÐ°Òĵ Ð¸Ð´Ð°
ĠÑĪÑĭ ÒĵÐ°
ĠÐ¼Ð°Òĵ Ð»Ò±Ð¼
ĠÐ¢ ÐľÐĶ
Ð»ÐµÑĢ ÑĸÐ½Ðµ
ĠÐ¾ÑĢÑĭÐ½ Ð´Ð°ÑĢÑĭÐ½Ð´Ð°
ĠÐºÓ©ÑĤÐµÑĢ ÑĸÐ»
ĠÐ±ÐµÑĢ ÑĸÐ»ÑĸÐ¿
ÐĿÐ°Ð·Ð°ÑĢÐ±Ð°ÐµÐ² ÑĤÑĭÒ£
ĠÑģ ÐµÑģÑģÐ¸Ñı
ĠÐĲÑĢ Ð°Ð±
ÑĪ ÑĸÐºÑĤÑĸ
ĠÐ¼Ð¾Ð¹ ÑĭÐ½
ÑĪÑĸÐ»Ñĸ Ð³ÑĸÐ½ÑĸÒ£
ĠÐŀ Ðł
Ð± Ò±ÑĢ
Ðĸ Ð°ÑĥÐ°Ð¿
ĠÐ¾ÑĢÑĤ Ð°ÑģÑĭÐ½Ð´Ð°
ĠÐºÐ¾Ð¼Ð¼ÑĥÐ½Ð¸ÐºÐ°ÑĨÐ¸Ñı Ð»Ð°ÑĢ
Ð½ Ð°Ð¹Ñĭ
ÑĢ ÐµÑĤ
Ð¶ Ñĸ
ĠÐ¼ÐµÐ¼ Ð¾ÑĢ
ĠÒ® Ð»ÐºÐµÐ½
ĠÒĽÒ±ÑĢÐ°Ð¼ Ð°ÑģÑĭ
ĠÑĤÐ°Ð¿ÑģÑĭÑĢÐ¼ Ð°ÑģÑĭÐ½
ĠÑĢ Ð¸Ð·Ð°
Ð¢ Ó©
ĠÑĪÑĭÒĵÐ°ÑĢ Ð°Ð´Ñĭ
ĠÐºÓ© Ð»ÑĸÐ³Ñĸ
ĠÐ³ÐµÐº ÑĤÐ°ÑĢ
Ð¿ Ð¾ÑĤÐµÐº
ĠÐºÓ©ÑĢ ÐµÐ´Ñĸ
ĠÐ¢Ó©ÑĢ Ð°Òĵ
ÐµÑĢ Ð»Ñĸ
Ð¾Ð»Ð¾Ð³Ð¸Ñı ÑģÑĭ
ĠÐļ ÐľÐľ
ÒĵÐ°Ð» Ð¸ÐµÐ²
ÓĻÐ¼ ÑĸÐ·
ÑĨ ÑĥÐ·
Ðŀ ÑĤÐ°Ð½
ĠÓ©Ð¼ÑĸÑĢ Ð´ÑĸÒ£
ĠÑĤÐµÐ¾ÑĢ Ð¸ÑıÑģÑĭ
ÑĭÒĵÐ°ÑĢ Ð¼Ð°ÑĪÑĭÐ»ÑĭÒĽ
ĠÐ¶Ð°Ñģ Ð°Ð¼
ĠÐ¾Ð±Ð»ÑĭÑģ ÑĭÐ½Ð´Ð°ÒĵÑĭ
ĠÐ¾ÑĢÐ½ ÑĭÐ½Ð´Ð°
ĠÑģÐµÑĢÑĸÐºÑĤÐµ ÑģÑĤÑĸÐº
ÑĤÑĭÒ£ ÑĭÐ·
ĠÐ´ ÓĻÐ½
ÒĵÑĭÐ» ÑĪÑĭÐ½
Ð¸ Ð¶
ĠÐ¶Ð¾Ð± Ð°ÑģÑĭÐ½ÑĭÒ£
Ð°Ð»Ð´ÑĭÒĽ Ð¾ÑĢÒĵÐ°Ð½
ĠÐ³ÑĢÐ°Ð½ ÑĤ
ÑĸÐ½ Ð´
ĠÒļÐ°Ð·Ð°ÒĽÑģÑĤÐ°Ð½ Ð´ÑĭÒĽ
ÒĽÑĭÐ· Ð¼ÐµÑĤ
ÒĴ ÐĲÐĿ
ĠÑĪÐµÑĪÑĸÐ¼ ÑĸÐ½
ĠÒĽÐ¸ÑĭÐ½ Ð´ÑĭÒĽ
ĠÐķÑģ ÐµÐ¿
Ð¸ ÐµÐ½
ĠÐ¡ Ð¿Ð¾ÑĢÑĤ
Ð°ÑĤÑĭÐ½ Ð°Ð½
Ð°Ð² Ðº
ĠÐĲÒĽ ÑĤÐ°Ñĥ
ÐµÑĤÑĤÐµÑĢ Ð´ÑĸÒ£
Óĺ Ð±
Ð¾ ÑĤÐ°
ĠÑĤ Ð°ÑĤÑĥ
ĠÐ°ÑĤ Ð°ÒĽÑĤÑĭ
ĠÐºÐ» Ð¸Ð½
Óĺ Ð½
ĠÑĤÐ°ÑĢ ÑĤÒĽÐ°Ð½
ĠÐļ ÑĢ
ĠÐ¾ÑĤÐ±Ð°Ñģ ÑĭÐ»Ð°ÑĢ
Ð¢ Ðļ
ÐļÓ©ÑĢ Ð½ÐµÐº
Ð¼Ð¸Ð½Ð¸ÑģÑĤÑĢ Ñĸ
ĠÐ¶ Ò±ÑĢ
ÑĪ ÑĸÐ¼
ĠÓĻ Ð´ÐµÐ¿
ÑģÑĤÐ°ÑĢ Ð´ÑĭÒ£
Ġ *
Ð¾Ð¹ ÑĭÐ·
ĠÑĭÒ£ÒĵÐ°Ð¹ Ð»Ñĭ
Ð¢ ÐĲÐł
ĠÐ¶Ò±Ð¼ÑĭÑģÑĤÐ°ÑĢ ÑĭÐ½ÑĭÒ£
ĠÐ´ Ò±
ĠÓĻ Ð´ÐµÑĤ
ĠÑĸÑĪ ÑĸÐ½ÐµÐ½
ĠÑĤÒ± Ð·
ĠÐ¶Ð°ÑĢ Ð½
Ð½Ð´Ñĸ ÑģÑĤÐ°Ð½
ĠÐ´ ÐµÑģÐµ
ĠÑģÐ°Ð» ÑĭÐ¼
Ð¼ Ð°Ð»Ð°ÑĢ
ĠÐºÐ°ÑĦÐµÐ´ÑĢ Ð°ÑģÑĭ
ĠÓĻÑĢÑĸÐ¿ÑĤÐµ ÑģÑĤÐµÑĢ
ÐŁ Ð£
ĠÒĽÐ°ÑĢ Ð°ÑĪ
Ð¶ÑĭÐ» Ð´ÑĭÒĽ
ÑĭÑĢ Ð»Ñĭ
ĠÑĪÐ°ÑĢÑĥÐ° ÑĪÑĭÐ»ÑĭÒĵÑĭÐ½
ĠÐ¼ iÐ½
ĠÐĳ ÐĲ
ĠÒĽÐ°ÒĵÐ¸Ð´ Ð°Ð»Ð°ÑĢÑĭÐ½
ĠÑĪÑĭÒĵ Ð°ÑĤÑĭÐ½
oo k
ÐµÐ´Ð¸ÑĨÐ¸Ð½ Ð°Ð»ÑĭÒĽ
ĠÒ¯ ÑģÑĤÐµÐ¼
ĠÑĤÐ°Ò£ Ñĭ
ĠÐ½ Ð°Ð¼
ĠÐ±Ð°Ð¹Ð»Ð°Ð½ ÑĭÑģÑĤÑĭÑĢ
ĠÒĽÐ¾Ð·ÒĵÐ°Ð» ÑĭÑģÑĭ
ĠÐµÐºÐµÐ½ Ð´ÑĸÐ³Ñĸ
ĠÐ¿ ÑĥÐ½
ĠÒĽÐ°ÑĢ Ð°Ð¼Ð°
ÑĪÑĭÐ»Ð°ÑĢ ÒĵÐ°
ĠÐºÓ©ÑĪ ÑĸÐ¿
ÐµÑĤÑĤ ÑĸÐ»ÑĸÐº
ĠÑģÐ°Ð» Ð°ÑģÑĭÐ½
ĠÑĸÑģ ÑĸÐ½
ĠÑģÓ©Ð· Ð´ÑĸÒ£
ĠÓĻÐº ÐµÑģÑĸ
ĠÐ¼ÑĸÐ½Ð´ ÐµÑĤÑĸÐ½
ĠÒĽÐ¾Ñģ ÑĭÐ»Ð´Ñĭ
Ðľ ÓĻÑģ
a v
ĠÐµÑģ ÑĸÐ¼Ñĸ
ma il
ĠÐľ ÐµÐ¼Ð»ÐµÐº
ĠÐ¶Ò±Ð¼ÑĭÑģÑĤÐ°ÑĢ ÑĭÐ½Ð°
ÒĽ Ð°Ð¼
ĠÐµ Ð¶ÐµÐ»Ð³Ñĸ
ĠÒĽÑĭÐ·Ð¼ÐµÑĤ ÑĸÐ½Ð´Ðµ
ĠÐ± ÑĥÑħÐ³Ð°Ð»ÑĤÐµÑĢÐ»ÑĸÐº
ĠÑģÓ©Ð· ÑģÑĸÐ·
ar t
Ð¾ Ð´Ð°ÒĽ
ĠÐ±Ð°Ð» Ð»
ĠÐĲ ÐĽ
ĠÒĽÐ¾Ð» Ð°
9 0
ĠÑĤÐ°ÑĢ Ð¸ÑĦ
ĠÐĳ Ð°ÑģÑĤÑĭ
Ð¾Ò£ ÑĭÑĢ
ĠÐ·Ð¸ÑıÐ½ Ð´Ñĭ
ĠÐ¶Ð°Ð½ ÑĢ
Ðĳ Ð°Òĵ
ÑģÐºÐµÑĢ Ð¸
ĠÐµÑģ ÑĸÐ¼Ð´Ñĸ
ĠÐĿ Ð°ÑĢ
ĠÐ±ÑĸÑĢÐ» ÐµÑģÐµ
ĠÐĴ Ð¸Ð´ÐµÐ¾
ĠÑģÐ°ÑĢ Ð°Ð¹
ĠÑĢÐµÑģÐµÐ¹ Ð»ÑĸÐº
ĠÐ¾ÑĢ Ð³
ÑĭÐ» ÑĥÑĭÐ½
ÒĵÑĭÐ¼ Ð´Ð°ÒĵÑĭ
ĠÐ»Ð°Ð¹ ÑĭÒĽÑĤÑĭ
ĠÑĢ Ð°ÑħÐ¼ÐµÑĤ
ĠÐ°Ñģ ÑĤÑĭÒĽ
ĠÐ±ÑİÐ´Ð¶ ÐµÑĤÐºÐµ
ĠÐ¿Ð¾Ð» Ð¸ÑĨÐµÐ¹
ĠÐ±Ó©Ð»ÑĸÐ½ Ð´Ñĸ
ÐĿÒ±ÑĢ ÑģÒ±Ð»ÑĤÐ°Ð½
ĠÐ» Ð¸Ð³
ĠÑģÐµÐ½ Ñĸ
ĠÑģÐ°Ð½ ÑĭÐ½ÑĭÒ£
ÑĤ ÐµÐ¹
ĠÐĶ Ð°ÑĢ
Òļ ÑĭÑĢ
ĠÒļ Ò±Ð»
ĠÑĤÐ°Ð¿ÑģÑĭÑĢ Ð´Ñĭ
ĠÐ¾Ò£ ÑĤÐ°Ð¹
ĠÐ¶Ð°ÑĤÑĭÑĢ Ð¼ÑĭÐ·
ĠÒĽÒ±ÑĢ ÑĥÒĵÐ°
ĠÒĴ ÑĭÐ»ÑĭÐ¼
ĠÐºÑĥÓĻ Ð»ÑĸÐº
o p
Ġ =
ĠÐ¶ÐµÐ»ÑĤÐ¾ÒĽÑģÐ°Ð½ Ð´Ð°
ĠÒĽÒ±Ð¶Ð°ÑĤ ÑĤÐ°Ð¼
ĠÐ°ÒĽÑĪ Ð°Ð»Ð°Ð¹
ĠÓĻÐ´ÑĸÑģÑĤÐµÑĢ ÑĸÐ½
ĠÐ´ Ð°ÒĽÑĭÐ»
ÐĲ Ð·
ĠÑĤÒ±ÑĢ Ð°
ĠÐľ ÐµÐ¹
ĠÐ°ÒĽ ÑĭÑĢ
Ð±ÑĸÑĢ Ñĸ
Ðµ Ð³ÐµÑĢ
Ð¼ Ð¾ÑģÑĦÐµÑĢ
ĠÐł Ð°Ñħ
ĠÐ±ÑĸÑĢ ÑĸÐ½Ðµ
Ðŀ ÑĢÑĤÐ°Ð»ÑĭÒĽ
Ð°Ð¶ Ð°Ð¹ÑĭÐ¿
ĠÒĽÐ°Ð±ÑĭÐ» Ð´Ð°ÑĥÒĵÐ°
ĠÐºÓ©Ð± ÑĸÐ½ÐµÑģÐµ
Ð± Ð¾ÑĢ
ĠÑģÐ¾Ð½ Ñĭ
ÐŀÐ±Ð» ÑĭÑģ
Ð¸ÑĢ Ð¶
ĠÐ½ Ò¯ÐºÑĤ
ĠÒļÐ°Ð½ Ð´Ð°Ð¹
ĠÑĤÒ¯Ñģ ÑĸÑĢÑĥ
ĠÐĳ Ò±ÑĢÑĭÐ½
ĠÒĽÐ°Ð» Ð°ÑģÑĭÐ½Ð°
Ð¡ Ð¾
ĠÐ¶Ð°Ñģ Ð°ÒĽ
ĠÐ¼ÓĻÐ½ ÑĸÐ½
ĠÐŁÐ°Ð¹ ÒĵÐ°Ð¼Ð±Ð°ÑĢ
Ð°Ñģ Ð°Ð½
Ð¶ ÑĭÐ½
Ð¢ÓĻÑĥÐµÐ» ÑģÑĸÐ·Ð´ÑĸÐº
ĠÐ¼Ð°ÒĽÑģÐ°ÑĤ ÒĽÐ°
ĠÓĻÑĢ Ð´Ð°Ð¹ÑĭÐ¼
ĠÒ±ÑģÑĭÐ½ ÑĭÐ»Ð°Ð´Ñĭ
ĠÐ¿ÑĢÐ¾ÐºÑĥÑĢ Ð¾ÑĢ
Ð¸Ð½ Ð°Ð¼
ĠÐ¼Ð°ÑĪ Ð¸Ð½Ð°
ÒĽ Ð°Òĵ
Ð¡Ð¢ÐĲÐĿ ÐĲ
ĠÑĤ Ó©Ð·
Ð°Ð»Ð°ÑĢ Ð¼ÐµÐ½
ĠÐµÑģÐµÐ¿ ÑĤÐµÑĢ
ĠÐ¼Ð°ÑĤÐµÑĢÐ¸Ð°Ð» Ð´Ð°ÑĢÑĭ
ĠÑģÒ±ÑĢÐ°Ð½ ÑĭÑģ
ĠÒĽÐ¾Ò£ ÑĭÑĢÐ°Ñĥ
ÑĪ Ð°Ñĥ
ĠÐľÒ± ÑħÑĤÐ°ÑĢ
ĠÒĽÐ°Ð»ÑĭÐ¿ÑĤÐ°Ñģ ÑĥÑĭ
ĠÐ¾ÑĢ Ð°Ð»
Ð°Ð¹ Ð½
ĠÐ¼ÑĸÐ½Ð´ ÐµÑĤÑĤÐµÑĢÑĸÐ½
ĠÐ°ÒĽÑĭÐ» Ñĭ
ĠÐ±Ó©Ð» ÑĸÐ¼Ð´ÐµÑĢ
ĠÐķÑĢ ÐµÐ¶
ĠÐ´ÐµÐ» ÐµÐ³
ĠÑĦ ÑĢÐ°Ð½
Ð±Ð°Ð¹ Ð¶Ð°Ð½
Ð°ÑĥÑĸÐ¿ ÑģÑĸÐ·Ð´ÑĸÐº
ĠÐ±Ð¾Ð» Ð¼Ð°Ð¹
ĠÒĽÐ°Ð·Ð°ÒĽ ÑĤÐ°ÑĢ
ĠÒļÒ±ÑĢ Ð°Ð½
ĠÐ°ÒĽ Ñĭ
ĠÐ¸Ð½ ÑĤÐµÑĢÐ½
ĠÒĽÐ¾Ð»Ð´Ð°Ð½ ÑĭÑģÑĤÐ°ÒĵÑĭ
ĠÑĢÐ°Ð´ Ð¸
ÐµÑĢ ÑĤÐµÒ£
ĠÐ¢ ÐµÑħÐ½
ĠÐ±Ð°Ð¹ÒĽÐ°Ñĥ Ñĭ
ĠÐ°Ð²ÑĤÐ¾Ð± ÑĥÑģ
Ð¿ ÐµÐ¹ÑĤÑĸÐ½
ÑĤÐ°Ð¹ Ð¼ÑĭÐ·
ĠÒĽÐ°Ð¹ÑĤÐ° Ð´Ð°Ð½
Ð· Ð¸Ð½
ĠÐºÐµÐ» ÐµÑĪ
ĠÒĽÑĭÐ·Ð¼ ÐµÑĤÑĤÑĸÐº
ĠÓĺÐ± ÑĸÐ»
ĠÐ°Ð½ÑĭÒĽÑĤÐ°Ñĥ ÒĵÐ°
ĠÐºÐµÒ£ ÐµÑģÑĤÐµÑĢ
ÑĸÐ» Ð¼ÐµÐ³ÐµÐ½
ĠÐ´ Ð¸Ð°Ð»Ð¾Ð³
Ð¼ÓĻ ÑĤÐµÐ»
ĠÐľ Ð°Ñħ
ÐµÑģ i
ĠÐŁ ÑĸÐºÑĸÑĢ
ĠÐºÓĻÑģÑĸÐ¿ÐºÐµÑĢÐ»ÑĸÐº ÑĤÑĸ
Ðķ ÐĻ
Ð¸Ð² ÑĤÑĸÐº
Ð»ÐµÐºÑĤÑĢÐ¾Ð½ Ð´Ñĭ
I V
ÓĻÑĢ ÑĸÐ³ÐµÑĢ
Ð´ÐµÐ¼ Ðµ
Ð¸Ð°Ð» Ð´Ñĭ
ĠÐ·Ð°ÑĤÑĤÐ°ÑĢ Ð´ÑĭÒ£
ĠÐ½Ó©Ð¼ÑĸÑĢ Ñĸ
Â» -
ĠÐºÓ©Ð· Ð´ÐµÐ»
Òĵ Ð°Ð·Ñĭ
ÑĤÑĭ Ð·
ÑĸÑģ ÑĸÐ¼
ĠÐ±Ð¾Ð¹ ÑĭÐ½Ð´Ð°ÒĵÑĭ
ĠÐ´Ð°Ð¼Ñĥ ÑĭÐ½
ĠÐ¾ÑĢÑĭÐ½ Ð´Ð°ÑĢÑĭÐ½
ĠÑĤ Ð°Ð·Ð°ÑĢ
ÐĽ Ð«Òļ
ĠÑĸÐ· Ð´ÐµÑģÑĤ
ĠÐ±Ð¾ÑģÑĤÐ°Ð½ Ð´ÑĭÒĵÑĭÐ½Ð°Ð½
ĠÐ°ÑĪ ÒĽÐ°Ð½
ĠÐ¾ÑģÑĭ Ð´Ð°Ð½
ÑĢ Ðµ
ĠÐ±Ð¾Ð» Ð´ÑĭÑĢ
Ðŀ Ðľ
ĠÒ®ÐºÑĸÐ¼ ÐµÑĤÑĸ
ĠÑį ÑģÑĤ
ĠÐ¿ÑĢÐ¾ÐºÑĥÑĢÐ°ÑĤÑĥÑĢ Ð°ÑģÑĭ
ĠÐ±Ð¾ÑĢ ÑĭÑĪ
ĠÑģÑĥ Ð¼ÐµÐ½
ÐĨ Ñģ
ĠÒĽÐ°Ð· ÑĭÐ½
Ð´ Ð¸ÐµÐ²
ĠÑģ Ð¸ÑĢÐµÐº
ĠÐ·ÐµÑĢÑĤ ÑĤÐµÐ»
ĠÒļÐ°Ð· Ð°Ð½
ÐĳÒ± Ð´Ð°Ð½
ĠÐ¶Ð°Ñģ ÑĤÐ°ÑĢÒĵÐ°
ĠÐ·Ð°Ò£Ð´Ñĭ Ð»ÑĭÒĽ
ÐµÑĤÑĸÐ½ ÐµÐ½
ĠÐ¼Ò¯ Ð»ÑĸÐºÑĤÑĸ
ÑĭÒĵÑĭ ÑĢÐ°ÒĽ
Ġ6 5
Ð¼ Ð°ÑģÑĭÐ½
ĠÐ± Ð°Ðº
ĠÐ± Ð°Ð½ÐºÑĸ
ÑĤÐµÑĢ ÐµÐº
ĠÐ¤ÑĢÐ°Ð½ÑĨÐ¸Ñı Ð´Ð°ÒĵÑĭ
ĠÐ¾ÒĽ Ð¸ÑĤÑĭÐ½
ĠÑĤÐ°ÑĢ Ð°ÒĵÐ°Ð½
ĠÐ¶Ð°ÒĽ ÑģÑĭÐ»ÑĭÒĽ
ĠÑħÐ°Ð±Ð°ÑĢÐ»Ð°Ð¼ Ð°
ĠÐ¼Ó©Ð»ÑĪÐµÑĢ Ð´Ðµ
ĠÑĤÓĻÑģÑĸÐ» Ð´ÐµÑĢÑĸ
ĠÐ¼Ð°ÒĽÑģ Ð°ÑĤÑĤÐ°ÑĢÑĭ
ĠÑĢ Ð°Ð¹Ñĭ
ĠÐµÑĢÐµÐ¶ ÐµÐ»ÐµÑĢ
ĠÐ¶ÐµÑĤ ÑĸÑģ
ĠÐĶ ÓĻÐ»
Ð¸Ðº Ð°Ð½Ñĭ
ĠÐ¸Ðµ Ð³ÐµÑĢÑĸ
ĠÐºÐµÐ¼ ÑĪÑĸÐ»ÑĸÐº
ĠÐ°Ð·Ð°Ð¼Ð°ÑĤÑĤÐ°ÑĢ Ð´Ñĭ
ĠÓ© ÑģÑĤÑĸ
ĠÑĤÐ¾Ð»ÑĭÒĽ ÑĤÐ°Ð¹
Ġ âĨĴ
ÑĦ Ð¸Ð»
ÑĤÐ°Ð» Ð¼ÑĭÑĪ
ĠÐŁ Ð¾ÑĢ
4 2
ĠÐ±ÑĸÐ» ÐµÐ¼ÑĸÐ·
ĠÐ¾ÑĢÑĭÐ½ Ð´Ð°ÑĢ
Ð´Ð°Ñģ ÑĤÐ°ÑĢ
ÑĸÐ³Ñĸ ÑĤ
ĠT engrinews
Ð¾ Ð´Ð°
Ð¸ÐºÐ° ÑĨÐ¸ÑıÐ»ÑĭÒĽ
ĠÐ´ÑĭÐ± ÑĭÑģ
ĠÑģÐ°Ð» ÑĭÑģ
Ð´ÐµÑĥ Ñĸ
ĠÐ´Ð°Ð¼Ñĥ Ð´ÑĭÒ£
ĠÐ±Ò±Ð¹ÑĢ ÑĭÒĽ
ĠÑĤÐ°Ð¿ÑģÑĭÑĢÐ¼ Ð°ÑģÑĭ
Ð³ÐµÐ½ Ð´Ðµ
ĠÐ±ÑĸÐ» Ð´ÑĸÑĢÑĥ
er s
ĠÑĤÐ°Ð½ ÑĭÑģÑĤÑĭ
ĠÐµÐ»Ð´ÐµÑĢ Ð´Ðµ
ĠÐ°Ð¹ÒĽ ÑĭÐ½Ð´Ð°Ñĥ
ĠÐ¶Ð°ÑĥÐ°Ð¿ ÑĤÐ°ÑĢ
ĠÐ¶Ð°Ñģ ÑĭÐ½Ð°
Ð°ÑĤÑĭÐ» Ð°Ð´Ñĭ
ĠÐĲÐ» ÑĤÐ°Ð¹
ĠÐ·Ð°Ò£ Ñĭ
ĠÑĤÐ¾Ð¿ ÑĤÑĭÒ£
ĠÐ°Ð¹ÑĭÑĢ Ð¼Ð°
ĠÐ°Ð¹Ð½Ð°Ð»ÑĭÑģ Ð°ÑĤÑĭÐ½
Ð² Ð°Ð½
Ð¡ Ð°Ð»
ĠÑĪÐ°ÑĢ ÑĤÑĤÑĭ
ĠÐ½ÐµÐ³ÑĸÐ· Ð´Ðµ
ĠÒĽÒ±ÑĢ Ð±Ð°Ð½
Ð¶ ÑĭÐ¼Ð´ÑĭÒĽ
ĠÐ½ Ò±ÑĢ
ĠÒĽÐ¾Ð½ Ð´ÑĭÑĢ
ĠÑĤÒ¯ÑģÑĸÑĢ ÑĸÐ¿
ÐŀÐ±Ð» ÑĭÑģÑĤÑĭÒĽ
Ġ Q
ÑĤ ÑĸÐ»
ĠÒ¯Ð·Ð´ÑĸÐº ÑģÑĸÐ·
ĠÒĽÑĭÐ·Ð¼ÐµÑĤÑĤÐµÑĢ ÑĸÐ½
ĠÐµÑĪÑĤÐµÒ£ Ðµ
ĠÐµ ÑĤÑĸ
ĠÒĽÐ¾ÑĢÒĵÐ°Ñĥ ÒĵÐ°
ĠÐ±Ð°ÒĽÑĭÐ»Ð°Ñĥ Ð´Ñĭ
âĢ¦ âĢ¦
ĠÐºÐµÐ¼ ÑĸÐ½Ð´Ðµ
ĠÑģÐ¸Ð¿ Ð°ÑĤÑĭ
ĠÒļÐ°Ð· Ò°
ĠÐ¿ ÑĭÑģ
Ð¾Ð² Ð°Ð½ÑĭÒ£
ÑĭÐ½Ð´Ð° ÑĥÒĵÐ°
Ð»Ð°ÑĢ Ð´Ð°Ð½
ĠÒĽÐ¾Ð» Ð¼Ð°
ĠÑģÐ¿Ð¾ÑĢÑĤ ÑĪÑĭ
Ð¸ Ð°Ð½
ĠÐ¶ Ð°ÑĤÑĭÐ¿
ĠÒĽÑĭÐ·Ð¼ÐµÑĤÑĤÐµÑĢ Ð´ÑĸÒ£
ĠÐ´Ò¯Ð½Ð¸ ÐµÐ¶Ò¯Ð·ÑĸÐ»ÑĸÐº
6 8
ÑĢ Ñĸ
il im
ĠÐºÐ¾Ð¼Ð¸ÑģÑģÐ¸Ñı Ð½ÑĭÒ£
ÐŀÐ¹ ÑĭÐ½
ĠÐ°ÑĢÐ½ Ð°Ð¿
ĠÐºÐµÐ»ÑĤÑĸÑĢ ÑĸÐ»Ð³ÐµÐ½
ĠÐºÓ©ÑĢÑģÐµÑĤ ÐºÑĸÑĪÑĸ
Ð°Ð½Ð´ ÑĥÐ¼
Ð· Ð°Ò£
ĠÐ±Ð°Ñģ ÑĭÐ¼Ð´ÑĭÒĽ
ĠÐ¶Ò¯ÑĢ Ð³iÐ·
ĠÑĤÓ©ÑĢ ÑĤÑĸÐ½ÑĪÑĸ
ĠÐºÐ¾ Ð´Ñĭ
ĠÒļ Ð¾Ð½
ĠÒ±Ð¹ÑĭÐ¼ Ð´Ð°ÑĢÑĭ
ÐµÑģ ÑĸÐ¿
Ġ200 2
ĠÒĽÑĭÐ·Ð¼ÐµÑĤÑĤÐµÑĢ Ñĸ
ÐĳÐ¾Ð»Ð°ÑĪÐ°ÒĽ ÒĽÐ°
ĠÐ¾ÑĢÐ³ Ð°Ð½Ñĭ
Ð¶ ÑĭÐ»ÑĭÒĽ
ĠÒĴ ÑĭÐ»ÑĭÐ¼Ð¸
Ðĳ Ð¸Ð·Ð½
ĠÐ¾ Ð±
Ðĳ Ð°Ð»Ð°
ÐĳÑĸÑĢ Ð°ÒĽ
ĠÒĽÐ¾Ð¹ ÑĭÐ»Ð°Ð´Ñĭ
ÑĤÑĸÐ½ Ð´Ñĸ
ÑĥÑĢ Ð°
Òĵ Ð°ÑĤ
ĠÑģÓĻÑĤ ÑĤÐµ
i b
ĠÐ¢ Ð¾ÒĽ
in f
ĠÐºÓ©Ð± ÐµÐ¹ÑĤÑĥ
âĨ Ĳ
ĠÑĪÐ¾Ð» Ñĥ
ĠÐ¿ Ð»Ð°Ð½
ĠÑĪÑĭÒĵÐ°ÑĢ ÑĥÒĵÐ°
ĠÐ¿Ð°Ð¹Ð´ Ð°ÑģÑĭ
Ð°Ð± ÑĢ
ĠÐ¶Ð°Ð· Ð±
ĠÑĤÐ°Ð»Ð°Ð¿ ÑĤÐ°ÑĢÑĭÐ½
ĠÒ°Ð»Ñĭ Ð±ÑĢÐ¸ÑĤÐ°Ð½
Ð¾Ð² ÑĤÑĸÒ£
ĠÑį ÑĦÐ¸ÑĢ
ĠÑĸÑģÑĤ Ñĸ
u l
ĠÐ±ÑĸÐ· Ð´Ðµ
ĠÒĽÐ¾ÒĵÐ°Ð¼ Ð´Ð°
ĠÒ¯Ð¹ÑĢÐµÐ½ Ñĥ
ĠÑĪÐ¾ ÒĵÑĭÑĢ
ĠÒĽÐ°ÑĤÑĭ ÑģÑĭ
ĠÓ©Ð¼ÑĸÑĢ ÑĸÐ½Ðµ
ĠÒĽÑĭÐ·Ð¼ÐµÑĤÐºÐµÑĢÐ»ÐµÑĢ Ð´ÑĸÒ£
Ġ4 9
Ð¼Ò± ÑħÐ°Ð¼
ÐĿ Ð°ÑĥÑĢÑĭÐ·
ĠÐ¶Ð°Ð» Ð°ÒĽÑĭ
ĠÐ±ÐµÐ¹Ð½ Ðµ
Ð¿ Ð°Ð¹ÑĤÑĭÐ½
Ð°Ð´Ñĭ ÑĢ
ĠÐµÑģÐµÐ¿ ÑĤÑĸÐº
ĠÐ±Ð°ÑĢ Ð´Ñĭ
ÑĸÐ»ÐµÑĢ Ð´ÑĸÒ£
ĠÑĤÑĸÐ» Ð´ÑĸÐº
ĠÑģÓ©Ð· Ð±ÐµÐ½
ĠÐ±ÐµÐ»Ð³ iÐ»
ĠÐ¶Ð°ÑĤ ÑĤÑĭÒĽ
ĠÐºÒ¯ÑĪ ÐµÐ¹
ĠÐ°ÑħÑĥ Ð°Ð»
Ð» Ð¼ÐµÐº
ĠÓĻÐ½ ÑĸÐ½
Ð¼ Ð°ÒĽÑĤÑĭ
ĠÒ±Ñı Ð»Ñĭ
ĠÐ¸Ð³ÐµÑĢ Ñĥ
ĠÐº ÑĥÐ±
Ð¾Ð· Ð°
ĠÒĽÒ±ÑĢÐ°Ð» Ð´Ð°ÑĢÑĭÐ½ÑĭÒ£
ĠÐº Ð°Ð½
ĠÑģÐ¸Ð¿Ð°ÑĤ ÑĤÐ°Ð¼Ð°ÑģÑĭ
ĠÐļÐµÐ¹ Ð±ÑĸÑĢ
Ñĥ Ñĩ
ĠÑĭÒĽ ÑĤÐ¸Ð¼
Ð¶ ÑĸÐº
ĠÐ°Ð» Ð°Ð¹Ð´Ð°
Ð°ÑĤÑĭÐ»Ñĭ ÑģÑĤÐ°Ð½Ñĥ
ĠÑĢÐµÐ´Ð°ÐºÑĨÐ¸Ñı Ð´Ð°
ĠÒĽÐ¾Ð¹Ð½ Ð°ÑĥÑĭÐ½
ĠÐĿÓĻÑĤÐ¸Ð¶ ÐµÑģÑĸÐ½Ð´Ðµ
ĠÐĹÐ°Ò£ Ñĭ
ÐµÑĤÑĸÐ½ ÑĸÐ½
ĠÐ°ÑĢ Ð·Ð°Ð½
ĠÑģÐ°Ð» Ð°Ð´Ð°
ÑĸÐºÑĤÑĸ Ð³Ñĸ
ĠÒĽÒ±Ð±ÑĭÐ» ÑĭÑģ
ĠÐļ Ó¨
Ġ199 8
ĠÐ¡ Ð°Ð¼
ĠÐ¾ÑĢÐ³Ð°Ð½ Ð¸Ð·Ð¼
Ñģ Ð¿Ð°Ð½
Ð°ÑĤ ÑĤÐ°Ð½Ð´ÑĭÑĢÑĥ
ĠÐ³ Ð°
ĠÐĴ Ð»Ð°Ð´
ĠÒĵÐ°ÑģÑĭÑĢ Ð´Ð°
ĠÐºÒ¯Ð½Ð´Ñĸ Ð·
ĠÑģ Ó©Ð½Ð´ÑĸÑĢÑĥ
ĠÐķÑĢ Ð»Ð°Ð½
ĠÐ´ Ò¯ÑĢ
ĠÒĽÐ°Ð» Ñĥ
Ð½Ð¾Ð² Ð°ÑĨÐ¸Ñı
ĠÐ±Ð¾Ð»Ð°ÑĪÐ°ÒĽ ÑĤÐ°
ĠÐĲ Ðł
ĠÐļ Ðķ
iÐ» Ð³ÐµÐ½
ĠÑĭÐ½ÑĤÐ°Ð» Ð°Ð½Ð´ÑĭÑĢÑĥ
ÐŀÑĢ Ð°Ð»
ĠÑĤÐ¾Ð¿ ÑĤÑĭÒĽ
ĠÐ´Ð¾Ð¼ Ð±ÑĭÑĢ
ĠÐºÓ©Ð¿ ÑĪÑĸÐ»ÑĸÐ³Ñĸ
ĠÑĥÐ°ÒĽÑĭÑĤ ÑĭÐ½Ð´Ð°
ĠÐ±Ð°Ñģ Ð°
ĠÐ°Ð¹ Ð´Ð°Ð½
ĠÐ±Ð°ÑģÒĽÐ°ÑĢÑĥ Ð´ÑĭÒ£
Ð» iÐº
ĠÒĽÐ¾ÒĵÐ°Ð¼ Ñĭ
ĠÐµÑĢÐµÐ¶ ÐµÐ»ÐµÑĢÑĸ
ĠÒĽÑĭÐ· Ð´ÑĭÒ£
ĠÓĻÐ»ÐµÐ¼ Ð´Ðµ
ĠÐŀÑĢ Ð°Ð·
Òļ Ð°Ñģ
ĠÐ±Ð°Ñģ ÑĪÑĭÐ»ÑĭÒĵ
Ð» Ð°Ð¹ÑĤÑĭÐ½
Ðļ ÐµÒ£
ĠÒ±Ð· ÑĭÐ½
ĠÐ¶Ð¾Ð» ÑĭÐ¼ÐµÐ½
ĠÒĽÐ°Ò£ÑĤÐ°ÑĢ Ð´Ð°ÒĵÑĭ
ĠÑĭ Ð´Ñĭ
Ð¶ Ð¸
ÑĤÐ°ÑĢ Ð¼Ð°ÒĵÑĭÐ½Ð´Ð°
ÑĸÒ£ÑĸÐ· Ð´ÑĸÒ£
ĠÐ¨ ÑĭÒ£
Ò±Ð» ÑĤÑĤÑĭÒĽ
Ð¡ Ð°Ð¼
ĠÒ¯Ð»Ð³Ñĸ ÑģÑĸ
Ð¢ Ð°Ð±Ð¸Òĵ
or d
ÒļÑĭÐ· ÑĭÐ»
____ ____
Ð¿ Ð°ÑĤ
ĠÒĽÑĭÑĢÐºÒ¯Ð¹ ÐµÐºÑĤÐµ
ÐŁÑĢ ÐµÐ·Ð¸Ð´ÐµÐ½ÑĤ
ÑĤ ÑĸÐ½Ð´Ðµ
Ðļ ÑĸÑĤÐ°Ð¿
ĠÐºÐ¾Ð¼Ð¿Ð°Ð½Ð¸Ñı Ð»Ð°ÑĢ
ÒĽÒ± Ð¶
ĠÐµÐºÐµÑĥ Ñĸ
ĠÓĺ Ð·ÑĸÑĢ
ĠÐ¼Ð°ÒĽ Ò±Ð»
ÑĬ ÐµÐ·
ĠÒļÐ¾ Ð¶
ĠÑĤÐ°Ð± ÑĭÑģÑĤ
ÑĭÐ» Ð¼Ð°ÒĵÐ°Ð½
ĠÓ¨ Ð½ÐµÑĢ
ĠÐ¿ÑĢÐ¾ÐºÑĥÑĢÐ°ÑĤÑĥÑĢ Ð°
ÐĶÐµÐ½ ÑģÐ°ÑĥÐ»ÑĭÒĽ
ĠÐ¼Ó©Ð»ÑĪÐµÑĢ Ð»ÐµÐ¼
ĠÑģÐ°Òĵ Ð°ÑĤÑĭ
ĠÐ´Ð¸Ð°Ð³ Ð½Ð¾ÑģÑĤ
ĠÐµÑĤÑĥ Ñĸ
ÑĥÐ½ Ð´
ĠÐ¶Ð°Ñģ Ð°Ð»ÑĭÐ¿
ĠÒĽÒ± ÑĤÑĤÑĭ
ĠÐŀÑģÑĭ Ð´Ð°Ð½
ĠÐ±ÐµÑĤÑĸÐ½ ÑĪÐµ
ĠÐµÑĢÐµÐºÑĪÐµÐ»ÑĸÐº ÑĤÐµÑĢÑĸÐ½
ÑĭÐ» ÑĥÑĭÐ½Ð°
ĠÐµÑģ ÐµÐ³Ðµ
Ð±Ð°Ð¹ Ð»Ð°Ð½
ĠÑģ Ð°ÑĢÑĭ
ĠÒĽÒ±ÑĢÑĭÐ» ÒĵÑĭÐ»Ð°ÑĢ
ĠÑģÐ°Ð± Ð°ÒĽÑĤÑĭ
Ð»Ð°Ð² Ð½Ð°Ñı
Ð°ÑĢ Ð´Ñĭ
ĠÑĦÐ¸Ð»Ð¸Ð°Ð» ÑĭÐ½ÑĭÒ£
ÐµÐ³ ÑĸÐ½ÑĸÒ£
Ð³ ÑĸÐ½Ð´ÐµÐ³Ñĸ
Ð´Ðµ Ð¼Ð°ÒĽ
ĠÐºÒ¯Ð½ ÑĸÐ½
Ð¸ Ð¾Ð»Ð¾Ð³Ð¸ÑıÐ»ÑĭÒĽ
Ð¿ ÐµÑģ
Ðł ÐµÑģÐ¿ÑĥÐ±Ð»Ð¸Ðº
ĠÐ½Ðµ Ð³iÐ·
ĠÐ¼Ò±ÑĢ Ð°
ĠÑģÑĥ ÑĭÒĽ
ÑĸÒ£ Ð´ÐµÑĢ
Ð¸ ÒĽÐ°ÑĤ
Ð°Ñģ ÑĤÑĢ
ĠÐ±ÑĸÐ» ÑĥÑĸ
ĠÑĤÐ°Ð± Ð°Ð´Ñĭ
ÑĢÐ¸ ÑĤÐµÑĢ
ĠÐ¶Ð°ÑĢ ÑĭÐ¼
Ġ100 0
Ð±Ð°Ñģ ÑĭÐ½Ð°
ĠÒĽÑĭÑģÒĽÐ° ÑĪÐ°
ÐĲ ÐŁ
ÐŀÒĽ ÑĥÑĪÑĭÐ»Ð°ÑĢÐ´ÑĭÒ£
ĠÓĻÐ»ÐµÐ¼ Ñĸ
ĠÐĲÑĢ Ð°Ð»
ĠÐ¶Ð¸ÑĭÐ½ ÑĤÑĭÒĽ
6 7
Ð¡Ð¾Ð½ Ð´ÑĭÒĽÑĤÐ°Ð½
ĠÐ¿Ð°ÑĢÑĤ Ð¸ÑıÑģÑĭÐ½ÑĭÒ£
ĠÐ¶ÐµÑĤÐºÑĸÐ· Ð³ÐµÐ½
ĠÓ©ÑģÑĸÐ¼Ð´ÑĸÐº ÑĤÐµÑĢ
ĠÐ°Ñĥ Ð·
Ð¶ Ðµ
ÑĤÐµÒ£ Ð³Ðµ
ĠÐ°ÑĢÐ´Ð°Ð³ ÐµÑĢÐ»ÐµÑĢ
ĠÐĲ ÐºÐ°Ð´ÐµÐ¼
ĠÐ°Ð¹ Ð´Ð°
ĠÐ±Ð°Ð»Ð°Ð»Ð°ÑĢ Ñĭ
ĠÐ±Ð°ÒĵÑĭÑĤ ÑĤÐ°ÒĵÑĭ
ĠÐĿÒ±ÑĢ ÑĤÐ°Ñģ
ĠS p
ĠÐºÐ¾Ð´ÐµÐºÑģ ÑĸÐ½ÑĸÒ£
Æ ı
ĠÐ¢ Ð¾Ð»
ĠÐ¶ÑĸÐ±ÐµÑĢ Ð³ÐµÐ½
ĠÐ±ÑĸÐ»Ð´ÑĸÑĢ ÑĸÐ¿
Ð¾Ð² Ð¾
ĠÐ¢Ò±ÑĢ ÒĵÑĭÐ½
ĠÐ¼ Ð¾Ð´
Ð¾Ò£ ÒĵÐ¾Ð»
ĠÐ¼Ð°ÒĽÑģÐ°ÑĤ ÑĤÑĭ
ĠÐ¼Ð°ÑĤÐµÑĢÐ¸Ð°Ð» Ð´Ð°ÑĢÐ´Ñĭ
ĠÐ¢ Ðĸ
ĠÐļÓ©Ðº ÑĪÐµÑĤÐ°Ñĥ
ĠÐ¿ÑĢÐ¾Ð² Ð¸Ð½
4 3
ĠÐ¼Ð°ÒĵÑĭÐ½ Ð°ÑģÑĭ
Ġ1 20
Ð¾Ð² Ð¸Ñĩ
ĠÐµÒ£Ð±ÐµÐº ÐºÐµ
Ð» Ð¾
Ò±Ð¼ ÑĭÑĢ
6 9
Ġ ÑĭÐ»
ĠÐ± Ð¸ÑĢÐ¶
ĠÐ¡ Ò±ÑĢ
ĠÐºÓ©Ð¿ ÑĸÑĢ
ĠÐ°ÑĢ Ñĭ
ĠÒļÐ¾ÑĢ ÒĵÐ°Ð½
ĠÑĢÐµÑģÐ¿ÑĥÐ±Ð»Ð¸Ðº Ð°
ĠÐľ ÑĭÑģ
Ðĳ ÐµÑĢ
ĠÑĤÒ¯ Ðº
ĠÓ©ÑĤÐºÑĸÐ· Ð³ÐµÐ½
ÐĸÐ°Ñģ ÑĤÐ°ÑĢ
ĠÐ¡ Ð¸ÑĢ
ĠÐ¶Ð¾Ð» Ð´Ð°Ñĥ
ĠÓĺÐ¹ ÐµÐ»
ĠÐºÐµÐ» ÐµÑĢ
ĠÐ¡ ÑĤÑĥÐ´ÐµÐ½ÑĤ
Ð¡Ð¾Ð» ÑĤÒ¯ÑģÑĤÑĸÐº
ÐºÑĸÐ½ÑĸÑĪ ÐºÐµ
ĠÐ° Ð´
Ð¡ Ñĥ
Ð°ÒĽ ÒĽÐ°
Ð¼ ÑĥÐ½Ð°Ð»Ð´ÑĭÒĽ
Ð¶ Ò±Ð¼ÑĭÑģ
ĠÑĤÐ°Ð± ÑĥÒĵÐ°
ĠÐ°Ð»Ñĥ Ð´ÑĭÒ£
ĠÒ¯Ð¹Ð» ÐµÑģ
ĠÐ¼iÐ½ Ð´
ĠÑĢ ÓĻÐ¼ÑĸÐ·
ĠÒĽÐ¾ÑĢ ÑĭÒĽ
ĠÐ¶ÐµÑĤ ÑĸÐ»Ð´ÑĸÑĢ
ĠÒĽÒ±ÑĢÑĭÐ» ÑĤÐ°Ð¹
ĠÐµÑĢÐµÐ¶ ÐµÐ»ÐµÑĢÑĸÐ½
ĠÐºÒ¯ ÑĤÑĥ
ĠÐ· Ð°ÒĽÑĭÐ¼
Ð¾Ð² Ð½Ð°
Ð¿ ÐµÐºÑĤ
ĠÐ±Ð°ÑĢ ÑĪÐ°
ĠÐ¶Ð°ÒĵÐ´Ð°Ð¹ Ð»Ð°ÑĢÐ´Ñĭ
ĠÒĽÒ±Ð½ ÑĭÐ½
Ðĳ ÐĲ
ĠÒĵÐ°ÑģÑĭÑĢ Ð»Ð°ÑĢ
ĠÐĺÐ½ ÑĤÐµÑĢÐ½ÐµÑĤ
ĠÐºÓ©ÑĢ Ð½ÐµÐºÑĤÑĸ
ÐºÐµÑĢ Ð´ÑĸÒ£
a p
ĠÐ³ Ð¸Ð¼Ð½
ĠÐ¸Ð½ ÑĤÐµÐ³ÑĢ
ĠÐ¿ Ð¾Ð¹ÑĭÐ·
ÐµÐ± Ð°ÐµÐ²
Ð´Ð°ÑĢ Ð¸Ñı
ĠÐ±Ð°ÑĢ Ð»ÑĭÒĵÑĭÐ½
ĠÑĪÐ°ÒĽÑĭÑĢ Ñĥ
ĠÐ¾ÑĢÑĭÐ½ Ð´Ð°Ð¹Ð´Ñĭ
ĠÐ¶Ð°ÒĽ ÑĭÐ½Ð´Ð°
ÒĽ Ð°Ð»ÑĭÐ¿
ĠÐļ Ñĥ
ĠÐ¶Ð°Òĵ Ñĭ
ĠÑĤÒ±ÑĢ Ð¼ÑĭÑģÑĤÑĭÒĽ
Ð¹ÑĭÐ¼ Ð´Ð°ÑģÑĤÑĭÑĢÑĥ
ĠÐ°Ð³ÐµÐ½ÑĤÑĤÑĸ Ð³ÑĸÐ½ÑĸÒ£
Ð· ÐµÑĢ
ĠÐº ÑĥÑĢÑģÑĤÐ°ÑĢ
ĠÐ°ÑĤ ÑĤÐ°Ð½
ĠÐ°Ð·Ð°Ð¼Ð°ÑĤÑĤÐ°ÑĢ Ñĭ
ÐŁ Ð°ÑĢ
ÐĲÐ» Ð»Ð°
ĠÓ©Ð· ÑĸÒ£
ĠÐ°Ð½ Ð°Ð»Ð°ÑĢ
ĠÑĤÒ± ÑģÐ°Ñĥ
ĠÒĽÐ°Ð»ÑĭÐ¿ÑĤÐ°Ñģ Ñĥ
ÑĪ ÐµÑĪ
Ð¸ÑģÑĤ Ð¸ÐºÐ°
ÑĤÐ°Ð¿ ÒĽÑĭ
ĠÐĲÐ»ÐµÐº ÑģÐ°Ð½Ð´ÑĢ
Ñģ ÑĸÐ½Ðµ
ĠÒĽÑĥ Ð°ÑĤÑĤÑĭ
ĠÒĽÐ°Ð¶ÐµÑĤÑĤ ÑĸÐ»ÑĸÐ³Ñĸ
ÐµÐ¹ Ð¼ÑĸÐ·
ĠÐºÐ¾Ð½ ÑģÑĤÐ¸ÑĤÑĥ
ĠÓĻÐ¹ Ð³ÑĸÐ»Ñĸ
Ð¼Ò± Ð½
Ð¼ Ð°Ð¼
Ð°ÑĤ Ð¾ÑĢÐ»Ð°ÑĢ
ÑĭÒ£ Ð°
ĠÐ¶ÐµÑĢ ÑĸÐ½Ðµ
Ð³ ÑĢÐ¾
Ð»Ð°Ð½ Ð´
ĠÓ©Ñģ ÑĸÑĢ
ĠÓĻÐ´ÐµÐ±Ð¸ ÐµÑĤÑĤÐµÑĢ
Ð¹ ÑĭÑĢ
ĠÐ¶Ò¯ÑĢÐ³ÑĸÐ· Ð³ÐµÐ½
ĠÐ¶Ð°Ð± Ð´ÑĭÒĽÑĤÐ°ÑĢ
ĠÐºÒ¯ÑĪ ÐµÐ¹ÑĤÑĥ
ĠÑģÒ±ÑĢÐ°ÒĽ ÒĽÐ°
ĠÐ¾ÑĤÑĭÑĢ ÒĵÑĭÐ·
ĠÐ¶Ð°ÒĵÐ´Ð°Ð¹ ÑĭÐ½Ð°
ĠÐºÐµÒ£ Ñģ
ÑĭÐ½Ð°Ð½ Ñĭ
ĠÐ¾Ð» Ð¸Ð¼Ð¿Ð¸Ð°Ð´
ĠÒĽÐ°Ð¶ ÐµÑĤÑĸ
ĠÐ°Ð³ ÑĢÐ¾
ÐķÐ¢Ð¢ ÐĨÐļ
ÑĤ Ð¸Ð½
ĠÐ±Ò±Ð¹ÑĢ ÑĭÒĵÑĭÐ¼ÐµÐ½
ÐĶ Ð°ÑĢ
Ó©ÑĢ Ñĸ
Ð¢ ÐµÐ³
ĠÐ¾ÒĽÐ¸Òĵ Ð°Ð»Ð°ÑĢ
Ñģ ÑĸÐ¼Ð´ÑĸÐº
ĠÑĦ ÐµÑĢ
ĠÐ´ÐµÒ£Ð³ÐµÐ¹ ÑĸÐ½Ðµ
Ò» Ð°ÑĢ
ĠÐ±Ð°Ð½ÐºÑĤ ÑĸÐº
Ġ199 9
Ò¯ ÑĤ
ĠÐĸÐ°ÒĽ ÑģÑĭ
ĠÐ¢ Ð¾
ĠÐ¶Ð¾Ð± Ð°Ð½ÑĭÒ£
ĠÐ±Ð°ÑĥÐ» Ñĥ
ĠÑĤÒ±ÑĢ Ð´Ñĭ
ÑĪÑĭÐ»Ð°ÑĢ ÑĭÐ½ÑĭÒ£
ÐĨÐĿ ÐĨÒ¢
7 8
â ĸ
ĠÐ¼Ð¸Ðº ÑĢÐ¾
ĠÐ±ÑĸÐ· Ð´Ñĸ
Ð¾ Ð±Ð»
ĠÐ³ ÑĥÐ¼Ð°Ð½Ð¸ÑĤÐ°ÑĢÐ»ÑĭÒĽ
ĠÓĺÐ± ÑĸÑĪ
ĠÐºÐ¾Ð¼Ð¿ÑĮÑİ ÑĤÐµÑĢÐ»ÑĸÐº
ÒĽ ÑĭÑĤ
201 0
Ðĵ Ð»Ð°Ð²Ð½Ð°Ñı
ĠÐļÓ© ÑĪ
ĠÐ½Ò±ÑģÒĽ Ð°ÑģÑĭ
ĠÑĤ Ð¾Ð·
ÐĲ ÑĤÐ°Ð»ÒĵÐ°Ð½
ÑĸÑģÑĤ ÐµÑĢÑĸ
ĠÐ¾Ð¹ Ð»Ð°ÑĢÑĭÐ½
ĠÒĽÐ°Ð±ÑĭÐ» Ð´Ð°Ð¿
ÐµÑĦ ÐµÑĢ
Ñģ Ò¯Ð¹
Ðļ Ð¢
ĠÑģÐ¾ ÒĵÑĭÑģÑĭ
ĠÐĸÐ°Ñģ ÑĤÐ°ÑĢ
ĠÐµÐ» Ð´ÐµÐ³Ñĸ
ÐĲÐ» Ð°ÑĪ
ĠÓ©Ð½Ð´ÑĸÑĢ ÑĸÑģÑĸ
ĠÐ°Ð»ÑĭÐ½ Ð°Ð´Ñĭ
ÐµÐ» ÐµÐ½Ð´Ñĸ
ĠÒĽÐ°ÑĢ Ð°Ò£ÑĭÐ·
ĠÐ±Ð°ÑıÐ½ Ð´Ð°Ð¼
ĠÑģÑĸÐ»ÑĤÐµÐ¼ ÐµÐ»ÐµÑĢ
i a
ĠÒĽÐ°Ð» Ð°Ð´Ð°
Ð¢ ÐµÑĢ
ĠÐ¾Ð» Ð¸Ð¼Ð¿Ð¸Ð°Ð´Ð°
ĠÑĪÑĭÒĵÑĭÐ½ Ð´Ð°ÑĢ
Ð¡ Ð°ÑĢÑĭ
ĠÐ¶Ð¸ ÑĭÑĢÐ¼Ð°
ĠÑģÐ°Ð¹ÑĤ ÑĭÐ½Ð°
Ð»ÐµÐº ÑĤÑĥ
ĠÐ¼ÓĻÐ½ ÑĸÐ½Ð´Ðµ
ĠÑĢÐµÐ¹ÑĤ Ð¸Ð½Ð³
ĠÐ¾ÑĤÑĭÑĢ Ñĥ
ĠÐ´ÓĻÑĢÑĸÐ³ÐµÑĢ Ð»ÐµÑĢ
ĠÐĲÑģ ÒĽÐ°ÑĢ
ĠÓĺÐ± Ð´Ñĸ
ĠÑįÐºÑģÑĤÑĢ ÐµÐ¼
ĠÐ¶ÐµÑĢ ÑĸÐ½
ĠÐ±Ð°Ð¹Ð»Ð°Ð½ ÑĭÑģÑĭ
ĠÒĽÐ¾Ð½ ÑĭÑģ
\ \
Ð¸ Ð¼ÐµÐ½ÑĤ
ĠÐº ÓĻÑģ
ĠÒļ Ð°Ð»Ð°
ĠÐ¼Ò±ÑĢ Ð°ÒĵÐ°ÑĤ
ĠÐ·ÐµÑĢ Ð´ÐµÐ»
ĠÐ¾ÑĤÑĭÑĢ Ð´Ñĭ
Ð´ÐµÑĢ ÑĸÐ½ÐµÐ½
ĠÐ¾ÒĽÑĥÑĪÑĭÐ»Ð°ÑĢ ÑĭÐ½ÑĭÒ£
ĠÑĤÐ°ÒĽÑĭÑĢÑĭÐ¿ ÑĤÑĭ
ĠÐ±Ò±ÑĢ ÑĭÑĪ
ĠÒ±ÑĢÐ¿Ð°ÒĽ ÒĽÐ°
ĠÐ½Ðµ ÒĵÒ±ÑĢÐ»ÑĭÐ¼
ĠÑģÒ±ÑĢ Ð°Ð´Ñĭ
ĠÑģÐ°ÑĢÐ°Ð¿ ÑĤÐ°Ð¼
ĠÓĻÑĢ ÒĽÐ°ÑĪÐ°Ð½
ĠÑģÐµÐ½ ÑĸÒ£
ÒļÐ°Ð·Ð°ÒĽ ÑĤÑĭÒ£
ĠÐ´ÐµÐ¹ ÑĤÑĸÐ½
ÑĭÑĤÑĥ ÑĪÑĭÐ»ÑĭÒĽ
ĠÐ°ÑĤÒĽÐ°ÑĢ ÑĭÐ¿
ĠÐ¶Ð°Ð»Òĵ Ð°ÑģÑĤÑĭÑĢÑĥ
ĠÐ°ÑĢ ÑĤÑĥ
ĠÑģÓ©Ð· ÑĸÐ½Ð´Ðµ
Ð¼ Ð°Ð½ÑĭÒ£
ÒĴ ÑĭÐ»ÑĭÐ¼Ð¸
ĠÐ°Ð»Ð°Ò£ Ñĭ
ĠÐ¼Ð¸Ðº ÑĢ
ĠÐĲ Ð±ÑĭÐ»Ð°Ð¹
ĠÐ¶Ð°Ñģ ÑĤÐ°Ð½
ĠÒĽÒ±ÑĢ ÑĭÐ¿
ĠÑħ Ð°Ð´
ĠÐ°ÑĪÑĭÐ» Ð°Ð´Ñĭ
Ġ Y
ÐµÑģ ÒĽÐ¾Ð¹
Ð¾ÑĢ Ð´Ð°Ð½ÑĭÒ£
ĠÑĤÐ°Ð¿ÑģÑĭÑĢÐ¼ Ð°Ð»Ð°ÑĢÐ´Ñĭ
ĠÐ¼Ð°ÑĤÐµÑĢÐ¸Ð°Ð» Ð´Ñĭ
ĠÑĤÐ°ÑĢÐ¸Ñħ ÑĭÐ½Ð´Ð°
ĠÑģÐ°ÑıÑģÐ°ÑĤ ÑĭÐ½ÑĭÒ£
ĠÒĽÐ°Ð½Ð°ÒĵÐ°ÑĤ ÑĤÐ°Ð½
ÐµÑĢ Ð»ÐµÑĢÑĸ
ĠÑģÒ¯Ð¹ ÑĸÐºÑĤÑĸ
ĠÒļÒ±ÑĢ Ð¼Ð°Ð½
ĠÒĽÐ¾Ð·ÒĵÐ°Ð» ÑĭÑģ
Ð°Ò£ÑĭÐ· Ð´Ñĭ
c t
ĠÑģÐ°Ð¹ ÑĭÑģ
ĠÐ°Ð·Ð°Ð¼ Ð°ÑĤÑĤÑĭ
ĠÐºÑĸÑĤ Ð°Ð±
ĠÓ©Ð· Ð´ÐµÑĢÑĸÐ½Ðµ
Ò® Ðł
ĠÒĽÐ¾Ð»Ð´Ð°Ñĥ ÑĭÐ¼ÐµÐ½
ĠÐ¶Ð°ÑĢ Ð½Ð°Ð¼
Ñģ ÑĥÑĢÐµÑĤ
Ðŀ ÒĽÑĭÑĤÑĥ
Ð¼ Ð°Ð»
ĠÐ² ÐµÐ»
ĠÐ¾ÑĢÑĤÐ°Ð»ÑĭÒĵ ÑĭÐ½Ð°
ĠÐ¡ ÐºÐ°ÑĩÐ°ÑĤÑĮ
ÑĤ ÓĻÑĢÐ±Ð¸Ðµ
ÑĭÐ½ ÒĵÐ°Ð½
Òļ ÐĲ
ĠÐ°Ð¹ Ð´ÑĭÒ£
ĠÑģÐ°Ð» ÑĭÐ½Ð´Ñĭ
ÒļÐ¾ÒĵÐ°Ð¼ Ð´ÑĭÒĽ
ĠÑģÐ°Ð»Ð°Ñĥ Ð°ÑĤÑĤÑĭ
ĠÐºÓ©ÑĢÑģÐµÑĤ ÑĸÐ»Ð´Ñĸ
ĠÑĤÐ¸ÑĸÐ¼Ð´Ñĸ Ð»ÑĸÐ³Ñĸ
ĠÑħ Ð¾Ð»
ĠÑĤÐ°Ð» Ð°Ð±ÑĭÐ½Ð°
ĠÐĵ Ðµ
ÐĲÐł Ð«
ĠÐ¶ÓĻÑĢ Ð´ÐµÐ¼Ð°ÒĽ
ÐķÑģ ÐºÐµ
ĠÐ´ÐµÐ½ÑģÐ°Ñĥ Ð»ÑĭÒĵÑĭÐ½Ð°
ĠÒĽÐ°Ð¼ ÒĽÐ¾ÑĢÐ»ÑĭÒĽ
ÐµÐ»ÑĸÐº ÑĤÐµÐ½
ĠÒĽÒ± ÑĪ
ÐĨ Ð»Ð¼ÐµÐº
ĠÒ¯Ð¹ Ð»ÐµÐ½
ÐºÑĸÐ¼ ÐµÐ½
ĠÐºÒ¯ÑĪ ÑĸÐ½
Ð´ÑĭÒĵ ÑĭÐ½ÑĭÒ£
ĠÐ¾ÑĢÑĭÐ½Ð´Ð°Ð» ÑĥÑĭÐ½
ĠÐ±ÐµÐ» ÑģÐµÐ½
ĠÑĪÐ°ÒĽÑĭÑĢ Ð´Ñĭ
Ð°Ð» Ð°ÒĽ
ÒĽ Ð°ÑģÑĭ
ĠÐ¿Ð°Ð¹ ÒĵÐ°Ð¼Ð±Ð°ÑĢ
ĠÐ¼Ò± Ð½Ñĭ
ÒļÐ°Ð·Ð°ÒĽÑģÑĤÐ°Ð½ Ð´Ð°ÒĵÑĭ
ĠÐ±ÑĸÐ»Ð´ÑĸÑĢ Ð³ÐµÐ½
ÒĽ Ð°Ð¹Ð´Ð°
ÐĽ ÐķÐļ
ĠÑģÐ¸Ð¿Ð°ÑĤ ÑĤÐ°Ð¼
ĠÒĽÐ°Ð¹ Ð´Ð°Ð½
ÑģÐµÑĢ Ð²
ĠÐ¶ÐµÐ» ÑĸÑģÑĸ
ĠÐºÓ©ÑĢÑĸÐ½ ÑĸÑģÑĸ
ĠÐ»Ð¾Ð³ Ð¸ÐºÐ°Ð»ÑĭÒĽ
Ð¢ ÐµÑħÐ½
ĠÐłÐµÑģÐ¿ÑĥÐ±Ð»Ð¸Ðº Ð°
ĠÑĤÓĻ Ð»ÑĸÐ¼
ĠK azakh
ĠÐ°ÑĢÑħ Ð¸Ð²
ĠÐ°ÑĥÑĭÐ· ÑĪÐ°
ĠÐ½ÐµÐ¼ ÐµÑĢ
Ð´Ð°Ð¹ Ñĭ
ĠÐ¼ ÑĸÐ½Ðµ
ĠÓĻ ÑĥÐ»
Ð¸Ð· Ð¸ÐºÐ°
ĠÐ°ÑĪ ÑĤÑĭ
ĠÐºÐ¾ Ð¾Ð¿ÐµÑĢ
ĠÐºÐµÐ» Ð¼
Ðŀ ÐĿ
n ews
ĠÓĺ Ð´ÐµÐ±Ð¸
ĠÑĤÐ°Ð¿ÑģÑĭÑĢ Ñĥ
ĠÐ±Ð°Ð· Ð°ÑģÑĭÐ½Ð´Ð°
ĠÐ¿Ð°ÑĢ Ð°Ð¼ÐµÑĤÑĢ
ĠÑĤÐ°Ð½ ÑĭÐ¿
ĠÐ¾ÑĤ Ð±Ð°ÑģÑĭÐ½ÑĭÒ£
ĠÐ¾ÑĢÑĭÐ½Ð±Ð°Ñģ Ð°ÑĢ
Ð°ÑĢ Ð¸Ñı
ĠÑĪ Ó©Ð¿
Ñģ ÐµÒ£
Ð³Ñĸ ÑģÑĸ
ÐµÑĤÑĸÐ½ ÑĪÐµ
ĠÐŀÐ» Ð°Ð¹
ĠÑĤÐ¸Ð³ÑĸÐ· ÐµÐ´Ñĸ
ĠÐ¢Ó© ÑĤÐµÐ½ÑĪÐµ
ĠÐ±Ð°Ñģ ÑĪÑĭ
ĠÓ©Ð¼ÑĸÑĢ Ð»ÑĸÐº
Ġ9 9
ÐµÐ» ÐµÐ½Ð´ÑĸÑĢÑĥ
Ð°Ð¼ Ð°Ð¹
ĠÐ±ÐµÑĢ ÑĸÐº
ÐµÑĢ Ð»ÐµÐ¿
ĠÐľ Ð¾Ð»
ĠÐ¶ÐµÑĤÐºÑĸÐ· Ðµ
A R
ĠÐ´ Ð°ÑĢÐ°
Ð¸ÑĢ ÑĥÑĢÐ³
Ð² Ð¾Ð»
ĠÐ°Ð· Ð°Ð¹
ĠÐĳÐ°Ð¹ ÑĤÒ±ÑĢÑģÑĭÐ½
ĠÐºÐµÑĢ ÑĸÑģÑĸÐ½ÑĪÐµ
ĠÐľ Ð¾Ð½
iÐ» iÐ¼
ĠÑģÑĤÑĥÐ´ÐµÐ½ÑĤ ÑĤÐµÑĢÐ´ÑĸÒ£
ĠÐ¿ÑĢÐ¾Ð²Ð¸Ð½ ÑĨÐ¸Ñı
Ð¡ Ð°Ð»ÑĭÒĽ
ĠÐ³Ð°Ð· ÐµÑĤÑĸÐ½ÑĸÒ£
ĠÓ©Ð»ÑĪ ÐµÑĥ
Ð°Ñĥ Ð½
ĠÑĤÐ¾Ð¿ ÑĤÐ°ÑĢ
ĠÑĤÒ¯Ð½ Ð´Ðµ
Ò¯Ð» ÐµÐ¹Ð¼ÐµÐ½
ĠÐ¡Ð°ÒĵÑĭÐ½ ÑĤÐ°ÐµÐ²
ÑĤ ÑĤÑĭÒ£
ÒĽ ÑĭÑģ
ĠÐ¿ Ð»
ĠÑĤÐ¾Ð» ÑĤÑĭÑĢÑĥ
ÐĶ Ò¯Ð½Ð¸
ĠÑĪÐµÑĪÑĸÐ¼ ÑĸÐ¼ÐµÐ½
Ð¸ÑĢ Ð¾Ð²
ĠÑĪÐµÐº ÑģÑĸÐ·
ĠÐ¶Ò¯ Ð»
ĠÐ¶Ò±Ð¼ÑĭÑģ ÑģÑĭÐ·
ĠÒĽÐ°ÑģÐ¸ ÐµÑĤÑĤÐµÑĢÑĸÐ½
ĠÐŀ Ð¼Ð°ÑĢ
ĠÑĤÑĸÐ» Ð´ÑĸÒ£
ĠÐ¸Ð½ Ð´
ĠÐ¾Ð½ ÑĭÐ¼ÐµÐ½
ĠÐķÑĥÑĢ Ð°Ð·Ð¸ÑıÐ»ÑĭÒĽ
ĠÑĦÑĥÐ½ ÐºÑĨÐ¸Ð¾Ð½
ĠÑĢÐµÐ³ Ð»Ð°Ð¼ÐµÐ½ÑĤ
ĠÐºÐµÑģÑĤ Ðµ
ĠÐ°Ð¹ Ñĭ
ĠÐ± Ð°Ð·Ð°ÑĢ
Ðķ ÐĴ
ĠÐ¶Ð¾ÑģÐ¿Ð°ÑĢ Ð»Ð°Ð¿
Â ·
ĠÒĽÒ±ÑĢ Ð±
ĠÐ±Ð°Òĵ Ð°Ð»Ð°Ð½
ĠÐºÓ©Ð· Ð³Ðµ
ÑģÐ¸Ñħ Ð¾Ð»Ð¾Ð³Ð¸ÑıÐ»ÑĭÒĽ
ĠÒĴ Ð°Ð»ÑĭÐ¼
Ġ J
Òļ ÐľÐ£
ĠÓ©Ñģ ÐµÐ´Ñĸ
ĠÐ¼ÐµÐ¼Ð»ÐµÐºÐµÑĤÑĤÐµÑĢ Ð´ÑĸÒ£
% ,
ĠÑģ ÐµÐ¼
ĠÒĽÐ°ÑĤ ÐµÐ»ÑĸÐº
ÐµÐ¹ Ñģ
ÐµÐ³ ÑĸÐ¼
ĠÐĺ ÓĻ
Ð± ÐµÐ³ÐµÐ½
ĠÐľ Ò¯
ĠÐºÓ©ÑĪ ÑĸÑĢ
ĠÓĻÑĢÐµÐº ÐµÑĤÑĸ
ĠÑĢÐ°Ñģ ÑĤÐ°Ð¹ÑĤÑĭÐ½
ĠÑĥÐ°ÒĽÑĭÑĤ ÑĭÐ½
Ð¾Ð· Ñĭ
ĠÐ¶ ÑĸÐº
ĠÐ¾Ð¹ÑĭÐ½ Ð´Ð°ÑĢÑĭ
Ð°Ð» ÒĵÐ°ÑĪÒĽÑĭ
ĠÐºÐµÐ» ÑĥÑĸ
ĠÐ¿ÑĢ ÐµÐ¼ÑĮÐµÑĢ
ĠÐ¶Ð¾ÑģÐ¿Ð°ÑĢ Ð»Ð°Ð½
ĠÒĽÒ±Ð½Ð´Ñĭ Ð»ÑĭÒĽÑĤÐ°ÑĢ
ĠÐ¼ÐµÑĢÐ·ÑĸÐ¼ Ð´Ðµ
5 8
ĠÑĤÑĥ ÑĭÐ½Ð´Ð°ÒĵÐ°Ð½
ĠÑĤÐ°ÑĥÐ°ÑĢ Ð»Ð°ÑĢÐ´Ñĭ
ĠÐ°ÑģÑĤÐ°Ð½ Ð°ÑģÑĭ
ÓĻ Ð»ÐµÐ¼
ĠÒ± ÑģÐ°ÒĽ
ÑģÐ°ÑĢ Ð¸Ð½
as y
ĠÐ¶ÑĭÐ» Ð¶
ĠÐ·Ð°Ò£ ÒĵÐ°
6 6
ĠÒļ Ð°Ð±
Ð» i
ĠÐ°ÑĢÑħ Ðµ
Ð»Ð°ÑĢ ÑĭÐ¼ÐµÐ½
ÐµÑģÑĤ ÑĸÐ³Ñĸ
Ð°Ð¼Ð°Ð· Ð°Ð½
ĠÐ°ÑĥÑĭÐ» ÑĭÐ½ÑĭÒ£
Ðĵ Ð°Ð·
ĠÐ¶Ð°ÑĢÐ°ÒĽ Ð°ÑĤ
ĠÐ±Ð°Ð¹ Ð»ÑĭÒĽ
ĠÑĤÑĸÑĢ ÐºÐµ
ĠÐ°ÒĽÑĪ Ð°Ð½Ñĭ
do ws
ĠÒĽÑĥ Ð°ÑĤ
ĠÐ¸ Ð³
ÑģÑĭÐ· Ð´Ð°Ð½Ð´ÑĭÑĢÑĥ
ĠÐ±Ð°ÒĵÑĭÑĤ ÑĭÐ½Ð´Ð°
Ð¶ÐµÑĤ ÐºÐµÐ½
ĠÐķÐ½ Ð´ÐµÑĪÐµ
ĠÐ±Ò¯Ð» Ð´ÑĸÑĢ
ĠÒĽÒ±ÑĢÑĭÐ» ÑĭÑģÑĭÐ½
ĠÐ¾ÑĤÐ±Ð°Ñģ ÑĭÐ»ÑĭÒĽ
u p
Ġ a
ĠÑĤÓĻÑĢÐ±Ð¸ ÐµÐ»ÐµÐ½
ĠÐ¾ÒĽÐ¸ Ð´Ñĭ
ĠÐ¶ÑĭÐ½ ÑĭÑģÑĤÑĭÒĽ
ĠÑĤÐ¾Ð½ Ð½
Ð»Ð°ÑĢ Ð°ÑĨÐ¸Ñı
ĠÐ¡ Ð°Ð¿Ð°ÑĢ
ĠÒĽÐ°ÑĥÑĸÐ¿ÑģÑĸÐ· Ð´ÑĸÐ³ÑĸÐ½
ÑĦÐ¾ÑĢÐ¼ Ð°ÑĤÐ¸ÐºÐ°
ĠÐ¿Ð°ÑĤÑĢÐ¸ Ð¾ÑĤÑĤÑĭÒĽ
ĠÐ°Ð±ÑĭÑĢ Ð¾Ð¹
ĠÑĢÓĻÑģ ÑĸÐ¼Ñĸ
ĠÑģÓĻÐ¹ÐºÐµ ÑģÑĤ
ĠÐ±ÐµÐ¹Ð±ÑĸÑĤ ÑĪÑĸÐ»ÑĸÐº
Ġ ÑĭÑĢ
ĠÓ©Ð· Ð´ÐµÑĢÑĸÐ½
Ð¢ Ð°Ñĥ
ĠÐ¸ Ð³Ñĸ
ĠÑĤÐ°Ð»Ð°Ð¿ ÑĤÐ°ÑĢÒĵÐ°
ĠÐĸ Ð¾Ð±
ÒĽÐ°Ð¹ ÑĤÐ°
Ð°ÑĤ Ð¾ÑĢÑĭ
ĠÐ¶Ó©Ð½ iÐ½Ð´ÐµÐ³i
ĠÐĳÐ°Ñģ ÑĤÐ°ÑĥÑĭÑĪ
Ġ199 5
ĠÐ¸Ð¼ Ð¿ÐµÑĢ
ĠÐ°ÑĥÑĢÑĥÑħÐ°Ð½ Ð°ÒĵÐ°
Ðº Ð°Ð½
Ð´Ñĭ Ð»ÑĭÒĽ
ĠÐ±Ð°Ñģ Ð¿
ĠÐ°Ð¹ÑĤÑĭÐ» Ð´Ñĭ
ĠÓ©Ò£ÑĸÑĢ Ð»ÐµÑĢ
ÒĽ Ð¾Ò£ÑĭÑĢ
Ð¸ Ð±
ĠÐ°ÐºÑĨÐ¸Ñı ÑģÑĭ
Ġ ÑĸÐ½
ĠÑĪÑĭÒĵÑĭ ÑģÑĤÐ°ÑĢ
ĠÑĤÒ±ÑĢ ÒĵÑĭÐ·
ĠÐ¿ÑĸÐºÑĸÑĢ ÑĸÐ½
N ews
ÐµÑĤ ÑģÑĸÐ·
Ð´ÑĭÒĽ ÑĤÑĭÒ£
ĠÐ±ÑĸÐ» ÐµÑģÑĸÒ£
ÑĭÑģÑĤÐ°ÑĢ ÑĭÐ½
Ð¢Ò±ÑĢ ÒĵÑĭÐ½
ĠÑĤÐ°ÑĢ ÑĤÑĤÑĭ
ĠÐ±Ð°ÒĵÐ´Ð°ÑĢÐ»Ð°Ð¼ Ð°Ð»Ð°ÑĢÑĭ
ĠÐĸ ÑĸÐ±ÐµÐº
ĠÐ¨ Ð²
ĠÐºÐµÐ»ÑĸÑģÑĸÐ¼ Ð³Ðµ
Ð¸ ÑĪ
ĠÐ¼Ð°Ð¼ÑĭÑĢ Ð´Ð°
ÐµÐ» Ð´Ñĸ
ĠÐ¶ÑĭÐ» Ð´ÑĭÒĵÑĭ
ÑģÐµÑĢ Ñĥ
ĠÐ±Ð¾Ð»Ð´Ñĭ Ð¼
ĠÐ¶Ð°Òĵ ÑĭÐ¼Ð´Ñĭ
ĠÐ°Ñĥ ÒĽÑĭÐ¼
ĠÐºÐµÑĢÐµÐº ÑĤÑĸ
ĠÐ´Ð¸Ð¿Ð»Ð¾Ð¼ Ð°ÑĤ
ĠÐ¿ÐµÐ´Ð°Ð³Ð¾Ð³ Ð¸ÐºÐ°
ĠÐ°ÑĢÑĤÑĭÒĽ ÑĪÑĭÐ»ÑĭÒĽ
ĠÐĳ Ó©Ð»
Ðĳ Ðĳ
ĠÑĤÒ¯ÑģÑĸÐ½ ÑĸÐºÑĤÑĸ
ĠÒļ Ð°Òĵ
ĠÐĸ Ò¯ÑĢ
ĠÑģÐµÐº Ñģ
ĠÐ±Ð°Ñģ ÑĤÐ°Ð¼Ð°
ĠÐļ Ð°Ð·
ĠÐ¾Ð¹ Ð»Ð°Ð½
ĠÒ±Ð¼ Ñĭ
stan a
Ðĸ Ð°Ð»
ĠÐ¼ÐµÑĢÐ·ÑĸÐ¼ Ð³Ðµ
ĠÐµ Ð³ÑĸÐ½
ĠÐ°Ð» Ð°Ð¼ÑĭÐ½
ĠÑģÐ°Ð» ÑĤÑĭÐ½
Ó¨ ÑĢ
in dows
Ñĭ Ð¹
ÐµÑģ ÐµÐ¿
ĠÐ±Ð°Ñģ Ð¿Ð°
ÑĤÑĭÐ» ÑĭÐ¿
ĠÐĳÐ°ÒĽÑĭÑĤ Ð¶Ð°Ð½
ĠÐ¼ Ð°ÒĵÑĭÐ½Ð°
ĠÒļ Ð°Ð¶
ĠÐµÑĢ ÑĤÐµÐ³Ñĸ
Ó¨ Ð½ÐµÑĢ
ĠÐĴÐ»Ð°Ð´ Ð¸Ð¼Ð¸ÑĢ
ÑĤÐ°ÑĢ Ð¼Ð°ÒĵÑĭÐ½ÑĭÒ£
ĠÓ©Ñģ ÑĸÐ¼
Ð¸ÑĤ ÑĢ
ĠÐ±ÐµÑĤ ÑĸÐ½Ð´Ðµ
ĠÐļÐµÐ» ÐµÑģÑĸ
ĠÐĶÒ¯Ð½Ð¸ ÐµÐ¶Ò¯Ð·ÑĸÐ»ÑĸÐº
ĠÐ¸ Ð¿Ð¾ÑĤÐµÐº
ĠÒĽÑĭÑĪ ÒĽÑĭÐ»
ĠÐļ Ð°ÑģÐ¿Ð¸Ð¹
ĠÑģÑĤÑĢÐ°ÑĤÐµÐ³ Ð¸ÑıÑģÑĭ
Ò° ÑģÑĤÐ°Ð·
ĠÑĢÐµÑģ ÑĸÐ¼
ĠÑģÐ¿Ð¾ÑĢÑĤ ÑĪÑĭÐ»Ð°ÑĢ
ĠÐ¶Ð°Ð· ÒĵÑĭ
ÐµÑģ Ðº
ĠÐ¶Ò±Ð¼ ÑĭÑģÑĤÐ°Ð½
Ð¶Ð°ÑĤÑĤÑĭ ÒĵÑĥ
Ò± Ð½
ĠÑĪ ÑĸÑĢ
ĠÐľ Ð°Ð¼Ð°Ð½
ĠÐºÑĸÑĢ Ñĥ
ĠÐ±Ð¾Ð»Ñĥ ÑĭÐ½
ĠÑĤÐ°Ð»Ð°Ð¿ ÑĤÐ°ÑĢÑĭ
ĠÐ±Ð¾ÐºÑģ ÑĪÑĭ
ĠÐ½Ð¾ ÑĤÐ°ÑĢ
ĠÒĽÐ¾Ñģ ÑĤÑĭ
Ð¸Ð½Ð³ Ð²
ĠÑģÐµÐ±ÐµÐ¿ ÑĤÐµÑĢÑĸ
ĠÐľÐ°ÒĽ Ð°Ð»
ĠÐĳ Ð°ÑĤÑĭÑĢ
ĠÐŁ Ð¾Ð»
ĠÓ©Ð¼ÑĸÑĢ ÑĸÐ½ÑĸÒ£
ĠÐºÑĸÑĢ ÐµÑĤÑĸÐ½
Ð´Ð°Ð½ Ñĭ
ĠÐ¶Ð°Ñģ ÑĭÐ½Ð´Ð°
ĠÐ¶Ð¾Ð» Ð´Ð°
ĠÑĤÐ°Ð» Ð°Ð±Ñĭ
ĠÐ¶ÓĻÑĢ Ð¼ÐµÒ£
Ð°ÑĢ Ð¸Ð¹
Ð¤ Ðŀ
ÐºÓ© Ð¿
Ġ Z
Ð¢ ÓĻÑĢÐ±Ð¸Ðµ
ÒĽ ÑĭÑģÑĭ
ĠÓĻ Ð´
ĠÐ¶Ð°Ð½ Ð´Ð°ÑĢ
ĠÐºÐµÑĪ Ðµ
ĠÑģÒ¯ÑĢ Ð³ÐµÐ½
ĠÒĽÒ±ÑĤÑĤÑĭÒĽ ÑĤÐ°Ð´Ñĭ
Ġ4 2
ĠÐ± Ð°ÑĤ
ÐµÑģÑĸÐ½ ÑĪÑĸ
ĠÐĲÐ¹ ÑĤÐ°
ĠÐºÑĸÑĤÐ°Ð¿ ÑĤÐ°ÑĢ
ĠÓĻÑĥÐµÐ¶ Ð°Ð¹
ĠÒĽÐ¾Ð»Ð´Ð°Ð½ Ð°Ð´Ñĭ
ÑĤÒ± ÑĤÐ°Ñģ
ĠÒĽÐ°Ð»ÑĭÐ¿ÑĤÐ°ÑģÑĤÑĭÑĢ ÑĥÒĵÐ°
Ð¾ Ð³ÐµÐ½
ĠÐ°ÑĥÐ´Ð°Ð½ Ð½ÑĭÒ£
ĠÐ¶Ð°ÑĤ ÑĤÑĭ
ĠÒļ Ðļ
ĠÐº ÑĸÑģ
ĠÒĽÐ°ÑĢ Ð°ÒĵÐ°Ð½
ĠÐ¿ÑĢÐ¾ÑĨ ÐµÑģÑĸÐ½Ð´Ðµ
ĠÒĽÐ°ÑģÐ¸ ÐµÑĤÑĸ
ĠÑģÑĤÐ°ÑĤÐ¸ÑģÑĤ Ð¸ÐºÐ°
Òļ Ð°ÑĢÐ°
ĠÐĸÐµÑĢ Ð³ÑĸÐ»ÑĸÐºÑĤÑĸ
ÐĲÑĤÐ°Ð¼ ÐµÐºÐµÐ½
Ñģ ÐµÒ£ÑĸÐ·
ĠÐ¼ÐµÒ£Ð³ÐµÑĢ Ð³ÐµÐ½
ĠÒ° Ðļ
Ð¼ Ð°ÑģÐ°
ĠÒĽÑĥ Ð°Ð½
ĠÐºÓ©Ð· Ð´ÐµÑĢÑĸ
ĠÐ¶ÐµÑĤÐºÑĸÐ· ÑĥÐ³Ðµ
ÒĽÐ°Ð½ Ð´Ñĭ
ĠÒĽÐ°Ð¼ ÑĤ
ĠÐºÐµÒ£ ÐµÐ¹ÑĤ
ĠÐĲÐ±Ð°Ð¹ Ð´ÑĭÒ£
ĠÑģ ÑĤÑĢ
ĠÐ°Òĵ Ð°ÑĢÑĤÑĥ
ÑĤ iÐº
ĠÐ¢ Ð°Ð¹
ĠÓ©Ð· Ð´ÑĸÐ³ÑĸÐ½ÐµÐ½
Ð¢ Ò¯
ĠÑĪÑĭÒĵÐ°ÑĢ Ð°ÑĤÑĭÐ½
ĠÒļÐ°Ð·Ð°ÒĽ ÑĤÑĭÒ£
ĠÐ¼Ò¯Ð¼ÐºÑĸÐ½Ð´ÑĸÐº ÑĤÐµÑĢÑĸÐ½
ĠÐ¶Ð°Ò£ Ð±ÑĭÑĢ
ĠÐ¶Ð°ÑĢÐ¸Ñı Ð»Ð°Ñĥ
ĠÐ¼ÐµÐºÐµÐ½ Ð¶Ð°Ð¹
ĠÒĽÑĥÐ°Ð½ÑĭÑĪ ÑĤÑĭ
ĠÐ°Ð¹ ÒĵÐ°
ĠÐŀ Ð»Ð°ÑĢÐ´Ñĭ
ĠÒĽÐ°ÑĢ Ð°Ð¹Ð´Ñĭ
ĠÑĨÐ¸ÑĦÑĢ Ð»ÑĭÒĽ
ĠÐ±Ð¾Ð» Ð°Ð¼ÑĭÐ·
ĠÑĤÐ°ÒĽÑĭÑĢÑĭÐ± ÑĭÐ½Ð°
ĠÐķ ÑģÐµÐ½
ĠÐ±Ò± Ð¹ÑĭÑĢ
ĠÐºÓ©Ð»ÐµÐ¼ Ð´Ðµ
ĠÑĤÒ¯ÑĢ ÑĸÐ½Ðµ
ÑģÑĤÐµÑĢ ÑĸÒ£ÑĸÐ·Ð³Ðµ
ĠÐ´ ÐµÑģÐµÐº
ĠÑĤ Ñĸ
ĠÐ°ÑĤ Ð°Ð»ÑĭÐ¿
ÐŁ ÓĻÐ½
ĠÐ¾ÑĢÑĭÐ½Ð´Ð°Ð» ÑĥÑĭ
Ò£ Ð³Ñĸ
ĠÐ¶Ð¾ÑģÐ¿Ð°ÑĢ Ð»Ð°Ð½ÑĭÐ¿
ĠÐ´ÐµÒ£Ð³ÐµÐ¹ ÑĸÐ½Ð´Ðµ
ĠÒ¯Ð» ÐµÑģÑĸÐ½
ĠÐ¶ÑĭÐ»Ð¶ÑĭÐ¼ Ð°Ð¹ÑĤÑĭÐ½
Ð°Ð¹ ÑģÑĭÐ·
Ð´ÑĭÑĢ Ð´Ñĭ
ĠÐ¥ Ð°Ð½
ĠÐ¶Ð°Ð»Òĵ Ð°ÑģÑĭ
Ð±Ð°Ð¿ ÑĤÑĭÒ£
ĠÐ±ÐµÑĤ ÑĸÐ¼ÐµÐ½
ĠÑĤÒ±ÑĢÒĵÑĭÐ½ Ð´Ð°ÑĢÐ´ÑĭÒ£
ĠÐ¿Ð°ÑĢ ÑĭÐ·
ĠÐ±ÑĸÑĢ ÑĪÐ°Ð¼Ð°
ĠÑģÐµÐ± ÐµÐ±
ĠÐ·Ð°Ò£Ð½Ð°Ð¼ Ð°ÑģÑĭÐ½Ð´Ð°
ĠÒĽÐ°ÑĢÐ°ÑĪÐ° Ð´Ð°
ÐĽ Ð«
ĠÐ±Ð¸ Ð¾Ð»Ð¾Ð³Ð¸Ñı
ĠÒĽÐ°ÑĤÐ°ÑĢ ÑĭÐ½Ð°Ð½
ĠÐ¾ÑĢÐ½ ÑĭÐ½Ð°Ð½
ĠÐµÑĢÐµÐºÑĪ ÐµÐ»ÐµÐ½
ĠÐ¢ Ð°Ñģ
ĠÐ¶Ð¾Ð» Ð´Ð°Ð½
ĠÓ©Ð·Ð³Ðµ ÑĪÐµ
ÐķÑģ ÐµÐ¿
ÑĤÐ°Ð¿ ÑģÑĭÑĢ
ĠÐ±Ò±Ð· Ñĥ
ÑĪ ÑĭÑģÑĭÐ½ÑĭÒ£
ĠÐĸ ÓĻÐ½
ĠÒ±ÑĪ ÑĭÐ¿
ĠÐ½ ÐµÐ½Ñĸ
ĠÐ¶Ð°ÒĽ ÒĽÐ°
ÑĤÐ°ÑĢ Ð°Ñĥ
Ð¡ Ðļ
ĠÐ½Ò±Ñģ ÒĽÐ°
ĠÐĲÑģÑĤÐ°Ð½ Ð°Ð½ÑĭÒ£
ĠÐ¾ÑĤÑĭÑĢ Ð°ÑĤÑĭÐ½
ĠÐºÐµÐ·Ð´ÐµÑģ ÑĸÐ¿
ĠÐ¼Ð°ÒĽÐ°Ð» Ð°Ð»Ð°ÑĢ
Ñĥ ÑĪÑĸÐ»ÐµÑĢ
ĠÐº Ð°Ð¼ÐµÑĢ
ÐµÐº Ð¾Ð¼
ĠÑĤÒ¯ Ð»
ĠÑĤÑĸÐ» Ð³Ðµ
ĠÐ°ÑĪ ÑĥÒĵÐ°
Ð¾Ð³ Ð¾
Ð¸Ð¼ Ð°ÑĪ
ĠÐºÐ»ÑĥÐ± Ñĭ
ĠÐºÑĸÑĤ Ð°Ð±Ñĭ
Ð± ÐµÐ¹Ð´Ñĸ
ĠÐ¶Ð°Ð½ Ð°ÑĢ
ĠÒ¯ÐºÑĸÐ¼ ÐµÑĤÑĤÑĸÐº
ĠÐºÓ©Ðº Ó©Ð½
Ð¸Ð» Ð¸
ĠÑģÐ°Ð»ÑĭÐ½ ÑĭÐ¿
5 7
ÑĥÑĪÑĭÐ»Ð°ÑĢ ÒĵÐ°
ĠÒĽÐ°Ð·Ð°Ð½ Ð´Ð°
ĠÐ¶Ò± Ð±Ð°Ð¹
ÑĪ Ð°Ð½ÑĭÒ£
ĠÐ´ÐµÐ¿ Ð¾Ð·Ð¸ÑĤ
ĠÐ¶Ð°ÑĥÐ°Ð¿ÐºÐµÑĢ ÑĪÑĸÐ»ÑĸÐ³Ñĸ
ÑĭÐ¼ ÑĭÑĢ
Ðŀ Ð»Ð°ÑĢ
ĠÐ·Ð°Ð¼Ð°Ð½ Ð´Ð°
ĠÐ±Ð°ÑıÐ½ Ð´Ð°Ð¼Ð°
ĠÑĢÐµÑģÑĥÑĢÑģÑĤÐ°ÑĢ ÑĭÐ½
Ð³ iÐ½
Ð¾Ð½ Ð´Ð¾Ð½
ĠÐºÐµ Ð´ÐµÐ¹
ÐľÒ± ÒĵÐ°Ð»ÑĸÐ¼
ĠÑģÐ°Ð¹ÑĤ ÑĭÐ½Ð´Ð°
ĠÐ´ÓĻÑĢÐµÐ¶ ÐµÐ´Ðµ
ÐĺÐļ ÐĲÐĽÐ«Òļ
Ðľ ÑĭÑģÐ°Ð»Ñĭ
ĠÑģÐ°Ð¿ Ð°ÑĢÑĭ
Ð± Ð¾Ð¹
Ðĳ Ð°ÒĵÐ´Ð°ÑĢÐ»Ð°Ð¼
ĠÐºÐ¾Ð¼ Ð¸ÑģÑģÐ¸ÑıÑģÑĭ
ÐĶ Ð«Òļ
ĠÐĿ ÐµÐ³ÑĸÐ·
ĠÐ´ÐµÑĢÐµÐº ÑĤÐµÑĢÐ´Ñĸ
ÐĶÐ« Ò¢
ĠÐ¶Ò¯Ð¹ ÐµÐ½ÑĸÒ£
ĠÑģÑĸÐ» ÐºÑĸÐ½
ĠÐ¶ÑĭÐ» Ð¼ÐµÐ½
ÑĤ Ð°ÑģÑĤÑĭÑĢÑĥ
ĠÐļ Ò¯ÑĪ
ÐŁ Ð°Ð¹
ĠÐ°ÑĢÐ°Ð» Ð°Ð¿
ĠÐĿ ÐµÐ³Ðµ
ĠÐŀÐ±Ð» ÑĭÑģÑĤÑĭÒĽ
b er
Ð¿ ÑĸÐºÑĸÑĢ
ĠÐ¢ Ð°Ò£
ĠÒĽÐ°Ð¼ÑĤ Ð¸ÑĤÑĭÐ½
ĠÑĪ ÐµÐ½
ĠÑĪ ÐµÑĢ
Ðł ÐµÑģÐ¼Ð¸
ĠÐµÐ¼ ÐµÑģÐ¿
ĠÐ¼Ð°ÑĢ ÐºÐµÑĤÐ¸Ð½Ð³
ĠÐŀÐ±Ð» ÑĭÑģ
ÓĺÐ¹ ÐµÐ»
Ð°ÑĢ ÒĽÐ°
ĠÒļ Ð°ÑĥÑĸÐ¿ÑģÑĸÐ·Ð´ÑĸÐº
ĠÐ¾ÑĢÑĭÐ½ Ð´Ð°ÑĢÑĭÐ½Ð°
o u
ĠÑį Ð¿
ĠÒĽÒ±Ð» Ð°ÒĽ
Ð° Ñİ
Ð°Ð» Ð¸ÐµÐ²
ÐµÑĤ Ð°Ð½
ÐĲ Ð¡Ð¢ÐĲÐĿÐĲ
Ð¡ Ð°Ñĥ
Ðĳ Ð°ÒĽÑĭÑĤ
ĠÐ¶Ð°Ñĥ ÑĭÐ¿
ĠÐĲÐ¹ Ð´Ð°ÑĢ
ĠÐ°Ð·Ð°Ð¼Ð°ÑĤÑĤÐ°ÑĢ ÒĵÐ°
ĠÐ½Ð°Ð·Ð°ÑĢ ÑĭÐ½Ð°
ĠÐ¼Ò±ÒĽ Ð¸ÑıÑĤ
ĠÑģÐ°Ð» Ð°Ð»Ð°ÑĢ
ĠÑģÐ°Ð½ Ð°
ÒĵÑĭÐ» ÑĭÒĽÑĤÑĭ
ĠÐ°ÑĢ Ñĥ
ĠÑģÑĥ Ð´
Ð¸Ðº Ð¸
ĠÑĤÓ© Ñģ
ĠÐ¼Ò± Ð½ÑĭÒ£
ĠÑĤÐ¾Ð» ÒĽÑĭÐ½
ĠÑĤÐ°Ð»ÒĽÑĭÐ» Ð°Ð´Ñĭ
ĠÒĽÑĭÑģ ÒĽÑĭ
ĠÐºÐµ ÑĪÑĸ
ĠÐľ Ð°Ð¼ÑĭÑĢ
Ġ0 3
Ð°Ð»ÑĮ Ð´ÑĭÒĽ
ĠÐºÐ» Ð¸Ð¼
ĠÐ°Ð¹ÑĤÑĭÐ» Ð°Ð´Ñĭ
od ay
ĠÓĻ ÐºÐµÐ¼
ĠÓĻ ÑģÐµÐ¼
ĠÐ¶ÑĸÐ±ÐµÑĢ ÐµÐ´Ñĸ
ĠÒĽÐ°Ð¹ ÑĤÑĭÐ¿
ĠÐ°Òĵ Ð°Ð¹ÑĭÐ½
Òļ ÑĭÐ»
Ġ4 7
ĠÐŃ ÐºÐ¾Ð½Ð¾Ð¼Ð¸ÐºÐ°Ð»ÑĭÒĽ
ĠÐ¸Ð½ÑĤÐµÑĢ Ð°ÐºÑĤÐ¸Ð²ÑĤÑĸ
ĠÐ» Ð°Ð¹ÑĭÒĽ
ĠÑģÑĭÐ¹ Ð°ÒĽÑĭ
ĠÑģÒ¯ÑĢ ÑĸÐ¿
ĠÐ¡ Ð°ÒĽ
ĠÐĲÑĥ ÒĵÐ°Ð½
ÓĻÑĢÐµÐº ÐµÑĤÑĤÐµÑĢ
ĠÐ¼ÓĻÐ»ÑĸÐ¼ ÐµÑĤÑĸÐ½ÑĪÐµ
ĠÒĽÐ°Ð¹ÑĤÐ°Ð» Ð°Ñĥ
ĠÐ¤ Ð¸Ð»
ĠÑħÐ°Ð½ Ð½ÑĭÒ£
ĠÐ´ÐµÐ½ÑģÐ°Ñĥ Ð»ÑĭÒĵÑĭ
ĠÑĤÓĻÑģ ÑĸÐ»Ñĸ
ÒĽ Ð¾ÒĵÐ°Ð¼
Ð¸ ÐµÐ»Ñĸ
Ġ6 00
ÑĤÐµÐ¼ Ðµ
ĠÐ±ÑĸÐ» ÐµÑģÑĸÐ·
ĠÐ¿Ð°Ð¹Ð´Ð°Ð»Ð°Ð½Ñĥ Ð´Ñĭ
Ð°Ð¿ ÑĤÑĭ
ĠÑģÐ°ÒĽ ÑĤÐ°Ð»ÒĵÐ°Ð½
ĠÐ¢ Ð°ÒĵÑĭ
ĠÒ±ÑģÑĭÐ½ ÑĭÐ»Ð´Ñĭ
ĠÐľ Ð°Òĵ
ĠÐĨ ÐĨÐĨ
ĠÐ¼Ò±ÒĵÐ°Ð» ÑĸÐ¼Ð½ÑĸÒ£
Ð°ÑĤÑĥÑĢ Ð°
Ġ199 7
ĠÐ°Ð¹ ÑĭÐ½Ð°Ð½
ĠÐ¶Ò¯ÑĢÐ³ÑĸÐ· ÑĸÐ»ÐµÑĤÑĸÐ½
ĠÐ°Ð¹ÑĤ ÑģÐ°ÒĽ
ĠÐ±ÑĭÐ» ÑĤÑĭÑĢ
Ñı Ð´
ĠÐ¿ÑģÐ¸Ñħ Ð¾Ð»Ð¾Ð³
ĠÑĤ ÐµÑĤ
ĠÑģ ÐºÐ°ÑĩÐ°ÑĤÑĮ
ĠÓ©ÑĤÐºÑĸÐ· ÑĸÐ»ÑĸÐ¿
ĠÒĽÐ°ÑĢÐ°ÑĪÐ° Ð´Ð°ÒĵÑĭ
ÑĨÐ¸ÐºÐ» Ð¾Ð¿
Óĺ ÑĥÐµÐ·Ð¾Ð²
ĠÒ® Ð½Ð´ÑĸÑģÑĤÐ°Ð½
ĠÒĽÐ°Ð±ÑĭÐ»Ð´Ð°Ð½ Ð°Ð´Ñĭ
ĠÐºÐ°ÑĢ ÑĤÐ°
ĠÓĻÐ´ÑĸÑģÑĤÐµÐ¼ ÐµÑģÑĸ
Ñĥ ÐµÐ½
ĠÐ±Ð°Ñģ ÑĤÐ°Ð»ÑĭÐ¿
ĠÒĽÐ°ÑĤÑĭÑģ ÑĥÑĪÑĭÐ»Ð°ÑĢÐ´ÑĭÒ£
ÐľÒ±Ð½ Ð°Ð¹
ĠÐĸÐµÒ£ ÑĸÑģ
ĠÑģÐ°Ð½ Ð¸ÑĤÐ°ÑĢÐ»ÑĭÒĽ
ĠÐ² Ð¸ÑĢÑĥ
ĠÐ±Ð¸Ð·Ð½ ÐµÑģÑĤÑĸ
Ġ of
ĠÐ°ÑĤ Ð°Ð½ÒĵÐ°Ð½
ĠÓĻÐ´Ñĸ Ð»ÐµÑĤ
ÓĻÐ» Ð¸ÑħÐ°Ð½
ÐĳÒ¯ Ð³ÑĸÐ½Ð´Ðµ
5 6
ĠÑĪ ÐµÐ³ÑĸÐ½Ð´Ðµ
ĠÐ¶Ð°ÑĤ ÑģÐ°
ĠÑģÐ¸Ð¿Ð°ÑĤ ÑĤÐ°ÒĵÑĭ
ĠÑĤÑĸÐ» Ð´ÐµÑĢÐ´Ñĸ
ÑĤ ÐºÑĸÐ·
Ð¿ ÐµÐ´Ð°Ð³Ð¾Ð³Ð¸ÐºÐ°Ð»ÑĭÒĽ
ĠÓĺ Ð¼ÑĸÑĢ
Ð±Ð°Ð¹ Ò±Ð»Ñĭ
ĠÐ¶Ð°ÑģÐ°Ñĥ Ð´Ñĭ
ĠÐķÑĥÑĢ Ð°Ð·Ð¸Ñı
ĠÐ¶ÐµÒ£ÑĸÐ¼Ð¿Ð°Ð· Ñĭ
ĠÑĤ ÑĢÐ°Ð½
Ð°ÑĢÑĭ ÒĵÑĭ
Ð» Ð¾Ðº
Ð± Ð°Ð¹Ð´Ñĭ
ĠÐ¡ Ð°Ð±
ĠÐ±Ó©Ð» ÑĸÑģÑĤÑĸ
ĠÑĪÐ°ÑĢ Ð°ÒĵÐ°
ĠÐ¶Ò±Ð¼ÑĭÑģÑĤÐ°ÑĢ Ð´ÑĭÒ£
ĠÐ¶Ð°ÑĢÐ¸Ñı Ð»Ð°Ð½
ĠÓĻÐ´ÐµÐ±Ð¸ ÐµÑĤÑĸÐ½ÑĸÒ£
ĠÐ±Ð°Ð¿ ÑĤÑĭÒ£
ĠÐ¼ Ð¼
ÑĦ Ð¾ÑĢÐ¼Ð°
ĠÑĤÓ© Ò£ÑĸÑĢ
Ð¿Ð¾ÑĢ ÑĤÑĭ
ĠÐľÒ± ÒĵÐ°Ð»
ĠÐµÑģ ÑĸÑĢÑĤ
ĠÒĽÐ¾Ñģ Ð°Ð»ÒĽÑĭ
ĠÐĹÐ°Ò£ Ð½ÑĭÒ£
ĠÑĪÑĸÐ»Ð´Ðµ Ð´ÐµÐ³Ñĸ
ĠÒ±Ð¹ ÑĭÒĽ
Ġ Ð°ÑģÑĭ
Ð¢ Ò±
ĠÐ¸ ÐºÐµÐ¼
ĠÐ¶Ð°Òĵ ÑĭÐ½Ð´Ð°
ĠÑĦÐ°ÐºÑĥÐ»ÑĮÑĤ ÐµÑĤÑĸ
ĠÐ¶Ð°ÑĢÑĭ ÑģÑĤÐ°ÑĢ
ĠÐĺÐ½ Ð²ÐµÑģÑĤÐ¸ÑĨÐ¸Ñı
ÑĥÑĢ ÐµÐ½
201 9
ĠÒĽÐ°ÑĢÐ°Ð¶ Ð°ÑĤÑĭ
ĠÐ¶Ð°ÑģÑĭÑĢ ÑĭÐ½
Ðľ Ò¯
ĠÐ»Ð°ÑĥÐ°Ð·ÑĭÐ¼ ÑĭÐ½Ð°
ĠÐºÒ¯Ð· ÐµÑĤ
ĠÑģ Ð°Ð»ÑĭÒĵÑĭ
ĠÑģ ÑĨÐµÐ½
ĠÑħÐ°Ð±Ð°ÑĢÐ» Ð°ÒĵÐ°Ð½
ĠÑħÐ°ÑĤ ÑĤÐ°Ð¼
. (
ĠÐ¶Ð°Ñģ ÑĤÐ°ÑĢÐ´Ñĭ
Ðķ Ð£
Ð¥ Ð°Ð±Ð°ÑĢ
ĠÐ±ÐµÑĢÑĥ Ñĸ
Ð¾Ð¿ Ð°Ð»ÑĭÒĽ
5 9
Ġ4 6
ĠÑĤÐ¾ÒĽÑĤ Ð°ÑĤÑĥ
ĠÐ¸ ÐµÐ»ÐµÑĢÑĸ
ĠÐ±ÑĸÑĢÐ» ÐµÑģÑĤÑĸ
ĠÐľ Ò±ÑĢÐ°ÑĤ
ĠÐļ Ð°Ð½
ĠÑĤÐ°Ð½ÑĭÑģ Ñĥ
Ð¶ Ð°Ò£Ð°
ĠÑħÐ°Ð±Ð°ÑĢ Ð»Ð°Ð½Ð´ÑĭÑĢÑĥ
ĠÐ°ÑĥÑĢÑĥ Ð»Ð°ÑĢ
ĠÓĻÐ¹ÐµÐ» Ð´ÑĸÒ£
ĠÐ°ÑĤÐ°Ñĥ Ð»Ñĭ
ÐĶ ÑĸÐ½
ĠÐ±Ð°Ð· Ð°Ð»ÑĭÒĽ
ĠÐĳÐ¾Ð» Ð°ÑĤ
ĠÐĲ ÑģÑĭÐ»
ĠÐ±Ð°Ñģ ÑĤÐ°Ð½
ĠÐ°Ð¹ ÑĭÐ½Ð°
ÐµÑģÑĤ ÐµÐ½
ĠÐ±ÐµÑĤ ÑĸÐ½Ðµ
Ðŀ ÒļÐŀ
ĠÐ½ÓĻÑĤÐ¸Ð¶ ÐµÑģÑĸÐ½
ĠÒĽÐ°Ò£ÑĤÐ°ÑĢ Ð´Ð°
Ð¸Ð´Ð° ÐºÑĤ
Ġi ÑĪ
Ġ f
ĠÐ¾ Ð´Ð°ÒĵÑĭÐ½ÑĭÒ£
Ð¡ ÑĭÑĢ
ÑĭÐ» ÑģÐ°
ĠÐļ Ò¯
ĠÐŀ ÒļÐŀ
ĠÐ±Ð°Òĵ Ð°ÑģÑĭÐ½
ĠÑĤÐµÑĢ Ñĸ
ĠÐķÐ» Ð±Ð°Ñģ
ĠÐ¶Ð°Ñģ ÑĤÐ°
ÐĶ ÐĲÐĿ
ÐĲ ÑĤ
Ð¼Ð°ÒĽ ÑĤÑĭÒĽ
ĠÐºÐ¾Ð¼Ð¿Ð°Ð½Ð¸Ñı Ð½ÑĭÒ£
ĠÐµÑĢÐµÐ¶ ÐµÑģÑĸ
ĠÒ±Ð»ÑĤ ÑĤÑĭÒ£
ĠÑĤÓ©Ð»ÐµÐ½ ÐµÑĤÑĸÐ½
. ).
ĠÐº ÐµÑĥ
ĠÐ¾ÑĢÑĭÐ½ Ð´ÑĭÒĽ
ĠÐ°Ð¹ÑĤ Ð°ÑĤÑĭÐ½
ĠÐ±ÑĸÑĢÐµÑĥ Ñĸ
Ð¢ Ð«
Ðĸ Ò¯ÑĢ
ĠÐ¼Ó©Ð»ÑĪÐµÑĢ ÑĸÐ½
ĠÐ¶Ò±Ð¼ ÑĭÑĢÑĤ
Ð°Ð¹ÑĭÐ¿ ÑĤÑĭ
ĠÐº ÑĢÐ¸ÑĤÐµÑĢ
ĠÑĤÐ°Ð½ ÑĭÐ»ÒĵÐ°Ð½
ÐµÐ³ÐµÐ¹ Ð»Ñĸ
ĠÑģÑĥÐ´ ÑĮÑı
ĠâĢ İ
ĠÐ°Ð¹Ð½Ð°Ð» Ð°Ð´Ñĭ
Ð´ Ð°ÑģÑĤÑĭÑĢ
Ð¡ ÑĭÐ±Ð°Ð¹Ð»Ð°Ñģ
ĠÐķ ÑĪ
ĠÐ±ÐµÐ¹Ð½ ÐµÐ»ÐµÑĥ
ĠÐ´ÓĻÑĢÐµÐ¶ ÐµÑģÑĸ
ÐºÐµÐ· ÐµÒ£
ÐĸÐ°ÒĽ ÑģÑĭ
ĠÐº Ð°Ð·Ð°Ñħ
ĠÐ°ÒĽÐ¿Ð°ÑĢ Ð°ÑĤÑĤÐ°ÑĢ
Ñģ Ð¾ÒĽ
ĠÐ¶Ð¾Ð± Ð°Ð»Ð°ÑĢÑĭÐ½
ĠÐºÓ©ÑĤÐµÑĢ Ð³ÐµÐ½
ĠÓ©Ð½ÑĸÐ¼Ð´ÐµÑĢ ÑĸÐ½ÑĸÒ£
ĠÑģÓ©Ð¹Ð» ÐµÐ³ÐµÐ½
ĠÐ°Ð¹Ð½Ð°Ð»ÑĭÐ¼ Ñĭ
ĠÓ©ÑĤÐºÑĸÐ· ÑĸÐ»ÐµÑĤÑĸÐ½
ÒĽÐ°Ð½ Ð´Ð°
Ġ201 9
Ð¾Ð¶ Ð°
ĠÐºÐµÒ£ ÐµÐ¹
ĠÐ±Ð°ÒĵÐ´Ð°ÑĢÐ»Ð°Ð¼ Ð°Ð»Ð°ÑĢÑĭÐ½
ĠÐ¼ÓĻÑĢÑĤÐµÐ± ÐµÑģÑĸÐ½
ĠÐĳ ÐµÑģ
ĠÐ¼Ð¾ Ð±Ð¸Ð»ÑĮ
e g
Ð¸Ñı Ð½Ñĭ
ĠÑĤÓĻÐ¶ÑĸÑĢÐ¸Ð± ÐµÐ»ÑĸÐº
ĠÐĳÒ¯ ÐºÑĸÐ»
ĠÓĻÐ»ÐµÑĥÐ¼ ÐµÑĤÑĤiÐº
ĠÐ´Ðµ ÑĥÐ³Ðµ
ĠÑģ Ð°Ð»ÑĭÒĽÑĤÐ°ÑĢ
Ð´Ñĸ Ð³
Ð°Ñĥ ÑĭÐ·
ĠÒĽÐ¾ÒĵÐ°Ð¼ Ð´Ð°ÒĵÑĭ
ĠÐ°Ð·Ð°Ð¼ Ð°ÑĤÑĤÑĭÒ£
ĠÒĽÑĥ Ð°ÑĤÑĭ
ĠÒ°Ð» ÑĤ
ĠÐ±ÐµÐºÑĸ ÑĤÐµÐ´Ñĸ
ĠÑĤÐ°ÑĢÑĤÑĥ ÒĵÐ°
ĠÒĽÐ¾Ð» ÑĭÐ½Ð°
ĠÑĸÑģÑĤ ÐµÐ´Ñĸ
Ġ_ _
ĠÐ°Ð² Ð¸
ĠÐł ÐķÐ¡
ĠÓ©ÑĤÑĸÐ½ ÑĸÐ¼
ĠÑģÑĤÐ°Ð½Ð´Ð°ÑĢ ÑĤÑĭ
ĠÒĽÐ°ÑĥÐ» ÑĭÑģÑĭÐ¼ÐµÐ½
Ð¢ Ð°ÒĽÑĭÑĢÑĭÐ¿
ĠÐ°ÑĢÐ°Ð»ÑĭÒĵ ÑĭÐ½Ð´Ð°ÒĵÑĭ
ĠÐ±ÐµÐ¹ÑĸÐ¼ Ð´ÐµÐ»
ĠÐĳÓ© ÐºÐµÐ¹
ÐµÐ»ÐµÑĢ ÑĸÐ¼ÐµÐ½
in e
ĠÒ±ÑģÑĤ Ð°Ð»Ð´Ñĭ
Ðļ ÐµÐ¹
ĠÐ°Ð»Ð°Ò£ ÑĭÐ½Ð´Ð°
ĠÐļ Ð¾Ð»
ĠÑģÓ©Ð· ÑĸÐ½Ðµ
ĠÑģÐ°Ð½ Ð°Ð»Ñĭ
Ð¾ÑĢ Ð³
ĠÓĻÐ½ Ñĸ
ÑĤ Ð°ÑģÑĤÑĭÑĢ
ĠÐ±ÐµÑĢÑĥ ÑĪÑĸÐ»ÐµÑĢ
Ð¡ Ð°Ð¹
ĠÐľÒ± Ð½Ñĭ
ĠÐ¿ÓĻÐ½ Ð´ÐµÑĢ
ĠÑĪÑĭÒĵÐ°ÑĢÐ¼Ð° ÑĪÑĭÐ»ÑĭÒĵÑĭ
ĠÑĤÐµÑĢÑĢ Ð¾ÑĢÐ¸Ð·Ð¼
ĠÐ¸Ð½Ð¶ÐµÐ½ ÐµÑĢÐ»ÑĸÐº
ÑĭÐ½Ð´Ð° Ð´Ñĭ
ĠÐ¶Ð°Ð½ ÑĭÐ½Ð´Ð°
ÐĲÐ» Ð´ÑĭÒ£ÒĵÑĭ
V I
Ð°Ð»Ð°ÑĢ Ð´Ð°Ð½
ĠÑĪÐµÐº Ð°ÑĢÐ°
ĠÑģÑĤÐ°ÑĤÐ¸ÑģÑĤ Ð¸ÐºÐ°Ð»ÑĭÒĽ
ĠÑĢÐµÐ² Ð¾Ð»ÑİÑĨÐ¸Ñı
ĠÐļÐ¾Ð¼ Ð¸ÑĤ
ĠÐ½ÓĻÑĢÑģ ÐµÐ½Ñĸ
ĠÑĤÐ°Ð¹ Ð¿
ĠÐ» Ð°ÒĽ
Ò£ ÑĸÐ»
Ð¸Ð³ Ð¸ÐµÐ½
ĠÒĽÑĭÑģ ÑĭÐ¼
Ðĳ ÐµÐ¹
ĠÐ¶Ð°Ñģ Ð°Ð½Ð´Ñĭ
ĠÓ©ÑĤ Ðº
ĠÐºÐ¾ÑĢÐ¿Ñĥ ÑģÑĭÐ½ÑĭÒ£
Ñį ÑĢ
ĠÑģÐµÐº ÑĥÐ½Ð´
ĠÒļÒ± ÒĽÑĭÒĽ
ĠÐ¶ÐµÑĤÐºÑĸÐ· ÑĸÐ¿
Òļ Ð«
ĠÑģÓ©Ð· Ð´ÐµÑĢÑĸ
ĠÑĪ Ò¯
ĠÐ±ÐµÑĢ ÑĸÒ£ÑĸÐ·
ĠÐºÓ©ÑĢ ÐµÑĤÑĸÐ½
Ð¸ÑĤÐ°ÑĢ Ð¸ÑıÐ»ÑĭÒĽ
Ð¸ Ð¸
ÑĭÑĢ Ð·Ð°
ĠÒĽÐ¾Ð· ÒĵÐ°Ñĥ
ĠÐ½ Ð°ÑĢÑĭÒĵÑĭ
ĠÒĵ Ò±Ð¼ÑĭÑĢ
ĠÒĽÐ°Ð¹ Ð½
Ð°ÑĥÑĢ Ðµ
ÑĢÐ¸ÑĦ Ð¸Ð½Ð³
ÐĲ ÑĪÑĭÒĽ
Ð¡ Ð¾ÑĤ
ĠÐļ ÐµÑĪ
ĠÐºÒ¯Ð¹ ÑĸÐ½Ð´Ðµ
ĠÐ¶ÑĭÐ»Ð´Ð°ÑĢ Ð´Ð°ÒĵÑĭ
ÒĽÐ¾Ð» Ð´Ð°Ð½
Ð± ÑĸÐ»
ĠÐºÐµÐ· Ð´ÐµÑĢÑĸ
ĠÐ³ Ð¾Ð»
ĠÒĽÐ°Ð½ ÑĤ
ĠÐŁ ÐµÑĤÑĢÐ¾Ð¿Ð°Ð²Ð»
ĠÐ·ÐµÑĢÑĤ ÑĤÐµÐ¿
ĠÐ°Ð»ÑĭÐ½ Ð°ÑĤÑĭÐ½
ĠÐ¶ÑĸÐ±ÐµÑĢ Ð´Ñĸ
Ð¸Ñı Ð·
ĠÐ±ÐµÑĢ ÑģÑĸÐ½
ĠÐ¢ Ð°ÒĽÑĭÑĢÑĭÐ±Ñĭ
ĠÐ°ÑĪ Ð°Ð´Ñĭ
ĠÐŀÐ»Ð°ÑĢ ÒĵÐ°
ĠÓĻÐºÐµÐ» ÐµÐ´Ñĸ
ĠÐ°Ð²ÑĤÐ¾Ð¼ Ð°ÑĤÑĤÑĭ
ĠÐ¼ÓĻÑĢÑĤÐµÐ± ÐµÑģÑĸ
ĠÐ¶ Ð°Ð½Ñĭ
ĠÒĽÐ¾ÑĢÑĭÑĤÑĭÐ½Ð´Ñĭ Ð»Ð°ÑĢÑĭ
ĠÐ£ÐºÑĢÐ°Ð¸ Ð½Ð°
ÑĤ Ð°ÒĵÐ°
ĠÐľ ÐķÐĿ
ĠÒĽÑĭÐ·Ð¼ÐµÑĤÑĸÐ½ ÐµÐ½
ĠÐµÐ¼ Ð´ÐµÐ»
ĠÐ¶Ð°Ñģ Ð°Ð»Ð°ÑĤÑĭÐ½
ĠÐ±Ð°Ð½Ðº ÑĤÐµÑĢÐ´ÑĸÒ£
ĠÐ¶ÐµÐ¼ ÑĸÑģ
ÐļÐµÐ· Ð´ÐµÑģÑĥ
9 9
Ġ5 7
Ġ5 8
Ð¾ÒĽ Ñĥ
ĠÐºÓ©ÑĢÑģÐµÑĤÑĥ Ð´ÑĸÒ£
ĠÑĢÐ¾Ð¼ Ð°Ð½
Ð¡ ÑĤÑĥÐ´ÐµÐ½ÑĤ
ĠÐ¢ ÑĥÒĵÐ°Ð½
ÑĸÑģÑĤ Ðµ
ĠÒĽÐ¾Ð¹ ÑĭÐ»ÑĭÐ¼
Ðĵ Ðķ
ĠÐ¾ÑĤÑĭÑĢ Ð¼ÑĭÐ½
ĠÐ¼Ð°ÒĽÑģÐ°ÑĤ ÑĤÐ°
ĠÑģÐ°ÑıÑģÐ°ÑĤ ÑĤÑĭ
ÐµÑĢ Ð°Ð»
ĠÐ°ÑĢ Ð°
Ġ( âĨĲ
ĠÐŃ ÐºÐ¾Ð½Ð¾Ð¼Ð¸ÐºÐ°
ĠÐºÒ¯Ð¼ ÓĻÐ½
Ð± Ð°ÑĤÑĭ
ĠÑĤÒ¯ÑģÑĸÐ½ ÑĸÐ¿
ÑĭÑĢ Ð´Ð°
ĠÐ°ÑĤ Ð»ÐµÑĤ
ĠÐ¾ÑĢÑĭÐ½ Ð´Ð°Ð¿
ĠÒĽÐ°ÑĢÐ¶ÑĭÐ» Ð°Ð½
ĠÐ·Ð°Ð» ÑĭÐ½Ð´Ð°
ĠÒĽÐ¾Ð» ÑĭÐ½Ð°Ð½
ĠÐ°ÑĤÒĽÐ°ÑĢ Ð´Ñĭ
ĠÑģÓ©Ð·Ð´ÐµÑĢ Ð¼ÐµÐ½
Ð±ÑĢ Ð°Ð·
Ðº Ð²
ĠÐ¶Ð°ÑĢ Ð½Ð°Ð¼Ð°
Ð¸ÒĵÐ° ÑĤÑĭ
ÑĸÐ¼Ð´ÐµÑĢ Ð´ÑĸÒ£
ĠÐ¶Ò¯Ð¹ ÐµÑģÑĸÐ½Ð´ÐµÐ³Ñĸ
ĠÒļÒ± Ð½Ð°Ð½
ĠÐº ÓĻÐ¼ÐµÐ»ÐµÑĤÐºÐµ
ÐµÐ± Ð°Ð¿
ĠÑĤÑĸÐ» ÐµÐ¹Ð¼ÑĸÐ½
ĠÐ¶Ð°Ð¹ ÑĤ
ĠÑģÐ°Ð±Ð°ÒĽ ÑĤÑĭÒ£
ĠÒĽÐ°ÑĥÑĭÐ¼ Ð´Ð°ÑģÑĤÑĭÒĽ
ÑģÑĭÒ£ Ð´Ð°ÑĢ
ĠÑģ Ð°Ð·
ĠÐŁ ÐµÑĢ
Ðĳ Ð°Ð½Ðº
Ð°Ð½ Ð°ÑģÑĭ
ĠÐ±Ð¾Ð» Ð¼Ð°Ð¹ÑĤÑĭÐ½
Ġ4 3
ÒĽÐ°ÑĢ Ñĥ
ĠÐµÑĢ ÑĸÐº
ĠÐµÑĢÐµÐ¶ Ðµ
ĠÐ¸Ð½ÑĦ Ð¾ÑĢÐ¼
ĠÑĦÐ¾ÑĢÐ¼ Ð°ÑģÑĭ
Ðº Ð°ÑĢ
ĠÑĥÐ½Ð¸Ð²ÐµÑĢÑģÐ¸ÑĤ ÐµÑĤÑĸÐ½Ð´Ðµ
ĠÑģÐ°Ð»ÑĭÑģ ÑĤÑĭÑĢÑĥ
Ð¸Ñı Ð»Ð°ÑĢ
Â» )
ĠÐµÐºÑĸÐ½ ÑĪÑĸÑģÑĸ
Ð¸Ðº ÑĤÐµÑĢ
ĠÐ±Ð¸ Ð¾Ð»Ð¾Ð³Ð¸ÑıÐ»ÑĭÒĽ
ĠÐ°ÑĥÑĢÑĥ Ð´ÑĭÒ£
ĠÐºÐ°ÑĢÑĤ Ð¾Ñĩ
ĠÐºÓ©ÑĪÑĸÑĢÐ¼ ÐµÑģÑĸ
ĠÐĲ Ñħ
ÐĲ Ð¼Ð°Ð½
ĠÐ¢ Ð°Ð½
ÐŀÑģÑĭ ÒĵÐ°Ð½
ĠÐ·Ð¾ÑĢ Ð»ÑĭÒĽ
ÒĽÐ°Ð· Ð°Ð½
ain asy
ÑĪ iÐ»iÐº
ĠÐľ Ð°Ð»
ĠÐļÐµÒ£ ÐµÑģÑĸÐ½ÑĸÒ£
Ð¿ ÑĭÐ·
ĠÑĤÐµÐ¼Ð¿ÐµÑĢÐ°ÑĤÑĥÑĢ Ð°ÑģÑĭ
Ð½ Ò±ÑĢ
ĠÒĽÐ°ÑĢ Ð°ÑĥÒĵÐ°
ĠÐ¶Ò±Ð¼ ÑĭÐ»
ĠÐ¸ ÐµÐ»ÐµÐ½Ð´Ñĸ
ĠÐ¿Ð°Ð¹Ð´Ð°Ð»Ð°Ð½ ÑĭÐ»Ð°Ð´Ñĭ
ĠÒĽÐ°Ð» Ð°ÒĵÐ°Ð½
ĠÓĻÐ¹ ÐµÐ»Ñĸ
ĠÐ¶Ð°ÑĤ Ð°ÒĽ
ĠÐºÐ¾Ð½ ÐºÑĥÑĢ
ĠÐ±Ð¾Ð»Ð¼ Ð°ÑģÑĭÐ½
ĠÐŀ ÒĽÑĭÑĤÑĥ
ÐĲ Ñı
ĠÑĢ ÐµÐ½
ĠÐĶ Ð¸
ĠÑģÐ°Ð±Ð°ÒĽ ÑĤÐ°
ĠÑĤÐ°ÑĢ Ð°Ð»ÒĵÐ°Ð½
ĠÓĺ Ñĥ
ĠÐ¶Ð°Ð½ ÐºÒ¯Ð¹
ĠÐ½Ð°ÑĥÑĢÑĭÐ· Ð´Ð°
ÒĽ Ð°Ð»ÑĭÒĽ
ĠÐ°ÒĽ ÑĭÐ»Ð´Ñĭ
Ð¶ Ð¸Ð½
Ð¡ ÐµÐ¼ÐµÐ¹
ĠÐ¾ÒĽÑĭÑĤÑĥ ÑĪÑĭ
ĠÐ±ÑİÐ´Ð¶ ÐµÑĤÑĤÑĸÒ£
ĠÑĦÐ¾ÑĢÐ¼ ÑĥÐ»
ÐķÐľ ÐĽÐķÐļ
Ð°Ñı ÑģÐ°ÑĤ
ĠÐ¼ÐµÐ¼Ð¾ÑĢ Ð°Ð½Ð´ÑĥÐ¼
Ð¼ÐµÐ½ ÑĸÒ£
ÓĻÑĢÐ±Ð¸ ÐµÐ»ÑĸÐº
ĠÐºÐ°Ð½Ð´Ð¸Ð´Ð° ÑĤÑĭ
ash ainasy
ĠÑĤÐ°ÑĢ ÑĤ
ĠÐ¶Ð°Òĵ ÑĭÐ¼ÑģÑĭÐ·
ÑĢÑĤ ÑĸÑģ
ĠÐ°Ð¹ÑĭÑĢ Ð¼Ð°ÑĪÑĭÐ»ÑĭÒĽ
Ð°Ò£ Ð´Ð°ÑĢ
ĠÐµÑĤÑĥ Ð´Ñĸ
Ð¢Ð°ÑĢ Ð°Ð·
o w
ĠÐ¾ ÑģÑĭÐ½Ð´Ð°
Ð¸Ð½ Ð½Ð¾Ð²Ð°ÑĨÐ¸ÑıÐ»ÑĭÒĽ
ĠÐ°ÑĢÑĤ ÑĤÑĭ
ĠÒ±ÑĪ Ð°ÒĽ
ĠÒĽÐ¾Ñİ ÒĵÐ°
ĠÑģÑĤÑĥ Ð´ÐµÐ½ÑĤÑĸ
Ð» ÐµÐ½Ð³ÐµÐ½
Ñĥ ÑĸÐ½
ĠÑĢ ÐµÐ¿
ĠÐĹÐ°Ò£ ÑĭÐ½Ð°
ÑĪÑĭÐ» Ð´ÑĭÒĽ
Ð± ÐµÑĥ
ĠÐ¿ÑĸÐºÑĸÑĢ Ð»ÐµÑĢ
ĠÑĤÐµÐ¼ÑĸÑĢ Ð¶Ð¾Ð»
ĠÐ½ÐµÐ¼ ÑĸÑģ
ĠÐµÐ» ÑĸÐ½Ðµ
Ġ4 4
ĠÓĻÐºÐµ Ð¿
ĠÐ¾ÑĢ ÑĤÐ°Ð½ÑĭÒ£
ÑĤÐ°Ð½ Ð´Ð°ÑĢ
ĠÓĻÐ» ÑģÑĸÐ·
ĠÐ¨ ÒļÐŀ
ĠÐ¿ÑĢÐ¾ÑĨ ÐµÑģÑĸÐ½
ĠÐĲÐ± Ð´
ÑĤÐ°ÑĢ Ð¼ÐµÐ½
Ðĸ ÐµÒ£
ĠÒ¯Ð» Ð³ÑĸÐ»ÐµÑĢ
ĠÐ´ÐµÐ¿ÑĥÑĤ Ð°ÑĤÑĤÐ°ÑĢÑĭ
ÐļÐ¾Ð½ ÐºÑĥÑĢÑģ
ĠÐ´ ÐµÑĢÑĤ
ĠÐŀ Ò£
Ð´Ð°Ð¼ ÑĭÐ·
ĠÐ¶Ò±Ð¼ÑĭÑģ ÑĪÑĭ
ĠÒĽÐ¾ÒĵÐ°Ð¼ ÑĭÐ½ÑĭÒ£
ĠÐ¼ Ð°Ðº
Ð°ÒĽ Ð¿Ð°ÑĢÐ°ÑĤ
ĠÐ±ÑĸÐ» Ðµ
ĠÐ±ÑĸÑĢÑĸ Ð³ÑĸÐ¿
ĠÐºÐ¸ ÐµÐ»Ñĸ
ÑĢ Ð¸ÑģÑĤ
ĠÑģÐ¾ ÒĵÑĭ
ĠÐ¿Ð°Ð¹Ð´Ð°Ð»Ð°Ð½ Ð°Ð´Ñĭ
ĠÐ¾Ð¹Ð½ Ð°Ð¿
ĠÐĸÐµÑĤ ÑĸÑģÑĥ
Ó¨Ð· ÑĸÐ½
ĠÐ» Ð°ÑĥÑĢÐµ
ĠÑģÐ°ÒĽ ÑĤÐ°Ð»Ð°Ð´Ñĭ
ĠÐĲÑĢ Ð¼Ð°Ð½
ĠÐ°ÐºÐ°Ð´ÐµÐ¼ Ð¸ÑıÑģÑĭÐ½ÑĭÒ£
ĠÐĲ ÑĦÑĢ
ĠÐ±Ð°ÑĢ Ñĥ
ĠÒĽÐ°Ð»ÑĭÐ¿ÑĤÐ°Ñģ Ð°Ð´Ñĭ
âĢ ĭ
ÐĳÐ°Ñģ ÑĤÐ°ÑĥÑĭÑĪ
ĠÐ±ÑĸÑĤ ÑĸÑĢÑĥ
ÐŀÑĢ ÑĤÐ°
ĠÐ¼ÐµÐ½ÐµÐ´Ð¶ Ð¼ÐµÐ½ÑĤ
ĠÐ¶Ò¯Ðº ÑĤÐµÐ¿
ĠÑĤÐµÐ¿ Ðµ
Ðľ ÐµÐºÐµÐ½
ĠÐ¼ÐµÐºÐµÐ½ Ð¶Ð°Ð¹Ñĭ
ĠÑįÐ½ÐµÑĢÐ³ ÐµÑĤÐ¸ÐºÐ°
ĠÓĻ ÐºÐµÑģÑĸÐ½ÑĸÒ£
ĠÐ¥ Ð°Ð»
ĠÐ¡Ð¾ ÒĵÐ°Ð½
ĠÐ¾Ð±Ð» ÑĭÑģÑĤÐ°
o st
ĠÓĻ Ñģ
ÐĲÒĽÐ¿Ð°ÑĢÐ°ÑĤ ÑĤÑĭÒĽ
ĠAl ashainasy
ÑĥÑģ ÑĮ
ĠÐ°Ð»Ñĥ ÑĪÑĭÐ»Ð°ÑĢÐ´ÑĭÒ£
ÑĢÐ°Ð¼ Ð¿
Ðµ ÑĨ
Ñį ÑĤ
ĠÐĲÐ» Ð´Ð°ÒĵÑĭ
Ð°ÑĪ ÐºÐµÐ½ÑĤ
ĠÐ¾Ð½ Ð´Ð°ÒĵÑĭ
Ġ0 9
ĠÑĤÓ©Ð»ÐµÑĥ Ð³Ðµ
ĠÐŁÑĢ Ð¾ÐºÑĥÑĢ
ĠÐ±Ð¾Ð»Ð¼ Ð°Ñģ
ĠÑĤÐ°Ð¿ÑģÑĭÑĢÐ¼ Ð°Ð½Ñĭ
ĠT oday
ĠÐºÐµÒ£ ÑĸÑģÑĤÑĸ
ĠÐ¾ÒĽÑĭÑĤÑĥ ÑĪÑĭÑģÑĭ
ĠÐ¾ÑĢ Ð´ÐµÐ½
ĠÐ¼Ò¯ Ð»Ð´Ðµ
ĠÒĽÐ¾Ð¹ Ð¼
ÑĤÐ°Ð¹ Ð¼ÑĭÐ½
ĠÑĢÐµÐ¶ Ð¸ÑģÑģÐµÑĢ
ĠÒ± ÒĵÑĭÐ½
ĠÒ¯Ð¹ ÑĸÐ½ÑĸÒ£
ÐŃ ÐļÐ¡ÐŁÐŀ
. Â»
Ð°Ð² ÑĢ
ĠÑĪÐ°ÒĽÑĭÑĢ Ð°Ð´Ñĭ
ÐµÐ½ Ð´
ĠÑĤÐ°Ð»Ð°Ð¿ ÑĤÐ°ÑĢÐ´Ñĭ
ĠÐ½ÓĻÑĤÐ¸Ð¶ ÐµÐ»ÐµÑĢÑĸÐ½
ĠÑįÐºÐ¾Ð½Ð¾Ð¼Ð¸Ðº Ð°ÑģÑĭ
ĠÒļÐ°Ð½ Ð°ÑĤ
ĠÐ¶ÑĭÐ» ÒĽÑĭ
ĠÐ¼Ò¯Ð´ Ð´ÐµÐ»Ñĸ
ĠÐ¶Ð°Ñģ ÑĤÐ°ÑĢÑĭ
ĠÐ¶Ò¯ÑĢ Ðµ
ĠÒĵÑĭÐ»ÑĭÐ¼ ÑĭÐ½ÑĭÒ£
ĠÐ´Ð¸ÑĢÐµÐºÑĤÐ¾ÑĢ ÑĭÐ½ÑĭÒ£
ĠÑĤÒ¯Ð± ÐµÐ³ÐµÐ¹Ð»Ñĸ
. "
ĠÐ¾Ð¿ÐµÑĢÐ°ÑĨÐ¸Ñı Ð»Ð°ÑĢ
Ð°Ò» Ð°ÑĢ
ĠÐºÑĸÑĤÐ°Ð¿ÑħÐ°Ð½ Ð°ÑģÑĭ
ĠÐ¼ÓĻÑģÐµÐ» ÐµÐ³Ðµ
ĠÐºÐ¾Ð½ Ð²
Ð¼ÐµÐ½ ÑĤÐ°ÑĢ
Ð´ÑĸÐº ÑĤÑĸ
ĠÐ¼Ð°Ð¼Ð°Ð½ Ð´Ð°ÑĢÐ´Ñĭ
ĠÐ°Ð³ÐµÐ½ÑĤ ÑĤÑĸÐº
ĠÐµ Ð³Ñĸ
ĠÐ°Ð¹ Ð¼Ð°ÒĵÑĭ
Ð¡ ÑĥÑĢÐµÑĤ
ĠÑģÐ°ÑĢÐ°Ð¿ ÑĪÑĭÐ»Ð°ÑĢ
ĠÑĤÐ°Ð¼ÑĭÐ· Ð´Ð°
ĠÐ´ÐµÐ¼ ÐµÐº
Ġ199 1
Ð°Ð¹ Ð·
Ð± Ð°Ð·
Ð°Ð»ÑĭÒĵ ÑĭÐ½ÑĭÒ£
ĠÐ¸Ð½Ð²ÐµÑģÑĤÐ¸ÑĨÐ¸Ñı Ð»Ð°ÑĢ
ĠÑĤÑĸÑĢÐºÐµÐ» Ð´Ñĸ
ĠÐ±Ð¾Ð»Ð´ÑĭÑĢ Ð¼Ð°Ñĥ
ÑĢ ÐµÑģÑģ
ÐµÐº ÑĨÐ¸ÑıÑģÑĭ
ÐºÐµ ÑĪ
ĠÐ¶Ð°ÑĢÐ¸Ñı Ð»Ð°ÒĵÐ°Ð½
ĠÑĤÐ°Ð±Ð¸Òĵ Ð°ÑĤÑĤÑĭ
ĠÐ°ÑĤ Ð¼Ð¾ÑģÑĦÐµÑĢ
ĠÐ¶Ð°ÒĽ ÑĤÐ°
ĠÐ¼Ð°Ð¼Ð°Ð½ Ð´ÑĭÒĽÑĤÐ°ÑĢ
ĠÑģÐ¸ ÑĭÑĢ
ĠÑĤÑĥÑĢ Ð¸ÑģÑĤÐµÑĢ
Ð¾Ð³ Ñĭ
ĠÐ·Ð¸Ñı ÑĤ
Ð´Ñĸ Ð±ÐµÐº
ĠÓĻÐºÐµÐ» ÑĸÐ¿
ÑĪ ÑĸÑģÑĸÐ½Ðµ
Ðļ ÑĸÐ¼
ĠÓĺ Ð»Ñĸ
ĠÑģÑĭÐ½ ÒĵÐ°
âĢ Ļ
ĠÑĢ Ð°Ð¹
ĠÐĸ Ò±
ĠÐŁÐ°ÑĢ Ð»Ð°Ð¼ÐµÐ½ÑĤÑĸ
ĠÐ´ Ñĥ
ĠÒļ ÐĲÐĹÐĲÒļÐ¡Ð¢ÐĲÐĿ
ĠÐ¶Ð°Ð· ÑĥÒĵÐ°
ĠÐ¼ÐµÐ· Ð³
ĠÒĽÐ¾Ð»Ð´Ð°Ð½ ÑĭÐ¿
ÐµÑĤÑĤ Ð°Ð½Ñĥ
ĠÒĽÐ°Ð» Ð´ÑĭÑĢÑĥ
ĠÐ±ÑĸÐ»ÑĸÐ¼ Ð½ÑĸÒ£
ĠÑĤÓ©Ð¼ÐµÐ½ Ð´ÐµÑĤ
ĠÑģÐ¸Ð¼ Ð²Ð¾Ð»
ÑĤ Ð°Ò£ÑĭÐ·
ĠÐ±Ð°Ñģ ÑĭÒ£ÑĭÐ·
ĠÒĽÐ°ÑĤÑĭÑģ Ð°ÑĤÑĭÐ½
ĠÐ¼Ð°ÑĤ ÐµÐ¼Ð°ÑĤÐ¸ÐºÐ°Ð»ÑĭÒĽ
ĠÒĽÐ°ÑĪ ÑĭÐ¿
ĠÐ¼Ð°Ð¼Ð°Ð½ Ð´Ð°ÑĢÐ´ÑĭÒ£
ĠÐºÓĻÑģÑĸÐ¿Ð¾ÑĢÑĭÐ½ Ð´Ð°ÑĢÐ´ÑĭÒ£
ĠÒĵÐ¸Ð¼Ð°ÑĢ Ð°ÑĤÑĭ
ĠÐ³Ðµ Ð¾Ð³ÑĢÐ°ÑĦÐ¸ÑıÐ»ÑĭÒĽ
ĠÑĪÑĭÒĵÐ°ÑĢÐ¼ Ð°Ð»Ð°ÑĢ
ĠÐ±Ð¸ ÑĸÐºÑĤÑĸÐ³Ñĸ
ĠÑĭÒĽ ÑĭÐ»
Ñģ ÑĸÐ½Ð´Ðµ
Ðĳ Ó©Ð»
ĠÑģÐ¾ ÒĵÐ°Ð´Ñĭ
Ð² Ð¾Ðº
ĠÐ°Ð´Ð°Ð¼ Ð½Ð°Ð½
ĠÒĽÐ¾Ñģ ÑĭÐ»Ð°Ð´Ñĭ
ĠÐ¶Ò¯ÑĢÐ³ÑĸÐ· Ð´Ñĸ
Ð³ ÑĸÐ»ÐµÑĢÑĸ
ĠÐ¼Ð°ÑĤ ÐµÑĢ
ÑĥÑĤ Ð¸Ð½
Òļ Ð°Ð»Ð°
ÑĪÐ°ÑĢ Ð°Ð»Ð°ÑĢÐ´Ñĭ
r am
ĠÓ©ÐºÑĸÐ» ÐµÑĤÑĤÑĸ
Ðĳ ÓĻÐ¹
ĠÐ°ÑģÑĭÑĢ ÑĭÐ»Ð°ÑĤÑĭÐ½
Ð°Ð½ÐºÑĤ ÑĸÒ£
Ð¿ÐµÐºÑĤ Ð¸Ð²
ĠÐ¶Ð¾ÑģÐ¿Ð°ÑĢÐ»Ð°Ð½ ÑĥÐ´Ð°
ĠÑĪ Ð°Ñħ
ÑĤÐ°ÑĢ Ð¼Ð°ÒĵÑĭÐ½Ð°
ĠÐ¿Ð°ÑĢ Ð»Ð°Ð¼ÐµÐ½ÑĤ
ĠÐ±Ð°ÑģÑĪÑĭÐ»Ð°ÑĢ ÑĭÐ½ÑĭÒ£
ĠÐ°Ð¹ Ð¼Ð°ÒĵÑĭÐ½Ð´Ð°
ĠÐĹ ÐµÑĢÑĤÑĤÐµÑĥ
ĠÐ°ÑĢÑĤ Ð°Ð´Ñĭ
ĠÐ± Ò¯Ð¹
ÑĤÐµ Ð·
Ð¢ Ó©Ð»
om e
inf o
ĠÐ¼ ÑĥÐ»ÑĮÑĤ
ĠÐ¾ÑĢÐ½ Ð°ÑĤÑĭÐ»ÒĵÐ°Ð½
ĠÐ¼Ð¾Ð½ Ð¾Ð¿Ð¾Ð»
ÑĢÐµÑģ ÑĥÑĢ
ĠÐ´ÐµÐ¼Ð¾ÐºÑĢÐ°ÑĤ Ð¸ÑıÐ»ÑĭÒĽ
ĠÐŀ ÑģÑĭÐ½ÑĭÒ£
ĠÒĽÒ±ÑĢÐ°Ð» Ð´Ð°ÑĢÐ´Ñĭ
ĠÐ¾ÑĢÐ½Ð°Ð»Ð°Ñģ ÑĥÒĵÐ°
Ð¶ Ò¯Ð¹
ĠÐĨ ÐĨÐľ
ĠX X
ĠÐ¶ÐµÑĤÐº ÑĸÐ»ÑĸÐº
ÑĭÐ¼ Ð½Ð°Ð½
ĠÐ¿ Ð°Ñģ
Ó©Ð» Ð´ÑĸÑĢ
ÐµÐ´ Ð¸ÑĨÐ¸Ñı
ĠÒ¯Ð¹ Ð´Ñĸ
ĠÑģÐ°Ð»Ð° Ð´Ð°ÒĵÑĭ
ĠÒ±Ð¶ÑĭÐ¼ Ñĭ
ÑĭÒĽ ÑĤÐ°Ð½
ĠÓ©Ð· ÐµÐºÑĤ
ĠÒĽÐ°ÑĢ Ð°Ñģ
ÑĮ ÑıÐ½
ĠÒĵÑĭÐ»ÑĭÐ¼ Ð´Ð°ÑĢ
ĠÒĽÑĭÐ· Ð´Ñĭ
ÐĿ Ðµ
ĠÒ¯ÐºÑĸÐ¼ ÐµÑĤÑĸ
Ð¶ Ò¯ÑĢÐ³ÑĸÐ·ÑĥÑĪÑĸ
ĠÑģÐ°Ð¿ Ð°
ÑģÑĤÑĢÑĥ ÐºÑĨÐ¸Ñı
ĠÐ±ÑĸÑĢ ÑĸÐ½Ð´Ðµ
ĠÐ±ÐµÑĢ ÐµÐ¼ÑĸÐ·
Ġ5 2
Ðĺ ÑģÐ»Ð°Ð¼
ĠÑĪÑĸÐ»Ð´Ðµ Ð´Ðµ
ĠÒĽÐ¾Ð» ÑĭÐ½Ð´Ð°
ÐµÑģÑĤ ÑĸÑĢ
ĠÐºÓ©ÑĪ ÑĸÑĢÑĥ
ÐºÐ¾Ð¼ Ð¼ÑĥÐ½Ð°Ð»Ð´ÑĭÒĽ
ĠÐ°Ð» Ð°ÑĢ
ĠÒĽÐ°Ð» Ð°Ð»Ð°ÑĢÐ´ÑĭÒ£
Ðº Ð¾Ð»Ð¾Ð³Ð¸Ñı
ĠÐ¶Ð°ÑĢ Ð°Ð¼
ĠÒĽÐ°Ð± Ð°ÑĤÑĤÑĭ
Ð¸Ðº Ð°Ñı
ĠÑĸÑģ ÑĸÐ½Ðµ
ĠÐĺ ÑĢ
Ġ8 5
ÑĨ ÐµÐ²
ĠÐ±ÑĸÐ» Ð´Ñĸ
ĠÐµÑģÐµÐ± ÑĸÐ¼ÐµÐ½
ÑĪÑĸÐ» ÐµÑģ
ĠÑĪÐ°ÑĢÑĥÐ°ÑĪÑĭÐ»ÑĭÒĵ ÑĭÐ½ÑĭÒ£
ĠÐ¡ Ò¯Ð»ÐµÐ¹Ð¼ÐµÐ½
ÑĸÐ»Ñĸ Ð³ÑĸÐ½Ðµ
ĠÐ±Ð°Ð» Ð°ÑģÑĭÐ½ÑĭÒ£
ĠÐ´ÓĻ Ð¿
ĠÒļ Ð¥
ĠÒĽÐ°ÑĤ Ðµ
ĠÐ£ Ð°ÒĽÑĭÑĤ
ĠÐ¾Ð¿ÐµÑĢ Ð°ÑĤÐ¾ÑĢ
ÓĻÐ¹ ÐºÐµÑģ
ĠÒ°Ð¹ÑĭÐ¼ Ð´Ð°ÑģÑĤÑĭÑĢÑĥ
Ñģ ÑģÐµ
ÐĨ Ð¥
ĠÐ¶ÑĸÐ±ÐµÑĢ ÑĸÐ»Ð³ÐµÐ½
m i
Ð» Ð¾ÑĢ
ÐĲ Ð¨
ĠÐ°Ñĥ ÑĭÑĤ
ĠÐ¶Ð°Ð½ Ò±Ñı
ĠÑĤÐ°Ð½ÑĭÑģ ÑĭÐ¿
ĠÑħÐ°Ð±Ð°ÑĢÐ»Ð°Ñĥ ÑĭÐ½ÑĪÐ°
Ð¤Ðŀ Ð¢Ðŀ
ĠÑģÓĻÑĥÑĸÑĢ Ð´Ðµ
ĠÐĸÐ¾Ð»Ð´Ð°Ñĥ ÑĭÐ½Ð´Ð°
ĠÑĤÐµÐ»ÐµÐ°ÑĢÐ½ Ð°ÑģÑĭÐ½ÑĭÒ£
Ð´ÓĻÑĢ Ð¼ÐµÐº
Ð±Ò±ÑĢ ÑĭÑĪ
ĠÐ¡ ÑĭÐ½
ĠÑĦ Ð¾Ð½
ĠÐ±ÑĸÑĤ ÑĸÑĢ
ĠÑĤÐµÑĤ ÑĸÐº
Ð¢ Ð¾Ð»
ÑĸÐ»ÐµÑĢ Ð´Ñĸ
ĠÐ¶Ð°Ð»Ð¿Ñĭ ÒĵÐ°
ĠÐ¸Ð³ ÑĸÐ»ÑĸÐ³Ñĸ
Ð¾ÑĢ Ð³Ð°Ð½
ĠÐ¢ Ðķ
Ð»Ñĸ Ð³ÑĸÐ¼ÐµÐ½
ĠÐĲÐ» Ð»
ĠÐ¶Ð°Ð± ÑĭÒĽ
ĠÒ± ÑĤÑĭÐ¼Ð´Ñĭ
ĠÑģÐ¾ÑĤ ÑĤÐ°Ð»ÒĵÐ°Ð½
ÑĤÐµ Ð³
ĠÑĤÒ± ÒĵÑĭÑĢ
ĠÑĭÒĽÑĤÐ¸Ð¼ Ð°Ð»
âĢ İ
ĠÑĤÐ°ÑĢ ÑĤÑĭÐ»ÒĵÐ°Ð½
ĠÒļÒ±ÑĢ Ð¼ÐµÑĤÑĤÑĸ
ĠÐļÐ¾Ð½ ÐºÑĥÑĢÑģ
ÑģÑĤÐ² Ð¾
ĠÐľÒ±ÑħÐ°Ð¼ Ð¼ÐµÐ´
Ð¶Ó©Ð½ Ñĸ
Ð½ Ð¾Ð·
Ð¾Ñģ ÑĭÐ½ÑĭÒ£
ĠÑĤÐ°Ò£ ÐµÑĢÑĤÐµÒ£
. :
Ð¡ Ð«
ĠÐ°Ð½ÑĭÒĽ ÑĤÐ°Ð»
ĠÓĻÐ½ Ð´ÐµÑĢ
ÐŁÐ£ ÐĳÐĽ
Ð¡ Ð°ÑĢ
Ñı ÑĤ
ĠÐ¼ÐµÐ½ ÑĪÑĸÐºÑĤÑĸ
Ġ5 6
ĠÑģÐ°Ð»ÑĭÒĽ ÑĤÑĭÒĽ
Ñģ Ð°Ð»ÑĭÑģ
ÐµÑĤ Ð°
ĠT V
ĠÐ¼Ð°ÒĽÐ°Ð» Ð°ÑģÑĭ
ĠÐ¿ÑĥÐ½ ÐºÑĤ
ÓĻ Ñĥ
Ð¸Ðº Ð°ÑģÑĭÐ½ÑĭÒ£
ĠÒĽÑĭÐ· Ñĥ
ĠÐ°ÑĤ ÑĭÐ½Ð°
Ġ ÒĵÐ°ÑĪ
ĠÐ¨ ÐµÑĤÐµÐ»
ĠÐ´ÐµÐ¼ ÐµÑĥ
ĠÐ½Ð¾ÑĢÐ¼ Ð°ÑĤÐ¸Ð²
Ð¸Ðº Ð°ÒĵÐ°
Ð¸ÑĦ Ð¸ÐºÐ°ÑĨÐ¸Ñı
Ð»Ð°Ð½ Ñĥ
ĠÑĪ Ð¸
ĠÐĳÐ¾Ð» Ð°ÑĪÐ°ÒĽ
ÐºÐµÑģ ÑĸÐ½
ĠÐ½Ð°ÑĢ Ð°Ð·
ĠÒļÐ¾ÑĢÒĵÐ°Ð½ ÑĭÑģ
Ð· Ð°Ð¹ÑĭÐ¿ÑĤÑĭ
Ð¡ÓĻ Ð»ÐµÐ¼
ĠÐ¿Ð°ÑĢÐ°ÒĽÑĪ Ð°ÑģÑĭÐ½Ð´Ð°
Ð½Ñĭ Ðµ
ĠÑĤÐ°Ò£ Ð±
Ġ199 2
ĠÐĲÒĽÐ¿Ð°ÑĢÐ°ÑĤ ÑĤÑĭÒĽ
ĠÐ¸Ð½ÑĤÐµÐ» Ð»ÐµÐºÑĤÑĥ
ĠÒļ Ð«ÐĹ
ĠÐļ Ð»
ĠÑģÑĥ Ð´Ñĭ
ĠÓ©ÐºÑĸÐ» ÐµÑĤÑĤÑĸÐº
ĠÐºÓ©ÑĢÑģÐµÑĤÐºÑĸÑĪ ÑĤÐµÑĢÑĸ
7 6
Ð°Ð¿ Ð°Ð½
ĠÑĤÐ°Ñģ ÒĽÑĭÐ½
ĠÑģÑĭÐ¹ Ð»ÑĭÒĽÑĤÐ°ÑĢ
ĠA r
ĠÒ±ÒĵÑĭÐ¼ Ñĭ
ĠÐºÐ¾Ð»Ð»ÐµÐ´Ð¶ Ñĸ
Ñģ ÑĤÑĭÒĽ
ĠÐĶ Ò¯Ð¹
ĠÐ¼Ð¸Ð½Ð¸ÑģÑĤÑĢ Ð»ÑĸÐº
ÐµÐ¼ÐµÐ½ ÑĪÑĸÐº
Ð± Ð°Ð½Ðº
ĠÑģÒ±ÑĢ Ð°Ð¹Ð´Ñĭ
ÐŃ Ð»ÐµÐºÑĤÑĢÐ¾Ð½Ð´ÑĭÒĽ
ĠÐ°ÑĥÐ´Ð°ÑĢ ÑĭÐ¿
ĠÑĤÑĸÐ· ÑĸÐ»ÑĸÐ¼
ÑģÑĤ Ð°ÒĵÑĭ
Ñħ ÐµÐ¼
ĠÐŁ ÓĻÐ½
ĠÐ¾Ð±Ð»ÑĭÑģ ÑĭÐ½Ð°
ĠÑĥÓĻ Ð´Ðµ
Ð¼Ð± ÐµÐ±Ð°Ð¿
Ġ ....
ĠÐľ Ð°ÒĵÐ°Ð½
ĠÑģÐ°Ñĥ Ð°ÑĤ
ĠÐ°ÑĤÒĽÐ°ÑĢ ÑĭÐ»ÒĵÐ°Ð½
ĠÑĦÑĢÐ°Ð½ ÑĨÑĥÐ·
5 2
Ñģ Ð°Ð¿
ÐµÐ½ Ðµ
ĠÐ±ÑĸÐ» ÐµÐ¼ÑĸÐ½
ĠÐ±Ð°ÑģÑĤÐ°Ð¼ Ð°ÑģÑĭ
ĠÑģ ÑĤÐ¸
ĠÐ¼ÓĻ Ò£Ð³ÑĸÐ»ÑĸÐº
ÑģÐ°Ñĥ Ð¸
ĠÐºÐµÐ·Ð´ÐµÑģÑĥ Ð»ÐµÑĢ
ĠÐ³Ðµ Ð¾Ð³ÑĢÐ°ÑĦÐ¸Ñı
ĠÐµÑĢ Ð»ÑĸÐº
ÐĲÐ¢ Ð«
ĠÐºÓ© Ð±Ñĸ
ĠÑģÐ°Ð»ÑĭÐ½ Ð°ÑĤÑĭÐ½
ĠÑĭÐ» ÒĵÐ°Ð»
ĠÐ¶ Ð°ÑıÑĥ
ÑĸÑĢ ÑĸÐº
ĠÒļ ÐĲÐĽ
Ð¢ ÑĥÑĢ
ĠÐ¿ÑģÐ¸Ñħ Ð¸ÐºÐ°Ð»ÑĭÒĽ
ĠÑģÐ°Ð½ Ð°Ð»Ð°ÑĤÑĭÐ½
ÑĤÑĸÐ½ ÑĸÑĪ
ĠÐºÐ¾Ð½Ñģ ÑĥÐ»ÑĮ
5 4
ÐµÐ½ Ð°
ÑĤÒ¯ ÑģÑĸÐ½
ĠÑĢ ÑĭÐ½
Ð¼ÑĭÑģ Ð°Ð»Ñĭ
ĠÐ´ÓĻÑĢ ÑĸÑģ
ÐĸÐµÑĢ Ð³ÑĸÐ»ÑĸÐºÑĤÑĸ
ĠÒĽÒ±ÑĢ ÒĵÐ°ÒĽ
ĠÑģÑĥ Ð´ÑĭÒ£
ĠÑĨ Ð¸ÐºÐ»
ĠÐ°Ò£ ÒĵÐ°ÑĢ
Ð¦ ÐĺÐ¯
ĠÐ±Ð°Ð» Ð°ÑģÑĭÐ½
ĠÑįÐº ÑĢÐ°Ð½
ÒĵÑĭÐ» ÑĭÒĽ
ÒĽÒ±Ð» ÑĭÒĽ
ĠÒĽÐ°ÒĵÐ¸Ð´ Ð°Ð»Ð°ÑĢÑĭ
ĠÑĢÐµÑģÑĥÑĢ ÑģÑĤÐ°ÑĢÑĭ
ĠÐĳ Ð¾ÑĢ
Ð¾Ð¼ ÑĭÑĪ
ĠÐµÐ¼ ÑħÐ°Ð½
ÑĭÒĵÑĭ Ð¿
Ð°Ð´ Ð¸Ð¹
Ð±Ó©Ð» ÑĸÐ¼
ĠÐºÓ© ÑĪÑĸ
ĠÐĲ Ð¿
ĠÐ°ÑĢ Ð°ÑģÑĭÐ½Ð°Ð½
ĠÐļ ÐµÐ´ÐµÐ½
ĠÒĽÐ°Ð½ ÑĪÐ°Ð¼Ð°
ĠÐºÐµÑĪ ÑĸÐºÑĤÑĸÑĢ
ÑĤ Ð°Òĵ
ĠÒĽÒ±ÑĢ ÒĵÐ°Ð½
ĠÑĢÐµÑĦÐµÑĢ Ð°ÑĤ
c e
ĠÑĪÐµÐ± ÐµÑĢÑĸ
ĠÐĳ ÐĲÐ¡
ĠÓ¨ Ò£ÑĸÑĢ
ĠÐ¿Ð¾Ñį Ð·Ð¸Ñı
ĠÑĤÐµÒ£ Ð³ÐµÐ½ÑĸÒ£
ÑĭÑģ ÒĽÐ°Ð½
ĠÓĻÐ» Ð³Ñĸ
Ġ5 1
Ð¾ÑĢÐ¼ Ð°ÑĤÐ¸Ð²ÑĤÑĸÐº
ĠÒĽÒ±Ð» Ð°Ð¿
Ð°ÑĢ Ð¼Ð°
ÑĦ ÑĥÐ»Ð»Ð¸Ð½
ĠÐ¾ÑĢÐ½ ÑĭÐ½ÑĭÒ£
ĠÑĤÐ°Ñģ ÑĤÐ°Ñĥ
Ġ %-
ÑĢÐ°Ð· Ð¸Ð»
ĠÐ±ÐµÐ»ÑģÐµÐ½ Ðµ
ÐµÐ½ ÑĤÑĢ
Òļ Ñĥ
ĠÒļÐ°ÑĢ ÑĥÐ»Ñĭ
ĠÐ°Ð»Ð¼Ð°Ð¹ Ð¼ÑĭÐ½
ĠÐ±Ð°Ñģ ÒĽÐ°Ð½
ÑĤÐ° Ðº
ĠÐ¢ Ð°Ð»Ð´ÑĭÒĽÐ¾ÑĢÒĵÐ°Ð½
Ñİ Ð½
ĠÐĺ Ð»ÑĮ
ĠÐµÒ£Ð±ÐµÐº ÑĤÑĸ
Ġ e
ĠÐŀ ÑĢÑĤ
ĠÑĤÐµÐ°ÑĤÑĢ Ñĭ
ĠÐ±Ð°ÑģÑĪÑĭÐ»ÑĭÒĽ ÒĽÐ°
ĠÐºÐ¾Ð¼Ð¿ Ð¾Ð½ÐµÐ½ÑĤ
ĠÑħÐ°Ð»ÒĽ ÑĭÐ¼ÑĭÐ·Ð´ÑĭÒ£
ĠÒ±ÑģÑĤÐ°Ð½ ÑĭÐ¼
ĠÑħÐ°Ð»ÑĭÒĽ ÑĤÑĭÒĽ
ĠÒĽÒ±Ð¶Ð°ÑĤÑĤÐ°ÑĢ ÑĭÐ½
ĠÑĪÐ°Ò£ ÑĭÑĢÐ°ÒĽ
ÑĥÐ½Ð¸ÑĨÐ¸Ð¿Ð°Ð»Ð¸ÑĤ ÐµÑĤ
7 2
ĠÐ² Ð¸Ð´Ðµ
ĠÐļÐ¾Ð¼ Ð¿Ð°Ð½Ð¸Ñı
Ó©Ð· ÐµÐ½
ĠÐ¶Ò¯ÑĢ ÐµÐºÑĤÐµÐ½
ĠÐ±Ð¸ Ð´Ð°Ð¹
Ð°Ð»ÑĮ Ð´Ñĭ
Ð´ÓĻ ÑĥÑĸÑĢ
ĠÐ¶ Ð°Ð´
Ðľ Ð°Ð¼Ð°Ð½
ĠÐ¸ Ð·
ÑĸÐ»Ñĥ ÑĸÐ½Ðµ
ÐµÐ¿Ð°ÑĢ ÑĤÐ°Ð¼
ĠÒĽÐ¾Ð» Ñĭ
ĠÐ¾ÑĢÐ³Ð°Ð½ ÒĵÐ°
ĠÐºÐµÐ·ÐµÒ£ Ð³Ðµ
ĠÑĢÓ©Ð» ÑĸÐ½
ÑĪ ÐµÐ²
ĠÐ±Ð°Ñģ ÑĪÑĭÐ»ÑĭÒĵÑĭ
ĠÒĽÒ±ÒĽÑĭÒĽ ÑĤÐ°ÑĢ
ĠÑĩÐµÐ¼Ð¿Ð¸Ð¾Ð½ Ð°ÑĤÑĭ
ĠÐ·Ð¸ÑıÑĤ ÐºÐµÑĢÐ»ÑĸÐº
ĠÐľ Óĺ
ĠÒĽÐ°ÑģÐ¸ ÐµÑĤ
Ð¾ÑĢ Ðº
Ð´Ð°Ð½ ÑĭÐ¿
ĠÐ³ ÑĢÐ°Ð´
Ġ199 3
ĠÑģÐ°Ð± Ð°ÒĵÑĭ
ĠÑĭÐ½ÑĤÑĭÐ¼Ð°ÒĽÑĤÐ°ÑģÑĤÑĭÒĽ ÑĤÑĭ
ĠÐļÐ¾Ð½ÑģÑĤÐ¸ÑĤÑĥ ÑĨÐ¸ÑıÐ»ÑĭÒĽ
ĠÐŀÒĽÑĥÑĪÑĭÐ»Ð°ÑĢ Ð´Ñĭ
ÐµÐ½ ÑĸÐ¿
ÑĤÑĢ Ð¾Ð¿
ĠÐ·ÐµÑĢÑĤ ÑĤ
ĠÒĽÐ°Ð»Ð° Ð´Ð°ÒĵÑĭ
7 9
ÑĤ ÑĤÑĸÐº
ĠÐ½ÐµÐ³ÑĸÐ· Ð´ÐµÐ»
ĠÑįÐº Ð¾Ð»Ð¾Ð³Ð¸Ñı
ĠÐ¿ÑĢÐ¾ÑĨ ÐµÑģ
ĠÐ±Ð°Ð¹ÒĽÐ°Ñĥ ÒĵÐ°
ĠÐºÑĸÑĢ Ð³ÐµÐ½
Ò® Ð»ÐºÐµÐ½
ÑĦ Ð¸Ð»ÑĮÐ¼
ĠÐ±Ð°Ð¹ÒĽÐ°Ñĥ ÑĭÐ½ÑĭÒ£
Ð°Ð½ ÑĤÑĤÐ°ÑĢ
Ð°ÑĥÑĭ ÑĤÑĭ
Ð¸ÑĤÐ¾ÑĢ Ð»ÑĭÒĽ
ĠÐ¨ Ð°Ð»
Ð¸Ð· Ð¸Ð½Ð³
Ð°ÒĽÑĤÐ°ÑĢ ÑĭÐ½
Ð°Ð»ÑĭÒĵ ÑĭÐ¼ÐµÐ½
Ð¾ Ñį
ĠÐ± ÐµÑĤÑĸ
ĠÐ¶Ð°ÑĢ ÑĭÐ»
ĠÐµÐ½ Ð³iÐ·
ĠÑĤÑĥ ÑĭÐ»ÒĵÐ°Ð½
Ġ25 0
ÑĸÐ» Ð¼ÐµÐ¹Ð´Ñĸ
Ðľ ÑĸÐ½Ðµ
ĠÐ³ Ð¸Ð´
ÑģÐ°ÑĤ ÑĤÑĭÒĽ
ÑĤÑĭÐ» Ð´Ñĭ
Ġ6 8
ĠÐ¡Ð¾Ð» Ð°ÑĢÐ´ÑĭÒ£
ÒļÐ°ÑĢ Ð¶Ñĭ
ĠÐ¶Ò±ÑĢÑĤ ÑĪÑĭÐ»ÑĭÒĽ
ĠÑģÒ¯Ð¹ÑĸÑģÐ¿ÐµÐ½ ÑĪÑĸÐ»ÑĸÐº
Ð¢ Ð°Ð»
Ġ4 1
ĠÐ¶Ð¸Ð½ Ð°ÒĵÐ°Ð½
ĠÐºÐµÐ·Ð´ÐµÑģ ÑĥÑĸ
ĠÐ¾ ÑĤÑĭÐ·
ĠÐ¶Ð¾ÑģÐ¿Ð°ÑĢ Ð»Ð°ÑĢÑĭ
ĠÐ´Ð¾Ð» Ð»Ð°ÑĢÒĵÐ°
ÒļÐ°Ð½ Ð´Ð°Ð¹
Ð¶ÑĸÐº ÑģÑĤÐ°Ð½
ĠÒ± Ð¶ÑĭÐ¼Ð´ÑĭÒĽ
ĠÐºÓ©ÑĢ ÑĪÑĸ
ÒĽÑĭÐ» Ð´Ñĭ
ĠÐ°Ð¹Ð½Ð°Ð»ÑĭÑģ Ð°Ð´Ñĭ
ĠÑĤÑĢ ÐµÐ½Ð¸Ð½Ð³
ĠÐ¶Ð¾ÒĵÐ°Ð» ÑĭÐ¿
ÐĲ ÒĵÑĭÐ¼Ð´Ð°ÒĵÑĭ
ĠÐ¶ÑĭÐ» ÑĭÐ½Ð´Ð°
ĠÑį Ð¼Ð¾
ĠÑģÓ©Ð· Ð´ÐµÑĢÐ´ÑĸÒ£
ĠÑģÐ°Ð½ Ð´Ð°ÑĢ
iÐ» ÐµÐ´i
ĠÒĽÐ°Ð» Ð°ÒĵÐ°
ÑĤÐ°Ð¼ ÑĭÐ½
n d
ĠÐ¼Ð°ÒĽÑģ Ð°ÑĤÑĭÐ½
ĠÑģÒ¯ Ñİ
ĠÐ¼ÐµÐºÑĤÐµÐ± ÑĸÐ½Ð´Ðµ
ĠÒļÐ°ÑĢÐ° ÑĪÐ°
Ð°Ñı ÒĵÑĭ
ĠÐ±Ó©Ð»ÑĸÐ¼ ÑĸÐ½Ðµ
ĠÐľ Ð°Ð½
ĠÐ¼ÐµÑĢÐµÐº ÐµÑģÑĸÐ½Ðµ
ĠÓ©Ð·ÐµÐ½ ÑĸÐ½ÑĸÒ£
ĠÐ´Ð°Ò£ ÒĵÑĭÐ»Ñĭ
ĠÐ¼ ÉĻ
ĠÐ±Ó©Ð» Ð¼Ðµ
ÑģÐ°Ñĥ ÑĭÒĽ
ĠÐ¼ÓĻÐ½ ÐµÑĢÐ»ÐµÐ¿
ĠÐ¶Ð°Ð»Òĵ Ð°ÑģÑĭÐ½
ĠÓ©Ð½ÐµÑĢÐºÓĻÑģÑĸ Ð±Ñĸ
Ñģ Ð¾Ð»
ÐĲÐ» Ð°Ð¹Ð´Ð°
ĠÐ¸Ð½ÑĦ Ð»ÑıÑĨÐ¸Ñı
ÐµÒ£ Ð±ÐµÐº
Ð¸ÑĤ Ð¼
Ð¶Ð¾Ð» Ð¾Ð²
ĠÐ´ÐµÒ£Ð³ÐµÐ¹ Ð³Ðµ
ĠÑģÓĻÑĤ ÑĤÑĸÐ»ÑĸÐº
Ð» ÑĭÐ»
ĠÐ¶Ð¾Ð» Ð´Ð°Ð¼Ð°
ĠÓĻÐ»ÐµÑĥ ÐµÑĤÑĤÑĸ
ĠÒĽÐ°Ð» Ð°Ð»Ð°ÑĢÑĭÐ½ÑĭÒ£
ĠÐ¶ÐµÒ£ ÑĸÑģ
ĠÒļ Ð°ÑĤÑĭÑģ
ĠÐĲ ÑģÐ°Ð½
200 8
ÐķÐ¡ ÐĨ
ĠÐºÒ¯Ð´ÑĸÐº ÑĤÑĸ
ÓĻÐ· ÑĸÐº
ĠÒĽÒ± Ð´Ð°Ð¹
ĠÑĤÓĻÑĢÐ±Ð¸ ÐµÑĪ
ÐµÑĪÐµ Ð³Ñĸ
Ð«ÐĿ ÐĲ
ĠÐ±ÑĸÑĤ ÐºÐµÐ½
Òļ ÐļÐŀ
iÐ½ ÐµÐ½
ĠÑĤÐ°Òĵ ÑĭÐ»ÑĭÐ¼
ÐľÓĻ Ò£Ð³ÑĸÐ»ÑĸÐº
ĠÐ¡ Ð¾ÑģÑĭÐ½
ĠÐµÑģÑĤ ÐµÐ»ÑĸÐº
ÐµÐ» Ðµ
ĠÒĽÒ±ÑĢ ÑĭÐ»Ð°Ð´Ñĭ
ĠÓ¨ Ð»ÐµÒ£
ĠÐ±Ð¾Ð»Ð¼ Ð°Ð´Ñĭ
ĠÐ¿ÐµÑĢ Ð·
r a
Ð¾ÑĢ Ð´ÑĭÒ£
Ð¶ Ò¯ÑĢ
ĠÐĸ Ò¯ÑģÑĸÐ¿
ĠÐºÐµÐ· Ñĸ
ĠÐ´Ð°Ð¼ ÑĭÑĤ
ĠÐ¼Ð°Ð¹ Ð´Ð°Ð½
ĠÐ¢ ÑĸÑĢ
ĠÓ©Ò£ÑĸÑĢ Ð´Ðµ
ĠÑĤÐ°Ð· Ð°Ð»Ð°Ñĥ
ĠÐĲ Ð£
ĠÐ¼ÓĻÐ¼ ÑĸÐ»
ĠÐĳ ÑĢ
ĠÑĤÐ°Ð± ÑĭÑģÑĤÐ°ÑĢ
ĠÒĽÒ±ÑĢÑĭÐ»ÑĭÑģ ÑĭÐ½Ð°
Ð¸Ð´Ð°ÐºÑĤ Ð¸ÐºÐ°Ð»ÑĭÒĽ
Ġ â
Óĺ ÐºÑĸÐ¼
ĠÑģÐ°Ð»ÑĭÑģÑĤÑĭÑĢ Ð¼Ð°Ð»Ñĭ
ÑģÐµÐ¹ ÑĸÑĤ
ĠÐ± ÓĻÐ¹
ÑĭÐ½ ÑĪÑĭ
ĠÑĤÓĻ ÑĤÑĤÑĸ
ĠÒĽÑĭÑĢ ÒĵÑĭÐ·
ĠÐºÐ»ÑĥÐ± ÑĭÐ½ÑĭÒ£
ÑĤÑĭÑĢ ÒĵÐ°Ð½
ĠÐŀ Ð´Ð°ÒĵÑĭÐ½ÑĭÒ£
ĠÑģÓĻ Ð»
ĠÐ¶ÐµÑĤÑĸÑģÑĤÑĸÐº ÑĤÐµÑĢÑĸ
Ðº Ñĥ
ĠÐ± ÑĢÐ¸ÑĦÐ¸Ð½Ð³
Ð¶ ÑĭÐ»Ð´Ñĭ
ĠÐ°Ð» Ð´ÑĭÒĽ
ĠÐ°Ð½ Ð°Ð¼
ĠÑĤÒ¯ÑģÑĸÐ½ ÑĸÐ³Ñĸ
ĠÐ°Ð¿ÑĤÐ° Ð´Ð°
ĠÐ±Ð°ÑģÐ¿Ð°Ð½ Ð°
ÐµÐºÑĤ ÑĸÐº
ĠÑĤÒ±Ð» ÒĵÐ°Ð½Ñĭ
ĠÐ¶ÑĭÑĢ Ð°Ñĥ
ĠÑĤÐ°Ð¼Ð°ÒĽ ÑĤÐ°Ð½
ĠÑħÐ°Ð½Ð´Ñĭ ÒĵÑĭÐ½ÑĭÒ£
Ð¢ Ð°ÒĵÑĭ
Ð¸Ðº Ð°ÑģÑĭÐ½
Ð¡ ÐµÐ¹
ĠÐ¸Ð½ Ð´ÐµÐº
ĠÑģÒ±ÑĢ Ð°ÒĵÐ°Ð½
ĠÐĸÐ°ÑĢ Ð¸Ñı
ĠÒĽÐ°ÑĤÑĭÐ½ Ð°ÑģÑĭ
ĠÐ´ÐµÐº Ð»Ð°ÑĢÐ°ÑĨÐ¸Ñı
Ġ ;
Ð¨ ÐµÑĤÐµÐ»
ĠÑĸÑĪ ÑĸÐ¿
ĠÐ¾ÑĢÐ³Ð°Ð½ Ð´Ð°ÑĢÑĭÐ½Ð°
ĠÐµÑĢÐµÐ¶ ÐµÑģÑĸÐ½
ĠÐĺÑģ Ð¿Ð°Ð½Ð¸Ñı
ĠÑģÐ°Ð½ ÐºÑĨÐ¸Ñı
ĠÐ±ÐµÐ»ÑģÐµÐ½Ð´Ñĸ Ð»ÑĸÐ³ÑĸÐ½
ĠÐ±Ð¾Ð»Ð°ÑĪÐ°ÒĽ ÒĽÐ°
ĠÐļÓ©Ð¿ ÑĤÐµÐ³ÐµÐ½
ĠÑĤÐ°Ð» Ð°Ð½ÑĤÑĤÑĭ
ĠÐ¼Ò¯Ð¼ÐºÑĸÐ½Ð´ÑĸÐº ÑĤÐµÑĢ
ĠÒĽÒ±ÑĢÑĭÐ»ÑĭÐ¼ ÑĭÐ½
ÑĤÐ°Ð½ ÑĭÐ¼Ð´ÑĭÒĽ
ro s
ĠÑģÐµÐ¿ ÑĤÑĸÐ³ÑĸÐ½
Ñģ ÓĻ
ĠÐ¶Ò¯ Ð³ÑĸÑĢ
ĠÐ¼ÐµÐ·Ð³ ÑĸÐ»Ð´Ðµ
Ð± Ð°ÑĤÑĤÑĭ
ĠÐĳ ÐµÐ¹Ð½
ĠÐľ Ðµ
ĠÒĽÐ°Ð¹ ÑĪÑĭ
Ñ ĳ
Ġ n
ÐĽ ÐĨ
ĠÒ±ÑĢÐ¿Ð°ÒĽ ÑĤÑĭÒ£
ĠÐ¶ÑĭÐ»Ð´Ð°Ð¼ Ð´ÑĭÒĵÑĭ
ĠÑĤÐ°Ð½Ñĭ ÑĤÑĭÐ¿
ĠÐµÑĢ ÑĸÐºÑĤÑĸ
ÓĻÑĢÐµÐº ÐµÑĤÑĸ
ĠÐľÐ°ÑĢ Ð°ÑĤ
ĠÓĻÐ»ÐµÑĥ ÐµÑĤÑĸÐ½
o b
ĠÐ¾ Ð´Ð°ÒĵÑĭ
ĠÐ°ÑģÑĭÑĢ Ð°Ð¿
ĠÓ©Ð·Ð³ÐµÑĢ ÑĸÐ¿
ÑĢÐ°Ð¼ Ð¼Ð°
ĠÐ¾Ð±ÑĬÐµÐºÑĤ ÑĸÑģÑĸ
Ð¾ ÒĵÐ°Ð½
ĠÐ±ÑĸÑĢ ÑĤÒ±ÑĤÐ°Ñģ
ĠÐ±ÐµÑĢ ÐµÐ¼ÑĸÐ½
ÐĶ ÓĻ
ÑĥÑĢ ÐµÑĤÑĤÐµÑĢ
ĠÐ· Ð°ÑĥÑĭÑĤÑĭ
ÒĽÑĭ ÒĵÐ°
ĠÐºÐ¾ÑĢÐ¿Ð¾ÑĢ Ð°ÑĨÐ¸ÑıÑģÑĭ
ĠÐ°Ð¹ÑĭÑĢÐ¼Ð° ÑĪÑĭÐ»ÑĭÒĵÑĭ
ĠÑĤÐ°Ð± ÑĭÑģÑĭ
ĠÒļÑĭÐ· Ð¼ÐµÑĤ
Ð¢ÐµÐ³ ÑĤÐµÑĢ
ĠâĢ º
ĠÐµÑĢ Ð»ÐµÑĢ
ĠÒĽÐ¾ÒĵÐ°Ð¼ ÒĵÐ°
ĠÐ¼Ð°ÒĵÐ»Ò±Ð¼ Ð°ÑĤ
Ðĳ Ð°ÑıÐ½
Ð½ Ð´Ð°Ð¹
ĠÐ¿Ð°Ð¹Ð´Ð°Ð»Ð°Ð½ ÑĭÐ»Ð°ÑĤÑĭÐ½
ĠÐ±Ð°ÒĽÑĭÐ»Ð°Ñĥ ÒĵÐ°
ÐµÐ¼ ÐµÐ½Ð´Ñĸ
Ð¡ Ð°ÒĽ
ĠÐ¶ÐµÑĢ Ð´ÐµÐ³Ñĸ
ĠÐ¶ÐµÒ£ÑĸÐ» Ð´ÐµÑĤ
ĠÐŀÒĽÑĥÑĪÑĭÐ»Ð°ÑĢ ÒĵÐ°
ĠÑģÐ¸Ð¼ Ð¿
ĠÐĳ ÐŀÐĽ
Ð¸ÑĤ Ð¾ÑĢÐ¸Ñı
ĠÐ¼Ò± ÑħÐ¸ÑĤ
ĠÐ¼Ò¯Ð´Ð´Ðµ Ð»ÐµÑĢÑĸÐ½
Ò±ÑĢ ÑĭÒĽ
ĠÐ¡ ÓĻÑĢ
ĠÐ» Ð°ÑģÑĤÐ°Ð½
ĠÐ¼ÓĻÑģÐµÐ» ÐµÑģÑĸÐ½Ðµ
ĠÐ°Ð½ÑĭÒĽ ÑĤÐ°Ð´Ñĭ
ĠÐ±ÐµÐ¹Ð½ ÐµÑģÑĸ
ĠÐ±Ð°ÑģÑĤÐ°Ð¼ Ð°ÑģÑĭÐ¼ÐµÐ½
ĠÐ¿ÑĢÐ¾ÑĦ Ð¸Ð»
ĠÒļÐ¾Ñģ ÑĭÐ¼ÑĪÐ°
ÑĤ Ð¾Ðº
ĠÐ½ ÐµÐºÐµ
ĠÐ¶ÐµÑĤ ÑĸÐ¼
ĠÑģÐ°ÒĽ ÑĤÐ°Ð¹
ĠÐ°Ð¹ÑĤÒĽÐ°Ð½ Ð´Ð°Ð¹
ĠÑĤÐ°ÒĵÐ´ÑĭÑĢ Ñĭ
9 5
ĠÑģÐ°Ð» Ð°Ð»ÑĭÒĽ
ÑĸÑģÑĤÐµÑĢ Ð´Ñĸ
Ð¸Ð³ Ð°ÑĨÐ¸Ñı
Ð±Ð°Ð± ÑĭÐ½Ð°
ĠÓĻÐ»Ð´Ðµ ÒĽÐ°Ð¹Ð´Ð°
ÑĤÐ°ÑĢ Ð¸Ñħ
ĠÓĻ Ð¼Ð±ÐµÐ±Ð°Ð¿
ĠÐ±ÐµÑĢ Ð¼ÐµÐ¹
Ðľ Ðĸ
Ð»Ð°Ð½ ÑĭÑģ
Ð¨ ÒļÐŀ
ĠÒĽÒ±ÑĢÐ°Ð¼ Ð´Ð°Ñģ
ĠÐ¶ÐµÑĤÐºÑĸÐ»ÑĸÐº ÑģÑĸÐ·
i e
ĠÐ¾ Ð±ÑĢÐ°Ð·
Ðļ Ð°Ð½
ÐĳÒ± ÒĵÐ°Ð½
ĠAl l
Ð» ÐµÐ¹
Ð¾ ÒĽÑĭÑĤÑĥ
ĠÐ¾Ð¹ÑĭÐ½ ÑĪÑĭÒĽ
ĠÑĤÑĭÒ£ Ð´Ð°Ð¿
ĠÐ¿ÐµÑĢÑģ Ð¿ÐµÐºÑĤÐ¸Ð²
ÒĽ Ð°Ð»Ñĭ
ĠÐ°ÑĥÑĢÑĥ Ñĭ
ĠÐ½ÑĭÑģÐ°Ð½ Ð´Ð°ÑĢÑĭ
ĠÓ©Ð»ÐµÒ£ Ð´ÐµÑĢ
Ð¢Ò¯ÑĢ Ðº
Ð¢ ÐµÐ¼ÑĸÑĢ
ĠÐ°Ð´Ð°Ð¼ Ð·
ĠÑĤÐ°Ð± Ð¸ÒĵÐ°ÑĤÑĭ
iÐ»i ÐºÑĤi
Ð¸Ð¼ Ð°
ĠÐ¶Ò¯Ð¹ ÐµÐ³Ðµ
ĠÐĺ Ð¼Ð°Ð½
Ð½ Ñĸ
Ð´ Ð¾Ñģ
Ð°ÒĽ Ð°Ð½
ĠÐºÐµÐ» Ð¼ÐµÐ¹ÑĤÑĸÐ½
Ðł ÐµÑģÐ¿ÑĥÐ±Ð»Ð¸ÐºÐ°Ð»ÑĭÒĽ
ĠÐ±Ð°Ð¹Ð»Ð°Ð½ ÑĭÑģÑĤÐ°ÑĢ
Ð´Ñĸ Ð»ÑĸÐº
Ð°Ð´Ð° ÒĽ
ĠÑĤÑĥ ÑĭÐ¿
ĠÑĤÐµÐ» ÐµÐ´Ð¸
ĠÐµÑĪ Ð±ÑĸÑĢ
ĠÑĢÐµ Ð°ÐºÑĨÐ¸Ñı
ĠÐ¢Ó© Ð¼ÐµÐ½
ĠÐ°Ð²ÑĤ Ð¾
iÐ» Ð´i
ĠÒĽÐ°Òĵ ÑĭÐ¿
Ðº Ó©Ð»ÑĸÐº
ĠÐ´ Ð°ÑģÑĤÐ°ÑĢ
Ð³ÐµÑĢ Ð»ÐµÑĢÑĸ
on e
ĠÐ¿ Ð°ÑĢÐ°
ĠÐ¢ Ð°Ð¼
ĠÒ¯Ð¼ÑĸÑĤ ÐºÐµÑĢ
ĠÐµÑĢ Ñĸ
ĠÐ¶Ð¾ÒĽ ÒĽÐ°
Ġ8 00
ĠÒĽÒ±ÑĢÐ°Ð¼ Ð°
ĠÐ°ÒĽÑĭÐ½ Ð½ÑĭÒ£
ĠÐ¿Ð°ÑĤÑĢÐ¸ Ð¾ÑĤ
ĠÐµÐ» Ð¾ÑĢÐ´Ð°
ĠÐ³ ÑĢÐµÐº
iÐ½ i
ĠÐ±ÑĸÐ»Ð´ÑĸÑĢ ÐµÑĤÑĸÐ½
ĠÐ¶Ð°ÑĥÐ°Ð¿ÐºÐµÑĢÑĪÑĸÐ»ÑĸÐº ÐºÐµ
ÐµÐº ÐºÐµ
ĠÐ´Ò¯Ð½Ð¸ ÐµÑĤÐ°Ð½
ĠÒ±Ð¹ÑĭÐ¼Ð´Ð°ÑģÑĤÑĭÑĢ Ð°Ð´Ñĭ
ĠÐľ Ð¸Ð½
ĠÐ¶Ð¾Ð» Ð´Ñĭ
ÐµÐ¶ ÑĸÑĢ
ĠÐĿ Ð¸Ðº
ĠÒ¯Ð¹ ÑĸÑĢÐ¼
ĠÐ°Ð¹ ÑĤÑĭÑģ
ĠÓ©Ð· Ð³
ĠÐĸ Ð¾ÒĽ
ĠI I
ĠÐ°Ðº ÑĤÐµÑĢ
ĠÓ©Ð½ÐµÑĢ ÑĸÐ½ÑĸÒ£
Ò® ÐºÑĸÐ¼
ĠÐ±Ð°Ð· Ð°ÑģÑĭ
ĠÑĪÐ¸ÐºÑĸÐ· Ð°ÑĤ
e k
ĠÐ°Ð» ÑģÐ°
ĠÑĪÐ°ÒĽÑĭÑĢ ÑĭÐ¿
ĠÐļÐ¾Ð´ÐµÐº ÑģÑĤÑĸÒ£
ÑĸÑģÑĤ ÐµÐ½
ĠÐ¶Ð¾Ð» ÑĭÐ½Ð´Ð°ÒĵÑĭ
Ðĺ ÓĻ
ĠÒĽÒ±ÑĢ Ð°Ð»ÒĵÐ°Ð½
ÐĴ Ðĺ
ĠÐ¼ÐµÑĢÐ· iÐ¼
ĠÐ°ÑģÑĭÑĢÑĥ Ð´ÑĭÒ£
ĠÐ¼Ð°ÒĵÑĭÐ½ Ð°ÑģÑĭÐ½
ÑĢ Ð¸Ð¹
Ð± ÐµÐ¹ÑĤÑĸÐ½
ĠÒļ ÑĭÑģ
Ð¾ÑĤ Ð¸Ð²
ĠÑģÐµÐ½ Ð´ÐµÑĢ
ĠÑģÑĭÐ½ÑĭÐ¿ ÒĽÐ°
ÐľÐµÐºÑĤÐµÐ¿ ÐºÐµ
ĠÐĸÓĻÐ½ ÑĸÐ±ÐµÐº
200 7
Ð¼Ð°ÑĤ Ð¸ÐºÐ°Ð»ÑĭÒĽ
ĠÑĤÐ°Ð½Ñĭ ÑĤÑĥ
Ñĸ Ð±ÑĸÑĢ
Ðĳ Ðĺ
ĠÐ¸Ð½ Ð½Ð¾Ð²Ð°ÑĨÐ¸Ñı
ĠÑĥÐ°ÒĽÑĭÑĤ ÑĤÑĭ
ĠÐ°Ð¹ÑĭÑĢ ÑĭÑģÑĥ
ĠÒĵÐ¸Ð¼Ð°ÑĢ Ð°ÑĤÑĤÐ°ÑĢ
ÐŁ Ð¾Ð»
ÑĭÐ½Ð´Ñĭ ÑĢ
ĠÓĻÐ·ÑĸÑĢ Ð³Ðµ
ĠÐ°ÑĢ Ð°ÒĽ
ĠÓ©Ð· Ð´ÐµÑĢ
ĠÐ°Ð»Ð°Ò£ Ð´Ð°
ĠÐµÑģÑĤÑĸ Ð³ÐµÐ½
n ik
ĠÐ¶Ò¯ÑĢ ÐµÐ³Ñĸ
200 9
ĠÐ¡ÑĸÐ· Ð³Ðµ
ĠÐºÓ©ÑĢÐºÐµÐ¼ Ð´ÑĸÐº
ĠÑĤÐ°ÑĢ ÑĤÐ°Ð´Ñĭ
ÑĤÐ°Ñĥ ÑĪÑĭ
ĠÐºÓ©Ð± ÑĸÐ½Ðµ
ĠÑĤÑĥÑĭÐ½ Ð´Ð°Ð¹Ð´Ñĭ
ĠÒĽÐ°Ð½Ð°ÒĵÐ°ÑĤ ÑĤÐ°Ð½Ð´ÑĭÑĢÑĥ
5 1
Ð°ÑĢ ÑĥÑģÑĮ
Ð¶ ÑĸÐ³ÐµÑĢ
ĠÐŀÑĢ ÑĭÑģ
ĠÒ¯Ð· ÑĸÐ»
ĠÑħÐ°Ð»ÑĭÒĽ ÑĤÐ°ÑĢÑĭÐ½ÑĭÒ£
ĠÐ¼ÑĭÒ£ Ð´Ð°ÒĵÐ°Ð½
Ñģ iÐ·
ĠÐºÓ©ÑĢ Ð´ÑĸÐ¼
ĠÐĸÐµÐ» ÑĤÐ¾ÒĽÑģÐ°Ð½
Ð°Ð» ÑĤÑĥ
ĠÒĽÐ°Ð¼ ÑĤÑĭ
ĠÐ±ÐµÐ»ÑģÐµÐ½Ð´Ñĸ Ð»ÑĸÐº
ĠÐ°ÑĤ ÑģÐ°Ð»ÑĭÑģ
ĠÐ³ Ð¸Ð¿
ĠÐ´ÐµÒ£Ð³ÐµÐ¹ Ð»Ñĸ
ĠÐ¢Ò¯ÑĢ ÑĸÐº
ĠÐºÑĸÐ½ ÓĻÐ»Ñĸ
eb ook
ĠÑģÑĨÐµÐ½ Ð°ÑĢÐ¸Ð¹
ÑĪ Ñĥ
Ð¶ ÑĭÑĢ
Ð¡ Ó©Ð¹
ĠÑģÓĻ ÑĤÑĸ
ĠÐ°ÐºÑĤÑĸÐ»ÐµÑĢ ÑĸÐ½Ðµ
ĠÐºÐ°Ð½Ð´Ð¸Ð´Ð° ÑĤ
ĠÐ½Ð°ÑĢÑĭÒĵ ÑĭÐ½ÑĭÒ£
? ?
ĠÑĤÒ±ÑĢ ÑĥÒĵÐ°
ĠÒĽÐ¾Ð»Ð´Ð°Ð½ Ð±Ð°Ð»Ñĭ
ĠÑĤÐµÒ£ Ð´ÐµÑĥ
ĠÐ¼ÓĻÐ´ÐµÐ½Ð¸ ÐµÑĤÑĤÑĸ
ĠÐĲÑĥÒĵÐ°Ð½ ÑģÑĤÐ°Ð½
Ðķ ÑģÑĤÐµÑĢÑĸÒ£ÑĸÐ·Ð³Ðµ
ĠÐ± Ð¾
ĠÐ¶Ò¯Ðº ÑĤÑĸ
ĠÐ¼Ð°ÒĽÑĤÐ°Ð½ ÑĭÑĪ
ĠÑĦÐµÑģÑĤÐ¸Ð²Ð°Ð» Ñĸ
ĠÓĻÑĢ ÐºÑĸÐ¼
ÑģÑĤÑĸ Ð³Ñĸ
ĠÓ¨Ð· ÑĸÐ½
ĠB aq
Ðº Ð¾ÑĢ
ÒĽÑĭÐ· Ð¼
ĠÑįÐ½ ÑĨÐ¸ÐºÐ»Ð¾Ð¿
ÐµÐ· ÒĽÐ°Ð·
Ð¢ Ð°Ð½
ĠÑģÓĻÑĥÑĸÑĢ Ð´ÐµÐ³Ñĸ
Ð¶Ð°Òĵ Ð´Ð°Ð¹
Òĵ Ð°Ð¿
ÐµÐ³ÑĸÐ½ ÐµÐ½
ĠÐķÐºÑĸ Ð±Ð°ÑģÑĤÒ±Ð·
Ð± Ð¸ÑĤ
Ð¾Ð» Ð»Ð°
ĠÐ¶Ð¾Ð» Ð´Ð°ÑĢ
ĠÐ´ÐµÐ¹ iÐ½
ĠÐ°Ð»Ñĥ ÑĭÐ½Ð°
ĠÐµ Ð´ÓĻÑĥÑĸÑĢ
ĠÐ½ Ð°ÒĽ
ĠÓĻÐ·ÑĸÑĢ Ð»ÐµÐ½
Ð¶ÑĭÐ» Ñĭ
ĠÐºÑĥÑĢÑģ ÑĤÑĭÒĽ
Ð°Ð³ Ð¾Ð½
ÐĲÐ» ÒĵÐ°ÑĪÒĽÑĭ
ĠÐĲ ÑĤÐ°Ð»Ð¼ÑĭÑĪ
ÐŃ Ðŀ
ĠÐ±Ò±Ð· ÑĭÐ»ÒĵÐ°Ð½
ÑģÑĤÑĢ Ð°Ð»
ÑĤÑĸÐ½Ð´Ðµ Ð¿
Ð¸ ÐµÑĤ
ĠÐ¼ÐµÐ½ ÑĪÑĸ
ÒĽÐ°ÑĢ ÑģÑĭ
ĠÒĽÐ°ÑĢÐ°ÑģÑĤÑĭÑĢ ÑĭÐ»Ð°Ð´Ñĭ
ĠÒĽÐ°ÒĽ Ð¿
P O
ÐµÐº ÑĤÐµÑĢ
ĠÐ°Ð²ÑĤ Ð¾Ð½Ð¾Ð¼
ĠÑģÑĭÐ¹ Ð»ÑĭÒĵÑĭÐ½ÑĭÒ£
ĠÐº ÐµÐ½ÑĤÑĸ
ĠÑĦÐ°ÐºÑĥÐ»ÑĮÑĤ ÐµÑĤÑĸÐ½ÑĸÒ£
ĠÐ±Ð¾Ð» Ð¼ÑĭÑģ
ĠÒļ Ð°ÑĪ
ÓĻÐ»Ð¸ÑħÐ°Ð½ Ð¾Ð²
ĠÐ¶Ð°ÑĢ Ð°Ð¼Ð´Ñĭ
ĠÓĺÐ´Ñĸ Ð»
ÑĸÐ½ ÑĸÐ¿
Ðĸ Ò±Ð»Ð´ÑĭÐ·
ĠÐ°Ð½ ÑĤ
ĠÐ±Ð°ÒĵÐ´Ð°ÑĢÐ»Ð°Ð¼ Ð°Ð»Ð°ÑĢÐ´Ñĭ
ĠÐ°ÑĪÑĭÐ» ÑĭÐ¿
ĠÒĽÐ°ÑĤÑĭÐ½Ð°Ñģ ÑĤÐ°ÑĢÐ´Ñĭ
9 8
ÒĵÐ°Ð½ ÑĭÐ½
ĠÑģÓ©Ð¹Ð» ÐµÐ¿
ĠÑĤÐ°Ð¼Ð°ÒĽ ÑĤÐ°Ð½Ñĥ
ĠÐ¸Ð½ÑĦÐ¾ÑĢÐ¼ Ð°ÑĤÐ¸ÐºÐ°
6 4
ĠÐºÐµÑĤ Ðµ
5 3
ĠÐ¶ ÑĥÑĢ
Ð¸ÑĤ ÑĮ
ÑĪÑĭ ÒĵÐ°
Ð¸Ð¼ Ð¸Ñı
ÑĤÑĭÐ» Ð°Ð´Ñĭ
ĠÐ¼Ð°ÑĤ Ñĩ
ĠÓ©ÐºÑĸÐ» Ð´ÐµÑĢÑĸÐ¼ÐµÐ½
ĠÐ°ÑģÐ¿ ÐµÐºÑĤ
ĠÒļ Ðŀ
ÓĺÑĢ Ð±ÑĸÑĢ
Ðŀ Ðĵ
ĠÓĻÐºÑĸÐ¼ ÑĪÑĸÐ»ÑĸÐ³Ñĸ
ĠÐ±ÓĻÑĢ ÑĸÐ½Ðµ
ĠÓĺÐ± Ð´ÑĸÑĢ
ĠÐľÐ°ÒĽ ÑģÐ°ÑĤÑĭ
ĠÓ©Ð½Ð´ÑĸÑĢ ÑĸÑģÑĤÑĸÒ£
Ð¼ÐµÐ½ÑĤÐ°ÑĢ Ð¸Ð¹
ĠÑĪ Ð°ÑĤ
Ð´Ð°Ð½ Ð°
Ð°Ð»Ð°ÑĢ ÑĭÐ¼ÐµÐ½
ÐľÓĻ ÑĤÑĸÐ½
ĠÐ±Ò¯Ð»Ð´ÑĸÑĢ ÑĪÑĸÐ½
ÑĤÐ°ÑĢ Ð´Ð°Ð½
Ð¾Ð± ÑĭÐ»
Ðĵ Ðµ
ĠÐ´ÐµÐ½ÑģÐ°Ñĥ Ð»ÑĭÒĵÑĭÐ½
ĠÐĳ Ð°ÒĽ
ĠÐºÐµÒ£ ÐµÑģÑĤÑĸÒ£
ÑĢÐ¸ Ð³
ĠÐĲÑģÑĤÐ°Ð½Ð° Ð´Ð°ÒĵÑĭ
ÑĥÐ½Ð¸ÑĨÐ¸Ð¿Ð°Ð»Ð¸ÑĤ ÐµÑĤÑĤÑĸÒ£
ĠÐĿ ÑĮÑİ
ĠÑįÐº ÑģÐº
ĠÐºÐµÑĤ ÑģÐµÐº
ĠÒĽÐ°Ñĥ Ð»Ñĭ
ĠÐ´Ð°Ð¹ÑĭÐ½ Ð´Ð°Ð»ÒĵÐ°Ð½
ĠÐ°ÒĽÑĭÐ½ Ñĭ
ĠÐ±ÓĻÑģÐµÐºÐµÐ» ÐµÑģÑĤÑĸÐº
Ð°Ð»Ð°ÑĢ ÑĭÐ¼ÑĭÐ·
ÐµÑĢÐµÐº Ðµ
ĠÐĲÒĽ ÑĭÐ½
ÑĢ Ð°Ð¸
Ð´Ñĭ Ð¼ÐµÐ½
Ð»ÑĭÒĽ Ð¿ÐµÐ½
ĠÐ½ÑĭÑģÐ°Ð½ Ð°Ð»Ñĭ
ĠÐ°ÒĽÐ¿Ð°Ð½ Ð´Ð°
ÑĤÐ°Ð½ Ð´ÑĭÑĢÑĭÐ»ÒĵÐ°Ð½
ĠÑĤÐ°Ñģ ÑĤÐ°Ð´Ñĭ
ĠÓ©ÑĤÑĥ Ð³Ðµ
ĠÐ°ÑĤ Ð¾Ð¼
ÓĻÐº ÓĻÑĢÑĸÐ¼
Ð¿ Ð°Ñĥ
ĠÒĽÐ°Ð¹ Ñģ
ĠÐĺ Ð·
Ð¿Ð¸ Ð´ÐµÐ¼
Ð°Ð½ ÑĮ
ÐµÐ½ Ð¸Ñı
ĠÐµÐ» Ð´ÐµÐ½
ĠÑĤÒ¯ÑĢ ÑĸÐ½Ð´ÐµÐ³Ñĸ
ĠÒĽÐ°ÑĤÑĭÑģ ÑĥÑĭ
ĠÐ¾ÒĽÑĥÑĪÑĭÐ»Ð°ÑĢ ÑĭÐ½Ð°
ĠÐ¸Ð½Ð²ÐµÑģÑĤ Ð¾ÑĢÐ»Ð°ÑĢ
âĸ º
ĠÐ¶Ò¯Ð¹ ÐµÐ»ÐµÑĢÑĸ
ĠÐµÐ»Ð´ÐµÑĢ ÑĸÐ½Ð´Ðµ
Ġ ÑĸÐ»ÑĸÐ¼
ĠÐºÓ©ÑĢÑģÐµÑĤÑĥ Ð´Ñĸ
ĠÐºÐ¾Ð´ÐµÐº ÑģÑĸ
ĠÐĲÐ´Ð°Ð¼ Ð½ÑĭÒ£
ĠÑĦÐµÑģÑĤÐ¸Ð² Ð°Ð»ÑĮ
Ð´Ñĸ Ð»
ĠÐ¡ ÑĭÐ½ÑĭÐ¿
ĠÐ¢ Ñĥ
ĠÓ¨ Ð½Ð´ÑĸÑĢ
ĠÐºÐ°ÑĢÑĤÐ¾Ñĩ Ðº
ĠÒĽÐ°Ð» Ð°ÑģÑĭÐ½Ð°Ð½
ĠÐ» ÐµÐºÑģ
ĠÐ´ÐµÒ£Ð³ÐµÐ¹ ÑĸÐ½ÑĸÒ£
Ð¼ÑĸÐ½ Ð´
ÐķÐ¢ ÐĨ
ĠÒĽÐ°Ð¹ÑĤÐ°ÑĢ Ñĥ
Òĵ Ð°Ð·
ĠÑħÐ°Ð±Ð°ÑĢÐ» Ð°Ñģ
ĠÒĽÑĭÑĢ ÑĭÒĽ
ĠÒĽÒ±ÑĤÑĤÑĭÒĽ ÑĤÐ°Ð¿
ĠÐľ Ò¯Ð¼ÐºÑĸÐ½
Ð»Ñĸ Ð³ÑĸÐ½Ð´Ðµ
Ð¸Ð¼ Ð¾Ð²
ĠÐ±Ð°ÑĢ Ð»Ð°Ñĥ
Ð°Ñı ÑĤ
ĠÐ¼ÓĻ Ò£Ð³Ñĸ
ĠÑĤÑĸÐ· ÑĸÐ¼ÑĸÐ½
ĠÑįÐºÐ¾Ð½Ð¾Ð¼Ð¸Ðº Ð°Ð½Ñĭ
ÐµÐ¹ ÑĨ
ÑģÑĤ Ð°ÑĦ
ĠÐ¼ÓĻÑģÐµÐ»ÐµÐ»ÐµÑĢ Ð´ÑĸÒ£
ĠÒ¯Ð· ÑĸÐ½Ð´Ñĸ
Ð¼ Ðº
ĠÒĴ Ð°Ð±
6 1
ĠÐ±ÐµÑĢ ÑģÐµ
Ò® Ð»
ĠÑĪÐµÐº ÑĤÑĸ
ĠÒ±Ð»ÒĵÐ°Ð¹ ÑĤÑĥ
A S
ĠÐŃ Ð½ÐµÑĢÐ³
200 5
ĠÑĦÐ¸Ð»Ð¾ÑģÐ¾ÑĦ Ð¸Ñı
ĠÑģ ÑĬÐµÐ·
Ð°Òĵ ÑĭÐ½Ð°Ð½
ĠÐ±Ð°Ñģ Ñĥ
ĠÐ¶Ð°Ð½ ÑĭÐ½Ð°Ð½
ĠÐ±Ð°ÒĵÐ´Ð°ÑĢÐ»Ð°Ð¼ Ð°Ð½ÑĭÒ£
ÑĥÑĪÑĭ ÒĵÐ°
ĠÐĽ Ð¾Ð½Ð´Ð¾Ð½
ĠÐ°Ð¼ÐµÑĢ Ð¸ÐºÐ°Ð»ÑĭÒĽ
ÒĽ Ð°ÑģÑĭÐ½
ÐķÐľÐĽÐķÐļ ÐķÐ¢Ð¢ÐĨÐļ
ĠÒĽÒ± ÑģÑĤÐ°ÑĢ
ĠÐ´ÑĢÐ°Ð¼ Ð°
ĠÐºÐµÐ· Ð´ÐµÐ½
ĠÒĽÐ°ÑĥÑĸÐ¿ÑģÑĸÐ·Ð´ÑĸÐº ÑĤÑĸ
ĠÐ¼Ð°ÑĢ Ðº
Ð´Ð°Ð¹ Ð¼ÑĭÐ·
ĠÐ±Ð¸ Ð»ÑĸÐ³Ñĸ
ĠÐºÐ¾Ð¾Ð¿ÐµÑĢ Ð°ÑĤÐ¸Ð²
ÑĤ ÐµÑģ
ĠÒļ Ð°Ð±ÑĭÐ»
ĠÐ°Ñĥ Ð¼Ð°ÒĵÑĭÐ½Ð´Ð°ÒĵÑĭ
ÑĭÑĤ Ð°Ð¹Ð´Ð°
ĠÐ¶Ð¾Ð± Ð°Ð»Ð°ÑĢÑĭ
ĠÐ¾ÑĢÑĤÐ°Ð»ÑĭÒĽ ÑĤÐ°ÑĢÑĭ
ĠÐ±ÐµÐºÑĸÑĤ ÑĸÐ»Ð´Ñĸ
ĠÐ¼ÐµÑĢÐ·ÑĸÐ¼ ÑĸÐ½
Ð³ÑĸÑĪ ÑĤÑĸÐº
ÐµÐ½ Ð¸Ð½
Ð¶ Ò¯Ð·
ĠÒļ Ð°Ð»Ð°Ð¹
ĠÐĸ Ò±Ð»Ð´ÑĭÐ·
ĠÑģÐ°Ð¿ Ð°ÑģÑĭÐ½Ð°
ÐľÒ±Ð½ Ð´Ð°Ð¹
6 3
ĠÑĪ Ó©Ð»
ĠâĢ ¢
ĠÒĽÐ°Ð· ÑĭÐ½Ð°
ĠÑĤÒ¯ÑģÑĸÑĢ Ð³ÐµÐ½
ĠÐ¼ÑĭÐ½ Ð°Ð»Ð°ÑĢ
ĠÐ¿Ð°Ð¹ÑĭÐ· ÑĭÐ½
ĠÐĹÐ°Ò£ ÑĭÐ¼ÐµÐ½
ĠÒĽÐ°Ð»ÑĭÐ¿ÑĤÐ°Ñģ ÑĥÑĭÐ½Ð°
ĠÐ´Ð¾ÐºÑĤ Ð¾ÑĢ
ĠÐ¶ÑĸÐ±ÐµÑĢ ÑĸÐ¿
ĠÐµÑģÑĸÑĢÑĤ ÐºÑĸ
p ort
ĠÑģÐ¾ ÒĽÑĤÑĭ
ĠÒĽÐ°Ñĥ Ð¿Ñĸ
ĠÒĽÐ°Ð»Ð´Ñĭ Ð¼
I X
ĠÒĽ Ð¸ÑıÐ»
ÐµÐ» ÐµÐ¹Ð´Ñĸ
ĠÑĦ Ð°Ð±ÑĢ
Ġ Æı
ÐµÑĥ Ð½
ĠÐ¶Ò¯Ð¹ ÐºÐµ
Ð¾ÑĢÑĭÐ½ Ð½ÑĭÒ£
ĠÓ©ÑĤÐº iÐ·
ĠÐ´ Ò±ÑĢ
Òļ Ð°ÑĤÑĭÑģ
Ðľ ÐµÐ¼Ð»ÐµÐº
ĠÐ°Ð½ Ð°Ð»
ÐµÐ´Ð°Ð³Ð¾Ð³ Ð¸ÐºÐ°
ÉĻ ÑĢ
Ò®ÑĪ ÑĸÐ½ÑĪÑĸ
ĠÒ±Ð¹ÑĭÐ¼Ð´Ð°ÑģÑĤÑĭÑĢ ÑĭÐ»ÑĭÐ¿
ĠÐºÐ»Ð¸Ð½ Ð¸ÐºÐ°Ð»ÑĭÒĽ
ĠÐ´Ð¸Ð¿Ð»Ð¾Ð¼Ð°ÑĤ Ð¸ÑıÐ»ÑĭÒĽ
Ð½ ÐµÐ³ÑĸÐ·
ĠÑĤ iÑĢ
ĠÐ¢ Ò¯Ð¹
ĠÒĽÒ±ÑĢ Ð°Ð¿
ĠÐł ÑĭÑģ
ĠÐ¼ÓĻÑģÐ»Ð¸Ñħ Ð°ÑĤÑĤÑĭÒ£
ÐµÑĤ ÑĸÐ¿
Ðŀ ÑģÑĭÐ»Ð°Ð¹ÑĪÐ°
ĠÑĤÐ¾ÒĽ ÑĤÐ°Ð»
ĠÐľÐ°ÒĽ ÑģÐ°ÑĤ
ĠÐ± Ð°ÑĤÑĭÐ»
ĠÐ¿ Ð°Ð½
ĠÓ©Ð· ÑĸÐ½ÐµÐ½
ĠÓ©ÑĤ ÐµÐ¼
ĠÑģÐ°Ð¹ ÑĭÑģÑĭ
ĠB ilim
ĠÐĸÐ¾Ð» Ð´Ð°ÑĥÑĭ
ĠÓ©Ð½Ð´ÑĸÑĢÑĥ ÑĪÑĸÐ»ÐµÑĢ
ĠÐºÐµÐ¿ ÑĸÐ»Ñĸ
ĠÐ±Ð¾ÑģÑĤÐ°Ð½ Ð´ÑĭÒĽ
ĠÐĳ Ð°Ð½ÐºÑĸ
ÑĮ ÐµÐºÑĤ
ĠÐł Ð°Ð¼Ð°Ð·Ð°Ð½
Ð±ÑĸÑĢ ÑĸÐ½
ĠÓ©Ð·Ð³ÐµÑĢ ÑĥÑĸ
ÐºÐµÑĤ Ð°Ð½Ñĥ
Ð±Ð¾Ð¹ ÑĭÐ½ÑĪÐ°
ĠÑĤÐ°ÑĢ Ð°ÑĤ
Ġ5 4
ĠÑĤÓĻÐ¶ÑĸÑĢÐ¸Ð± ÐµÑģÑĸÐ½
ac ebook
Ñĥ ÑģÑĤÐ°ÑĢ
ÐµÐ¼ Ðµ
ĠÐ°Ñģ ÑĭÒĽ
ĠÑĤÒ¯Ñģ Ñĸ
ĠÑĸÑĪ ÑĸÐ½Ðµ
ĠÐºÓ©Ð· ÑĸÐ½
ĠÑĤÐ¾ÒĽ ÑĤÐ°Ð»Ð´Ñĭ
ĠÓĺÑĢ Ñĸ
ĠÐ¾ÑĢÑĭÐ½Ð´Ð°Ð» Ð°Ð´Ñĭ
ĠÐ¼ÐµÑĤÑĢ Ð³Ðµ
)) )
ĠÑĢÐµÐ´Ð°ÐºÑĤ Ð¾ÑĢÑĭ
% )
ĠÑĪÑĭÐ½ Ð´ÑĭÒĽ
ÑĭÐ» ÑĥÒĵÐ°
Ð°Ð¿ Ð¸Ñı
ĠÐ´Ð°Ð¹ÑĭÐ½ Ð´Ð°Ð¿
ÑĭÐ» ÑĤÑĭÑĢ
Ð¾Ð½ Ð°Ð»
200 6
ĠÑĢÐµÑģÑĥÑĢÑģÑĤÐ°ÑĢ Ð´Ñĭ
Ñı Ð´Ñĭ
ÑĪÐ° ÑĪÑĭÐ½
ÐĿ Ðĺ
ĠÐ±Ð°ÒĵÐ°Ð¼ Ð´Ð°ÑĢÑĭ
7 4
ĠÐµÑĤ ÑĸÐ»Ð´Ñĸ
ĠÐ´Ð¾ ÑĨ
ĠÒ®ÑĪ ÑĸÐ½ÑĪÑĸ
ĠÐºÐµÑĪÑĸÑĢ ÑĸÐ¼
ĠÐºÐ¾Ð½ÑģÑĤÐ¸ÑĤÑĥ ÑĨÐ¸ÑıÐ»ÑĭÒĽ
ÐµÐ½Ð½ Ð°Ð´Ð¸Ð¹
ĠÑĤÒ¯Ñģ ÑĸÐ½Ðµ
ĠÑĤÒ±Ð»Òĵ Ð°Ð»Ð°ÑĢÐ´Ñĭ
ĠÐ¿Ð¾Ð» Ð¸Ð³
ĠÒĽÐ°Ð¹ÑĤÐ°Ð» Ð°Ð½
ĠÐ±ÐµÐ»Ð³ÑĸÐ»ÐµÐ½ ÐµÐ´Ñĸ
Ð°ÒĵÑĭÐ» ÑĪ
Ð½ Ð°Ð»Ñĭ
Ð¶ Ñĥ
ÑĤÑĭÐ» ÑĭÒĵÑĭÐ½
ĠÑĩÐµÐ¼Ð¿Ð¸Ð¾Ð½ Ð°ÑĤÑĭÐ½ÑĭÒ£
ÑĤÐµÑħÐ½ Ð¾Ð»Ð¾Ð³Ð¸Ñı
ÒļÒ± ÒĽÑĭÒĽ
ĠÑĤÐ°Ð½ÑĭÑģÑĤÑĭÑĢ Ð´Ñĭ
ÑĤ Ð°ÑģÑĭÐ½
ĠÐ±Ð¾Ð¹ Ð¶ÐµÑĤÐºÐµÐ½
ĠÐ¾ÒĽ ÑĭÑĤ
ĠÐ¶Ð¾ Ð±Ð°ÑģÑĭÐ½Ð°
ĠÒ±ÑģÑĭÐ½ ÑĭÐ¿
ĠÐ¼ÐµÐ¼Ð»ÐµÐºÐµÑĤ ÐºÐµ
ĠÐ°Ð¹Ð¼Ð°ÒĽ ÑĤÐ°
ĠÒļ ÐĲÐł
ÑĤÐ°Ð¼ ÐµÐ½
ĠÐµÑĢ ÐºÐµÐº
ĠÑĤÒ±ÑĤ ÒĽÑĭÐ½
Â °
Ñħ Ð°Ð¹
ĠÐ³ Ó©ÑĢÑĸ
ÑĤÐ°Ñģ ÑĭÐ¿
ĠÑĤÓĻÑĢÐ±Ð¸ ÐµÐ»ÑĸÐº
ĠÐĳÐ°ÑģÒĽÐ°ÑĢ Ð¼Ð°
ĠÒļÐ°Ð·Ò° Ð£
Ġ9 5
ÑĤ ÑĸÐ¼
ĠÐ±Ð°Òĵ Ð°Ð½
ÐĲÒĽ ÑĤÐ°Ñĥ
ĠÓ©ÑĤ ÑĸÑĢÑĸÐº
ĠÑģÐ¾ÑĤ ÑĤÑĭÒ£
ĠÒ¯Ð»Ð³Ñĸ Ð´ÐµÐ³Ñĸ
ĠÑĤÒ¯ÑĢÐ»ÐµÑĢ ÑĸÐ½ÑĸÒ£
ĠÐ±Ð°ÑĢ Ð°ÑĤÑĭÐ½
Ðľ ÐµÑĢ
ĠÐ±Ó©Ð» ÐµÐ´Ñĸ
ĠÑĤÐ¾Ð± ÑĭÐ½Ð°
ĠÓ©ÑĤÑĥ Ñĸ
ĠÐ°ÑĢ Ð¼
ÑĦ ÐµÑĢÑĤ
ÐĶ ÐµÐ¼
ĠÐ¶Ð°ÒĵÐ´Ð°Ð¹ Ð»Ð°ÑĢÑĭ
Ð°ÑĨÐ¸Ñı Ð»Ð°Ñĥ
ĠÓĺÐ´Ñĸ ÑģÑĤÐµÐ¼ÐµÐ»ÑĸÐº
ĠÐ± Ò¯ÑĢ
Ð¡ ÐºÐ°ÑĩÐ°ÑĤÑĮ
Ð¾Ð² Ð°Ð½
ĠÒĵÐ°Ð»ÑĭÐ¼ Ð´Ð°ÑĢÐ´ÑĭÒ£
ĠÐ½Ð°Ð·Ð°ÑĢ ÑĭÐ½
ĠÐ¸Ð½ÑģÐ¿ ÐµÐºÑĨÐ¸ÑıÑģÑĭ
Ð´ Ð¸Ð¾Ð½
ĠÐº Ð¸Ð»
Ð¾Ð¼ Ð±ÑĭÐ»
ĠÒĽÐ°Ð± Ð°ÑĤ
ĠÐ±Ð¾Ð»ÒĵÐ°Ð½ ÑĭÐ¼ÐµÐ½
ĠÑģÑĥÑĢ ÐµÑĤÑĤ
ĠÐ´ÑĸÐ½ Ñĸ
ĠÒ±Ð¹ÑĭÐ¼ Ð´Ð°ÑĢÑĭÐ½Ð´Ð°
ĠÑĤÓĻÑģÑĸÐ» Ð´ÐµÑĢÑĸÐ½
ĠÐ± iÐ»iÐ¼
ÑĤÑĭ Ð¼ÑĭÐ·
ĠÐ¾ÑĢÐ³Ð°Ð½ ÑĭÐ½ÑĭÒ£
ĠÒĽÐ°Ð¶ÐµÑĤÑĤ ÑĸÐ»ÑĸÐ³ÑĸÐ½
Ð¾ Ñĥ
ĠÐĸ Ð°Ð¹
ÐĿ Ð°ÑĢ
ĠÐ±ÐµÐ¹Ð½ ÐµÐ±
ĠÒĽÐ°ÑĢÐ°ÑģÑĤÑĭÑĢ Ð°Ð´Ñĭ
ĠÒ°Ð»ÑĭÐ±ÑĢÐ¸ÑĤÐ°Ð½ Ð¸Ñı
Ñģ Ð¾ÑĢ
ĠÒĽÑĭÐ·Ð¼ÐµÑĤ ÑĪÑĸÐ»ÐµÑĢÐ´ÑĸÒ£
ĠÒĵÐ°Ð»ÑĭÐ¼ Ð´Ð°ÑĢÑĭ
ĠÑĤÐµÐ»ÐµÑĦÐ¾Ð½ Ñĭ
ĠÒĽÒ±Ð±ÑĭÐ» ÑĭÑģÑĤÐ°ÑĢ
Ġ x
ĠÐ¾ÒĽÑĥ Ð»ÑĭÒĽÑĤÐ°ÑĢ
ĠÒĽÐ°Ð·Ð°ÒĽÑģÑĤÐ°Ð½Ð´ÑĭÒĽ ÑĤÐ°ÑĢ
ĠÐ¸Ð¼ Ð¿Ð¾ÑĢÑĤ
Ð¶ Ð¾ÑģÐ¿Ð°ÑĢ
ĠÑĤÐ°ÑĢ ÑĤÐ°
ĠÐµÐ» ÑĪÑĸÑģÑĸ
ĠÐ¶Ò±Ð¼ÑĭÑģÑĤÐ°ÑĢ ÒĵÐ°
ĠÑĨ ÐµÑħ
Ð° ÑħÐ°Ð½
Ñħ Ð¾Ð·
ĠÑĢ Ð¾Ð»
ĠÒĽÐ¾Ð» ÑĭÐ½
ĠÒĽÐ¾Ñģ ÑĭÐ»ÑĭÐ¿
ĠÐĳÑĸÑĢ ÑĸÐºÐºÐµÐ½
iÐ» ÐµÑĤÑĤi
ÐĳÐ°Ñģ ÒĽÐ°
ĠÑĤÒ±ÑĢÐ¼ÑĭÑģ ÒĽÐ°
7 3
ĠÐ¼ÓĻÐ´ÐµÐ½Ð¸ ÐµÑĤÑĸÐ½ÑĸÒ£
Ðº Ð¾Ð³
ĠÐ¡ Ò¯Ð¹
Ġ7 2
ĠÓ¨ ÑĤÐµ
ĠÒ±Ð· Ð°ÒĽÑĤÑĭÒĵÑĭ
ĠÒĽÐ°Ð»Ð´ÑĭÑĢ ÒĵÐ°Ð½
Ðĳ Ó©
Ðķ ÐĶ
ĠÐºÒ¯Ð½ Ð´ÐµÑĢ
ĠÐĳÐµÐ¹ Ð±ÑĸÑĤ
Ð¼ Ò¯
Ð°Ð¹ ÒĵÑĭÑĢ
ĠÐ¶ÑĭÐ» ÑĭÐ½ÑĭÒ£
ĠÐļ Ó©Ð»ÑĸÐº
ĠÒĽÒ±ÑĢÐ°Ð¼ ÑĭÐ½
Ð¿ÐµÑĢ Ð¸Ð¼ÐµÐ½ÑĤ
ĠÑĤÐµÐºÑģÐµÑĢ ÑĸÐ¿
ĠÑģÐ°ÑıÑģÐ°ÑĤ ÑĤÑĭÒ£
ĠÐľÐ°ÑĤ ÐµÐ¼Ð°ÑĤÐ¸ÐºÐ°
Ð¾ ÒĽÐ°Ð½
ÐĲ Ðĸ
ĠÒ¯Ð¹ Ð´ÐµÐ½
ĠÐ±Ò±Ð¹ÑĭÐ¼ Ð´Ð°ÑĢ
ĠÑĦÑĥÐ½ÐºÑĨÐ¸Ð¾Ð½ Ð°Ð»Ð´ÑĭÒĽ
ĠÒĽÐ°ÑĢ Ð°Ð¹ÑĤÑĭÐ½
ĠÓ©Ñģ ÑĥÑĸÐ½Ðµ
al l
Ð´Ð° ÒĽÑĤÑĭ
ĠÐł ÐµÑĦÐµÑĢ
ÑģÑĭÐ· Ð´Ð°ÑĢ
ĠÐ¶Ð°Ð±Ð´ÑĭÒĽ ÑĤÐ°Ð»ÒĵÐ°Ð½
Ð¸Ð½ ÑĤÐµÑĢÐ½
ĠÐµÐºÐµÐ½ ÑĸÐ½Ðµ
ĠÐ¾ÐºÑĢÑĥ Ð³ÑĸÐ½Ðµ
ÑģÑĸÑĢ ÐµÐ¿
ĠÐ¿Ð°Ð¹ ÑĭÐ¼
ĠÑĤÒ¯ÑģÑĸÐ½Ð´ÑĸÑĢ Ð´Ñĸ
ÐĲÐ·Ð°Ð¼ Ð°ÑĤÑĤÑĭÒĽ
Ð¾Ð» Ð°ÑĢÐ´ÑĭÒ£
ĠÑĤÐ°Ñģ ÑĤÐ°ÒĵÐ°Ð½
ĠÐ¾ÑĢÐ½Ð°Ð»Ð°Ñģ Ñĥ
Ò£Ð³ ÑĸÑĢ
ĠÒĵÐ¸Ð¼Ð°ÑĢ Ð°ÑĤ
Ð¿ÑĢ Ð°ÐºÑĤÐ¸ÐºÐ°Ð»ÑĭÒĽ
ĠÐ¾ÑĤÐ± Ð°ÑģÑĭÐ½Ð´Ð°
ÐµÐ·ÒĽÐ°Ð· ÒĵÐ°Ð½
ĠÑģ ÑĥÑĭ
Ð¡ Ò±ÑĢÐ°ÒĽ
ĠÐ´ÐµÐ¹ Ð¼ÑĸÐ½
ĠÑģÓ©Ð¹Ð» ÐµÑģ
Ò®Ð¹ Ð³Ðµ
Ð¸ ÐµÑĤÑĤÑĸ
Ðľ ÐµÐ´Ð¸ÑĨÐ¸Ð½Ð°Ð»ÑĭÒĽ
Ðļ Ð°Ð·
ĠÐ¶Ò¯ ÐºÑĤÐµÐ¼
ĠÓ¨ Ð½
A N
ĠÐ±Ð°Ð¹Ð»Ð°Ð½ ÑĭÑģÑĤÐ°
ÐºÐµÑĢÐ»ÐµÑĢ ÑĸÐ½ÑĸÒ£
ĠÐ¶Ð°ÑĤÒĽÐ°Ð½ Ñĭ
ĠÐ±ÐµÐºÑĸÑĤ ÐºÐµÐ½
ÑĪ Ð°Ò£
Ð¾ÑĢ Ð½
ĠÑĪÐµÑĪ ÐµÐ½
ĠÐ´ÓĻÑĢ ÑĸÐ»ÑĸÐº
ĠÐ¶ÐµÐ»Ñĸ Ð´Ðµ
Òĵ Ð¸
ĠÐºÓ©ÑĪ Ð¿ÐµÐ»Ñĸ
ĠÐ±Ð°ÒĵÑĭÑĤ ÑĤÐ°ÑĢ
ĠÐºÓĻÑģÑĸÐ¿ ÒĽÐ¾Ð¹
ĠÐµÑĤÑĥ Ð´Ðµ
ĠÐ¾ÑĤÑĭÑĢÒĵÐ°Ð½ ÑĭÐ½
Ð± Ñĭ
Ð´ÑĭÒ£ ÑĭÐ·
ĠÒĽÐ¾Ð»Ð´Ð°Ð½ ÑĭÐ»ÑĥÑĭ
Ġ199 4
ĠÐĲÐ½ Ð³
ÑĭÑģ Ð°Ð½
Ð¾ÑĢ ÑĤÐ°
ĠÐºÒ¯Ð½ ÑĸÐ¼ÐµÐ½
ĠÑĸÑģ ÑĸÐ½ÑĸÒ£
ÑĸÒ£ÑĸÐ· Ð´Ðµ
ĠÐºÐ¸ ÑĸÐ·
Ġ ÑĥÑĢ
Ð¸ Ð³Ñĸ
ĠÐ±Ð¾Ð» ÑģÐ°Ò£ÑĭÐ·
Ð°Ð¼ÑĭÐ· Ð´Ð°
ÐµÑĢÐ»ÐµÑĢ Ð´ÑĸÒ£
ĠÐºÐµÐ·ÐµÒ£ ÑĸÐ½Ðµ
ĠÐ°ÑĥÑĢÑĥ Ð»Ð°ÑĢÑĭ
ĠÐ´ÓĻÑĢÐµÐ¶ ÐµÐ»Ñĸ
Ð±Ò±Ð» Ð°ÒĽ
ĠÑįÐºÑģÑĤÑĢÐµÐ¼ Ð¸Ð·Ð¼
Ðł Ðŀ
ĠÐ¼Ð¸Ð½ ÐµÑĢ
ÐºÐµÑĢÐ»ÐµÑĢ Ð´Ñĸ
Ð³ÐµÐ» Ð´Ñĸ
ĠÑĤÑĸÐ·Ð± ÐµÑģÑĸ
ĠÑģÑĥ ÑģÑĭÐ½
ĠÒĽÐ°ÑĤÑĭÐ½Ð°Ñģ ÑĤÐ°ÑĢÐ´ÑĭÒ£
Ð¼ÐµÑĢ ÑĨÐ¸ÑıÐ»ÑĭÒĽ
ĠÑįÐºÑģÐ¿ ÐµÐ´Ð¸ÑĨÐ¸Ñı
Â ¬
ĠÑĸÑģ ÐºÐµÑĢ
ĠÑĤÓ©Ð¼ÐµÐ½ Ð´ÐµÑĤÑĥ
ĠÐ¿Ð°ÑĤ ÑĪÐ°
ĠÐºÓ©ÑĤÐµÑĢ ÑĸÐ»Ð³ÐµÐ½
ĠÐ°Ð¹ÑĭÑĢ Ñĥ
ĠÐĳÐ°Ð¹ ÒĽÐ°Ñĥ
Ð°Ð»Ð°Ð½ ÒĵÐ°Ð½
Ð¿ÑĢÐ¾ ÑĨ
ÒĽ Ð°Ð¿
ĠÒĽÐ°Ð·Ð°ÒĽ ÑĤÐ°ÑĢÐ´ÑĭÒ£
ĠÐ°ÑģÑĭÑĢ Ð°
ĠÐ±Ð°ÑģÒĽÐ°ÑĢ ÑĥÑĪÑĭ
ĠÒĽÒ±Ð¶Ð°ÑĤÑĤÐ°ÑĢ Ñĭ
ĠÐ°Ð± Ð·Ð°Ð»
ĠÑįÐ»ÐµÐ¼ÐµÐ½ÑĤ ÑĤÐµÑĢÑĸ
ĠÒļ Ò°
ÐĲ Ð±
ĠÐ±Ð°Ñģ ÑĭÐ½Ð´Ð°ÒĵÑĭ
ĠÒĽÐ°ÑĥÐ» ÑĭÑģÑĭ
ĠÐŀ ÑĤÑĭÑĢ
ĠÐ±Ð°ÑģÒĽÐ° ÑĪÐ°
ĠÐ¶Ò¯ÑĢÐ³ÑĸÐ·Ñĥ Ð´Ñĸ
ĠÐ´ÐµÑĢ ÐµÑĥ
ÐµÑĢ Ð´ÑĸÒ£
ĠÐµ Ð´ÑĸÒ£
ÐĲ Ð³ÑĢÐ¾
ÑĭÒĵ ÑĭÐ½ÑĭÒ£
ĠÑĤÐ°Ð¿ÑģÑĭÑĢ ÒĵÐ°Ð½
ĠÐ±Ð°ÒĵÑĭÑĤ ÑĭÐ½Ð´Ð°ÒĵÑĭ
ĠÐ± Ð»Ð¾Ðº
ĠÒĽÐ°Ð¼ Ð°ÑĥÒĵÐ°
ĠÑĸÐ·Ð´ÐµÑģÑĤ ÑĸÑĢÑĥ
Ð¢ Ð°Ò£
ĠÐ°ÒĽ ÑģÐ°ÒĽ
ĠÐ°ÑĥÐ´Ð°ÑĢ ÒĵÐ°Ð½
ĠÐ°ÑĤÑĤÐµÑģÑĤ Ð°ÑĤÑĤÐ°Ñĥ
ĠÐ´ Ð¸Ð²
ĠÐ¶Ð¾Ð» ÑĭÐ½Ð°
ĠÐľÒ± ÒĵÐ°Ð»ÑĸÐ¼
ĠÒĽÐ°Ð¹ÑĤÐ°ÑĢ ÑĭÐ¿
ÑĤÐ° ÑĨÐ¸ÑıÐ»ÑĭÒĽ
ĠÐ±Ó©Ð» iÐ¼
ĠÑĤÐ°ÑĢÐ¸Ñħ ÑĭÐ½Ð°
ÐºÒ¯Ð¹ ÐµÐº
ĠÐ¾Ð»Ð°ÑĢ Ð¼ÐµÐ½
ĠÑģÑĸÐ· Ð´ÐµÑĢÐ³Ðµ
Ðĸ ÐµÐ»
ĠÑĤÐµÒ£ Ð³
ĠÐ¼ÓĻÑģÐµÐ» ÐµÐ½ÑĸÒ£
ĠÑĦÐ¾ÑĤ Ð¾Ñģ
ĠÑį Ð¼
ĠÐ¿ÑĢ ÐµÐ¿Ð°ÑĢ
ĠÑĪÑĭÒĵÐ°ÑĢÐ¼Ð° ÑĪÑĭÐ»ÑĭÒĵ
Ð¿Ð°Ð¹ Ð´Ð°Ð»Ð°Ð½
ÒļÑĭÐ· Ð¼ÐµÑĤ
ĠÐµÐ¼ÐµÑģÐ¿ ÑĸÐ½
Òĵ Ò±Ð»
Ñį ÑĦ
ĠÑĤÑĸÐ» Ð´ÐµÑĢÑĸÐ½Ð´Ðµ
ÑĥÐ» Ñı
ĠÐµÒ£Ð±ÐµÐº ÑĤÐµÑĢÑĸ
ĠÑĤÐ¾ÒĽ ÑĤÐ°Ð»ÑĭÐ¿
ĠÒĽÐ°Ð¶ÐµÑĤÑĤÑĸ Ð³ÑĸÐ½
ÒĽ Ð°Ð¶
ÑĪ ÑĸÑģÑĸÐ½ÑĸÒ£
Ò¯ÑĪ ÑĸÐ½
ĠÐ²Ð°Ð»Ñİ ÑĤÐ°Ð»ÑĭÒĽ
ĠÑĢ Ð°Ð·
Ð±Ðµ Ñİ
ĠÑĤÐ°ÑĢÑĤÑĭÐ» Ð´Ñĭ
ĠÐ´ Ð¸Ð½Ð°Ð¼
Ó¨ ÐĽ
Ð¶Ð°Ð½ Ð¾Ð²Ð°
ĠÑĤÑĥÑĭÐ½ Ð´Ð°Ð¹ÑĤÑĭÐ½
Ð°ÐºÑģ Ð¸Ð¼
ĠÑģÐ°Ð½ Ð°Ð¹Ð´Ñĭ
ĠÓĻÑĢÐµÐº ÐµÑĤÑĸÐ½
ĠÐ¶Ò¯Ð»Ð´Ðµ Ð³ÐµÑĢÑĸ
ĠÑĤÑĭÑĢÑĭÑģ Ð°Ð´Ñĭ
ĠÐ¶Ð°ÑĤÑĤÑĭÒĽ ÑĤÑĭÑĢÑĥ
ĠÐĸ Ð¾ÑģÐ¿Ð°ÑĢ
ĠÑĤÑĸÐ» Ð´ÐµÑĢÑĸ
ĠÐ°ÑĥÑĭÐ» ÑĭÐ½Ð´Ð°ÒĵÑĭ
ÐµÑĥÐ½ ÑĸÐº
8 8
Ðļ ÐµÐ½
ĠÐĺ Ð±ÑĢ
ĠÐµÑģÐµÐ¿ Ð¿ÐµÐ½
ĠÐ°Ð´Ð°Ð¼Ð´Ð°ÑĢ Ð¼ÐµÐ½
ĠÐ¼Ð°Ò£ ÑĭÐ½Ð´Ð°
ĠÑĤÓ©Ð¼ÐµÐ½Ð´ÐµÐ³Ñĸ Ð´ÐµÐ¹
ĠÑĤ Ó©Ð½
Ð¶ Ð°Ð»Ð¿Ñĭ
Ñį Ð¹
Ð´ÑĸÐº ÑĤÐµÑĢ
ĠÐ¶ÑĸÐº ÑĤÐµÐ»
ĠÐļ ÑĸÐ¼
ĠÐ¾Ð¹ Ð»Ð°ÑĢ
ĠÐ² Ð¾Ð»
ĠÒĽÑĭÐ·Ð¼ÐµÑĤÐºÐµÑĢÐ»ÐµÑĢ ÑĸÐ½Ðµ
Ð°Ð¹ÑĭÐ¼ Ñĭ
ĠÐ½ ÓĻÐ·ÑĸÐº
ĠÐºÒ¯Ð½ Ð´ÑĸÐº
ÐĲÐ» Ð´Ð°ÒĵÑĭ
ĠÐºÐ¾Ð½ ÑĦ
ĠÐµÐ½Ð³ÑĸÐ· ÑĥÐ³Ðµ
ĠÐ¸Ð½ÑģÑĤÐ¸ÑĤÑĥ ÑĤÑĤÐ°ÑĢ
ĠÑħÐ°Ð±Ð°ÑĢÐ»Ð°Ð¼ Ð°Ð´Ð°
Ġ v
ĠÑģ Ó©
ĠÐł ÐľÐļ
ĠÓĺÐ± Ñĥ
ĠÒ±Ð½ Ð°Ð´Ñĭ
ut nik
ĠÐłÐķÐ¡ ÐŁÐ£ÐĳÐĽ
ĠÐĲÑĦÑĢ Ð¸ÐºÐ°
ĠÑĤÐµÑħÐ½ Ð¸ÐºÐ°ÑģÑĭ
ĠÐ¼Ð°Ò£ÑĭÐ·Ð´Ñĭ Ð»ÑĭÒĵÑĭÐ½
ĠÑģÒ¯Ð¹ÐµÐ½ ÑģÐµÐº
ĠÒĽÐ¾Ò£ ÑĭÑĢ
7 1
ĠÐĲ Ð¢
Ð¾Ð² ÐµÑĤ
ĠÐ°Ð»Ñĥ Ð´Ð°
ĠÐºÐµÐ» Ð´ÑĸÒ£ÑĸÐ·
Ð¨ ÑĭÐ½
Ð°ÒĽÑĤÐ°ÑĢ Ð´Ñĭ
ĠÑģÐµÑĢÑĤÐ¸ÑĦÐ¸Ðº Ð°ÑĤ
6 2
Ò¯ Ð¼
ĠÐ¶ÑĭÐ» Ð´Ð°ÑĢÐ´ÑĭÒ£
ĠÐ¢ ÑĢÐ°Ð¼Ð¿
ĠÒĽÐ°ÑĤ ÐµÑĢÐ»Ñĸ
ÓĺÑĢ Ð¸Ð½Ðµ
ĠÐ¶Ð°ÑĤÑĤÑĭÒĵÑĥ Ð»Ð°ÑĢ
ĠÐºÐµÐ·ÐµÒ£ Ð´ÐµÑĢÑĸ
20 50
ĠÐ¸Ð´ÐµÑı ÑģÑĭ
ĠÐļÐ¾Ð´ ÐµÐºÑģ
ĠÐ³ÑĢÐ°Ð´ ÑĥÑģ
ĠÐ± Ñİ
ĠÐ´ ÐµÑĢÐ»ÑĸÐº
ÑĸÑĢ ÑĸÑģ
ĠÒĽÐ¾ÑĢ ÑĭÑĤÑĥ
ĠÐ¼Ò± Ò£
ĠÑĤÒ¯ÑģÑĸÑĢ ÑĸÐ»Ð³ÐµÐ½
Ðĳ ÐµÑģ
ĠÐºÓ©ÑĢÐ½ÐµÐº ÑĸÐ»ÑĸÐ³Ñĸ
Ð³ Ð¸Ð¼Ð½
ĠÐ°Ð¹ ÑĤÑĭ
ĠÐºÓ©Ð· Ð´ÐµÐ¹Ð´Ñĸ
ĠÐ°ÑıÒĽ ÑĤÐ°Ð»Ð°Ð´Ñĭ
ĠÐ±Ð°Ð· Ð°ÑģÑĭÐ½
ĠÒĽÐ°ÑĤÑĭÑģ Ð°
ÐĹ Òļ
ĠÐļÐµÐ¹ Ð´Ðµ
Ġ in
ÐµÐ² ÑĤÑĸÒ£
an k
ĠÐºÒ¯ÑĢ ÑĤ
ĠÑģÐµÐ½ Ð´ÐµÑĢÐ³Ðµ
Ð¼ÐµÐº ÐµÐ½
ĠÒ¯Ð¹ÑĢÐµÐ½ ÑĸÐ¿
ĠÐ¡ÐµÑĢ Ð³ÐµÐ¹
Ð¸ Ð´ÐµÑĢ
ĠÐ°ÑĢ ÑĤÐ°
Ð¥ Ð¥
ĠÐºÐ¾Ð¼Ð¸ÑĤ ÐµÑĤ
ĠÐļÐ¾Ð¼ Ð¿ÑĮÑİ
Ð¼ ÐµÑģÐµ
ÐµÐ»ÐµÑĢ ÑĸÐ½Ð´Ðµ
Ð°ÐµÐ² Ð°
ĠÒ±Ð¹ÑĭÐ¼Ð´Ð°ÑģÑĤÑĭÑĢ ÒĵÐ°Ð½
ÐķÐ» ÑĸÐ¼ÑĸÐ·Ð´Ðµ
ĠÐ¼Ð°ÑĥÑģÑĭÐ¼ Ð´Ð°ÒĵÑĭ
ĠÑĥÓĻ Ðº
ĠÓĺ ÑģÐºÐµÑĢÐ¸
Ñĩ ÐµÑĢ
ĠÐ°ÑĪÑĭÐ» ÑĥÑĭ
ĠÐºÐ°Ð¿ Ð¸
Ó©Ð½ÐµÑĢÐºÓĻÑģÑĸÐ¿ ÑĤÑĸÐº
ÐµÐ» ÑĸÐ¿
ĠÐ½ÓĻÑĤÐ¸Ð¶ ÐµÐ»Ñĸ
ĠÐ±Ð°Ð»Ð°Ð±Ð°ÒĽ ÑĪ
Ð°Ñĥ ÑĭÐ½Ð°
ĠÐ¿ Ð°Ðº
ĠÐºÐµÐ» Ð±
ĠÑĸÑģ ÑĸÐº
ĠÐ°ÒĽ Ð¸ÒĽÐ°ÑĤ
ĠÐ¼ÐµÑĢ Ð´Ñĸ
ĠÐłÐµÑģÐµÐ¹ Ð´Ðµ
ĠÑĤÐ°ÒĽÑĭÑĢÑĭÐ¿ ÑĤÑĭÒĽ
ĠÐ±ÐµÑĢÐ¼ ÐµÑĥ
ÑĥÐ·Ñĭ ÐºÐ°
ÒĽÐ¾ÑģÑĭÐ¼ÑĪ Ð°ÒĵÐ°
Ð¼ Ð¾Ð»
Ð¢ ÐĨ
ĠÐ¼Ð°ÑĤÐµÑĢÐ¸Ð°Ð» Ð´Ð°ÑĢÑĭÐ½
ĠÐ¾ÑĢÑĭÑģ ÑĪÐ°
ÑĤÐ¿ ÐµÑģÐµ
ĠÐºÐ¾Ð½ÐºÑĥÑĢÑģ ÒĽÐ°
ĠÒļÑĥ Ð°Ð½ÑĭÑĪ
Ð¼ Ð°ÑĪ
Ð°Ð» ÐµÑĢ
ĠÐ±Ð¾Ð»ÑĭÐ¿ ÑĤÑĭ
ĠÐ´Ð¾Ð¼Ð±ÑĭÑĢ Ð°
ĠÑģ Ò±Ð»ÑĤÐ°Ð½
ĠÒļ Ð°Ð¼
ĠÐĳ ÑĥÑĢ
ĠÑĤÐ°Ð» Ð¿ÑĭÐ½
o c
ĠÑĪ Ð°Òĵ
ÑĤÑĭÑĢ Ð°Ð´Ñĭ
ĠÐ¢ Ð°ÑĪÐºÐµÐ½ÑĤ
Ð°ÑģÑĤÑĭÑĢ ÑĭÐ¿
ĠÐ¼ÐµÒ£Ð³ÐµÑĢ ÑĤÑĥ
ĠÒĽÐ°ÑĤÑĭÑģÑĥÑĪÑĭÐ»Ð°ÑĢ ÒĵÐ°
ÐµÐº ÑĥÐ»
ĠÐ±ÑĸÑĢ ÑĤÑĸÐ½Ð´ÐµÐ¿
ĠÑģÐ¾ ÑĤÑĭ
ĠÐºÐµÑĤ ÑĥÑĸ
ĠÒ® Ð»
ĠÐ¤ Ð°ÑĢ
Ð¾Ð¼ Ð°ÑĢÑĤ
ĠÐ±ÑĸÐ» ÑĸÐº
ĠÑĢÐµÐ´Ð°ÐºÑĤ Ð¾ÑĢ
ĠÑĪÑĭÒĵÐ°ÑĢ ÑĭÐ»Ð´Ñĭ
ar y
ĠÐ°Ð¹ ÑĤÐ°Ð¼ÑĭÐ·
ĠÐ» Ð¸Ð¼
ĠÐĲÑģÑĤÐ°Ð½ Ð°ÒĵÐ°
Ð°ÑĢ ÒĵÐ°
ÑĢÑĥ Ð³
ÐºÑĸ ÑĤ
ĠÐºÒ¯Ð¹ Ñĸ
ĠÐ¸Ð½Ð¶ÐµÐ½ ÐµÑĢ
Ð¾Ð½ Ð¸Ð¼
ĠÓĺ Ðļ
ĠÐ¶Ð°ÑĢÑĭÒĽ ÒĽÐ°
ĠÐºÑĢÐ¸ÑĤÐµÑĢ Ð¸Ð¹
Ð°ÑĤ Ð¾Ð²
ĠÐĸ Ò°
Ġ5 9
ÑĭÐ½Ð´Ñĭ ÒĵÑĭÐ½
ĠÒĽÐ¾Ð»Ð´Ð°Ð½ ÑĭÐ»ÒĵÐ°Ð½
Ð°ÐºÑĤ Ð¾ÑĢ
ĠÐ±Ð¸Ð·Ð½ ÐµÑģÑĤÑĸÒ£
Ð¼ Ò¯Ð¼ÐºÑĸÐ½
ÑĨ ÐµÐ¿
ĠÐ¼ÐµÑĤÐ°Ð»Ð» ÑĥÑĢÐ³
i st
ĠÐ± ÑĢ
ĠÑĪ Ð¾ÒĽ
ĠÑĤÐ°ÒĽÑĭÑĢÑĭÐ¿ ÒĽÐ°
ĠÐ¶ÑĸÐ³ÑĸÑĤ ÑĤÐµÑĢ
ĠÒ±ÑĪÑĭÑĢ Ð°ÒĵÐ°Ð½
ĠÐ¶Ð°ÒĽÑģÐ°ÑĢÑĤÑĥ ÒĵÐ°
ĠÐ°Ð» Ð¼Ð°
ÐµÑĪ ÐµÐ»ÐµÐ½Ð´ÑĸÑĢÑĥ
ĠÑĤÒ± Ð½
ÑĭÒ£ÑĭÐ· Ð´ÑĭÒ£
ĠÑģÑĤÑĥÐ´ÐµÐ½ÑĤ ÑĤÐµÑĢÐ³Ðµ
ĠÒ±Ð¹ÑĭÐ¼Ð´Ð°ÑģÑĤÑĭÑĢ Ð´Ñĭ
Ð² ÐµÑĢ
ĠÒĽÐ°ÑĢ ÑģÑĭÐ»ÑĭÒĽ
ĠÒĽÐ¾Ð» Ó©Ð½ÐµÑĢ
ÑĪÑĭÐ»Ð°ÑĢ Ð´Ñĭ
ĠÓ©Ð¼ÑĸÑĢ Ð´ÐµÐ½
ĠÐºÓ©Ð»ÐµÐ¼ ÑĸÐ½ÑĸÒ£
ĠÑĤÒ¯ÑĢÐ»ÐµÑĢ ÑĸÐ½Ðµ
ĠÐ½ÑĭÒĵÐ°Ð¹ÑĤÑĥ ÒĵÐ°
ĠÐ¶Ð°Ò£Ð°ÑĢ ÑĤÑĭÐ»ÒĵÐ°Ð½
ĠÐ°Ð³ÑĢ Ð°ÑĢÐ»ÑĭÒĽ
ĠÑĪ ÑĤ
ĠÒĽÐ°Ð» Ð°Ð»Ð°ÑĢÑĭ
ĠÐºÐµÐ¹ÑĸÐ½ Ð½ÐµÐ½
Ð¤ ÑĢÐ°Ð½
ÐŃ ÐºÐ¾Ð½Ð¾Ð¼Ð¸ÐºÐ°Ð»ÑĭÒĽ
ĠÑįÐºÐ¾Ð½Ð¾Ð¼Ð¸Ðº Ð°ÑģÑĭÐ½ÑĭÒ£
ĠÐ½Ð°ÑĥÑĢÑĭÐ· Ð´Ð°ÒĵÑĭ
Ð°ÑĤÐ°Ð» Ð¾Ð³
Ð³Ð¾ÑĢ Ð¸ÑĤÐ¼
ĠÐº Ð°Ð·
ÑĭÒĽ ÒĽÐ°
ÐºÐµ ÑģÑĤÑĢ
ĠÓ¨ ÑĢ
ĠÑĤÓ©ÑĢÐ°Òĵ Ð°Ð»ÑĭÒĵÑĭÐ¼ÐµÐ½
ĠÑĤÒ¯Ð¿ Ð½Ò±Ñģ
ĠÐĲÐ»Ð¼Ð°ÑĤÑĭ Ð´Ð°ÒĵÑĭ
ĠÒĽÒ±ÑĢÐ°Ð¼ ÑĭÐ½Ð´Ð°ÒĵÑĭ
Ð¼ÐµÐº ÑĤÐµÐ¿
ĠÒĽÒ±ÑĤÒĽÐ°ÑĢ Ñĥ
ĠiÑĪ iÐ½Ð´Ðµ
ĠÑĪ ÐµÐ¶ÑĸÑĢ
Óĺ Ð´ÐµÐ±Ð¸
Ðĸ Ò¯ÑĢÐ³ÑĸÐ·ÑĥÑĪÑĸ
ĠÒĽÐ¾ÑĢ Ð¶ÑĭÐ½
Ðĵ Ò¯Ð»
ĠÐ¶Ð¾Ð»Ð°Ñĥ ÑĪÑĭ
ĠÐ°ÐºÐº ÑĢÐµÐ´Ð¸ÑĤ
ÐµÐ¼ ÐµÐ»
ĠÐ¿ ÑĭÑĪ
ĠÐľ ÑĭÐ½Ð°
ĠÒĽÐ¾Ð» ÑĤÐ°Ò£
ĠÐ±Ð¾Ð»ÒĵÐ°Ð½ Ð½Ð°Ð½
ĠÐ°Ð»ÒĵÐ°Ð½ Ð½Ð°Ð½
ĠÐ½ÑĭÑģÐ°Ð½ Ð´Ð°
ĠÒĽÐ°ÑĤÑĭÑģÑĥ ÑĪÑĭÐ»Ð°ÑĢÑĭ
ĠÐ± ÐµÑģÑĸÐ½ÑĪÑĸ
ĠÐ¢ Ð°Ð¿ÑģÑĭÑĢ
ĠÐºÒ¯ ÑĤÐºÐµÐ½
Ð¼ÐµÐ½ Ñĸ
ĠÐ±Ó©Ð» ÑĥÐ³Ðµ
ĠÐ´ÐµÐ³ÐµÐ½ Ð´ÐµÐ¹
ĠÐºÓ©Ð¿ ÑĤÐµÐ¿
ÑĤÐµÑĥ ÑĸÑĢ
ĠÐ±ÐµÑĢÑĥ Ð´Ðµ
ĠÐºÑĸÑĢ Ð³ÑĸÐ·
ĠÐļÓ©ÑĢ ÑģÐµÑĤ
ĠÐ°Ñĥ Ð´Ð°ÑĢÐ´Ñĭ
Ðļ ÐµÑĪ
ĠÑĤÒ±ÑĢ ÑģÐ°
ĠÑģÑĥÑĢ ÐµÑĤÐºÐµ
ÐºÐ¾Ð¼ Ð¼ÑĥÐ½
Ð¾ ÒĵÐ°
Ð¶Ð°Ð± Ð´ÑĭÒĽ
ĠÐĸÐ°Ð¿Ð¾Ð½ Ð¸Ñı
ĠÐ¢Ð°Òĵ Ð°Ð»Ð°
ĠÐ±ÐµÐ»Ð³iÐ» ÐµÐ½Ð³ÐµÐ½
ĠÑģÐ¸Ð¼Ð¿ ÑĤÐ¾Ð¼
ÐµÐº ÑĪÐµ
ĠÒļ Ð¾Ð¹
Ñģ Ñı
Ð°Ð½ Ð°ÑģÑĭÐ½ÑĭÒ£
Ġ1 10
ĠÐ°Ñı ÒĵÑĭ
Ð¡ Ð¿Ð¾ÑĢÑĤ
ĠÐĸ Ñĥ
ĠÐ¼Ò¯ ÑģÑĸÐ½
Ð¼Ð°ÒĽ ÑĪÑĭ
ÐľÒ± ÑħÐ°Ð¼
Ð¡Ð°Ð¼ Ò±ÑĢÑĭÒĽ
ÐĶ ÐķÐĿ
ĠÐŁ ÑĥÑĤÐ¸Ð½
ĠÐ¼ÐµÐºÑĤÐµÐ¿ ÑĤÐµÑĢÐ´Ðµ
ĠÓĻÐ»ÑĸÐ¿Ð±Ð¸ ÑĸÐ½Ðµ
Ð°ÑĪ ÑĭÑĢ
ĠÐ¾Ð¹ Ð»
ĠÑħÐ°Ð»ÑĭÒĽ ÑĤÐ°ÑĢ
ĠÐ±Ð°ÒĵÐ´Ð°ÑĢÐ»Ð°Ð¼ Ð°ÑģÑĭÐ½Ð´Ð°
ĠÐ¶Ð¾ÑģÐ¿Ð°ÑĢ ÑĭÐ½Ð°
ĠÑģÑĸÐ· Ð´Ñĸ
ĠÐ¿ÑĸÐºÑĸÑĢ ÑĸÐ½ÑĪÐµ
ĠÑĤÐµÐ¼ ÐµÐºÑĸ
ĠÐµÑģÑĤ ÑĸÐ¿
ĠÑĤÒ±ÑĤÑĭÐ½ ÑĥÑĪÑĭÐ»Ð°ÑĢ
ĠÐ¸Ð¿Ð¾ÑĤÐµÐº Ð°Ð»ÑĭÒĽ
ĠÐºÒ¯Ð½ Ð³Ñĸ
Ġ7 00
ĠÐ±Ð¾Ð»Ð°ÑĤÑĭÐ½ Ñĭ
Ð¾Ð· ÒĵÐ°Ð»
ĠÐĶ Ð¸Ð¼Ð°ÑĪ
ĠÒĽÒ±ÑĢÑĭÐ» ÑĭÐ¿
ĠÑģÐµÐ· ÑĸÐ¼ÑĸÐ½
it y
ĠÑĤÒ¯ÑģÑĸÐ½Ð´ÑĸÑĢ ÑĸÐ¿
ĠÐ°Ð¹ÑĤÑĭÐ» ÑĭÐ¿
ĠÐĳÐ°ÑĢ Ð»ÑĭÒĵÑĭ
ĠÐ½Ð°ÑĢÑĭÒĵ ÑĭÐ½Ð´Ð°
ÑĤ ÒĽÐ°
Òļ ÐĲÐł
8 9
Ð´Ð°Ð» ÑĭÐ¿
ĠÑĪÑĭÒĵ ÑĥÒĵÐ°
Ġ5 3
ÑĸÒ£ÑĸÐ· Ð´ÐµÑĢ
ĠÐ°ÑĢÑĤÑĤÑĭÑĢ Ð°Ð´Ñĭ
ĠÐĸ ÐĲÒ¢
ĠÐ±Ð¸ Ð¾
ĠÐ¾ÑĢÐ³Ð°Ð½ Ð´Ð°ÑĢÒĵÐ°
ĠÒ±ÑģÑĭÐ½ Ð°Ð¼ÑĭÐ·
ĠÐ¾Ð¹ÑĭÐ½ Ð´Ð°ÑĢÑĭÐ½ÑĭÒ£
ĠÒļÒ±ÑĢ ÑĭÐ»ÑĭÑģ
ÒļÐ°Ð· ÑĭÐ½Ð°
ĠÑĤÑĥÑĭ ÑģÑĤÐ°ÑĢ
ĠÐ±Ð°ÒĵÐ°Ð» Ð°Ð¹Ð´Ñĭ
ÑĨ Ð¸ÐµÐ½ÑĤ
ĠÓ©Ð· Ð±ÐµÐº
Ñį Ð»ÐµÐºÑĤÑĢÐ¾Ð½Ð´ÑĭÒĽ
Ð¾Ð¿ Ð°
ÑĤ ÑĸÑģÑĸ
ĠÐ±Ð°Ð» Ð°Ð»ÑĭÒĽ
ĠÐĶ Ð°Ñĥ
Ð³ iÐ»iÐºÑĤi
ÑĸÐ» ÑģÑĸÐ½
Ðľ Ð¾Ð½
ĠÐ¶Ð°ÒĽ ÑģÑĭÐ»
ĠÒĽÐ°Ð¼ÑĤÑĥ Ð´Ñĭ
Ð½ ÐµÐ³ÑĸÐ·Ð³Ñĸ
Ð± Ð¸Ðº
ĠÐ¶Ð°Ð· ÑĭÐ»Ð°Ð´Ñĭ
ĠÐµÑģÐµÐ¿ ÑĤÐµ
ĠÐ°Ð¹Ð½Ð°Ð» Ð´ÑĭÑĢÑĥ
ĠÒ±ÑģÑĤ Ð°ÒĵÐ°Ð½
Ð±Ð°Ð± ÑĭÐ½Ð´Ð°
Ñģ Ò±ÑĢ
ĠÐ¾ ÑĪ
ĠÐ¡ ÑĤÐ°ÑĤÐ¸ÑģÑĤ
Ðľ ÑĭÐ½Ð°
ĠÐ±Ð°Òĵ Ð°Ð»Ð°Ð¹
Ð±ÐµÐº Ò±Ð»Ñĭ
Ð°Ð»Ð°Ñĥ ÒĵÐ°
ĠÐ¶Ò¯ÑĢÐ³ÑĸÐ·Ñĥ Ð´ÑĸÒ£
ĠÐ²ÐµÑĤÐµÑĢÐ¸Ð½Ð°ÑĢ Ð¸ÑıÐ»ÑĭÒĽ
ĠÑĭÐ´Ñĭ Ñģ
ĠÐ±ÑĸÐ» Ð¼ÐµÐ¹Ð´Ñĸ
Ð² Ð°
ĠÑģÑĥÑĢ ÐµÑĤÑĸ
ĠÐºÓ©Ò£ ÑĸÐ»Ð´Ñĸ
ĠÐ¶ÑĭÐ»Ð´Ð°Ð¼ Ð´ÑĭÒĽ
ĠÒĽÐ¾Ð» Ð´Ð°Ð¿
ĠÑĤÑĸÑĢ ÐµÐº
e x
Ð±Ð°Ñģ ÒĽÐ°
ĠÐĶÐµÐ½ Ðµ
ÐµÐ¿Ð°ÑĢÑĤÐ°Ð¼ ÐµÐ½ÑĤ
ĠÒĽÐ¾ÑĢ ÒĽÑĭÐ½
ĠÐ³ Ð¸Ð³Ð¸ÐµÐ½
ĠÐºÓ©Ð»ÐµÐ¼ Ð´Ñĸ
ĠÐ±ÐµÐ»Ð³ÑĸÐ» ÐµÐ¹Ð´Ñĸ
ĠÐ±ÑĸÑĢÐ» ÐµÑģÑĤÑĸÐ³Ñĸ
ĠÐ°ÐºÐ°Ð´ÐµÐ¼ Ð¸ÑıÑģÑĭ
ĠÐĳ Ð¸Ð·Ð½
ÐºÐµÐ½ Ðµ
ÐĸÐ°Ñģ ÑĭÐ»
A Z
Òļ Ò±Ð»
ĠÑį Ð²
ĠÒļÒ±Ð´Ð°Ð¹ Ð±ÐµÑĢÐ³ÐµÐ½
ĠÐ¼Ð¾Ð´ ÑĥÐ»ÑĮ
ĠÓ©Ð· ÑĸÐ¼ÑĸÐ·Ð´ÑĸÒ£
ĠÒĽÒ±Ð¶ Ð°ÑĤÑĤÑĭÒ£
ĠÐĳÐ¸ÑĭÐ» ÒĵÑĭ
ĠÑģÑĤÐ° Ð´Ð¸Ð¾Ð½
ĠÒĽÐ°ÑĥÑĭÐ¼Ð´Ð°ÑģÑĤÑĭ ÒĵÑĭ
Ð´ Ñİ
ĠÐĸ Ð°ÑĥÐ°Ð¿
ĠÐ°ÑĥÑĭÐ» ÑĪÐ°ÑĢÑĥÐ°ÑĪÑĭÐ»ÑĭÒĽ
ĠÓ©Ð» Ð³ÐµÐ½
ĠB News
Òĵ ÑĭÐ¼ÐµÐ½
ĠÐ¼ ÑĥÐ½Ð¸ÑĨÐ¸Ð¿Ð°Ð»Ð¸ÑĤÐµÑĤ
ĠÐµÐ» ÑĸÐ½
ĠÐŁ Ð°ÑĤ
Ð°Ð´ Ð¸Ð¾
ĠÐ¾ÒĽÐ¸Òĵ Ð°ÑģÑĭ
E R
ĠÑĤÒ±ÑĢ ÒĵÑĭÐ»ÑĭÒĽÑĤÑĭ
ÐµÑĢÐ¸Ð°Ð» Ð´ÑĭÒĽ
ĠÑĤÓĻÑĢÑĤÑĸÐ¿ ÑĤÑĸ
ĠÐºÐµÐ·Ð´ÐµÑģ ÐºÐµÐ½
Ñī Ñĭ
ĠÐºÒ¯ÑĤ ÑĸÐ»ÑĥÐ´Ðµ
ÒļÐ¾ÑĢ ÑĭÑĤÑĭÐ½Ð´Ñĭ
Ð· Ð¸ÑĤ
ĠÐľ Ð¸ÑĢ
ĠÐķ Ð¼
ĠÒĽÑĭÐ» ÑĭÐ¿
ĠÓĻÑģÐµÑĢ ÑĸÐ½ÐµÐ½
ĠÑĤÐ°ÒĽÑĭÑĢÑĭÐ¿ ÑĤÐ°
ĠÑĪÑĭÒĵÐ°ÑĢÐ¼ Ð°Ð»Ð°ÑĢÑĭ
ÐĶÐ°Ð¼ ÑĭÑĤÑĥÑĪÑĭÐ»ÑĭÒĽ
ĠÐ¢Ó©ÑĢÐ°Òĵ Ð°ÑģÑĭ
ĠÐ¶Ò±ÒĽ Ð¿Ð°Ð»Ñĭ
ÒĽ Ð°Ð»Ð°
Ðł Ð£
ĠÐ¶Ò¯ÑĢ Ð´Ñĸ
ĠÑĤÐ¾Ð»ÑĭÒĽ ÒĽÐ°Ð½Ð´Ñĭ
of t
Ġ 00
Ð°Ð· Ð°Ð¼
ĠÐļ ÑĸÑĪÑĸ
ĠÐ±ÐµÐº i
ĠÐĲÒĽ ÑģÑĥ
ĠÑĤÐ°Ð¿ÑģÑĭÑĢÐ¼ Ð°Ð»Ð°ÑĢÑĭ
Ðļ Ð¾ÑĢ
ĠÐºÓ©ÑĤÐµÑĢ ÑĸÐ»ÑĸÐ¿
ĠÑı Ð·Ñĭ
ĠÒĵÐ°ÑģÑĭÑĢ Ð´Ð°ÒĵÑĭ
ĠÐºÓ©ÑĢÑĸÐ½ ÑĸÐ¿
ĠÑĤÐ°ÒĽÑĭÑĢÑĭÐ¿ ÑĤÐ°ÑĢ
ĠÐ³ÑĢÐ°ÑĦ Ð¸Ðº
ĠÐºÐµÐ»ÑĸÑģÑģÓ©Ð· Ð´ÐµÑĢ
ÑĤ Ð¾Ð»
ĠÑĤ Ð¾Ñģ
ĠÑĪ Ð°Ð»Ð´ÑĭÒĽ
Ð°Ð´Ñĭ ÒĽ
Ð±Ð¸ Ð·
ĠÐ¾Ð»Ð°ÑĢ Ð´Ð°Ð½
ĠÐ°Ð»Ð¼Ð°Ð¹ Ð¼ÑĭÐ·
ĠÑĪÒ¯ ÐºÑĸÑĢ
ĠÐ¼ÐµÐ¼Ð»ÐµÐº ÐµÑĤÑĸ
ĠÓ©Ð½ÐµÑĢ ÑĸÐ½
ĠÐ½Ð¾ÑĤÐ°ÑĢ Ð¸
Ð¾Ð¼ Ð°ÑĤ
ĠÐĸ Ð«ÐĽ
Ġ- >
ĠÐºÒ¯Ð½ ÓĻ
ĠÐ¶Ð°Ð½ Ð´Ñĭ
Ġ199 6
ĠÐºÓĻÑģ iÐ¿
ĠÐ¶ ÓĻÐ½
ĠÒĽÐ°Ð» ÑģÐ°
ĠÐµÐ» ÐµÑģÑĤ
ĠÓĻÐ¹ÐµÐ» Ð´ÐµÑĢÐ´ÑĸÒ£
ĠÑģÓĻÐ»ÐµÐ¼ Ñĸ
ĠÐĳ ÐĨÐĽ
ĠÑĪÑĭÒĵ ÑĥÑĭ
ĠÐ±Ò±Ð» ÑĪÑĭÒĽ
ĠÐķÐ» ÑĸÐ¼ÑĸÐ·Ð´ÑĸÒ£
ÐĲÐĽ ÐĲÐł
ĠÐ¼Ò±ÑĢ Ð°Òĵ
ĠÑĤÑĢÐ°Ð½Ñģ ÑĦÐµÑĢÑĤ
ĠÐºÓ©Ð±ÐµÐ¹ ÑĸÐ¿
ĠÐ± Ñĸ
ĠÒĽÐ°ÑĢ ÑĭÐ½
ĠÒĽÐ¾ÑĢ ÑĭÐ½Ð°
ĠÒĽÐ°Ð¼ ÑģÑĭÐ·Ð´Ð°Ð½Ð´ÑĭÑĢÑĥ
ĠÐ°ÑĢÐ½ Ð°ÑģÑĭ
ĠÐ¾ÑĢÑĤÐ° Ð´Ð°
ĠÐºÐµÐ»Ð´Ñĸ Ð¼
ĠÐ°ÐºÑĤÑĸÐ»ÐµÑĢ Ð´Ñĸ
ĠÐľ Ð°Ðº
ĠÒĽÐ¾ÑĢ ÒĽ
ĠÑģÐ°Ð½ Ð°Ð¿
ĠÓ©Ð¼ÑĸÑĢ ÑĸÐ½Ð´Ðµ
ĠÐ¿Ð°Ð¹Ð´Ð°Ð»Ð°Ð½ ÒĵÐ°Ð½
ĠÐ¶Ð¾Ð± Ð°Ð»ÑĭÒĽ
ĠÐ´ÐµÑĢÐµÐº ÑĤÑĸ
ĠÐ°Ð´ Ð²Ð¾Ðº
ĠÐ½ÐµÐ³ÑĸÐ· Ð´ÐµÑĢÑĸÐ½
ĠÐķÑĥÑĢÐ¾Ð¿ Ð°Ð»ÑĭÒĽ
ĠÐºÐ¾Ð½ÑĦÐµÑĢÐµÐ½ÑĨÐ¸Ñı ÑģÑĭ
ĠÐĲÐ»Ð» Ð°ÒĵÐ°
Ð¼ Ð°ÑĥÑĭ
ĠÐ¢ Ð°ÒĽÑĭÑĢÑĭÐ¿
ÐĿ ÐķÐ¡
ĠÐ°ÑĥÐ´Ð°Ð½ Ð´Ð°
ĠÐ¶Ð°Ð» Ð¿
ĠÒ±Ð¹ÑĭÐ¼Ð´Ð°ÑģÑĤÑĭÑĢÑĥ ÑĪÑĭÐ»ÑĭÒĽ
ĠÓ©Ò£ÑĸÑĢ ÑĸÐ½Ð´Ðµ
ĠÐºÐµÑĪÐµÐ½ ÑĸÐ½
ĠÓĺÐ¹ ÑĤ
ĠÐ¿ Ð»Ð°Ñģ
Ó¨ ÑģÐºÐµÐ¼ÐµÐ½
ĠÑĤÐ°Ð» ÒĵÐ°Ð¼
ĠÑĸÑĪ ÑĸÐ½
Ð¸Ñģ Ñĸ
ĠÐ¢ÓĻ Ñĥ
ĠÑĪÑĭÒĵÑĭÐ½ Ð´Ð°ÑĢÐ´Ñĭ
ĠÑįÐ½ÐµÑĢÐ³Ð¸Ñı ÑģÑĭÐ½
Ò£ ÐºÐµÑĢ
Ð³ Ð¸Ð´
ÑĭÐ» Ð¼Ð°Ð»Ñĭ
Ð°Ð¼ Ð±ÐµÑĤÐ¾Ð²
Ñħ Ð°Ð±Ð°ÑĢ
ĠÐ¢ ÑĭÐ½
ĠÐ¶Ð°Òĵ ÑĭÐ½Ð°
ÑĭÐ¼ÑĭÐ· Ð´Ð°Ð½
ĠÒĽÒ±ÑĢÑĭÐ» ÒĵÑĭ
ÐļÓ©ÑĢ ÑģÐµÑĤ
Òļ Ð¾Ð½
Ñİ Ð·
ĠÒ±Ð¹ÑĭÐ¼Ð´Ð°ÑģÑĤÑĭÑĢ ÑĥÒĵÐ°
ĠÐ¾ÑĢÑĭÐ½Ð´Ð°Ð» Ñĥ
ĠÐļÐ¾Ð¼ Ð¸ÑģÑģÐ¸Ñı
ĠÑįÑĤÐ½ Ð¸ÐºÐ°Ð»ÑĭÒĽ
ĠÐ´Ð¸Ð°Ð³ Ð½Ð¾Ð·
ÐĲÐ·Ð°Ð¼ Ð°ÑĤÑĤÐ°ÑĢÒĵÐ°
i f
ÐĲ ÑħÐ¼ÐµÑĤ
ĠÐ°ÑĤ Ð°Ð¼
Ðļ ÐµÑĢ
ĠÒĽÒ± Ð´ÑĸÑĢ
ĠÑĤÐµÑĢÑĢ Ð¸ÑĤÐ¾ÑĢÐ¸Ñı
ĠÐ¢ ÐµÐ½
Ðĸ Ò±
ÑĸÐ¼Ð´ÐµÑĢ Ð³Ðµ
ĠÐŁÑĢÐµÐ·Ð¸Ð´ÐµÐ½ÑĤ ÑĤÑĸÒ£
ĠÐĶÐµÐ½ Ð¸Ñģ
ÒĽÒ±ÑĢ ÑĭÐ»ÑĭÑģ
ÐĶÐķ Ðŀ
ĠÐ¼Ð°Ò£ÑĭÐ·Ð´Ñĭ Ð»ÑĭÒĵÑĭ
ĠÐº ÓĻÑģÑĸ
ĠÐŀ Òļ
ĠÒĽÐ°Ð» Ð°ÑĤÑĭÐ½
Ðŀ ÐĻ
ĠÒĽÐ°ÑĤÐ°ÑĢ Ð»Ñĭ
ĠÓ©Ð·Ð³ÐµÑĢÑĤÑĥ Ð³Ðµ
. ),
ĠÑģ ÑħÐµÐ¼
ĠÑĦ Ð¾ÑĢÐ¼Ð°
ĠÓĺ Ð»ÑĸÐ¼
ĠÐ¸Ð½Ð²ÐµÑģÑĤ Ð¾ÑĢ
Ð°Ð½ Ð°Ð½ÑĭÒ£
Ð´Ð°ÑĢ Ð¼Ð°Ð½
ĠÓĻ Ð¿
ĠÑĢ ÐµÐ¹
ĠÓ©Ð· ÑĸÐ¼ÑĸÐ·
ĠÑģÐ°Ð» Ð°Ð»Ð°ÑĢÑĭ
Ó¨ Ò£ÑĸÑĢ
ĠÒĽÒ±ÑĢÑĭÐ» ÑĥÑĭ
ĠÐ¶ÑĸÐ±ÐµÑĢ ÑĸÐ»ÐµÐ´Ñĸ
Ñģ ÑĸÐ¿
Ðĳ ÐµÐ¹Ð½
ĠÑĸÑģÑĤ ÑĸÒ£
ĠÐ¶Ó©Ð½ ÐµÐ»
ÐķÐ» ÑĸÐ¼ÑĸÐ·Ð´ÑĸÒ£
Ð± ÑĸÐ»ÑĸÐº
ĠÐĸ ÐµÐº
Ðľ ÐµÐ¹
ĠÐ°Ñģ Ð°ÑĤÑĭÐ½
ĠÐ¶Ð¾Ð» ÑĭÐ½ÑĭÒ£
ĠÐ±Ð°ÒĵÐ´Ð°ÑĢÐ»Ð°Ð¼ Ð°Ð½Ñĭ
ĠÐºÐ¾Ð¼Ð¿Ð°Ð½Ð¸Ñı Ð»Ð°ÑĢÐ´ÑĭÒ£
Ð¡ ÐµÐ¼Ð¸Ð½Ð°ÑĢ
Ð´ÑĸÑĢ ÑĸÐ»Ð³ÐµÐ½
ĠÑĤÐ°Ò£ ÒĵÑĭ
Ð½Ð¾ Ðµ
Ð¿Ð°ÒĽ ÑĪÑĭ
ĠÓĺÐ±ÑĸÑĪ Ò±Ð»Ñĭ
Ñģ Ð°Ð¿Ð°ÑĢ
ÑĤ Ð¸Ðº
ĠÐĸ ÓĻ
ĠÐ¢ ÐµÐ»
ĠÑģÐ¾ ÒĵÑĭÐ¿
Ó¨ Ð½Ð´ÑĸÑĢ
ĠÐ¼ÐµÐ´ Ð¸
ĠÐĲÑĢ Ð½Ð°Ð¹Ñĭ
i Ð¼ÐµÐ½
Ð°Ò£ ÑĤÐ°ÑĢ
ĠÑĤÐ°ÑĢ ÑĤÑĭÐ¼Ð´Ñĭ
ĠÒ±Ð¹ÑĭÐ¼Ð´Ð°ÑģÑĤÑĭÑĢ ÑĭÐ¿
ĠÐ°ÑĢÑĤÑĤÑĭÑĢ ÑĭÐ¿
ĠÐµÒ£Ð±Ðµ Ð³ÑĸÐ½
ĠÐºÓ© Ð±ÐµÑİ
ÐµÐ´Ñĸ Ð¼
ĠÐ°ÑĥÑĭÐ» ÒĵÐ°
ĠÐ°Ð¿ ÑĤ
ĠÐ¢ÓĻ Ð¶ÑĸÐºÑģÑĤÐ°Ð½
ĠÒĽÐ°ÑĥÐ» ÑĭÑģÑĭÐ½Ð°
ĠÒĽÐ¾ÑĢÒĵÐ°Ð» Ð°ÑĤÑĭÐ½
ĠÐ¾ Ñİ
ĠÐĶ Ð¸ÑĢÐµÐºÑĤ
ĠÑĪÐµÑĪ iÐ¼
Ġ w
ĠÒļÐ°Ð·Ð°ÒĽÑģÑĤÐ°Ð½ Ð´Ñĭ
ĠÓ©ÑĤ ÑĸÐ»Ñĸ
ĠÐ°Ñı Ð½
ĠÐ¶Ð°ÑĤÒĽÐ°Ð½ Ð´Ð°
ĠÐ°ÒĽÑĭÐ½ Ð´Ð°ÑĢ
ĠÐ¾ÑĢÑĭÐ½Ð´Ð°Ð» Ð´Ñĭ
ĠÐºÓ©ÑĢÑģÐµÑĤÐºÑĸÑĪ ÑĤÐµÑĢ
ĠÑĢ ÐµÐ·Ð¸Ð´ÐµÐ½ÑĤ
ÐŁ ÐĲÐł
ĠÑģÐ¾Ò£ Ñĭ
ĠÐ°ÒĽÐ¿Ð°ÑĢÐ°ÑĤ ÑĤÐ°Ð½Ð´ÑĭÑĢÑĥ
ĠÐ°ÑĢÑĤ ÒĽÐ°Ð½
ĠÐ¼ÐµÐºÐµÐ¼ ÐµÐ»ÐµÑĢÑĸÐ½ÑĸÒ£
ÐľÒ± ÒĵÐ°Ð»
ĠÐ¼Ð¾Ð¹ Ð½
ĠÐ°Ð»ÒĽ Ð°Ð¿
A le
ĠÐ¾ÑĢ Ð´
ĠÐ°ÑĥÑĭÐ» Ð´Ð°
ĠÒļÑĭÑĤÐ°Ð¹ Ð´ÑĭÒ£
ĠÒ¯Ð¹ÑĢÐµÐ½ ÐµÐ´Ñĸ
Ð· Ð¾Ð¼Ð±ÑĭÐ»
Ò° Ð¹ÑĭÐ¼Ð´Ð°ÑģÑĤÑĭÑĢÑĥ
Ðĳ ÐµÐº
ĠÐ¶Ò±Ð¼ Ð±Ð°ÒĽ
ĠÐĴ ÐµÐ½
ĠÐĳÐ°Ð» Ð°Ð»Ð°ÑĢÐ´ÑĭÒ£
ĠÐ°Ð¹Ð¼Ð°ÒĽ ÑĤÐ°ÑĢ
ÐµÑĤÐµÑĢ Ð±ÑĥÑĢÐ³
ĠÐ°Ð¹ Ð»Ð°ÑĢÑĭÐ½Ð´Ð°
Ð±ÐµÑĢ ÐºÑĥÐ»
ĠÑĤÐ¾Ð¿ ÑĤÐ°Ð¼
Ð´ Ð¸Ð½Ð³
Ð°Ñĥ Ð´Ñĭ
ÐµÑĤÑĤ ÑĸÐ¼
ĠÐļ Ó©Ð·
ĠÐ¶Ò±Ð¼ ÑģÐ°Ñĥ
ĠÑģÓ©Ð· ÑĸÐ½ÑĸÒ£
ĠÐ°ÑģÐ¿ Ð°Ð¹ÑĤÑĭÐ½
ĠÐĸÒ±Ð¼ Ð°Ð±Ð°ÐµÐ²
Ġ on
Ð» ÑĭÐ»ÑĭÒĽ
ÑĤÐ°Ñĥ Ñĭ
ĠÑģÐ¾Ð» Ð°ÑĢÐ´ÑĭÒ£
Ð°ÒĽÑĤÐ°ÑĢ ÒĵÐ°
ĠÐŁÐ°ÑĢ Ð¸Ð¶
ĠÑģÐ°ÒĽÑĤÐ°Ð» ÑĥÑĭÐ½
Ð± ÐµÑģÑĸ
ĠÐŀÐ½ Ð´Ð°Ð¹
ĠÒĽÐ°Ð» ÑĥÑĭ
ÐµÑĥÐ¼ ÑĸÐ·
ĠÐ¿Ð°Ð¹ÑĭÐ· Ð´ÑĭÒĽ
Òļ ÑĭÑģ
ĠÑĤÐ°Ò£Ð´Ð° ÒĵÐ°Ð½
ĠÐ±Ð¸Ð»ÑĸÐº ÑĤÑĸÒ£
ĠÐ´Ð¸Ñģ ÑģÐµÑĢ
Ðļ Ð°ÑĢ
ĠÐĿ Ð¾ÑĢ
ĠÐ°Ð¹ÒĽÑĭÐ½ Ð´Ð°Ð¹Ð´Ñĭ
ĠÐ¡ Ò±ÑĢÐ°ÒĽ
ĠÐ¶ÐµÑĤ ÑĸÑģÑĤÑĸ
Ġ6 3
ĠÑģÐ°Ñĥ ÑĭÒĽÑĤÑĭÑĢÑĥ
ĠÐ±Ð¾Ñģ Ð°ÑĤÑĥ
ĠÑģÐ¾Ð· ÑĭÐ»ÒĵÐ°Ð½
ÑĭÒĵ Ñĥ
ĠÑĦ Ð»
ĠÐĵ ÑĢÑĥ
ĠÐ¼Ð°ÒĽÑģÐ°ÑĤ ÑĭÐ½Ð°
ĠÑĤÒ¯Ð½ Ð³Ñĸ
ĠX V
ĠÐĲÐ² ÑĤÐ¾ÑĢ
ĠÐ°Ð» ÑĮ
ĠÐ¶Ò±Ð¼ Ð°
ĠÐł Ñĥ
ĠÐ¶Ð°ÒĵÐ´Ð°Ð¹ Ð´ÑĭÒ£
ĠÐĺ ÑģÐ°
ÐĳÐ°Ð¹ ÒĽÐ°Ñĥ
Ð¶Ð°Ð± Ð´ÑĭÒĽÑĤÐ°ÑĢ
ĠÐ¾ÑĤÐ± Ð°ÑģÑĭÐ½
ĠÑĤÑĭÐ½ÑĭÑĪ ÑĤÑĭÒĽ
ÑĪ Ð°Ð½
ĠÐºÒ¯Ð½ ÑĸÐ½Ð´Ðµ
ÑĥÐ» Ð»Ð°
ÐºÒ¯Ð¹ Ñĸ
ĠÐ½ÑĭÑģÐ°Ð½ Ð´Ð°ÑĢ
ÒĽÑĭÑĪ ÑĤÐ°ÑĢ
ĠÑĤÐ°ÒĵÐ°Ð¹ÑĭÐ½ Ð´Ð°Ð»ÒĵÐ°Ð½
ĠÐ¨ Ð°ÑĢÑĤ
ĠÐĲÐ»Ð»Ð°Ò» ÑĤÑĭÒ£
ĠÒĽÐ¾Ð» Ð´Ð°ÑĥÒĵÐ°
ĠÐ·Ð°Ò£ Ð¼ÐµÐ½
ĠÐĨ Ð·
ĠÑģÑĭÐ½ÑĭÐ¿ ÑĤÐ°ÑĢ
Ð´ÑĸÐ¼ Ð³Ñĸ
ÑĭÑģ ÑĭÐ½Ð°Ð½
ĠÐĲ ÑĢÑĤ
ĠÐ¿ÑĢÐ¾ÑĨ ÐµÑģÑĸÐ½ÑĸÒ£
ĠSp utnik
Ġ ðŁ
Ñģ ÑĸÐ½ÑĸÒ£
ĠÑĦÐ¸Ð» Ð¾Ð»Ð¾Ð³Ð¸Ñı
ĠÐ¾ÑĤÐ±Ð°Ñģ ÑĭÐ½Ð°
ĠÒĽÐ°Ð» Ð°Ð»Ð°ÑĢÑĭÐ½Ð´Ð°
Ð´ÑĸÐº ÐºÐµ
ĠÑĩÐµÐ¼Ð¿Ð¸Ð¾Ð½ Ð°ÑĤÑĭÐ½Ð´Ð°
ÑĥÑĢ Ñĥ
ĠÐľ ÑĭÑĢÐ·
Ð´Ð°ÒĵÑĭ Ð´Ð°Ð¹
ĠÐºÐµÐ·Ð´Ðµ Ð¹
ĠÐ´ÐµÐ½ ÐµÑģÑĸ
ÑģÐº Ð¾Ð¼
ĠÐ±Ð°ÑģÑĪ ÑĭÑģÑĭÐ½Ð°
ĠÐĳÐµÐ» Ð°ÑĢÑĥÑģÑĮ
Ð°ÑĢ Ð»Ñĭ
ĠÐ½ Ð°ÒĽÑĭÐ»
ĠÑįÑģÑĤ ÐµÑĤÐ¸ÐºÐ°Ð»ÑĭÒĽ
Ð±Ð°Ð¹Ð»Ð°Ð½ ÑĭÑģÑĤÑĭ
ĠÐ±Ð°ÑģÒĽÐ°ÑĢÑĥ Ð´Ñĭ
ĠÐ» Ð¸ÑĨÐµÐ¹
Ð±Ð°Ñģ Ð°ÑĢ
ĠÐ°Ð½ÑĭÒĽ ÑĤÐ°Ð¹ÑĤÑĭÐ½
Ð¾Ð· Ð¸ÑĤÐ¾ÑĢ
ÐŃ Ð½ÐµÑĢÐ³
âĢ¦ ]
ĠÒ¯ÑģÑĤ ÑĸÐ½ÐµÐ½
ĠÑģ Ð¾ÑģÑĭÐ½
ĠÓ©Ð· ÑĸÒ£ÑĸÐ·
ĠÐļ Ó©Ð»
ÐµÑĤÑĤÐµÑĢ ÑĸÐ½ÑĸÒ£
ĠÐºÐµÐ´ÐµÑĢ Ð³ÑĸÐ»ÐµÑĢ
Ð¼Ò±ÑħÐ°Ð¼ ÐµÐ´
ĠÐ»Ð°ÑĥÑĢÐµ Ð°ÑĤÑĭ
ĠÐº ÓĻÑĢ
ĠÐ¶ÑĭÐ» Ð´Ð°ÑĢÑĭÐ½Ð´Ð°
ĠÒĽÐ¾Ð»Ð´Ð°Ð½ ÒĵÐ°Ð½
ĠÐ¶ÐµÒ£ÑĸÐ¼Ð¿Ð°Ð· Ð´Ð°ÑĢÑĭ
ĠÐ¶Ò¯ÐºÑĤ ÐµÐ»Ð³ÐµÐ½
ÑįÑĦ ÑĦÐ¸ÑĨ
8 5
Ð¾Ð½ Ð°
Ð¢ ÑĸÑĢ
ĠÐ¶Ò¯ÑĢ Ð¼ÑĸÐ½
Ð±Ð¾Ð» ÑĭÐ¿
ĠÓĻÑĢÐµÐº ÐµÑĤÑĤ
ÐļÐ¾Ð¼ Ð¿ÑĮÑİ
ĠÐ¸ Ð±Ð½
ĠÑĤÒ¯ÑģÑĸÐ½ ÑĥÐ³Ðµ
ÒĴ ÑĭÐ»ÑĭÐ¼
ÑĸÐ»Ñĥ ÑĸÐ½
ĠÑĤÐ°ÑĢ Ð°Ð»
ĠÐ¶Ò¯Ð· Ñĸ
ĠÐµÑĤÑĥ Ð´ÑĸÒ£
ĠÐ±ÐµÑĤ ÑĸÐ½Ð´ÐµÐ³Ñĸ
Ð¡ÑĸÐ· Ð´ÑĸÒ£
ĠÐ¿ÑĢÐ¸Ð½ÑĨÐ¸Ð¿ ÑĤÐµÑĢÑĸ
Ð¢Ó©ÑĢ ÑĤÑĸÐ½ÑĪÑĸ
ĠÐ¾Ñı ÑĤÑĥ
ĠÐºÐµÑĤ ÐµÑĢ
Ð´ÐµÐ» ÑĮ
ÐºÐµÐ» ÐµÒ£
ĠÑĤÐµÐ¼ Ñĥ
ĠÐ½Ð¾Ð¼Ð¸Ð½ Ð°ÑĨÐ¸Ñı
Ò± Ð¹ÑĭÐ¼
ĠÐ¶Ð°Ð· ÑĭÐ»ÑģÑĭÐ½
ĠÐ¶Ð°ÑĢÐ¸Ñı Ð»Ð°Ð¹Ð´Ñĭ
ĠÐ¿ÑĸÑĪ ÑĸÐ½
ĠÐ¨ Ð¾Ð»
ĠÑĤÒ± ÒĽÑĭÐ¼Ð´Ñĭ
Ġ6 9
âĢĿ .
200 4
ĠÒĽÒ±Ð½Ð´ÑĭÐ»ÑĭÒĽ ÑĤÐ°ÑĢÐ´Ñĭ
ĠÐ¢ÐµÑħÐ½ Ð¸ÐºÐ°Ð»ÑĭÒĽ
ÐĲ Ðļ
ĠÐĸ Ð¸
ĠÐ´ÑĭÐ± ÑĭÑģÑĭ
ĠÑĤÒ±ÑĢ Ð¼
Ðĸ Ð¾Ð±
ĠÑģÓ©Ð· ÑĸÐ½ÑĪÐµ
ĠÑĤÐ¾Ð¿ ÑĭÑĢ
ĠÐĲÒĽ ÑĪÐ°
ĠÐ±Ð°ÒĵÐ°Ð»Ð°Ñĥ Ð´ÑĭÒ£
ĠÐ±ÑĸÐ»ÑĸÐ¼ Ð³Ðµ
Ð°ÑĤÑĤÐ°Ð½ Ð´ÑĭÑĢÑĭÐ»ÒĵÐ°Ð½
ĠÐºÐµÒ£ÐµÐ¹ÑĤ ÑĸÐ»Ð³ÐµÐ½
ĠÒļ Ð°Ð¿
ĠÑĥÐ°ÒĽÑĭÑĤ ÑĤÐ°Ð½
Ð¸Ð°Ð» Ð´ÑĭÒĽ
ĠÐ½ÓĻÑĤÐ¸Ð¶ ÐµÐ³Ðµ
Ġ[ âĢ¦]
200 0
ĠÓ©ÑĤÑĥ Ð´Ðµ
ĠW eb
ĠÐ¶Ð¾Ñİ ÒĵÐ°
ĠÐ±Ð°ÒĵÐ°Ð¼ Ñĭ
Ð½ ÓĻÑĢ
Ð°Ð½ ÑĭÒĽ
Ðľ ÐķÐ¢
ĠÐ¾Ð¹ Ð»Ð°ÒĵÐ°Ð½
ĠÑĤÓ© ÑģÐµÐº
ĠÐ» Ð°Ð³ÐµÑĢ
ĠÐºÐµÐ·ÐµÒ£ Ð´ÐµÐ³Ñĸ
ĠÐ¶ÐµÑĤÐºÑĸÐ· ÑĸÐ»Ð´Ñĸ
ĠÑģÐ¸Ð¿Ð°ÑĤ ÑĤÐ°Ð¼Ð°
ĠÐ°ÑĥÐ» Ð°ÒĽ
ĠÑģÐ°Ð» Ð°Ð»Ð°ÑĢÑĭÐ½Ð´Ð°
ĠÐ§ ÐµÐ¼Ð¿Ð¸Ð¾Ð½
ĠÑĢÐµÑģÐ¿ÑĥÐ±Ð»Ð¸Ðº Ð°Ð½ÑĭÒ£
ĠÐľÐ°Òĵ Ð¶Ð°Ð½
S T
ĠÑĤ Ð³
Ðĸ ÐĹÒļ
ĠÐµÐ» ÑĸÐ½Ð´Ðµ
ĠÓ©Ð½ ÑĸÐ¼Ñĸ
ĠÐ±Ð°ÑģÒĽÐ°ÑĢ ÑĥÒĵÐ°
ĠÐºÓĻÑģÑĸÐ¿ Ð¾Ð´Ð°ÒĽ
ÐºÐµÑĢÐ»ÐµÑĢ Ð³Ðµ
ĠÐ°ÑģÑĭÑĢÑĥ Ð´Ð°
ĠÑģÐ°Ð¹ÑĤ ÑĭÐ½Ð°Ð½
ĠÑĤÒ¯Ð½ Ñĸ
ĠÐ°Ð»Ð°ÑģÑĭÐ· Ð´Ð°ÑĢ
Ð¶ Ð°Ò£
ĠÑĢ Ð¾Ð»Ð¸Ðº
ĠÐ¾Ð¹ Ñĭ
ĠÐ°Ñı ÒĵÑĭÐ½Ð°
ĠÑĤÐ°ÒĽÑĭÑĢÑĭÐ± ÑĭÐ½Ð´Ð°ÒĵÑĭ
ĠÓ©Ð»ÐµÒ£ Ð´ÐµÑĢÑĸ
ĠÐ°ÑĤÐ»ÐµÑĤ Ð¸ÐºÐ°
Ñĥ Ð´ÐµÐ½
ĠÐ¶Ð°ÑĢ Ð°ÑĤÑĭÐ»ÑĭÑģÑĤÐ°Ð½Ñĥ
ĠÐ¶Ð¾Ð¹ ÑĭÐ»Ð´Ñĭ
ĠÐºÓ© Ð¹
ÑĤÐ°ÑĢ Ð°Ð¿
ĠÐ¾ÑĢ Ð°ÑģÐ°Ð½
Ð¢ Ð¾ÑĢ
ÑĤÐ°Ð» Ð°Ñģ
ĠÐ¿ÑĢÐ¾ÑĦÐµÑģÑģ Ð¾ÑĢÑĭ
ÒļÐ¾Ñģ ÑĭÐ¼ÑĪÐ°
ÐĨ ÑĪÐºÑĸ
ĠÑĤÒ±Ð»Òĵ Ð°ÒĵÐ°
Ð¾Ð»ÑĮ ÑĪÐ°
ĠÑģÐ°Ð± Ð°Òĵ
ĠÐºÑĥÑĢ ÑģÑĭ
Ñģ Ð°Ð±Ð°ÒĽ
ĠÒĽ Ð¸Ð½
Ð°Ðº Ñĥ
ĠÑĪÐµÑĪÑĸÐ¼ ÑĸÐ½Ðµ
ĠÐ±Ð°ÑģÑĤÐ°Ñĥ Ñĭ
ĠÓĺÐ»ÐµÐ¼ Ð´ÑĸÐº
Ð± ÑĸÐ½
Ð« Ð¡Ð¢
ï»¿ ï»¿
ÒĽÐ¾Ñģ ÑĭÐ¼ÑĪÐ°
ĠÐºÐµÐ·Ð´ÐµÐ¹ ÑģÐ¾ÒĽ
Ð¼ ÐµÑģ
Ð¿ ÑĸÐ·
ĠÐĳ ÑİÐ´Ð¶
Ð°ÑĪ ÑĭÒĽ
ĠÐµÐºÑĸ Ð¶Ð°ÒĽÑĤÑĭ
Ð°Ð¼ÑĭÐ· ÒĵÐ°
ĠÑģÑĭÐ½ÑĭÐ¿ ÑĤÐ°
ĠÐ¾Ò£ Ð°Ð»ÑĤÑĥ
ĠÐ¼Ò¯Ð»ÑĸÐº ÑĤÑĸÐº
ĠÐ±Ò±Ð·ÑĥÑĪÑĭÐ»ÑĭÒĽ ÑĤÐ°ÑĢ
ĠÐķ Ð³
ĠÒ¯Ð¹ Ð»ÐµÑĢÐ´ÑĸÒ£
Ð°ÒĽÑĤÑĭ Ð»Ñĭ
ĠÑĤÐ¾Ð» ÑĭÐ¿
ĠÐºÓ©ÑĤÐµÑĢ Ð´Ñĸ
ĠÒĽÐ¾Ñı ÑĤÑĭÐ½
ĠÐ¨ÑĭÒ£ ÒĵÑĭÑģ
ĠÐ½Ðµ Ð´Ðµ
ĠÐ±Ð°ÑģÒĽÐ°ÑĢ ÒĵÐ°Ð½
ĠÐ±Ð°ÒĵÑĭÑĤ ÑĤÐ°ÑĢÑĭÐ½
ĠÐ¶Ð°ÑģÐ°Ñĥ Ð´Ð°
ĠÑĤÑĥÒĵÐ°Ð½ ÑĭÐ½Ð°
ĠÒļÐ¾ÑĢ ÑĭÑĤÑĭÐ½Ð´Ñĭ
Ð±ÐµÑĢÐºÑĥÐ» ÐµÐ·
e v
Ð¸ Ð´ÑĸÒ£
ĠÐ±Ð°ÑĢ ÑĭÐ½
Ð°Ð¹ Ð´ÑĭÒ£
ĠÐľ Ð¾Ò£ÒĵÐ¾Ð»
Ð¡ ÑĭÐ½
ĠÑĤÒ¯Ñģ ÑĸÐ½ÐµÐ´Ñĸ
ĠÐĨ Ð»Ðµ
ĠÐ¶Ð¸Ð½Ð°ÒĽ ÑĤÐ°Ð»ÒĵÐ°Ð½
ĠÐ¶Ò±ÑĢÑĤ ÑĤÑĭÒ£
ĠÐµÐ³ Ð¶ÐµÐ¹
i ÑģÑĤ
ĠÐ·Ð°Ò£ Ð´Ð°
ĠE x
Ð± Ð°Ð»Ð°
ĠÐ°ÑĢÐ½ Ð°ÒĵÐ°Ð½
ĠÐ¿ÑĸÐºÑĸÑĢ Ñĸ
ĠÑģÒ± Ð¹
ĠÐ°Ð» ÑĭÒ£ÑĭÐ·
ÐµÐ»ÐµÑĢ Ð´Ðµ
ÐĲÐ¡ Ð«ÐĿÐ«Ò¢
ÓĻÐ»ÐµÐ¼ Ð´ÑĸÐº
ĠÐ¶ÑĥÑĢ Ð½Ð°Ð»Ñĭ
ĠÐŀ Ð¿ÐµÑĢ
ĠÐļ Ò¯Ð»
ĠÒĽÐ°Ð¶ Ñĭ
ĠÐºÒ¯ÑĤ ÑĸÐ¼
ÐĶÐĨ Ò¢
ÑĪÑĸÐ»Ñĸ Ð³ÑĸÐ½Ðµ
ĠÐ±Ð¾Ñı Ñĥ
ĠÐľ ÐµÐ´
ÐµÑģÑĤ ÐµÑĢÑĸ
ĠÐ°ÑĥÐ´Ð°Ð½ ÑĭÐ½Ð°
ĠÐ´Ð°Ð¹ ÑĭÐ½Ð´Ð°ÑĥÒĵÐ°
ĠÐ¶ÐµÑĢÐ»ÐµÑĢ Ð´Ñĸ
ĠÐ¡ Ð°ÑıÑģÐ¸
Ð¸ÑĤ ÑĤÐµÑĢ
ĠÐ¶Ð¾Ð» Ð´ÑĭÒ£
ĠÐºÐ¾Ð¼ Ð±Ð¸Ð½
Ð¾Ð»ÑĮ ÐºÐ»
ĠÐ±Ð¾Ð»Ð¶ Ð°Ñĥ
ĠÐ¸Ð½Ð´ÑĥÑģÑĤÑĢ Ð¸ÑıÐ»ÑĭÒĽ
Ð¶Ð¾ ÒĵÐ°ÑĢÑĭ
ÐĳÑĸÐ» ÑĸÐ¼Ð´ÑĸÐ»ÑĸÐº
Ð³ ÑĸÐ¼ÑĸÐ·
ĠÑĪÑĭÒĵÐ°ÑĢ ÑĭÐ»Ð°Ð´Ñĭ
ĠÒĵÑĭÐ»ÑĭÐ¼ Ð½ÑĭÒ£
ÑĢÐµÑģ ÑģÐ¸Ñı
ÑĤÐ°Ð» ÑĥÑĭ
ĠÐ¾Ð» Ð°Ð¹
ĠÐ±ÐµÐ´ÐµÐ» Ð´Ñĸ
ĠÐĲ ÒĵÑĭÐ»ÑĪÑĭÐ½
ĠÒ± Ð´Ð°Ð¹Ñĭ
ĠÓ©Ð¼ÑĸÑĢ ÑĸÐ½Ð´ÐµÐ³Ñĸ
ĠÒļÐ¾ ÑĪ
ĠÐ¶ÐµÑĢÐ»ÐµÑĢ ÑĸÐ½Ð´Ðµ
ĠÐ± Ð¾Ðº
ĠÑģ ÐµÑĢÑĸ
ĠÐ±Ð¾Ð» ÑģÐ°Ò£
Ó©Ð· ÑĸÐ½
ĠÐĶ ÑĥÐ»Ð°ÑĤ
ĠÐºÐµÑĪ ÐºÐµ
iÐ» ÐµÑĤiÐ½
ĠÐ°ÑģÑĭÑĢÑĥ Ð´Ñĭ
Ð¨ Ð°ÒĵÑĭÐ½
ĠÐµÑģÐµÐ¿ ÑĤÐµÑĢÐ´Ñĸ
ĠÑĤÒ± ÑģÑĤÐ°
Ð°Ð»ÑĮ Ð´
ĠÐ± Ð°Ð±Ñĭ
ÐĲ ÒĵÑĭÐ»ÑĪÑĭÐ½
ĠÐĶ ÓĻÑĢÑĸÐ³ÐµÑĢ
Ð±ÑĸÑĢ ÑĸÐ½ÐµÐ½
ĠÑĤÑĥ Ð°Ð´Ñĭ
ĠÐ¢Ò¯ÑĢ ÐºÑĸ
ĠÐ¢Ó©Ð» Ðµ
ĠÐł ÑĥÑģ
ÐĶ Ð¸Ð¿Ð»Ð¾Ð¼
ĠÒ±Ð¹ÑĭÐ¼ Ð´Ð°ÑĢÒĵÐ°
ĠÐ·Ð°Ò£ Ð´Ð°ÑĢ
ĠÐ½ÓĻÑĤÐ¸Ð¶ ÐµÐ»ÐµÑĢ
ÐĲÐ´Ð°Ð¼ Ð½ÑĭÒ£
ĠÐ¶Ð¸Ð½Ð°ÒĽÑĤÐ°Ñĥ ÑĪÑĭ
ĠÐ´ÐµÐ»ÐµÐ³ Ð°ÑĨÐ¸Ñı
ĠÐĿ Ð°Ñĥ
Ð´ÑĭÑĢ ÑĭÒĽ
ĠÐ² Ð¾Ðº
Ð¸Ñģ ÑĮ
Ð¼ÐµÑĤ Ð°Ð»ÑĭÒĽ
ÑĸÐ½Ð´ ÐµÑĤÑĤÑĸ
ĠÐ Ļ
Ð¸ Ð°Ð´Ð°
ĠÐ¾ÑĢ ÐºÐµÑģÑĤÑĢ
ĠÐ¡ Ð°Ð¿
ĠÐľ Ñĥ
ĠÐ°ÑĤ Ð°ÒĵÐ°Ð½
ĠÒ±Ð» Ð°Ð½
ĠÐ¶Ð°ÒĽ Ñģ
ÑĪÑĸÐ»ÐµÑĢ ÑĸÐ½ÑĸÒ£
ĠÐºÐµÐ»ÑĤÑĸÑĢ ÑĸÐ¿
ĠC Ò±ÑĢÐ°ÒĽ
s h
ÑĤ Ð±Ð°ÐµÐ²
ĠÑģÐ°Ð» Ð°ÑĤÑĭÐ½
ĠÐ¶Ð°ÒĵÐ´Ð°Ð¹ ÑĭÐ½Ð´Ð°ÒĵÑĭ
ĠÒĽÐ°ÑĤ Ð°ÑĢÑĭ
ĠÒĽÒ±Ð¶ Ð°ÑĤÑĤÑĭ
ĠÑĪÐ°ÒĽÑĭÑĢ Ð°Ð¼ÑĭÐ·
ĠÐ¶ÑĸÐ³ÑĸÑĤ ÑĤÑĸÒ£
ĠÒĽÐ¾ÑĢÒĵ Ð°Ð¿
ĠÐ¶Ð°Ð»Ð°ÒĽ ÑĭÑģÑĭ
Ð¾Ð²Ð¾ ÑģÑĤÐ¸
Ð¾ÑĢ ÑĭÑģ
ĠÑĤÐ°Ð± ÑĭÐ»
Ð±ÐµÑĢ Ð½
ĠÐ¶Ð¾ÑģÐ¿Ð°ÑĢ Ð»Ñĭ
ĠÒļÐ°Ð· Ð°Ð»Ñĭ
ÒĽÐ°ÑĤÑĭÐ½ Ð°ÑģÑĭ
Ð¨ÑĭÐ¼ÐºÐµÐ½ÑĤ ÑĤÐµ
ĠÐºÑĥÓĻÐ»Ð°Ð½ Ð´ÑĭÑĢÐ°ÑĤÑĭÐ½
ÒĽ Ð°Ð·Ð°ÒĽÑģÑĤÐ°Ð½
Ð¸Ð¿ Ð°ÑĤ
ĠÑģÐ°Ð±Ð°ÒĽ ÑĤÐ°Ñģ
Ġ0 5
ĠÐ¿ÑĢÐ°ÐºÑĤ Ð¸ÐºÐ°
ÑĤÓĻÐ¶ÑĸÑĢÐ¸ Ð±ÐµÐ»ÑĸÐº
Ð ¬
Ð¢ ÐķÐł
Ðķ Ð½
Ġ0 8
ĠÐºÐ¾ ÑįÑĦÑĦÐ¸ÑĨ
ĠÑĤÒ±ÑģÐ°Ñĥ ÐºÐµÑģ
ĠÐ¨ Ð°Ð¼
ĠÐ°Ñı ÑģÑĭÐ½Ð´Ð°ÒĵÑĭ
ĠÐ°Ð¿ Ð¿Ð°ÑĢ
ÐŃ Ð»ÐµÐºÑĤÑĢÐ¾Ð½Ð´Ñĭ
ĠÒ¯Ð½ÐµÐ¼ Ð´ÐµÑĥ
ÐºÐµÒ£ ÐµÑģ
ĠÑģ Ð°Ò£
ÐĲ Ð¿
ĠÐ¶Ð°Ñģ ÑĥÑĪ
ĠÑĤÐ°ÑĥÐ°ÑĢ Ð»Ð°ÑĢÐ´ÑĭÒ£
ĠÐµÑĢÐµÐºÑĪÐµÐ»ÑĸÐº ÑĤÐµÑĢÑĸÐ½Ðµ
ÑĤÐ°Ð» Ñĥ
ĠÑĸÐ· Ð³Ñĸ
ĠÑģÑĥÑĢ ÐµÑĤÑĸÐ½
ĠÐĸÐ°ÑĢ Ð»ÑĭÒĵÑĭÐ¼ÐµÐ½
ĠÑįÐ½ÐµÑĢÐ³ ÐµÑĤÐ¸ÐºÐ°Ð»ÑĭÒĽ
ĠÐ°ÑĤÐ°Ñĥ ÑĭÐ½
ĠÐľ ÐķÐľÐĽÐķÐļÐķÐ¢Ð¢ÐĨÐļ
ĠÐ°Òĵ ÑĭÐ½
ĠÑĭÒĽ ÑĪÐ°Ð¼
ĠÐ¿ÐµÑĢÐ· ÐµÐ½ÑĤ
ĠÐ¼ Ð°ÑħÐ°Ð±
ĠÐ°Ð» ÒĽÐ°
ÒĽÐ° ÐµÐ²
Ð´ÐµÐ½ Ð³ÐµÐ½
ĠÐ¶Ò±Ð¼ÑĭÑģ ÑģÑĭÐ·Ð´ÑĭÒĽ
ĠÐ±Ð°ÑģÒĽ Ð°Ð»Ð°ÑĢ
ĠÓĺ Ð´ÐµÑĤÑĤÐµ
ÑĸÐ¼Ð´Ñĸ Ð»ÑĸÐ³Ñĸ
ĠÐ°Ñı Ð»
Ò° ÐĽ
ĠÑģÑĭÐ½ Ð¸
ĠÐ¼ÐµÐ´ Ð°Ð»
ĠÐ¸Ð¼ Ð¼ÑĥÐ½
ÒĵÒ±ÑĢ ÑĭÐ¿
ĠÐ°Ð»ÑĥÑĪÑĭ ÒĵÐ°
ĠÑĨÐ¸ÑĦÑĢ Ð»Ð°Ð½Ð´ÑĭÑĢÑĥ
Ðº Ð°Ð»ÑĭÒĽ
ĠÐ±Ð¾Ð» Ð´ÑĭÒĽ
ÓĻÐ» ÐºÑĸÐ¼
ĠÒĽÒ±Ð¶Ð°ÑĤ ÑĤÐ°Ð¼Ð°
ÒĽ Ð¾Ð¶Ð°
Ðº ÑĥÑĢÑģÑĤÐ°ÑĢ
ĠÐº ÑĸÑģÑĸÐ½ÑĸÒ£
Ð± Ð°ÑĢÐ»ÑĭÒĽ
ĠÐ· ÑĭÐ¼ÑĭÑĢ
ĠÐ¨ ÐµÑĪ
ĠÐ¾ÒĽÑĭÑĤÑĥ Ð´Ñĭ
ĠÒļÐ°ÑĢ Ð°ÒĽ
ro id
ÐĵÐĨ ÐĹ
ĠÑĤÐµÐ»ÐµÐ°ÑĢÐ½ Ð°ÑģÑĭ
ĠÐ¢Ð°Ð» ÒĵÐ°ÑĤ
ĠÐ¾ÑĢ Ð°Ð·Ð°
Ð´ÐµÐ½ Ñĸ
ĠÐ¶Ò¯Ð¹ ÐµÐ½Ñĸ
ĠÐ¿ÑĢÐ¾Ð²Ð¸Ð½ÑĨÐ¸Ñı ÑģÑĭÐ½Ð´Ð°
m p
Ð°ÑĢ Ñħ
ÑĤÐ°Ð½ ÑĥÑĪÑĭ
ĠÐºÐµÑĪ ÐºÑĸ
ĠÒĽÑĥ ÒĵÑĭÐ½
ĠÓ¨Ð· ÑĸÐ½ÑĸÒ£
ĠÑĤÒ¯Ð¹ ÑĸÐ½Ð´Ðµ
ĠÐ°ÑģÑĤ ÑĭÐ½Ð°
ĠÒļÐ¾Ð¶ Ð°
Òĵ ÑĭÐ»ÑĭÐ¼Ð¸
ĠÐ¢ Ð¸Ð¼
ĠÐ¶Ò¯ÑĢÐ³ÑĸÐ· ÐµÑĤÑĸÐ½
ĠÐ¼Ð¾Ð±Ð¸Ð»ÑĮ Ð´Ñĸ
n et
Ð¸Ñı ÑģÑĭÐ½
ĠÐ°Ð» Ð´Ð°
ĠÑħ Ð¸ÑĢÑĥÑĢÐ³
ĠÐ¶Ò¯ÑĢÐ³ÑĸÐ·Ñĥ ÑĪÑĸÑģÑĸ
ĠÐ°Ð»Ð¼ Ð°ÑģÑĤÑĭÑĢ
ÐĸÐ¾ÒĵÐ°ÑĢÑĭ Ð´Ð°
ÐľÐ°ÑĤ ÐµÐ¼Ð°ÑĤÐ¸ÐºÐ°
Ð¸Ñı Ð»Ñĭ
ĠÐ´ÐµÑĢÐµÐº ÑĤÐµÑĢÑĸ
ĠÓĻÐ·ÑĸÑĢÐ» ÐµÐ¹Ð´Ñĸ
Ð´ ÑĸÐ½
Ð´Ñĭ Ð»ÑĭÒĵÑĭ
ĠÐ¾ ÑģÑĭÐ»Ð°Ð¹ÑĪÐ°
ĠÐĹ Ð°Ðº
ĠÐ¼ÓĻÑģÐµÐ»ÐµÐ»ÐµÑĢ ÑĸÐ½Ðµ
ĠÐ¼ÓĻÑĤÑĸÐ½ Ð´Ñĸ
ĠÑģÑĥÐ±ÑĬÐµÐºÑĤÑĸÐ»ÐµÑĢ ÑĸÐ½ÑĸÒ£
Ð¸Ñı Ð»Ð°Ð½Ð´ÑĭÑĢÑĥ
ĠÐ±Ð¾Ð» ÑģÐ°Ð¼
ĠÐľ Ðļ
Ð¡ ÐĨ
ÑĮ Ðµ
ĠÒļÐ°Ð¹ ÑĭÑĢ
ĠÐ´Ð°Ð¼Ñĭ ÑĤÑĭÐ¿
ĠÑģÐ°ÑĢÐ°Ð¹ ÑĭÐ½Ð´Ð°
ĠÐµÑĢÐµÐºÑĪÐµÐ»ÐµÐ½ ÐµÐ´Ñĸ
ÑĤÐµÐ³ Ð¶ÐµÐ¹
S az
] ,
ĠÐ½ ÓĻ
ÐºÐµ ÑģÑĤÑĸÐº
ĠÑģÐ°Ð¹ ÑĤÑĤÐ°ÑĢ
ĠÐ¾ÒĽÑĭÑĤÑĥ ÑĪÑĭÐ»Ð°ÑĢ
ĠÐ¾ÑĢÑĭÐ½Ð´Ð°Ð» ÒĵÐ°Ð½
ĠÐºÐµÑģ ÑĸÐ¿
ÐŁÑĢ ÐµÐ·ÐµÐ½ÑĤÐ°ÑĨÐ¸Ñı
Ale mi
ĠÐ°ÑĤ Ð°Ð´Ñĭ
ĠÐ±ÑĸÐ» Ð¼ÐµÐ¹ÑĤÑĸÐ½
ĠÐĵ ÐµÐ½Ð½Ð°Ð´Ð¸Ð¹
ĠÐºÓ©Ð¼ÐµÐº ÐºÐµ
ĠÐłÐµÑģÐµÐ¹ Ð³Ðµ
ĠÐ¼ÓĻÐ¶ÑĸÐ» ÑĸÑģ
ÑĢ Ð¾Ð²
Ð°Ð¼ Ð¸
ĠÐŀ ÑģÐ¿Ð°Ð½
ĠÐ· ÐµÐ¹ÑĸÐ½
ĠÑĦ Ð°ÑĢÐ¼Ð°
ÑĤÐ°Ñģ Ñĥ
ĠÐ¶Ñĸ Ð³ÐµÑĢ
ĠÓ©Ð½ÑĸÐ¼Ð´ÐµÑĢ Ð´Ñĸ
ĠÐ¾Ð¹ÑĭÐ¼ ÑĪÐ°
ĠÐ¢ Ð£Ðł
ĠÑĥÐ½Ð¸Ð²ÐµÑĢÑģÐ¸ÑĤ ÐµÑĤÑĤÑĸÒ£
Ð¼ Ð°ÑģÑĭÐ½ÑĭÒ£
ÓĻ Ð´ÐµÐ½Ð¸
ĠÐĲ ÑĤÐ°Ð¼
Ð¢ Ð°Ð¿ÑģÑĭÑĢ
ĠÒĽÑĭÐ·Ð¼ ÐµÑĤÑĤÐµ
ĠÓ©Ð½Ð´ÑĸÑĢ ÑĸÐ¿
ĠÐ¸Ð½ÑĦ ÐµÐºÑĨÐ¸Ñı
ĠÐºÐ¾ÑĢÐ¿Ð¾ÑĢ Ð°ÑĤÐ¸Ð²ÑĤÑĸÐº
ÐľÐĶ Ðĳ
ĠÐ¡ÑĭÑĢ Ð´Ð°ÑĢÐ¸Ñı
Ðº ÑĸÐ½ÑĸÒ£
ĠÐ°Ð²ÑĤ Ð¾ÑĢÐ»ÑĭÒĽ
ĠÑģÑĤ Ð¸Ð»ÑĮ
ÐµÐ¹ Ð±Ð¾Ð»
ĠÐºÒ¯ÑĢ Ð´ÐµÐ»
ĠÑģÐ°ÑĢ Ð±Ð°Ð·
ĠÐ¾Ð¿ÐµÑĢÐ°ÑĨÐ¸Ñı Ð»Ð°ÑĢÐ´Ñĭ
ÐĽ ÐĲÐł
ĠÐ¾ÑĢÑĭÐ½ Ð´Ð°Ð¹
ĠÒĽÐ¾ÑĢÒĵ Ð°Ð¹Ð´Ñĭ
ÐľÐ¸Ð½Ð¸ÑģÑĤÑĢ Ñĸ
ĠÐ¶Ò¯Ð» Ð´ÐµÐ»Ñĸ
ĠÐ¶ Ð°Ð¹Ñĭ
ĠÑĪÐ°ÑĢ Ð°ÑģÑĭ
ĠÐ± Ð°Ð¶
ÐµÐ½ Ð¾Ð²
Ð± Ð°ÑģÑĭÐ½
ĠÐ¶Ò±Ð¼ Ð´Ñĭ
ÐļÓ© ÑĪ
ĠÐ´Ð¾Ð» Ð»Ð°ÑĢÑĭ
ĠÐ°Ð¹ÒĽÑĭÐ½ Ð´Ð°Ð»Ð°Ð´Ñĭ
ĠÐ±Ó©Ð»Ñĸ Ð³ÑĸÐ½ÑĸÒ£
ĠÐ´Ð°ÑıÑĢ Ð»ÑĭÒĽ
ĠÒĽÑĭÐ»Ð¼ ÑĭÑģÑĤÐ°ÑĢ
ÐļÐµÒ£ ÐµÑģ
n e
ĠÐ° ÑĤÑĭÐ¿
ĠÐŀ ÐĳÐĽ
ĠÐļ Ò¯ÑĢ
ĠÐ² Ð¸Ð·
ĠÑĤÐ°ÑĢÐ¸Ñħ ÑĭÐ½Ð´Ð°ÒĵÑĭ
ĠÐ°ÑĥÑĢÑĥ Ð»Ð°ÑĢÐ´ÑĭÒ£
I N
Ñģ Ò¯ÑĢ
ĠÑģÑĥÐ±ÑĬÐµÐºÑĤ ÑĸÐ»ÐµÑĢÑĸ
ĠÐ¼ÐµÐºÐµÐ¼ÐµÐ»ÐµÑĢ Ð´ÑĸÒ£
ĠÑģ Ð»
Ð¸ÑĨ Ð°
ĠÐ´ÓĻ Ð¹
ĠÐ°ÑĥÑĢÑĥ ÑħÐ°Ð½Ð°
ĠÑģÐ°ÒĵÐ°ÑĤ ÑĤÐ°Ð½
ĠÑĢÐµÑĤÑĤ ÐµÐ¹ÑĤÑĸÐ½
Ġ Ò±ÑĢÑĭÑģ
Ð· Ñİ
ĠÐ°Ñĥ Ð»Ð°Ñĥ
ĠÐ¶Ò±Ð¼ ÑģÐ°ÒĽ
ĠÐºÑĸÑĢ Ð´Ñĸ
ĠÐ¤ Ð¾ÑĢÑĥÐ¼
ĠÐ¼Ó©Ð»ÑĪÐµÑĢ ÑĸÐ½Ð´Ðµ
an g
ĠÒ±ÑĢ ÑĭÐ¿
ĠÑģÒ¯Ð¹ÐµÐ½ Ðµ
ĠÐ¼ÑĭÐ½ Ð°Ñĥ
ĠÐ¶ÓĻÑĢÐ´ÐµÐ¼Ð°ÒĽ Ñĭ
ĠÐ°ÑĥÐ´Ð°ÑĢ ÑĭÐ»ÒĵÐ°Ð½
ĠÑĪ Ð°Ò»Ð°ÑĢ
Ð³ÑĸÐ½ ÐµÐ½
ÐµÐºÑĤ ÐµÑģ
ĠÑĤÓ© Ò£ÐºÐµÑĢ
ĠÑĸÑĢ ÑĸÐº
ĠÐ¾Ò£ÑĤÐ°Ð¹ Ð»Ñĭ
ĠÒļÒ±ÑĢÐ¼Ð°Ð½ ÒĵÐ°Ð·Ñĭ
nd roid
Ðŀ ÑĤÑĭÑĢ
ĠÐµÒ£Ð±ÐµÐº ÑĤÐµÑĢ
ĠÐ¶Ð¾Ð± Ð°Ð»Ð°ÑĢÐ´ÑĭÒ£
ĠÐ¢Ó©ÑĢÐµ ÓĻÐ»Ñĸ
Ó¨ÑĢ Ð»ÐµÑĥ
Ñģ ÓĻÐ¹ÐºÐµÑģ
ĠÑģÐ°Ð» ÑĥÐ´Ñĭ
ĠÐ°Ð½ ÑĤÐ¸
Ġ7 8
ĠÐ´Ð°Ð¼ÑĭÑĤÑĥ Ð´Ñĭ
Ð°ÒĽÑĤÐ°ÑĢ ÑĭÐ½ÑĭÒ£
ĠÑĸÐ» Ð³ÐµÑĢ
ĠÒĽ Ð°ÒĽÑĤÑĭ
ĠÐ±ÑĸÑĢÑĸÐ½ÑĪÑĸ Ð´ÐµÐ½
ĠÐ´ÓĻÑĢÐµÐ¶ ÐµÑģÑĸÐ½
ĠÑĪÐµÐ½ ÐµÑĥÐ½ÑĸÐº
ĠÐ½Ð°ÑĢÐ°Ð· ÑĭÐ»ÑĭÒĽ
ÒĽ ÑĭÐ½ÑĭÒ£
ĠÐ· Ð°Ð»Ñĭ
ĠÑĤÐ°ÒĽÑĭÑĢÑĭÐ± ÑĭÐ½
ĠÓ©Ò£ÑĸÑĢ Ð´ÐµÐ³Ñĸ
ĠÐµÑģÐµÐ± ÑĸÐ½
ĠÐ¼Ð°Ò£ ÑĭÐ½Ð´Ð°ÒĵÑĭ
ĠÑįÑĤÐ½ Ð¾Ñģ
ĠÑĢÐµÐº Ð¾ÑĢÐ´
ĠÐŀÑĢÑĭÐ½ Ð±Ð¾ÑĢ
ÐĴÐĺ ÐĶÐķÐŀ
ĠÐ°ÑģÑĭÑĢ ÑĭÐ»ÑĥÑĭ
ÐĴ Ð¸Ð´ÐµÐ¾
ĠÐ·ÐµÑĢÑĤÑĤÐµÑĥ Ð³Ðµ
ÐĲÑĥÐ´Ð°Ð½ Ð´ÑĭÒĽ
ÒĽ Ð°ÑĤÑĭÑģ
ĠÐŀ ÑģÑĭÐ½
ĠÐ¶Ð°Ð· ÑĭÐ»ÑĭÐ¿
ĠÐ±ÑĸÑĤ ÑĸÑĢÑĸÐ¿
ĠÐºÐµÑĪÐµÐ½ ÑĸÐ½ÑĸÒ£
Ð¢ ÐĲÐĿ
ĠÐ¶Ð°Ð½ Ð°Ð¼Ð°
Ð´ÑĭÑĢ Ð°
ĠÐ±Ð°ÒĵÑĭÑĤ ÑĭÐ½
ĠÐ¡ÓĻ ÐºÐµÐ½
ĠÐĲÐ¼Ð°Ð½ Ð¶Ð¾Ð»Ð¾Ð²
iÐ½ ÑĪi
ĠÐ¼ÐµÐºÐµÐ¼ ÐµÐ»ÐµÑĢÑĸ
ÑĪÐ°ÑĢ Ð°ÒĵÐ°
ĠÑįÐºÐ¾Ð½Ð¾Ð¼Ð¸Ðº Ð°ÒĵÐ°
ĠÒĽÒ±ÑĢÐ¼ÐµÑĤ ÑĸÐ½Ðµ
H ome
Ð» Ð½
Ñģ Ð°Ð»ÑĭÒĽ
Ð² ÐµÑĤ
ĠÑĢ ÐµÐºÑĤÐ¾ÑĢÑĭ
ĠÒĵ Ð°Ð¶Ð°Ð¹ÑĭÐ¿
ĠÑĤÐ°ÑĢÐ¸Ñħ ÑĭÐ½ÑĭÒ£
Ġ7 7
ĠÑģÐµÑĢ Ð¿
ĠÑģÐ¸Ð¿Ð°ÑĤ ÑĤÐ°Ð»Ð°Ð´Ñĭ
ĠÐºÐ¾Ð½ÑĨ ÐµÐ¿
ĠÒ¯ÑĢÐ´Ñĸ ÑģÑĤÐµÑĢ
ÐµÐ½ Ð¸Ðµ
Ġ0 4
st ag
ĠÐ¾Ð±ÑĬÐµÐºÑĤ Ð¸Ð²ÑĤÑĸ
ÑģÑĤ ÐµÐ½
ÐµÐ·Ð¸ Ð´ÐµÐ½ÑĤÑĸ
ĠÓ©Ð·Ð³ÐµÑĢ ÐµÐ´Ñĸ
ĠÑģÐµÑĢ Ð¿ÑĸÐ½
ĠÐ¢Ò±ÑĢ ÑģÑĭÐ½
ĠÐľ Ð¾Ð¼ÑĭÑĪ
ĠÓ©Ð»ÑĤÑĸÑĢ Ð³ÐµÐ½
ĠÐµÑģÐµÐ¿ÑĤ ÐµÐ¹Ð´Ñĸ
ÑĸÑĢÑĸÑģ Ð¿Ðµ
Ð° Ñĩ
Ð¾ Ðµ
ĠÐ¾ ÑģÑĭÐ½ÑĭÒ£
ĠÐ°ÑĤ Ð°ÒĵÑĭ
ĠÐ¾Ð¿ÐµÑĢ Ð°ÑĨÐ¸ÑıÐ»ÑĭÒĽ
ĠÐļ Ðŀ
ĠÒĽÑĥ ÑĭÑĢ
ĠÐºÓ©Ð·ÒĽÐ°ÑĢ Ð°ÑģÑĭ
ĠÐľÐµÐ¼Ð»ÐµÐº ÐµÑĤÑĤiÐº
Ð¼ÓĻÑĤÐµÐ» Ð´ÐµÑĢ
ĠÐ¶Ð°Ð· Ð°ÑģÑĭÐ½
Ġ6 4
ĠÒĽÐ°ÑĢÑģÑĭÐ» Ð°Ñģ
ÑĤ ÐµÐ¹Ð½
ÑĪ ÑĭÒĵÐ°ÑĢ
ĠÒĽÐ¾ÒĵÐ°Ð¼ Ð´Ð°ÑģÑĤÑĭÒĽ
ĠÒĽÐ°Ð»ÑĭÐ¿ÑĤÐ°Ñģ ÑĭÐ¿
ĠÒĽÐ¾ÒĵÐ°Ð¼ Ð´Ñĭ
ĠÒĽÐ¾Ð½ ÑĭÑģÑĤÐ°Ð½
ĠÐ½ÑĭÑģÐ°Ð½ Ð´Ð°ÑĢÑĭÐ½
. Â«
Ðº Ð¸Ð¹
ĠÒĽÑĭÐ·Ð¼ ÐµÑĤÑĤÐµÐ½
ÐĲÒĽÑĤÓ©Ð±Ðµ Ð´Ðµ
Ðº Ð°Ð»
Ð± Ð°ÑĤÑĭÑģ
ĠÐł ÑĥÑħÐ°Ð½Ð¸
Ġ9 8
ĠÐ±Ð°ÒĵÐ°Ð»Ð°Ñĥ ÒĵÐ°
ĠÐºÑĸÑĢÑĸÑģ Ð¿Ðµ
ĠÐ¾ÑĢÐ½Ð°Ð»Ð°ÑģÑĤÑĭÑĢ ÑĭÐ»ÒĵÐ°Ð½
ĠÒļÐ°Òĵ Ð¸Ð´
y l
Ðº ÑĤÐµÑĢ
ĠÐ¶ÑĭÐ» Ð´Ñĭ
ĠÐ±ÐµÑĢ Ð¼ÐµÐº
ĠÓ©ÑĤ ÐºÑĸÑĢ
ĠÒĽÐ¾Ð» Ð±Ð°Ñģ
ĠÐ¾ÒĽÑĥ Ð´Ñĭ
ĠÐ±ÑĸÑĢÐ»ÐµÑģÑĤÑĸ Ð³ÑĸÐ½ÑĸÒ£
Ð½ ÐµÑĤ
Ð´ ÑĭÐ½Ñĭ
Ð´Ð°Ð½ Ð´Ñĭ
ĠÐ¾ÒĽ ÑĪÐ°Ñĥ
Ð¨ ÐĲ
ĠÑģÑĥ Ð°ÑĢ
ĠÐ¼ÐµÑĢ ÐµÐ¹
ĠÐ¾ÒĽÑĭÑĤÑĥ ÒĵÐ°
ĠÓĻÐ· ÑĸÐ»
Ð» ÐµÐ½Ð´ÑĸÑĢÑĥ
Ġ6 7
ÑĥÐ· ÐµÐ¹
ĠÑĪÐ°Ð¼ Ð°ÑģÑĭ
ĠÐ¤ÐµÐ´ÐµÑĢ Ð°ÑĨÐ¸ÑıÑģÑĭÐ½ÑĭÒ£
ĠÐľÓĻÐ¶ÑĸÐ» ÑĸÑģÑĸÐ½ÑĸÒ£
ĠÐļ Ð°Ð»
Ð¨ Ð«ÐĽ
ĠÐ°ÑĥÑĭÐ» Ð´ÑĭÒ£
ĠÐķÑĢ ÐºÑĸÐ½
ĠÓ©ÑĢ Ð½ÐµÐº
ÐĨÐĿ ÐĶÐķ
ĠÐºÓ©Ðº ÐµÐ¹
ĠÐĲÑħÐ¼ÐµÑĤ Ð¾Ð²
ĠÐ£Ð½Ð¸Ð²ÐµÑĢÑģÐ¸ÑĤ ÐµÑĤÑĸ
ub e
ÑĢÐ°Ð¸ Ð»ÑĮ
Ð°Ñģ ÑģÐ°
ĠÐ´ Ð¸Ðº
ĠÐ°ÑĤ Ð°ÑģÑĭ
ĠÐ» Ð°Ñģ
ÑĤÐµÐ» ÑĮ
ĠÐºÐµÐ·Ð´ÐµÑģÑĥ Ð´Ðµ
ros oft
Ð¾ Ñħ
ĠÐ¶Ð°Ð½ Ð°ÑĪÑĭÑĢ
ĠÐºÐµÑĤ ÑģÐµ
c o
Ð± Ð°ÒĵÐ´Ð°ÑĢÐ»Ð°Ð¼
ĠÒ±ÑģÑĤ Ð°Ð»ÒĵÐ°Ð½
ĠÐºÒ¯Ð¹ Ð´Ðµ
ĠÐºÐµÑģ ÐµÐ½
ĠÐºÓ©ÑĤÐµÑĢ ÑĸÐ»Ð´Ñĸ
ĠÒĽÐ°Ð»ÑĭÐ¿ÑĤÐ°Ñģ ÑĤÑĭ
ĠÑĤÒ¯ÑģÑĸÐ½Ð´ÑĸÑĢ ÐµÐ´Ñĸ
ĠÐ³ÑĢÐ°ÑĦ Ð¸ÐºÐ°Ð»ÑĭÒĽ
ĠÐ¶ Ð°
ĠÐĸ ÑĥÑĢÐ½Ð°Ð»
ĠÐ» Ð¸Ð½Ð³Ð²
Ġ6 2
ĠÐµÑģÐºÐµÑĢ Ñĥ
ÑĥÐ°ÑĢ Ð»Ð°ÑĢ
ĠÐ¼Ò±ÒĵÐ°Ð»ÑĸÐ¼ Ð´ÐµÑĢÑĸ
ĠÐ·Ð°Ð» Ð°Ð»
ĠÐ¡Ð°Ð» ÑĤÐ°Ð½
ÐµÐ½ ÑĨÐ¸Ð°Ð»
ĠÐ¿ÑĢÐ¾ Ð´Ñİ
ĠÐ¼Ð°ÒĽÑģÐ°ÑĤÑĭ Ð¼ÐµÐ½
ĠÐĸÐ¾ Ð±Ð°
stag ram
ÑĨÐ¸ Ð¸
ĠÑĤÒ±Ð¼ Ð°Ð½
ÓĻ ÐºÑĸÐ¼
ĠÑĦ Ð¸Ð½
ĠÐĳÐ°Ð» ÒĽÐ°ÑĪ
Ð«Ð¡ Ð«
ĠÐ±ÐµÑĢÑĸÐ» Ð¼ÐµÐ¹Ð´Ñĸ
Ð´ÑĸÐº ÑĤÑĸÒ£
ÐŃ Ð»ÐµÐºÑĤÑĢ
ĠÐ°Ð¹Ð¼Ð°ÒĽ ÑĤÑĭÒ£
ĠÐ¿Ð¾ Ñĩ
ĠÐ¶Ò¯Ð³ ÑĸÑĢÑĥ
ÑĮ ÐµÐ²
ĠÐºÓ©ÑĢÑģÐµÑĤ ÑĸÐ»
ĠÐ°Ð½ ÑģÐ°Ð¼Ð±Ð»
ĠÐ¼Ð°ÑĤ ÐµÐ¼Ð°ÑĤ
ĠÐ¿Ð°Ð¹ÑĭÐ· Ð´Ñĭ
ĠÑĤÒ¯Ðº Ð¿ÑĸÑĢ
Ġ ÑĭÑģ
Ð¶ Ð°ÑĤ
ĠÐ¶Ò±Ð¼ ÑĭÑģÑĤÐ°
ĠÐ°ÑģÑĭÑĢ ÑĭÐ»ÑĥÐ´Ð°
ÐĻ Ð¾ÑĢÐº
ĠÐľÓĻ ÑĤÑĸÐ½
ĠÐ±Ò±Ð¹ÑĢ ÑĭÒĵÑĭ
ĠÐ¼ÐµÐ¹ÑĸÑĢ ÑĸÐ¼Ð´Ñĸ
Ð¼ Ð°Ð³
Ðĸ ÐµÑĤÑĸ
ÒĽÐ°ÑĢ Ð¶Ñĭ
ĠÐ¼Ò¯ Ð¼Ðº
ÐµÐ»Ñĸ Ð³Ñĸ
ĠÑĤÓĻÑģÑĸÐ» Ð´ÐµÑĢ
ĠÐ±Ð¸Ð» ÐµÑĥ
Ñĭ Ð´ÑĭÑĢ
ĠÑĢ Ð¾Ð±
ĠÓ©Ò£ÑĸÑĢ Ð´ÑĸÒ£
ĠÑģÑĤÑĥÐ´ÐµÐ½ÑĤ ÑĤÑĸÐº
Ðµ Ð´ÐµÐ³Ñĸ
ĠÐķÑĢ Ð¼ÐµÐº
ĠÐµÑĥÑĢ Ð¾Ð¿Ð°Ð»ÑĭÒĽ
ÑģÐ¾ ÑĨÐ¸
Ðŀ Ð»Ð°ÑĢÐ´ÑĭÒ£
ĠÐ±Ð°Ð»Ð°Ð»Ð°ÑĢ Ð¼ÐµÐ½
ĠÐ´ÓĻÑĢÑĸÐ³ÐµÑĢ Ñĸ
Ñĥ Ð°ÒĽÑĭÑĤ
ĠÐ°ÑĤ Ð°ÒĵÑĭÐ½
ÐµÐ² Ð¸Ð·
ĠÐ´ÐµÐ½ Ñĸ
ĠÒ±Ð¹ ÒĵÐ°ÑĢ
ĠÐ°Ð¶ÑĭÑĢ Ð°ÑĤÐ°
Ð°Ð½ Ð±Ð°Ð¹
Ð»Ð°Ð½ Ð´Ð¸Ñı
ĠÒĽÐ°Ð¹ ÑĤÑĤÑĭ
ĠÒĽÐ¾Ñģ ÑĭÐ»Ñĥ
Ð°Ðº Ó©Ð»
Ġ199 0
ĠÐĸÐ¾Ð»Ð´Ð°Ñĥ ÑĭÐ½
ĠÑģ Ò±Ð»
ĠÑĤÑĸÑĢ ÐµÐ³Ñĸ
Ðºi Ð¼ÐµÑĤ
ĠÐ±Ð°Ðº ÑĤÐµÑĢ
a st
ĠÐ°ÑģÑĭÑĢ ÑĭÐ»ÑĭÐ¿
ÒĴ Ð°Ð»ÑĭÐ¼
ĠÒĽÐ°Ð· Ð±
ĠÐļÐµÐ· Ð´ÐµÑģÑĥ
ÑĢ ÑĸÐº
ĠÒĽÒ± ÑĤÑĭÐ»
Ðĸ Òļ
ĠÐ¨ Ñĥ
ĠÒĽÐ¾Ð»Ð´Ð°Ð½ Ð°ÑĤÑĭÐ½
ĠÑħÐ°Ð» ÒĽÑĭÐ½
ĠÐ¶Ð°Ð¿ ÑĭÑĢ
ĠÒĽÐ°ÑĢÐ¶ÑĭÐ» Ð°Ð¹
ic rosoft
ĠÒ±Ð½ Ð°Ð¹Ð´Ñĭ
ĠÓĻ Ð¼ÑĸÑĢ
ĠÑĤÑĸÐ» ÐµÐ´Ñĸ
ĠÐ½ÐµÐ³ÑĸÐ· Ð³Ðµ
ĠÐŀÒĽ Ð¸ÒĵÐ°
ĠÐķÐºÑĸÐ½ÑĪÑĸ Ð´ÐµÐ½
ĠÒĽÐ°Ð±ÑĸÐ»ÐµÑĤÑĤ ÑĸÐ»ÑĸÐº
ĠÐĺÑĤÐ°Ð» Ð¸ÑıÐ´Ð°ÒĵÑĭ
ÑĭÒĽ ÒĽÐ°Ð½
ĠÐ¡ ÑĥÑĢÐµÑĤ
ĠÐ¶Ð¸Ð½ Ð°Ð»ÑĭÐ¿
ĠÐ¼Ð°ÑĢÐ°Ð¿Ð°ÑĤ ÑĤÐ°Ñĥ
ĠÐµÐ³ ÐµÐ¼ÐµÐ½Ð´Ñĸ
Ð°Ð¹ÒĵÑĭÑĢ Ð¾Ð²
Ð¼ ÐµÑĥ
Ð¶ Ð°Ð¿
ĠÐ°ÒĽÐ¿Ð°ÑĢ Ð°ÑĤÑĤÐ°ÑĢÐ´Ñĭ
ÐĳÐ¸ÑĭÐ» ÒĵÑĭ
ÐĲ ÒĽÑĭÐ½
ÑĸÑģ ÑĸÐ¼ÐµÐ½
ĠÐ¼ÐµÐ¼Ð»ÐµÐº ÐµÑĤÑĸÐ½ÑĸÒ£
ĠÒĽÐ°Ð¹ Ð½Ð°ÑĢ
Ð±ÑĸÑĢ Ð»ÐµÐ½
Ġ0 7
ĠÐ¿ÑĭÑĪ Ð°ÒĽ
ĠÐĶ Ð¾Ð½
ĠÐºÐµÐ»ÑĤÑĸÑĢ ÐµÐ´Ñĸ
ÐľÓĻ Ð´ÐµÐ½Ð¸ÐµÑĤ
Ð±Ò± Ð·
ÐĳÐ¸Ð·Ð½ ÐµÑģ
ĠÒĽÐ°ÑĢÐ¶ÑĭÐ»Ð°Ð½ Ð´ÑĭÑĢ
ĠÑģ ÐµÐºÑĤ
ÑĸÒ£ Ð´Ðµ
ĠÐ¶Ò¯ÑĢÐ³ÐµÐ½ Ð´Ðµ
ĠÐ°ÑĥÐ´Ð¸ÑĤ Ð¾ÑĢÐ¸Ñı
ĠÐºÐ¾ÑĢÐ¿Ñĥ ÑģÑĭ
Ð¿ Ð¾Ð»
ĠÐ°Ð» ÒĵÑĭ
ĠÐľ Ò±ÑĢ
ĠÐ¢ ÐµÑģÑĤ
Ðŀ ÑģÑĭÐ½Ð´Ð°Ð¹
ĠÐĲÐ» Ð¼Ð°ÑĤ
ĠÐĶ Ò±ÑĢÑĭÑģ
ĠÐ´Ð°Ð¼ Ð¸Ð´Ñĭ
ĠÐ´Ð°Ñĥ ÑĭÑģÑĤÑĭ
ĠÐ¼Ð°ÒĽÑģÐ°ÑĤÑĤÐ°ÑĢ ÒĵÐ°
9 1
ĠÓ©Ð» ÐºÐµ
ĠÐ±Ó©Ð»ÑĸÐ¼ Ð´Ðµ
ĠÒĽÐ°Ñģ ÑĤÐµÑĢ
ĠÑĤÐµÑħÐ½Ð¾Ð»Ð¾Ð³Ð¸Ñı Ð½Ñĭ
Ò¯Ð½ ÑĸÑģ
ar d
ÐĶÐ¾Ñģ ÑĤÑĭÒĽ
ĠÐ¶ ÓĻÐ´Ñĸ
ÐµÐ» ÐµÐ¹ÑĤÑĸÐ½
Ð¸Ðº Ð°Ð½Ð´ÑĭÒĽ
ĠÐ¿Ð°Ð¹Ð´Ð°Ð»Ð°Ð½ Ð°ÑĤÑĭÐ½
Ġ7 3
ĠÐºÐµÐ·ÐµÒ£ Ð½ÐµÐ½
Ð¼Ð°Òĵ ÑĭÐ½Ð°Ð½
ĠÐ½Ð°Ð¼ ÑĭÑģÑĭÐ½
a u
ĠÑĪ Ðµ
ĠÒĽÐ°ÑĢ ÑĤ
ĠÒĽÐ¾Ð» Ð¼ÐµÐ½
ĠÐ¶Ð°Ò£Ð° ÑĪÐ°
Ð°ÒĽ ÑĤÐ°
ĠÐĲ Ðļ
ĠÐĳ ÐķÐł
ĠÑħ Ð¾ÑĢ
ĠÐ´ÐµÐ¹ Ð¼ÑĸÐ·
ĠÐ¾ÑĢÐ³Ð°Ð½ Ð¸ÐºÐ°Ð»ÑĭÒĽ
ĠÐ¶ÐµÑĤÐµÐº ÑĪÑĸÐ»ÑĸÐº
Ð¸Ñĩ ÐµÑģÐº
ĠÐ¶ÐµÑĤÑĸÑģÑĤÑĸÐº ÑĤÐµÑĢÑĸÐ½
ĠÐ²ÐµÐ´Ð¾Ð¼ÑģÑĤÐ² Ð¾
Ð¼ Ð°Ð·
ÑĸÑĢ Ðµ
ĠÐ±ÐµÑĢ ÐµÑĪ
Ð°Ð¶ Ð°Ð¿
ĠÓ©Ðº ÑĸÐ»Ð´Ñĸ
ÐºÐ¾Ð³ Ð¾Ð»ÑĮ
ĠÐ¾ ÑıÐ½
ÐµÐ± ÐµÑĢ
ĠÐ°ÒĽÐ¿Ð°ÑĢÐ°ÑĤ ÑĤÑĭÒ£
ĠÐĳÑĸÑĢ Ð½ÐµÑĪÐµ
ĠÐ¼Ð°Ð¼Ð°Ð½ Ð´ÑĭÒĵÑĭÐ½ÑĭÒ£
ÑĸÑģÑĤÐµÑĢ Ð´ÑĸÒ£
ĠÐºÐµÐ»ÑĤÑĸÑĢ ÑĥÐ³Ðµ
ĠÓ©Ð·Ð³ÐµÑĢÑĸÑģÑĤÐµÑĢ Ð³Ðµ
ĠÐĲÐ»ÑĤÑĭÐ½ ÑģÐ°ÑĢÐ¸Ð½
ÓĺÐ´Ñĸ Ð»ÐµÑĤ
Ñģ Ð¼
ĠÐľ Ð°Ð¼
Ð¡ Ò±ÑĢ
ĠÐ¸ Ð³ÑĸÐ»ÑĸÐº
ÐĶ ÐĨÐļ
ĠÐ» Ð¸Ð·Ð¸Ð½Ð³
ĠÑģÐ¾ÑĤ ÑĭÐ½ÑĭÒ£
ĠK B
ĠÑģÐ°Ð»Ð¼Ð°ÒĽ ÑĤÐ°
ĠÐ¿Ð°Ð»Ð°ÑĤ Ð°ÑģÑĭ
ĠÐ¶Ò±Ð¼ÑĭÑģ ÑĪÑĭÐ»Ð°ÑĢ
ĠÒĽÐ°Ð±ÑĭÐ» Ð´Ð°Ð¹
ÑģÑĤÐ°ÑĢ ÑĭÐ½
ĠÐ¿ÑĢÐ¾ÑĨ ÐµÐ½ÑĤ
ĠÐ°Ð·Ð°Ð¼Ð°ÑĤÑĤÐ°ÑĢ ÑĭÐ½ÑĭÒ£
ĠÐ±Ð°ÑıÐ½ Ð´Ð°Ð´Ñĭ
ĠÒĵÐ°Ð»Ð°Ð¼ ÑĤÐ¾ÑĢ
Ð«ÐĿÐĶÐĲ ÒĴÐ«
ĠÒĵÐ°ÑĪ ÑĭÒĽ
ÑĤ Ó©Ð»
Ð² ÐµÐ½
ĠÓ©ÑĤÐºÑĸÐ·Ñĥ Ð´Ñĸ
ĠÐ¶Ð°ÒĵÐ´Ð°Ð¹Ð»Ð°ÑĢ ÒĵÐ°
200 3
Ð´ Ò¯Ð½Ð¸
Ð°ÒĽ Ð°Ñģ
Ð°Ð±Ð°ÒĽ ÑĪÐ°
Ð¾ÒĽ ÑĥÑĪÑĭ
ÐķÐ» Ð±Ð°ÑģÑĭÐ½ÑĭÒ£
ĠÐ´ÓĻÑĥÑĸÑĢ Ñĸ
ĠÑģÓĻÐ¹ÐºÐµÑģÑĤ ÐµÐ½Ð´ÑĸÑĢÑĥ
Ġ $
Ġ ÒĵÐ°
ÑĤ ÒĽÑĭÑĪ
Ð¾Ð½ Ð´ÑĭÒĽ
Ð¢ ÐµÑģÑĤ
Ð¾Ð³ ÑĢÐ°Ð¼Ð¼
Ñģ ÐµÐ¹Ð½
Ðº ÑģÐ¿
ÐºÐµÐ½ ÑĸÒ£
ÑĨÐ¸Ñı Ð½ÑĭÒ£
ĠÐºÓ©Ð· ÑĸÐ½Ðµ
ĠÐ¶Ð¸ Ò»
ĠÓ©Ð½Ð´ÑĸÑĢ ÑĸÑģÑĤÑĸ
ĠÐ´ÐµÐ´Ñĸ Ð¼
ĠÑģÑĸÐ· Ð´ÐµÑĢ
ĠÒĽÐ¾Ð·ÒĵÐ°Ð» ÑĭÑģÑĭÐ½ÑĭÒ£
ÐŀÑĢ ÑĭÑģ
ĠÑĦÑĥÐ½ÐºÑĨÐ¸Ñı Ð»Ð°ÑĢÑĭ
ĠÓ©Ð·Ð³ÐµÑĢÑĤ ÑĸÐ»Ð³ÐµÐ½
ÑħÐ¸Ð¼ Ð¸ÑıÐ»ÑĭÒĽ
o ut
ĠÐĲ Ð³ÐµÐ½
ĠÐŀ Ð´Ð°ÒĽ
Ð¾Ð¼ ÓĻÐ´ÐµÐ½Ð¸
ĠÐļ Ò®
ĠÑħ Ð°ÑĤÑĤÐ°ÑĢ
ĠÑģÐ°Ð» ÑĤÑĭ
Ð¼ ÓĻÑģ
ĠÐ¶ ÐµÐ¿
ĠÓ©Ð½ Ð´i
ĠÒ¯ÐºÑĸÐ¼ ÐµÑĤÑĤÑĸÒ£
ĠÐ¶Ð°Ð½ÑĥÐ°ÑĢ Ð»Ð°ÑĢÐ´ÑĭÒ£
ÑĤÒĽÐ°ÑĢ Ñĥ
ĠÐ°ÑģÑĤÐ°Ð½ Ð°Ð½ÑĭÒ£
ĠÐ°ÑĢÐ´Ð°Ð³ ÐµÑĢÑĸ
ĠÑģÒ±ÑħÐ±Ð°ÑĤ ÑĭÐ½Ð´Ð°
ÑĨÐ¸Ð°Ð» Ð¸ÑģÑĤÑĸÐº
ĠÐĳ ÑĢÐ°Ð·Ð¸Ð»
ÐĲÑĢ Ð½Ð°Ð¹Ñĭ
ÐĺÐ½ ÑĦ
Ñģ ÐµÐ·
ĠÓĻ ÐºÐµÐ»Ð³ÐµÐ½
ĠÐ¢ Ð¾Ð¼
ĠÑĤÑĸÐ» Ð´ÐµÑĢ
Ð¿ÐµÐ½ Ð´Ñĸ
Ð´ÐµÑĥ ÑĸÐ½Ðµ
ĠÒ®Ð¹ Ð³Ðµ
ĠÑģÑĥÐ±ÑģÐ¸Ð´Ð¸Ñı Ð»Ð°Ñĥ
ĠÐĸÒ° Ðľ
Ð°Ð» ÒĵÐ°
ĠÑģ Ð°ÒĵÑĭÐ½
Ð± ÑĥÐ»
ĠÐ¾ ÑĤÐ°ÑĢ
ĠÐ¼ÐµÐºÑĤÐµÐ¿ ÑĤÐµÑĢÐ´ÑĸÒ£
ĠÓĻÒ£Ð³ÑĸÐ¼ ÐµÐ»ÐµÑĢ
Ð¶ Ð¾ÒĽ
ĠÒĽÐ¾Ñģ Ð°Ð´Ñĭ
ÐºÐµÑģ ÑĸÐ½Ðµ
ĠÐºÓ©ÑĤÐµÑĢ ÑĥÐ³Ðµ
ĠÐŀÑĤ Ð±Ð°ÑģÑĭ
Ðµ Ð¾ÑĢ
ĠÐĳ ÓĻÑĢÑĸ
ÐĿ ÓĻÑĤÐ¸Ð¶
ĠÓ©Ð½ÑĸÐ¼ ÑĸÐ½
9 2
Ð´ Ð°Ð»Ñĭ
ĠÐ¿ Ð¾Ð´
ĠÐ°Ð½ÑĭÒĽ ÑĤÐ°Ð»ÑĭÐ¿
Ġ8 7
ĠÐ¶ÐµÐ¼ ÑĸÑģÑĤÑĸ
Ò± Ñħ
ĠÒļ Ò°Ðł
ÑĨ ÐµÑĢÑĤ
ĠÑĪÐ°ÑĢ Ð°Ð»Ð°ÑĢÐ´ÑĭÒ£
Ð´ÑĸÑĢ ÑĸÐ¿
Ð°Ð² Ð¸Ð»ÑĮ
ĠÒ° Ð»Ð°Ð½
ĠÑĤÒ± ÑģÑĭÐ½Ð´Ð°
A T
ÑĸÐ¼ Ð½ÐµÐ½
ĠÓ©Ð· ÐµÐ½Ñĸ
Ðķ Ò¢
ĠÐŁ Ð°Ð»
Ð¼Ð°Òĵ Ð°Ð¼Ð±ÐµÑĤÐ¾Ð²
ÑĤÐ°ÑĢ Ð°Ð»ÑĭÒĽ
ĠÐ¶Ò¯ÑĢ Ð³ÑĸÐ½
ĠÑĥ Ð°ÒĽÑĤÑĭÐ»Ñĭ
ĠÐ°ÑĥÐ´Ð°Ð½ Ð´Ð°ÑĢ
ĠÑģÐ°Ð½ ÑĭÐ½Ð°
ĠÐ½Ð°ÑĢ ÑĭÒĵÑĭÐ½
ĠÐ¾ÒĽÑĥÑĪÑĭ ÒĵÐ°
ĠÑĪÑĤÐ°ÑĤ ÑĭÐ½ÑĭÒ£
ÐļÓ©Ðº ÑĪÐµÑĤÐ°Ñĥ
ĠÐ¼Ò¯Ð¼Ðº iÐ½
ÐĲ Ð·Ð¸Ñı
ĠÐŀ Ð´Ð°ÒĵÑĭ
ĠÐ¸ ÐµÑģÑĸÐ½ÑĸÒ£
ĠÐ¶ÐµÑĤ ÑĸÐ¼Ð´Ñĸ
ĠÐ±Ó© Ð³
ĠÑģÐµÐ±ÐµÐ± ÑĸÐ½
ĠÐĿ ÑĥÑĢ
ĠÐ¾Ð¹ ÑĪÑĭÐ»
ĠÐ¶ÐµÑĤÐºÑĸÐ· ÐµÐ´Ñĸ
ÑĥÑĪ ÐºÐ¸Ð½
ĠÑĪÐ¾ Ñĥ
ĠÐ¿ÑĭÑģ ÑĭÒĽÑĤÐ°Ñĥ
ĠÑĤ Ð°Ðº
ĠÐ¡ ÑĭÐ±Ð°Ð¹Ð»Ð°Ñģ
ÑĤÐ°Ð» ÑĮ
ĠÐ·Ð¸Ñı Ð»Ñĭ
ĠÐ·ÐµÑĢÐ´ÐµÐ» ÐµÑĥ
Ð°Ð½ Ð³
ÑĦ ÑĤÐ¸
ÐµÑĤÑĸÐ½ Ñĸ
ĠÐ´ÐµÐ³ÐµÐ½ Ð¼ÐµÐ½
ĠÒĽÐ°Ò£ÑĤÐ°ÑĢ ÑĭÐ½Ð°Ð½
ĠÐ¶ÑĭÑĢ Ñĭ
ĠÐľÐµÐ¹ ÑĢÐ°Ð¼
ĠÐ¶Ð°ÑĢÐ°Ð¼ ÑģÑĭÐ·
ĠÓ©Ð· ÑĸÐ¼Ð½ÑĸÒ£
Ðķ Ð³ÐµÐ¼ÐµÐ½
ÐĶ ÓĻÑĢÑĸÐ³ÐµÑĢ
Ð»Ð°Ñģ Ñģ
ĠÐĳÑĸÐ· Ð³Ðµ
Ð¼ ÐµÐ±Ð°ÐµÐ²
ÑĸÐ¼ Ð¾Ð²
Òļ ÐĲÐĹÐĲÒļÐ¡Ð¢ÐĲÐĿ
ÒĵÐ° Ñİ
ÑĤÐ°Ð» Ð°ÑĤÑĭÐ½
ĠÑį ÑģÑģÐµ
ĠÑĸÑģÑĤ ÐµÐ¼
ĠÐ°Ñı ÑĤ
Ġ6 6
ĠÐºÐ¸ ÑĸÐ¿
ĠÐ¼Ò±ÒĵÐ°Ð»ÑĸÐ¼Ð´ÐµÑĢ Ð´ÑĸÒ£
ĠÐºÐ»Ð°ÑģÑģ Ð¸ÐºÐ°Ð»ÑĭÒĽ
M S
Ð³ÑĸÐ½ Ñĸ
ĠÐ¶ÐµÑĢ Ð³iÐ»iÐºÑĤi
ĠÐ¥ Ð°Ð¼
ĠÐ¶Ð°ÑĥÐ°Ð¿ ÒĽÐ°
ÒĴ Ðľ
ÐļÓ© ÐºÑĤÐµÐ¼
ĠÑģÒ±ÑĢÐ°Ð½ ÑĭÑģÒĽÐ°
ĠÑĤÐ°Ð· Ð°Ð»ÑĭÒĽ
ĠÐºÐµÐ»ÑĸÐ½ ÑĪÐµÐº
ĠÐº Ð¾Ñģ
ĠÑĪ Ð°Ð¼Ð°
ĠÑĤÒ±ÑĢÒĵÑĭÐ½ Ð´Ð°ÑĢÑĭÐ½Ð°
ĠÐ³ÐµÐ½ ÐµÑĢÐ°Ð»
ĠÐ¿ÑĢÐ¾Ð´Ñİ ÑģÐµÑĢ
ĠÐļ ÐµÐ¼
ĠÑĸÑĪ ÑĸÐ¼Ð´ÑĸÐº
ĠÓ¨ ÐºÑĸÐ½ÑĸÑĪÐºÐµ
Ò¯Ð¹ ÑģÐµÐ½Ð±Ñĸ
ĠÐ¶Ð¸ ÑĭÐ½Ð´Ð°
Ġ13 0
ĠÑģÐ°Ð½Ð°ÑĤ ÑĭÐ½Ð´Ð°ÒĵÑĭ
ÑĪ ÐµÐ»ÑĸÐº
ĠÐ·Ð°Ò£ Ð½ÑĭÒ£
ĠÐ°Ñı ÒĵÑĭÐ½Ð´Ð°
ĠÓĻÐ»ÐµÐ¼ Ð´Ñĸ
ĠÑģÑĤ Ð¸Ð»
ĠÐ½ÐµÑģÐ¸ ÐµÐ»ÑĸÐº
ĠÑģÐ¼ Ð°ÑĢÑĤ
ÑģÑĤÑĢÑĥ ÐºÑĤ
ĠÐľÐ°Ñħ Ð°Ð¼Ð±ÐµÑĤ
ĠÐ¶ÐµÑĤÑĸÑģ Ð¿ÐµÑĥ
ĠÑĤÓ©Ò£ÑĸÑĢ ÐµÐ³ÑĸÐ½Ð´Ðµ
Ñı Ð·
ÑĤÐ°ÑĢ Ð¼Ð°ÒĵÑĭ
Ð³Ðµ Ñĥ
ĠÐ±Ð°ÑĢ Ð»ÑĭÒĵ
ĠÐ¾Ð¹ Ð»Ð°Ð¼
ÑħÐ°Ð½ Ð°ÑģÑĭ
ĠÐºÐµÐ·Ð´Ðµ ÑģÑĤ
ĠÒĽÒ±ÑĢÐ°Ð¼ Ð°ÑģÑĭÐ½ÑĭÒ£
Ð¶Ð°ÑĢ Ð°ÒĽ
ĠÐ±Ð°ÒĽÑĭÐ» Ð°Ð¿
ĠÑĤÑĸ Ð³
Ġ '
Ġ ..
ĠÒĽÐ°Ð¹ ÒĵÑĭÐ»Ñĭ
Ð£ Ð°ÒĽÑĭÑĤ
ĠÐ±ÑİÐ´Ð¶ ÐµÑĤÑĤÐµÑĢ
ĠÐ±ÓĻÑĢ ÑĸÐ¼ÑĸÐ·
m in
ĠÑĤ Ð¸ÑıÐ½
ĠÐ°ÑĤ Ð¿ÐµÐ½
ĠÑĤÒ¯ ÑģÑĤÐµÑĢ
Ð»ÑĸÐº ÐºÐµ
Ó¨ Ð»
ĠÐ¨ Ð°ÒĵÑĭÐ½
ĠÐĳÐ°Ð» Ð°Ð½ÑĭÒ£
t e
Ð¿ Ð¸Ð½
ÑĭÒ£ Ð´Ð°
ĠÐ±Ò¯Ð³ÑĸÐ½ Ð³Ðµ
Ð±ÑĭÑĢ Ð°Ð¹
ĠÐļÐ¾Ð½ÑģÑĤÐ¸ÑĤÑĥ ÑĨÐ¸ÑıÑģÑĭ
ĠÐ¾ÒĽÑĭ Ð´Ñĭ
ĠÐ¾ÑĤÑĭÑĢ Ð°
ĠÐ¾Ð±Ð» Ð¸Ð³Ð°ÑĨÐ¸Ñı
Ð°ÑĤÑĭÐ» ÑĭÐ¿
Ġ14 0
ĠÐ¾ÑĢÑĭÐ½Ð´Ð° ÒĵÐ°Ð½
ĠÐºÑĸÐ¼ Ð½ÑĸÒ£
ÐĲÐ² ÑĤÐ¾ÑĢ
ĠÐºÐµÑĥ Ð´Ðµ
ĠÐľ Ð¾
ĠÒĽÐ¾Ð» Ð°Ð¹ÑģÑĭÐ·
ĠÐ» Ð°Ò£
ĠÐ´ÐµÐ¿ÑĥÑĤ Ð°ÑĤÑĤÐ°ÑĢ
ĠÐ¶Ð°ÑĢÑĤÑĭ ÑģÑĭ
ĠÐ¸Ð½Ð´ÐµÐº ÑģÑĸ
h at
ĠÐ¶ÑĸÐ±ÐµÑĢ ÑĸÐ»Ð´Ñĸ
Ð¸Ð³ ÑĥÑĢ
ĠÑįÐ½ÐµÑĢÐ³ Ð¸ÑıÑģÑĭ
ĠÐ¶ ÓĻÐ¹
ĠÐ¿Ð°Ð¹Ð´Ð°Ð»Ð°Ð½Ñĥ Ð´ÑĭÒ£
ĠÑģÑĭÑĢÑĤ ÒĽÐ°
ĠÑĦÑĥÐ½ÐºÑĨÐ¸Ñı ÑģÑĭ
ÑĪÑĸÐ»Ñĸ Ð³ÑĸÐ¼ÐµÐ½
ÐĳÓĻÐ¹ ÑĤÐµÑĢÐµÐº
ÐµÐ¼ Ð¾ÑĢ
ĠÐ¶ÐµÑĤ ÑĥÐ³Ðµ
ÐŃ Ð¡
ĠÒ¯Ð»Ð³Ñĸ ÑģÑĸÐ½
ĠÒĽÑĭÑģÒĽÐ°ÑĢ ÑĤÑĥ
Ð»Ð¸Ñı Ñģ
ĠÐ´ Ð¸Ð´Ð°ÐºÑĤÐ¸ÐºÐ°Ð»ÑĭÒĽ
ĠÐļ Ò¯Ð¹
Ð±Ð°Ñģ ÑĤÑĭ
ÑĭÑĪ ÒĽÐ°Ð½
ĠÒ±ÑģÑĤ Ð°ÑĥÒĵÐ°
ĠÐļÓĻÑģÑĸÐ¿ ÐºÐµÑĢÐ»ÑĸÐº
ÐĶÐµÐ½ Ðµ
Ñı ÒĵÐ½Ð¸
ĠÐ±ÑĸÑĢ ÑĸÐ½ÐµÐ½
ĠÐ°Ñģ ÒĽÐ°ÒĽ
ÐĶ ÐķÐł
ĠÐ¨ ÓĻÐºÓĻÑĢÑĸÐ¼
ĠÐ¾ÑĢÑĤ Ð°ÑģÑĭ
ĠÐ¾ÑĢÐ³Ð°Ð½ Ð´Ð°ÑĢÑĭÐ½Ð´Ð°
ĠÑĤÓ©Ð¼ÐµÐ½ Ð´Ðµ
ĠÐ·ÐµÐ¹Ð½ÐµÑĤ Ð°ÒĽ
ĠÑĤÐµÐ°ÑĤÑĢ ÑĭÐ½ÑĭÒ£
ÐļÓ©ÑĢÐ½ÐµÐº ÑĸÐ»ÑĸÐ³Ñĸ
ĠÐ¿ Ð»Ð°ÑĤ
ĠÑĤÐ°Ð± ÑĭÒ£ÑĭÐ·
ĠÐºÐµÐ»ÑĸÑģ ÑĸÐ¼Ð´Ñĸ
ĠÐķÑĢ Ð¶Ð°Ð½
ÑĤ ÑĸÐ»Ð´Ñĸ
ÐĲ Ð¼ÐµÑĢ
ĠÐ¶Ð°ÒĽ ÑĤÐ°Ð½
ĠÐ±Ð¾Ð»Ñĥ Ð´Ñĭ
ĠÑģÒ¯Ð¹ ÐµÐº
ĠÒ±ÒĽ ÑĭÐ¿ÑĤÑĭ
ĠÐĺÑĤÐ°Ð» Ð¸Ñı
ĠÐ· Ð°ÑĤÑĤÑĭÒ£
ĠÑĤÓĻÑĢÐ±Ð¸ ÐµÐ»ÐµÐ¿
ĠÐĲÐ¹ ÑĭÑĢ
ĠÐ±Ð¸Ð» ÐµÑĤ
Ð¶Ð°Ñģ ÑĭÐ»
Ò± ÑĪ
ĠÐ¾ÑĢ Ð´Ð°ÑģÑĭ
ĠÐŀ Ðļ
ĠÐ°Ð¹ ÑĤÐ°Ð¼ÑĭÐ½
Ð¾Ð¼ ÐµÐ½
ĠÒĽÑĭÐ·Ð¼ÐµÑĤ ÑĸÐ¼ÐµÐ½
ĠÐ±Ð°Ð» Ð°Ð»Ñĭ
ĠÐ¾Ð¹ ÑĭÐ½Ð´Ð°
ĠÐĹ Ð°ÑĢ
ĠÐ´ÓĻÑĢ ÑĸÐ¿
ĠÒĽÐ¾ÑĢÒĵÐ°Ñĥ Ð´Ñĭ
ĠÐºÓ©ÑĢÐ¼ ÐµÐ³ÐµÐ½
ĠÐĶÐ¾Ñģ ÑĤÑĭÒĽ
ĠÒ°ÑģÑĤÐ°Ð· Ð´Ð°ÑĢ
ÑĤÐ°Ð¿ÑģÑĭÑĢ Ð¼Ð°
ĠÐĳ ÓĻÑĢ
ĠÑĤÒ¯ÑģÑĸÐ½ Ð³ÐµÐ½
ĠÐ½Ð¾ÑĢÐ¼ Ð°Ð»Ð°ÑĢ
ĠÐ·ÐµÑĢÑĤÑħÐ°Ð½ Ð°Ð»ÑĭÒĽ
ĠÐ¶Ò±Ð¼ÑĭÑĢÑĤ ÒĽÐ°
Ð¼ ÐµÐ¼Ð»ÐµÐº
ĠÐ¼ ÐµÐ¶
Ð¸Ð¿ ÐµÐ´
ĠÐµÑģÐµÐ¿ ÑĤÑĸÐ»ÑĸÐº
ĠÐ¿ÑĢÐ¾ÑĨ ÐµÐ´
ĠÑģÒ¯ÑĢ ÐµÑģÑĸ
ĠÑĤÐ°Ò£Ð´Ð° Ò£ÑĭÐ·
ĠÓ©Ð»ÐµÒ£ Ñĸ
Ð±Ð°Ð½ Ð¾Ð²
ĠÐ°ÑĤ Ð°Ð½
ĠÐ¶ÐµÑĢ Ð»
ĠÐ¶Ð¾ÑģÐ¿Ð°ÑĢ ÑĭÐ½ÑĭÒ£
ĠÐ¾ÑĢÑĤÐ°Ð»ÑĭÒĽ ÑĤÑĭÒ£
ĠW B
Ð¦ Ð¸ÑĦÑĢ
ÐĲ ÐŃÐŀ
Óĺ Ñĥ
ĠÐ´ÐµÐ¿ ÑĤÑĸ
Ð»Ð°Ð½ Ð°
ĠÒĵ Ð¸
Ð¨ ÐĨ
ĠÐºÓ©Ð· Ð´ÐµÑĢÑĸÐ½
ĠÐºÐ¾Ð½ ÑģÐµÑĢÐ²
ÑĤÐµÒ£ ÑĸÐ·
ĠÐ´Ð°Ñĥ ÑĭÐ»
ĠÐº ÑĸÐ¼Ð´ÐµÑĢ
ÐĲ ÑģÑĭÐ»
ĠÑĤÑĸÐ·ÑĸÐ¼ ÑĸÐ½Ðµ
ĠÒĽÐ¾Ð» ÑĭÐ¼ÐµÐ½
ĠÑĤÑĸÐ» ÐµÐ¹Ð¼ÑĸÐ·
ĠÑĤÐ°Ð¿ ÒĽÑĭÑĢ
Ġ0 2
ĠÐµÐ»ÑĸÐ¼ÑĸÐ· Ð³Ðµ
ĠÓĻÑĥ ÐµÐ»Ñĸ
ĠÐ¸Ð´Ðµ Ð¾Ð»Ð¾Ð³Ð¸Ñı
ĠÐĲÑģÑģÐ°Ð¼Ð±Ð»ÐµÑı ÑģÑĭÐ½ÑĭÒ£
ĠÐŁÑĸÐºÑĸÑĢ Ð»ÐµÑĢ
S B
ÑĪ ÑĭÒĵÑĭÑģ
Ð¡ ÑĭÐ½ÑĭÐ¿
ĠÐµÑģ ÑĸÐ¼Ð´ÐµÑĢ
ĠÒļÐ¾ÑĢ Ð´Ð°Ð¹
ĠÑĤÒ¯ÑģÑĸÐ½Ð´ÑĸÑĢ Ð¼Ðµ
ĠÐ´Ò± ÒĵÐ°
ĠÒĽÐ°ÑĢ ÑĥÐ»Ñĭ
ĠÐ±ÐµÐ» Ð´ÐµÑĥ
ĠÑĪÑĭÒĵÐ°ÑĢ Ð°
ĠÐĵ Ð°Ð·
ÐŃ ÐºÐ¾Ð½Ð¾Ð¼Ð¸ÐºÐ°
ĠÐ±Ò±Ð· ÑĭÐ»ÑĥÑĭ
ĠÑĤÐµÐ½ Ð½Ð¸
Ð³ Ð°ÑĢ
Òļ Ð°Ð¶
Ð»ÐµÑĢ Ð´Ðµ
ĠÐµÑĤ Ð¿ÐµÐ¹Ð´Ñĸ
ĠÑĤÐ°Ð½ ÑĭÐ»Ð´Ñĭ
ĠÐ² Ð°Ð³Ð¾Ð½
ÑĤÑĭÐ» Ð°ÑĤÑĭÐ½
ĠÐ½ÑĭÒĵ Ð°Ð¹
ÒĽÐ°ÑĤÑĭÐ½ Ð°ÑģÑĤÑĭ
ĠÐ±ÑĸÐ»Ð¼ÐµÐ¹ Ð¼ÑĸÐ½
ĠÐĶÐ°Ð½ Ð¸ÑıÑĢ
Òļ Ð¾ÑĪ
ĠÒĽÐ°ÑĢ Ð°ÒĽ
ĠÐļ ÓĻÑĢÑĸÐ¼
ĠÑģÐ°Ð» Ð°Ð½ÑĭÒ£
Ð¼Ð° ÑħÐ°Ð½
ĠÐºÐµÐ»ÑĤÑĸÑĢ Ð³ÐµÐ½
ÐµÑĢ Ð³Ðµ
Ð¡ Ð°Ð±
Ðļ ÐµÑĪÐµ
Ðĵ ÐķÐĿ
ĠÐĺÐ½ Ð´ÑĥÑģÑĤÑĢ
ĠÒĽÐ° Ò»Ð°ÑĢ
ÑĤ iÐ¿
ĠÑĪ ÑĤÐ°Ð±
or e
ĠÐ°Ð¹ÑĤÑĥ Ð»Ñĭ
ĠÐŀÑĢ Ð´Ð°
ĠÒĽÐ°Ð±ÑĸÐ»ÐµÑĤÑĤ ÑĸÐ»ÑĸÐ³ÑĸÐ½
ĠÐ¼Ð¾ÑĢ Ð°Ð»ÑĮÐ´ÑĭÒĽ
Ġ* .
ÑħÐ°Ð½ Ð°Ð´Ð°
ĠÒ¯Ð» Ð³ÑĸÐ»ÐµÑĢÑĸ
ÑĤÐ°Ñģ ÒĽÐ°Ð½
ÑĪÑĸÐ»ÐµÑĢ Ð´Ñĸ
ÐĸÒ±Ð¼ÑĭÑģ Ð¿ÐµÐ½
Ð» Ð¸Ðº
ĠÐ± Ð¾Ð·
ĠÐ¢ Ð°Ð±
ĠÐĲÐ» Ð°ÑĤÐ°Ñĥ
ÐĶ Ð¸
ÐĶ Ð¶
Ð¾Ðº ÐºÐµÐ¹
ÑģÐ¸Ñħ Ð¾Ð»Ð¾Ð³Ð¸Ñı
ÐĿÐķÐ¡ ÐļÐŀ
ĠÐº Ð°Ð´
ĠÑģ ÑĭÐ»
ĠÐł Ð°Ð±
ĠÑĤÐ°Ò£ Ð´Ð°Ð¹
ĠÐ¼Ð°Ò£ÑĭÐ· ÑĭÐ½
ĠÓ©ÑĤÐºÐµÐ½ Ð½ÐµÐ½
ĠÐ°Ð¹ÑĭÑĢ ÑĭÐ»ÒĵÐ°Ð½
ÐµÑĤÑĸÐ½Ð´Ðµ Ð¹
ĠÒĽÐ°ÑĪÑĭÒĽÑĤÑĭÒĽ ÑĤÐ°
t h
ĠÐ¶Ð°ÑĢ ÒĵÑĭÐ»ÑĭÒĽ
Ġ18 0
ĠÑĢÐ°Ñģ ÑĤÐ°Ñĥ
ĠÐ¿Ð° ÑĨÐ¸ÐµÐ½ÑĤ
m ent
ĠÐ¥Ð°Ð»ÑĭÒĽ ÑĤÑĭÒ£
ĠÐµÑĪÐºÑĸÐ¼ Ð³Ðµ
ĠÐ¶Ð°ÑĥÑĭÐ½ Ð³ÐµÑĢ
ĠÐ²ÐµÐ» Ð¾Ñģ
ĠÐ¿ Ð¾Ð·Ð¸ÑĨÐ¸Ñı
ĠÐĳ Ð°Ð½ÐºÑĤÑĸÒ£
ĠÑģÓ©Ð· Ð³Ðµ
ĠÐ¶ÐµÐº ÐµÐ¼ÐµÐ½ÑĪÑĸÐº
ĠÐŁÐ¾ÑĢ Ð½Ð¾
ĠÐ¡ÓĻÑĢ ÑģÐµÐ½
Ð¿ ÑĸÑĪ
Ð´Ðµ Ò£Ð³ÐµÐ¹
ĠÐ¿ Ð¸Ð»
ÑĸÐ»Ñĸ Ð³ÑĸÐ½ÑĸÒ£
ĠÑĤÓ©Ð» ÐµÐ½Ð³ÐµÐ½
ĠÐ±Ð¸ÑĸÐº ÑĤÑĸÐº
ÒĽÐ°Òĵ Ð°Ð»Ð¸
ÐµÑĤ Ðº
Ð¾ÑĢ ÑĦ
ĠÐ°ÑĢ ÒĽÐ°Ñĥ
ĠÐ±ÐµÑĢ ÑĸÐ»ÑĥÑĸ
Ðļ Ó©Ð·
ĠÐł Ð¸Ð¼
Ð¸Ð» ÐµÐ²
ĠÐºÐµÐ¼ ÐµÐ»
ĠÐ´ÐµÐ¿ÑĥÑĤ Ð°ÑĤ
ĠÓĺÐ´ÐµÐ±Ð¸ ÐµÑĤ
Ðµ Ð¾
Ð« ÐŁ
ĠÐµÑĢ Ð»Ñĸ
ĠÐ±Ó©Ð»ÑĸÐ¼ Ð´ÐµÑĢÑĸ
ĠÒĽÐ°Ð·Ð°Ð½ Ð´Ð°ÒĵÑĭ
ĠÑĦÐ¾ÑĢÐ¼ Ð°ÑĤ
ÓĻÐ· Ð·Ð°ÑĤ
Ð´Ð°Ð¼ Ð°Ð»Ñĭ
ÐµÑģÐ¿ Ðµ
ĠÐ¥ ÒļÐļÐŀ
ĠÐĳÑĸÐ· Ð´Ðµ
ĠÐ¸Ð´ÐµÑı ÑģÑĭÐ½
ĠÐ°Ð½Ð°Ð» Ð¸Ð·
Ð½Ð¸ Ð·
ĠÐ·Ð°Ò£ Ð´Ð°ÑĢÑĭÐ½Ð´Ð°
ĠÓĻÐ·ÑĸÑĢÐ» ÐµÐ½Ð³ÐµÐ½
Ð· ÐµÐ»
ĠÐ¢ Ð¸
ĠÐĶ ÐµÑĢÐµÐº
ĠÐ¶Ð¾Ð» Ð´Ð°Ñģ
ĠÐºÐ¾Ð¼ Ð°Ð½
ĠÐĲÐ½ Ð´ÑĢ
ĠÑįÐºÑģ Ð¿ÐµÑĢÐ¸Ð¼ÐµÐ½ÑĤ
ĠÐºÓĻÑģÑĸÐ¿Ð¾ÑĢ Ð½Ñĭ
Ð¶ Ð¾Ð±
Ð¸Ðº ÑĤÐ¾ÑĢ
Ðĸ Ñĥ
ĠÓ©Ð¼ÑĸÑĢ Ð´Ñĸ
ĠÐ°Ð¹ÒĽÑĭÐ½ Ð´Ð°Ð»ÒĵÐ°Ð½
ĠÓĻÒ£Ð³ÑĸÐ¼ÐµÐ» ÐµÑģÑĥ
ĠÑĪÐ¸ ÐµÐ»ÐµÐ½
ĠÐľ Ð°Ð´
Ð¢ ÑĢÐ°Ð½Ñģ
Ðĸ Ð¸
ĠÑģÐ°ÒĽ ÑĤÐ°Ð»ÑĭÐ¿
Ġ8 8
Ð´Ð°Ñģ ÑĭÐ¿
ĠÑģÓĻÑĤ ÑĤÐµÐ½
ĠÒĽÐ°Ð»Ð´ÑĭÑĢ Ð´Ñĭ
ĠÐ±ÐµÐ¹ÑĸÐ¼ Ð´ÐµÑĥ
i z
ÑĸÐ¼ Ð³Ðµ
ĠÑĪ ÐµÐ³ÐµÑĢ
ĠÒ± Ð½Ð°Ð¼
Ðŀ Ð¡
ĠÒĽÐ¾ÑĢ ÑĪ
ĠÑĤÐ¾Ð¿ Ð¿ÐµÐ½
ĠÑģÐ°Ð¿ Ð°Ð»ÑĭÒĽ
ĠÓ©Ð½ÐµÑĢ Ð¿Ð°Ð·
ĠÐ¼Ò±ÑĢ Ð°ÑģÑĭ
ĠÓĻÑĥ ÐµÐ½
ĠÐ±ÑĸÐ»ÑĸÐºÑĤ ÑĸÐ»ÑĸÐºÑĤÑĸ
ĠÐ½Ð°Ñĥ ÒĽÐ°Ð½
ÐĸÐ°Ò£ Ð°Ð»ÑĭÒĽÑĤÐ°ÑĢ
ĠÐ¼ Ð°Ð½Ñģ
ĠÐ°ÒĽ Ð°Ñĥ
ĠÒĽÐ¾Ñģ ÑĥÒĵÐ°
ĠÓ©Ð½Ð´ÑĸÑĢ ÐµÑĤÑĸÐ½
ĠÒ¯ÑĢÐ´Ñĸ ÑģÑĸ
ĠÒ±ÑĢÐ¿ Ð°ÒĽÑĤÑĭ
ĠÐľÓĻÐ¶ÑĸÐ» ÑĸÑģ
9 7
ĠÑĤÑĸÐ· Ð±ÐµÐº
ÐŀÑģÑĭ Ð´Ð°Ð½
ĠÑĪÐ°ÑĢÑĤ ÑĤÐ°ÑĢÑĭÐ½
ĠÐĳÐ¸Ð·Ð½ ÐµÑģ
Ðµ ÐµÐ²
Ð» Ð¾Ð½
ÐĿ ÐĲÐĽ
ĠÑģÑĭÐ½ Ð°Ð¿
ĠÒ°Ð» ÑĤÑĤÐ°ÑĢ
ĠÐ¿Ð°ÑĢ Ð°Ñģ
ĠÐ°Ð¹ÒĽÑĭÐ½ Ð´Ð°Ð¹ÑĤÑĭÐ½
ĠÐ±Ó©Ð»ÑĸÐ¼ÑĪ ÐµÑģÑĸ
ĠÒĽÐ°Ð»ÑĭÐ¿ÑĤÐ°ÑģÑĤÑĭÑĢ Ð°Ð´Ñĭ
ĠÐ¾ ÑĤÐ°
ĠÑģÐµÐ½ ÐµÐ¼ÑĸÐ½
ĠÐĸ Ò¯Ðº
ĠÐ°ÒĽ Ð¿Ð°ÑĢÐ°ÑĤÑĭ
ĠÓ©Ð½Ð´ÑĸÑĢÑĥ ÑĪÑĸ
ĠÑĦÐ¾ÑĢÐ¼ Ð°Ð»Ð°ÑĢÑĭ
ĠÒ±Ð½ Ð°ÑĤ
ĠÐ±ÐµÑĢÑĥÑĪÑĸ Ð³Ðµ
Ð¢Ó©ÑĢ Ðµ
ĠÐ¾ÑģÑĭÐ½ Ñĭ
ĠÑĢÐµÑģÑĸÐ¼ Ð´ÐµÑĥ
Ñģ Ð°ÑĢÑĭ
ÐµÐ» Ð¸
ĠÐ°Ð» Ð°ÑıÒĽ
ĠÐķ Ð¶ÐµÐ»Ð³Ñĸ
ĠÐ¶Ð°Òĵ ÑĭÐ½
ĠÒĽÒ±Ð» ÑĪÑĭÐ»ÑĭÒĽ
ĠÐºÓ©Ð¿ÑĪÑĸÐ»ÑĸÐº ÐºÐµ
ĠÐ± ÐµÑĤÑĤÑĸÒ£
ĠÐ¸ ÐµÐ¼
ĠÑĤÐ¾Ð» ÑĥÑĭÐ½Ð°
ĠÐºÐµÐ»ÑĤÑĸÑĢ ÐµÑĤÑĸÐ½
iÐ½i ÑĪ
Ð³ Ð¸Ñı
ĠÐ¼ Ð°Ð½
Ð´Ñĸ Ð³ÑĸÐ¼ÐµÐ½
ĠÑĪ Ð¾ÑĪ
ĠÐ¼ÓĻÐ»ÑĸÐ¼ ÐµÑĤÑĤÐµÑĢÑĸ
ĠÐ½Ð¾ÑĢÐ¼ Ð°Ð»Ð°ÑĢÑĭÐ½
ĠÐ¶ÐµÑĤÑĸÐ»Ð´ÑĸÑĢÑĥ Ð³Ðµ
Ñħ Ð°ÑĢ
ĠÓ¨ ÑĢÑĤ
ÑĤÒ¯ Ñģ
ĠÐ°Ð¿ ÑĤÐ°ÑģÑĭÐ½Ð°
Ð» Ð¸ÑĨÐµÐ¹
Ð¼Ð°Ð½ Ð´Ð°ÑĢ
ĠÐ°ÑıÒĽ ÑĤÐ°Ñĥ
ĠÐµÑģÐµÐ¿ÑĤÐµÐ» Ð³ÐµÐ½
ĠÐ¢Ó©Ð» ÐµÐ³ÐµÐ½
ĠÐ¶ÓĻÑĢÐ´ÐµÐ¼ Ð´ÐµÑģÑĥ
ÑĤÑĥÑĢ Ð°Ð»Ñĭ
ĠÓĺÐºÑĸÐ¼ ÑĪÑĸÐ»ÑĸÐº
Ð¾Ð² ÐºÐ°
ĠÐµÐ» ÑĸÐ¼
ĠÑĪÐ°ÑĢ ÑĤÑĭÐ½
ĠÐ¶Ð°ÒĵÐ´Ð°Ð¹ Ð»Ð°ÑĢÐ´ÑĭÒ£
ĠÐĲÑĢ ÑĭÑģÑĤÐ°Ð½
ĠÑĤÐ¸ÑĸÑģ ÑĸÐ½ÑĪÐµ
ĠÐºÐµÑģ ÑĸÑĢ
ĠÐĸÐ°ÒĽ ÑĭÐ¿
ÑĤÑĥ Ð°Ð»Ð´Ñĭ
ĠÐĲÒĽ Ð¾ÑĢÐ´Ð°Ð½ÑĭÒ£
ĠÒ±ÑĢ Ð°Ð½
ĠÐ±Ò±Ð· ÒĵÐ°Ð½
ĠÑģÑĤÑĢÐ°ÑĤÐµÐ³Ð¸Ñı ÑģÑĭÐ½
Ġ1 01
ÑĭÑģÑĤ Ð°Ð¿
ÐĲÒĽ ÑĪÐ°
ĠÐ½ÓĻÑĢ ÐµÑģÑĤ
ĠÒļÐ°Ð¹ ÑĤÐ°
ĠÑįÐºÑģÐº ÑĥÑĢÑģ
ĠÑĪ Ð°
ĠÒ¯ Ð³ÑĸÑĤ
ĠÐ±Ð°Ð¹ Ð»ÑĭÒĵÑĭ
ĠÓ©Ð·Ð³ÐµÑĢ Ð´Ñĸ
in t
ĠÐ°ÑĤÒĽÐ°ÑĢ ÑĭÐ»ÑĭÐ¿
ÒļÒ±ÑĢ ÑĭÐ»ÑĭÑģ
ĠF acebook
ĠÐ¾Ð±ÑĬÐµÐºÑĤÑĸÐ»ÐµÑĢ ÑĸÐ½
ĠÓĻÑĢÒĽÐ°Ð¹Ñģ ÑĭÑģÑĭ
p r
ÑĸÐ½Ð´Ðµ Ð¹
ĠÐ°Ð¹ ÑĢ
ĠÒĵ Ò±Ð»
Ġ7 4
Ð´Ð°Ñģ Ð°
ĠÑĤÐ¾Ð»ÑĭÒĽÑĤÑĭÑĢ ÑĭÐ»ÑģÑĭÐ½
ÑĭÐ¼ Ð¼ÐµÐ½
ĠÑĦ Ð¾Ð»ÑĮÐºÐ»
ĠÑĤÑĸÐ» Ð´ÐµÑĢÑĸÐ½
ĠÒĽÐ°Ð·Ð°ÒĽÑģÑĤÐ°Ð½Ð´ÑĭÒĽ ÑĤÐ°ÑĢÐ´ÑĭÒ£
ĠÂ ©
Ð¿ Ð°ÒĵÐ°
Óĺ Ð·ÑĸÑĢ
ĠÐ¼Ðµ ÑĪÑĸ
ĠÐĲÐ·Ð¸Ñı Ð´Ð°ÒĵÑĭ
ÐŀÑĤ Ð±Ð°ÑģÑĭ
ÑĤ Ð¸ÐºÐ°
ĠÒĽÑĭÐ· ÑĭÒĵÑĭ
ĠÑĤÐ°Ð± ÑĭÑģÒĽÐ°
ĠÑģÓ©Ð· Ð´ÐµÑĢÑĸÐ½
Ð¸Ð·Ð¼ Ð½ÑĸÒ£
ĠÐ±Ò±Ð¹ÑĢ ÑĭÒĵÑĭÐ½Ð°
ĠÐłÐķÐ¡ÐŁÐ£ÐĳÐĽ ÐĺÐļ
Ñĥ ÑĭÐ¼ÐµÐ½
ĠÒļÐ°Ð·Ð°ÒĽÑģÑĤÐ°Ð½ Ð½Ð°Ð½
ĠÒĽÐ¸ÑĭÐ½ Ð´ÑĭÒĽÑĤÐ°ÑĢ
ĠÐ¡Ð°Ñĥ Ð´
ĠÐ´Ð°Ð¼Ñĭ ÑĤÐ°
Ð·Ñİ Ð´Ð¾
ĠÑĪ Ð°ÒĽÑĤÑĭ
ÑĪÑĭ ÒĵÑĭ
ĠÑĤÒ¯Ñģ ÑĥÐ³Ðµ
Ð±Ð°Ð¹ ÑĤÑĭÐ½
ĠÓĻÐ´Ñĸ ÑģÑĸÐ½
ĠÑĪÐ°ÑĢÑĤ ÑĤÑĭÒ£
ĠÐĸÐ°Ð½ Ð°ÑĢ
ĠÓ©Ð»ÑĪÐµÐ¼ Ñĸ
Ð¸ÑıÑĤ ÐºÐµÑĢÐ»ÑĸÐº
ĠÐ¼iÐ½Ð´ ÐµÑĤÑĤi
Ð½ Ð°ÒĽ
ĠÐ¼ ÑĭÑĢÐ·Ð°
ĠÐ±Ð°Ñģ ÑĭÐ¼Ð´Ñĭ
ĠÑĤÒ¯ Ð³ÐµÐ½
ĠÐ¼Ð°ÒĽ ÑĤÐ°
ĠÒĽÐ¾Ð»Ð´Ð°Ð½ ÑĭÐ»ÑĭÐ¿
ĠÒ±ÑģÑĭÐ½ Ð°ÑĤÑĭÐ½
ÑĥÑĪÑĭÐ»Ð°ÑĢ Ð´Ñĭ
ĠÒ¯ÐºÑĸÐ¼ ÐµÑĤÑĸÐ½ÑĸÒ£
Ġt he
ĠÐ¤ÐµÐ´ÐµÑĢ Ð°ÑĤÐ¸Ð²ÑĤÑĸÐº
ÒĽ Ð°ÑĤÑĤÑĭ
Òĵ Ð°Ñģ
ĠÑģÐ°Ð» ÒĽÑĭÐ½
ĠÐļÓ© Ð±
ĠÑģÑĭÑĢÑĤ ÑĤÐ°Ð¹
ic e
ĠÐ¶ÐµÑĤÑĸÑģÑĤÑĸÐº ÑĤÐµÑĢ
Ó©ÑģÐ¿ÑĸÑĢ ÑĸÐ¼Ð´ÐµÑĢ
ĠÐ¶Ð°Ð»ÒĵÐ°Ñģ Ð°Ð´Ñĭ
ĠÑĪÑĸÑĢ ÐºÐµÑĥ
ĠÐ±ÐµÑĢ Ð¼ÐµÐ¹ÑĤÑĸÐ½
ĠÒĽÐ°Ð¹ ÑĤ
ĠC h
ĠÐ´Ð°Ð¹ÑĭÐ½Ð´Ð°Ð» ÑĭÐ¿
ĠÐ¢ ÐµÐ¼
Ñį Ð½ÐµÑĢÐ³
ĠÑĤÐ¾Ð¿ ÑĤÐ°ÑĢÑĭ
ĠÑĤÐ¾Ð¿ ÑĤÐ°ÒĵÑĭ
ĠÒĽÐ¾Ð· ÒĵÐ°Ð»Ñĭ
ĠÐ¼ÐµÑĢÐ·ÑĸÐ¼ ÑĸÐ½ÐµÐ½
ĠÐ¶Ò¯Ð³ ÑĸÑĢÑĸÐ¿
ĠÑħ Ð°ÑĤÑĭ
Óĺ Ðł
Ð±Ð¸ Ð»
ĠÑĤÐ°Ð±Ð¸Òĵ Ð°ÑĤÑĤÑĭÒ£
ĠÐºÓ©Ð¼ÐµÐº ÑĪÑĸ
ĠÐ°Ð¹Ð¼Ð°ÒĽ ÑĤÐ°ÒĵÑĭ
ĠÐľÐ°ÒĽ Ð°ÑĤÐ°ÐµÐ²
ĠÑĥÐ°ÒĽÑĭÑĤÑĭ Ð»Ñĭ
ĠÑĢÐµÐ¹ÑĤ Ð¸Ð½Ð³Ñĸ
ÐµÐ¹ Ðº
ĠÐ±ÐµÑĢ ÐµÐº
199 1
ĠÐ°ÐºÑĤÐ¸Ð² ÑĤÐµÑĢ
ÑĤi Ð±
ĠÐ¸Ð½Ð´ Ð¸Ðº
9 4
i o
ĠÐĳ Ð¾Ñģ
ĠÐľÒ± ÒĽÐ°Ð½
ÒĽÑĭÑĢ Ð»Ñĭ
ĠÐ¢ÓĻÑĥÐµÐ»ÑģÑĸÐ· Ð´ÑĸÐ³ÑĸÐ½ÑĸÒ£
ĠÑħÐ¾Ð» Ð´Ð¸Ð½
ĠÑĪÐ°Ð»Ð´ÑĭÒĽ ÒĽÐ°Ð½
ĠÐ±ÐµÐ¹Ð½ ÐµÐ»ÐµÐ½Ð³ÐµÐ½
ĠÐºÓ©ÑĢÑĸÐ½ ÑĸÑģÑĤÐµÑĢ
ĠÒĽÒ±ÒĽ ÑĭÒĵÑĭÐ½Ð°
ĠÒĽÐ°Ð¹ÑĢÐ°ÑĤ ÐºÐµÑĢÐ»ÐµÑĢÑĸ
ĠÐĿÐ¸Ðº Ð¾Ð»
Â» :
Ðļ ÐķÐł
ĠÐ¨ ÑĭÒĵÐ°ÑĢ
ÑĤÐµÐ¼ ÑĸÐ·
ÐĳÐ°Ð¹ ÑĤÒ±ÑĢÑģÑĭÐ½
ĠÐ±ÑĸÑĢÑĸÐºÑĤÑĸÑĢ Ñĥ
ÒļÐ¾Ð» Ð´Ð°Ð½
ĠÐºÓ© Ð½
ĠÐ±Ð°Ð» Ð°ÑģÑĭÐ½Ð°
ĠÐ¶Ð¾ÒĽ Ð¿ÑĭÐ½
ÐºÐµÐ» Ð´Ñĸ
ĠÒĽÒ±ÑĢÐ°Ð» Ð´Ð°ÑĢÐ´ÑĭÒ£
ĠÑģÐ°ÒĽÑĤÐ°Ñĥ Ð´Ñĭ
ĠÐ¶Ð°ÑĢÑĤÑĭ ÑģÑĭÐ½Ð´Ð°
ĠÐĸ Ð¸Ð½
ÐµÐ² ÑĢ
ĠÐµÐ» Ñĥ
Ð±ÑĸÑĢ ÑĤÐµ
ÒĽÐ°Ð¹ ÑĭÑĢ
ĠÑĤÓ©Ð»ÐµÑĥ ÑĪÑĸ
ĠÐļÐµÐ» ÑĸÑģÑĸÐ¼
ĠÐ´Ð°ÒĵÐ´Ð°ÑĢ ÑĭÑģ
ĠÑģÑĤÐ¸ Ð¿ÐµÐ½
ĠÐ´Ð¸ÑģÑģÐµÑĢ ÑĤÐ°ÑĨÐ¸Ñı
t y
ĠÑģ Ò¯Ð·
ĠÐ¡ Ð°Ð¹ÑĤ
Ð¡ Ò¯Ð¹
Ó¨ Ð½
ĠÑħÐ°Ð»ÑĭÒĽ ÑĤÐ°ÑĢÐ´ÑĭÒ£
ĠÐºÐµÐ»ÐµÑģÑĸ Ð´ÐµÐ¹
Ð¢ÐµÑħÐ½ Ð¸ÐºÐ°Ð»ÑĭÒĽ
Ġ l
ÑĸÑĪ ÐºÐµ
ĠÐ¶Ð¾Ð± Ð°ÒĵÐ°
ĠÐ¼Ð°ÒĽÐ°Ð» Ð°ÑģÑĭÐ½Ð´Ð°
ĠÐ¿ÑĢÐ¾ÐºÑĥÑĢÐ°ÑĤÑĥÑĢ Ð°ÑģÑĭÐ½ÑĭÒ£
ĠÒĽÐ°Ð¹ÑĤÐ°Ð» Ð°Ð¿
ĠÐ½Ð°ÑĢÑĭÒĽ ÑĤÐ°
ĠÑģÐ¾ÒĽ ÒĽÐ°Ð½
ĠÑĭ Ð´ÑĭÑĢ
Ð· ÑĭÐ¼
ĠÐº Ð°Ð»
ĠÐ¾ÑĢ Ð°Ð»ÒĵÐ°Ð½
ĠÐºÓ©ÑĢ ÑĸÒ£ÑĸÐ·
ĠÒĽÐ¾Ð»Ð´Ð°Ð½ ÑĭÐ»Ñĥ
ĠÑģÒ±ÑĢ ÑĭÐ¿
ĠÐŃ Ð»ÐµÐºÑĤÑĢ
ĠÐĲÑģÑģÐ°Ð¼Ð±Ð»ÐµÑı ÑģÑĭ
ĠÑĪ Ð°ÑĤÑĭÑĢ
ĠÐļ Ð¢Ðļ
ĠÐ¶ÐµÑĤ ÑĸÐº
ĠÑĤÐ°Ð± Ð°Ð½
ĠÐ¨ Ð°Ð¹
ĠÑĤÓĻÑĢ ÑĤiÐ±
ĠÑĤÐµÑħÐ½Ð¾Ð»Ð¾Ð³Ð¸Ñı ÑģÑĭÐ½
ĠÑĪÐµÑĤÐµÐ» Ð´Ðµ
ĠÐ°Ð¹Ð½Ð°Ð»ÑĭÑģ ÑĭÐ¿
ĠÐ°ÒĽÐ¿Ð°Ð½ Ð´Ð°ÒĵÑĭ
ĠÐ¿ÑĢÐ¾Ð±Ð»ÐµÐ¼ Ð°Ð»Ð°ÑĢÑĭ
Ð°ÑħÐ¼ÐµÑĤ Ð¾Ð²
ĠÓĻÐ´ÐµÑĤÑĤÐµ Ð³Ñĸ
ÐµÐ¼ ÑĸÑģ
Ð³Ñĸ ÑĤÑĥ
ĠÐ±Ð°ÒĵÐ´Ð°ÑĢÐ»Ð°Ð¼ Ð°Ð»Ð°ÑĢÐ´ÑĭÒ£
ĠÐĲÒĽ ÑĭÑĢ
ĠÐ¶Ð°ÑģÐ°Ñĥ Ð´ÑĭÒ£
ĠÓĻÐ¹ÐµÐ» Ð´ÐµÑĢÐ³Ðµ
ĠÐ°Ð²ÑĤÐ¾Ð¼ Ð°ÑĤÑĤÐ°Ð½Ð´ÑĭÑĢÑĭÐ»ÒĵÐ°Ð½
ĠÐ°ÐºÑĤÑĸÐ»ÐµÑĢ ÑĸÐ½
Ò°Ð» ÑĤ
ÐĳÐ°Òĵ Ð°Ð»Ð°Ñĥ
ĠÑĪÐµÑĪ ÑĸÐ¿
ĠÐĲÐ¹ Ð¼Ð°ÒĽ
ĠÐ¾Ð½Ð´Ð° ÒĵÐ°Ð½
ĠÑĤÐµÐ¼Ð¿ÐµÑĢÐ°ÑĤÑĥÑĢ Ð°
ĠÐ¢Ò¯ ÑģÑĸÐ½
Ñĥ ÑĭÐ½ÑĭÒ£
Ðł Ðµ
ĠÒ±Ð· Ð°ÑĢÑĤÑĥ
ĠÐºÐ¾Ð½ÑĨ ÐµÑģÑģ
ĠÑģÑĤ Ð°Ð²Ðº
ÑĸÑĢ ÑĥÐ³Ðµ
Ðĳ Ò±ÑĢÑĭÐ½
ĠÑģÐ°Ð½ Ð°ÑĤÑĤÑĭ
ĠÐ±Ð°Ð¹Ð»Ð°Ð½ ÑĭÑģÑĭÐ½
ĠÐľÒ± ÒĽÐ°ÒĵÐ°Ð»Ð¸
ĠÑģÑĭ Ð¹ÑĭÐ¼
ĠÐ¾ÒĽÐ¸Òĵ Ð°ÒĵÐ°
ĠÐ¸Ð´ÐµÑı Ð»Ð°ÑĢ
ÑĸÑģ ÑĸÐ½ÐµÐ½
Ð¢ Ð¾ÒĽ
ÑģÑĤÑĸ Ð³ÑĸÐ½
ĠÑĤÐ°ÑĢÐ°Ð¿ ÑĤÐ°ÑĢ
ĠÑģÐ¾ÒĵÑĭÑģ ÑĭÐ½ÑĭÒ£
ĠÑģÑĤÐ° ÑĨÐ¸Ð¾Ð½
ĠÐ¢Ð°Ð±Ð¸Òĵ Ð°ÑĤ
ĠÐ¶Ð°Ð» Ð´Ð°Ñĥ
ĠÑģÐ°Ð½ Ð°Ñĥ
ĠÑĤÓĻÑĢ ÑĤiÐ¿
ĠÑĤÐ¾Ð¿ ÑĤÐ°
ĠÐ³Ð°Ð· ÐµÑĤÑĸÐ½Ð´Ðµ
ĠÐŀÑĢ Ð¼Ð°Ð½
Ò£Ð³ÑĸÐ¼ Ðµ
ĠÐ´ÐµÑĢ ÐµÐ³Ñĸ
ĠÒĽÒ±ÑĤÑĤÑĭÒĽ ÑĤÐ°Ð¹Ð¼ÑĭÐ½
ĠÐºÑĢÐµÐ´Ð¸ÑĤ ÑĤÑĸÐº
ĠÐºÐ°Ð±Ð¸Ð½ ÐµÑĤ
ĠÑĤÑĸÐ·Ð± ÐµÑģÑĸÐ½
ÑĪ ÑĸÐ½Ñĸ
ĠÒĽ Ð¾Ð¼
Ġ6 1
ĠÑģÐµÐ½ Ð±Ñĸ
ĠÓ©Ð½Ð´ÑĸÑĢ ÑĸÑģÑĸÐ½ÑĸÒ£
ĠÑģÐ°Ð¼ Ð¼Ð¸ÑĤ
ÐĸÐµÑĤ ÑĸÑģÑĥ
ÑĤ ÐºÑĸ
Ð³Ðµ Ð´
ÐµÑĥ Ð»ÐµÑĢ
ĠÓ¨Ð· Ñĸ
ĠÐ°ÑĢÑħÐµ Ð¾Ð»Ð¾Ð³Ð¸ÑıÐ»ÑĭÒĽ
ÑĤÐ°ÑĢ ÑĭÐ¼ÐµÐ½
ĠÐĳÒ±Ð» Ð°ÑĢ
Ð°Ò£ÑĭÐ· Ð´Ð°ÑĢ
ÑĤÐ°Ñģ Ð°
ĠÓ©Ð½Ð´ÑĸÑĢÑĥ Ð³Ðµ
ÑĤÐµÑĢ Ð°ÐºÑĤÐ¸Ð²ÑĤÑĸ
ĠÐ¡ ÑĤÑĢÐ°ÑĤÐµÐ³
ĠÐ±ÑĸÑĢ ÑĸÐºÐºÐµÐ½
ĠÐ°Ð¹ Ð¼Ð°ÒĵÑĭÐ½Ð´Ð°ÒĵÑĭ
ĠÐ·Ð°Ò£ Ð´Ð°ÑĢÑĭÐ½Ð°
Ġ7 1
ĠÓ©Ò£ÑĸÑĢ Ñĸ
ĠÒļÐ¾Ð» Ð´Ð°Ð½
9 6
Ñģ Ð¸Ð½
Ð´ Ð¸Ð½Ð°
Ð»Ð°ÑĢ ÑĭÒ£ÑĭÐ·ÒĵÐ°
Ð¡ Ðľ
ÒĽÑĭÐ» Ð°Ñĥ
ĠÐ¼ÓĻ Ð·ÑĸÑĢ
ÐŁ ÑĢÐ¾
ĠÐ¶ÐµÐº ÐµÑĪÐµÐ»ÐµÐ½Ð´ÑĸÑĢÑĥ
ĠÐĶ ÐµÐ¿Ð°ÑĢÑĤÐ°Ð¼ÐµÐ½ÑĤ
ĠÐºÓ©Ð¼ÐµÐºÑĤÐµÑģ Ñĥ
c el
Ñģ Ð¾Ò£
ĠÐ¢ Ð¾Ð»ÑĭÒĽ
ĠÐ°ÑĤ Ð°ÑĥÒĵÐ°
ĠÑĦ Ð¸
ÐĹ Ð°Ð¼Ð°Ð½
ĠÐ¶Ò¯ÑĢÐ³ÑĸÐ·Ñĥ Ð´Ðµ
Ð¢ÓĻÑĥÐµÐ» ÑģÑĸÐ·
ĠÒĽÐ¾ ÑıÐ½
ĠÒĽÐ°Ð¹ ÒĵÑĭ
ĠÐºÑĸÑĪ ÐºÐµÐ½Ðµ
ĠÑģÐ°Ð½Ð°ÑĤ ÑĤÐ°ÒĵÑĭ
ĠÐĳÑĸÑĢÑĸÐ½ÑĪÑĸ Ð´ÐµÐ½
ĠÑĪÐµÐºÑĤ ÐµÐ»
ĠÐºÐ°Ð·Ð°Ñħ ÑģÐºÐ¾Ð¼
A pp
ÑĨ Ð¸Ð½
ĠÒĽÐ°ÑĢ Ð°Ð»ÑĭÐ¿
ĠÐ±Ó©Ð»ÑĸÐ½ ÐµÑĤÑĸÐ½
ĠÐµÑģÑĤ Ñĥ
ÐĨÐ»Ð¼ÐµÐº ÑĤÐµÑĢ
ĠÐĶÒ¯Ð¹ ÑģÐµÐ½
ĠÐ°Ñĥ Ð¼Ð°ÒĵÑĭÐ½Ð°
Ðļ Ó©Ð»ÑĸÐº
ĠÐ¶Ò¯Ð¹ ÐµÐ»ÐµÑĢÑĸÐ½
ĠÑĤÐ°Ð½ ÑĭÐ»Ð°Ð´Ñĭ
Ġ0 6
ĠÒĽÒ±Ð¼ Ð°ÑĢ
Òļ Ð°Ð¼
Ðĳ ÑİÐ´Ð¶
Ð¢ Ð°Ñģ
ĠÐĳÐ°Ñģ ÑĤÐ°Ð¿ÒĽÑĭ
P h
ĠÑĤ ÑĭÐ»
ĠÐ¼ÐµÐºÑĤÐµÐ¿ ÑĤÑĸ
ĠÐ¼Ð°Ð·Ð¼Ò±Ð½ Ð´Ð°ÒĵÑĭ
ÑĤÒ¯ÑģÑĤÑĸ Ð³ÑĸÐ½Ð´Ðµ
ĠÐ¶Ò¯ÑĢÐ³iÐ· Ñĥ
. Â»;
Ðĺ Ðľ
ĠÐ¶Ð¾ÑģÐ¿Ð°ÑĢ Ð»Ð°ÑĢ
ĠÑģÑĥÑĢ ÐµÑĤÑĤÐµÑĢÑĸ
ĠÐºÓ©Ð·ÒĽÐ°ÑĢ Ð°ÑģÑĭÐ½
ĠÐ¶Ð°Ð»ÒĵÐ°Ñģ ÑĥÐ´Ð°
Ð°Ñģ ÑĤÑĭÒĽ
Ð± Ð°Ñĥ
Ð¾Ñģ Ðº
ĠÐ³ ÑĢ
ĠÑĢÐµÑĤ ÑĸÐ½Ð´ÐµÐ³Ñĸ
ĠÐ¥ ÐĨÐ¥
ÑģÑĤÒ¯ÑĢ Ð»Ñĸ
az aq
ĠÑįÑĤ Ð½Ð¾
ĠÐķÐ»Ð±Ð°Ñģ ÑĭÐ¼ÑĭÐ·
Ð» ÐµÑģÑĤ
ĠÑģÐ°Ð» Ð´Ð°ÑĢÑĭ
ĠÐŁ Ð°Ð½
ĠÐ¨ ÐµÐº
ĠÑģÐ°Ð½ Ð´Ñĭ
ĠÐ±Ð°Ð»Ð°Ð»Ð°ÑĢ ÑĭÐ½
ĠÐºÓ©Ð¼ ÐµÐ³ÑĸÐ½
ĠÐ±ÑİÐ´Ð¶ ÐµÑĤÑĸ
ĠÐºÓ©ÑĢÐ¼ ÐµÑģÑĸÐ½Ðµ
ĠÐ¶ÐµÑĤÑĸÑģÑĤÑĸÐº ÑĤÐµÑĢÐ³Ðµ
ĠÑĸÑĢÐ³ ÐµÐ»Ñĸ
ĠÐ¸Ð½ÑĤÐµÐ³ÑĢ Ð°ÑĨÐ¸Ñı
ÒĽ Ð°Ð·ÑĸÑĢÐ³Ñĸ
ĠÒĽ Ð°ÑģÑĭÐ½Ð´Ð°
ÑĤÐµÑĢ Ð¼
Ò±Ð¼ Ð°ÑĢ
ĠÐķÑģ ÑĸÐ»
ĠÐºÐµÐ¹ÑĸÐ¿ ÐºÐµÑĢ
ĠÐ¿Ð¾Ð»Ð¸ÑĨÐµÐ¹ Ð»ÐµÑĢ
ĠÑģ ÑĭÒ£
Ð± ÓĻÑĢÑĸ
Ð¸Ñı ÑģÑĭÐ½Ð´Ð°
ĠÒĵ Ð°Ð¶Ð°Ð¿
ĠÐ¼ÓĻ Ð¹
ĠÒĽÑĥ ÑĭÐ¿
Ð¾Ð³ÑĢÐ°ÑĦ Ð¸ÑıÑģÑĭ
ĠÑħÐ°Ð½Ð´Ñĭ ÒĵÑĭ
ĠÓ©Ð· ÑĸÐ¼ÐµÐ½
Ð¡ Ðķ
ĠÐĸ Ò¯Ð¹
Ðľ Ð°ÒĵÐ°Ð½
ĠÐļ ÑĥÑĢ
ĠÐµÐºÑĸ Ð³Ðµ
ĠÐĲÐ»ÑĮ Ð²Ð°ÑĢ
ĠÑįÐ½ÑĨÐ¸ÐºÐ»Ð¾Ð¿ ÐµÐ´
Ð» ÑĭÐ»Ð°ÑĢ
Ð´Ð°ÑĢ Ð°
ÐºÐµ ÑģÑĤ
ĠÒ¯Ð» ÐµÑģÑĤÐµÑĢ
ĠÐ¼ÐµÐºÑĤÐµÐ¿ ÑĤÐµÑĢÑĸ
ĠÑģÒ±ÑĢÐ°ÒĽÑĤÐ°ÑĢ ÑĭÐ½Ð°
ĠÐļÓ©ÑĢ ÐºÐµÐ¼
ĠÐ± ÑİÑĢ
ĠÐºÓ© ÐºÑĤ
Ó©Ð½ Ðµ
... Â»
ĠÐ¼ÓĻÐ´ÐµÐ½Ð¸ ÐµÑĤÑĤÑĸÒ£
ĠÐ±ÐµÐ»Ð³ÑĸÐ» ÐµÐ³ÐµÐ½
Ð´Ðµ Ð»ÑĸÐºÑĤÑĸ
ĠÒļ Ð°Ð»ÒĵÐ°Ð½
Ð¢ Ð«Òļ
ÐµÑĤÑĸÐ½ ÑĪÑĸ
ÐŁ ÐµÑĤÐµÑĢÐ±ÑĥÑĢÐ³
ĠÐºÐµÐ»ÑĸÑģ ÑĸÐ¼Ñĸ
Ð±Ð¾Ð» Ð°Ð´Ñĭ
ÑĨÐ¸Ð¾Ð½ Ð°Ð»Ð´ÑĭÒĽ
ĠÑĤÒ¯Ð· Ñĥ
ĠÐ´Ð¸Ñģ Ðº
ĠÐ½Ð°ÑĢÑĭÒĵ ÑĭÐ½Ð´Ð°ÒĵÑĭ
ÑĤ Ò¯Ð¹
Òĵ ÑĭÐ¼Ð´Ñĭ
ĠÐ½ ÐµÐ»ÑĸÐºÑĤÐµÐ½
ĠÒ¯Ð¹ ÑĸÑĢ
ĠA ndroid
ĠÒ±ÒĵÑĭÐ¼ Ð´Ð°ÑĢ
ĠÑĤÐµÑĢÐ³Ðµ Ð¿
ĠÐĳÐ°Òĵ Ð°Ð»Ð°Ñĥ
Ð¼ ÐµÐ³Ðµ
ÐµÑĢ Ð½
ĠÐ¾ ÑĦ
ĠÐ¼Ò¯ ÑĦÑĤÐ¸
ĠÒĽÐ¾Ð¹ ÑĭÐ»ÑĭÐ¿
ĠÑĤÑĥ ÑĭÐ½Ð´Ð°
Ġ16 0
ĠÐĶÐ°Ð¼ Ñĥ
ĠÓ©Ð½ÐµÑĢÐºÓĻÑģÑĸ Ð±
ĠÐ¿ÑĭÑģ ÑĭÒĽ
ĠÐ±Ð¾Ð» Ð°Ð¼ÑĭÐ½
ĠÑĥ Ð°ÒĵÑĭÐ·
ĠÓĺ ÐĽ
ĠÒĽÐ°Ð± ÑĭÐ½
ĠÑĢÐµÑģ ÑĥÑĢÑģÑĤÑĭÒĽ
ĠÑĤÐ¾ÒĽ ÑĤÐ°Ð¿
ĠÐ°ÑıÒĽ ÑĤÐ°Ð´Ñĭ
ĠÑĤÐ°Ð¿ÑģÑĭÑĢÐ¼ Ð°Ð»Ð°ÑĢÑĭÐ½
ĠÑĤÒ±ÑĢÒĵÐ°Ð½ ÑĭÐ½
ĠÑģÐµÑĢ ÑĸÐºÑĤ
ĠÐ¶Ð°ÑģÓ©ÑģÐ¿ÑĸÑĢ ÑĸÐ¼
ĠÐĳÐµÐ» Ð³ÑĸÐ»Ñĸ
ĠÑĢÐµÑģÑĥÑĢ ÑģÑĭ
Ġ( "
ĠÐ¿ÑĢ Ð°Ð²
ĠÐ³ Ð¾Ð´
ĠÑģÐ°Ð½ Ð°ÑĤÑĤÐ°ÑĢ
ĠÐºÐµÑģ Ñĥ
ĠÐºÐ°Ð´ÑĢ Ð»Ð°ÑĢÐ´Ñĭ
ĠÐ±Ð°Ðº Ð°Ð»
ÒĽÐ¾ÒĵÐ°Ð¼ Ð´ÑĭÒĽ
ĠÑĥÓĻÐº iÐ»ÐµÑĤÑĤi
Ð¸Ð· Ð¸ÐºÐ°Ð»ÑĭÒĽ
ĠÐ¶Ð°Ð½ Ð´Ð°ÑĢÒĵÐ°
ĠÐ¶Ð°Ñĥ Ð°Ð±ÑĭÐ½
ĠÑĤÑĥ Ð´ÑĭÑĢÐ°Ð´Ñĭ
ĠÐºÐµÐ»ÑĸÑģ Ñĥ
ĠÑĤÐµÐ» ÐµÐºÐ¾Ð¼
ĠÑĤÐ°Ð½ÑĭÑģÑĤÑĭÑĢ ÑĭÐ¿
ĠÐĳÐµÑĢ Ð´ÑĸÐ±ÐµÐº
ĠÐ¢Ó©ÑĢÐ°Òĵ Ð°ÑģÑĭÐ½ÑĭÒ£
Ð¾Ð±Ð» ÑĭÑģÑĤÑĭÒĽ
ĠÓ©Ð·ÐµÐºÑĤ ÑĸÐ»ÑĸÐ³Ñĸ
Ð³ iÐ½iÒ£
Ð¿ Ð¾Ð·Ð¸ÑĨÐ¸Ñı
ĠÐĲ ÐºÑĤ
ĠÒĽÒ± Ñİ
ĠÐ¸Ð½ÑģÐ¿ ÐµÐºÑĨÐ¸Ñı
Ð¾Ð¼ÐµÑĤÑĢ Ð¸ÑıÐ»ÑĭÒĽ
9 3
ĠÐľ Ðĸ
Ð£ Ð½Ð¸Ð²ÐµÑĢÑģÐ¸ÑĤ
it e
ĠÑģÑĭÑĢ ÒĵÐ°Ð½
ĠÒļÑĭÑĢ ÒĵÑĭÐ·
ĠÐ±ÑĸÑĢÐ»ÐµÑģÑĤÑĸÐº ÑĤÐµÑĢ
ĠÒĽÒ±Ð¹ ÑĭÐ¿
Ð³Ðµ Ð±ÑĢ
ĠÐļ ÑĥÐ±
Ð°Ð´ Ð¸
I S
Ñĸ ÑĤÑĸ
Ð°Ð¹ Ð½Ð°Ð»
Ò¯ Ð³ÑĸÑĢ
Ð°Òĵ Ð°ÑĤÑĤÑĭ
Ð¾Ñģ ÑĦ
ĠÐ¾ÒĽ ÑĭÐ¼
Ó¨ Ðļ
ĠÐ°ÑĤÐ°Ñĥ Ð»Ð°ÑĢÑĭ
ĠR e
ĠÑĤÑĥÑĭ ÑģÑĤÐ°ÑĢÑĭ
ĠÐ¶ÐµÒ£ÑĸÐ»Ð´ÑĸÐº ÑĤÐµÑĢ
ÑĪ ÑĭÒĵ
ĠÒ±ÑģÑĭÐ½ ÑĭÐ»Ð°ÑĤÑĭÐ½
ĠÒ±Ð¹ÑĭÐ¼Ð´Ð°ÑģÑĤÑĭÑĢÑĥ Ð´ÑĭÒ£
ĠÑĥÓĻ ÐºÑĸÐ»
ĠÐ¼Ð¾Ð½Ð¸ÑĤÐ¾ÑĢ Ð¸Ð½Ð³Ñĸ
Ð± ÑĥÐº
ĠÐ±Ð°ÑĢ Ð»ÑĭÒĵÑĭÐ½Ð°
ĠÐ°Ñģ ÑĤÑĢ
ÑĭÐ»ÑĭÐ¼ Ñĭ
ĠÐºÐµÒ£ ÐµÑģÑĤÑĸÐº
20 01
ÑĢÐ¸ Ð´
ĠÐºÑĸÐ¼ Ð³Ðµ
ĠÑĦÐ°ÐºÑĤ ÑĸÐ»ÐµÑĢ
ĠÐĸÐ°Ò£ Ð°ÒĽ
ĠÑĦÑĥÐ½ÐºÑĨÐ¸Ñı Ð»Ð°ÑĢÑĭÐ½
ĠÓĻÐ»ÐµÑĥ ÐµÑĤÑĸ
ĠÐ²ÐµÑĤÐµÑĢÐ¸Ð½Ð°ÑĢ Ð¸Ñı
ĠÑĤ Ð°ÑıÒĽ
ĠÐºÓ©ÑĢ ÐµÐ¼ÑĸÐ·
ĠÐł Ð°Ñģ
ĠÓ©ÐºÑĸÐ» Ð´ÐµÑĢÑĸÐ½Ðµ
ĠÐķÑĢ ÐºÐµ
ĠÑĤÒ¯ÑģÑĸÐ½ÑĸÐº ÑĤÐµÐ¼Ðµ
ĠÐµÐ³ ÐµÐ¼ÐµÐ½
ÒĽÐ°Ð± Ð°ÑĤÑĤÑĭ
ĠÐ¨Ð² ÐµÐ¹ÑĨ
f f
z h
Ðº Ò¯Ð»
ĠÐĸ Ò®
ĠÐ·ÐµÑĢÑĤÑĤÐµÑĥ Ð´ÑĸÒ£
ÑĤÐµÐ» Ð³ÐµÐ½
ĠÓĻÐºÐµÐ» Ð´Ñĸ
ÑĪ Ð°Ð½Ñĭ
ĠÐµÑģ ÑĸÐ³ÑĸÐ½
ĠÐŁ ÓĻ
ĠÐ¼Ð¾ Ð´ÐµÐ»Ñĸ
ÑĥÑħÐ³Ð°Ð» ÑĤÐµÑĢ
q u
ĠÑĤ Ð¾Ðº
âĢ º
ĠÐ¨ Ð«
ĠÐ¶Ð°Ð» Ð°Ò£
ĠÒ±ÑģÑĭÐ½ ÑĥÒĵÐ°
as s
ÐºÑĢÐ°Ð¸ Ð½
ĠÐĳÐ°ÒĵÐ´Ð°ÑĢÐ»Ð°Ð¼ Ð°
ation al
8 3
ĠÐ¶ Ò±Ð»
ĠÑĤ ÐµÑĤÑĸ
Ó© Ð±Ðµ
ĠÑģ Ð°ÑĤÑĭÑģ
Ð°ÑĤ Ð¾Ð¼
Ñı ÒĽ
ĠÐĳ ÓĻÐ¹
ĠÓĻÐºÑĸÐ¼ Ð´ÐµÑĢÑĸ
ĠÐļÒ¯Ð½ Ñĸ
ĠÐ½Ò±ÑģÒĽ Ð°ÑģÑĭÐ½
ĠÐĵÑĢÑĥ Ð·Ð¸Ñı
ÑĢ Ð¸Ð½
ĠÐ°Ð´Ð°Ð¼ Ð¸
ÐĲÐ¹ ÑĤ
ĠÐ´Ð°ÒĵÐ´Ñĭ Ð»Ð°Ð½Ð´ÑĭÑĢÑĥ
i le
Ðº ÑĸÐ»ÑĸÐºÑĤÑĸ
Ð¿ ÑĭÑģ
Ð°Ñĥ ÑĪÑĭ
Ð¾Ð»Ð¾Ð³ ÑĤÐ°ÑĢ
ĠÐ´ÐµÐ³ÐµÐ½ Ð³Ðµ
ÐĹ Ðĺ
Ð±Ð¾Ð» ÒĵÐ°Ð½
ĠÐ¡Ð¸ÑĢ Ð¸Ñı
. ;
k az
ĠÐĳ ÒļÐŀ
ĠÑį Ð»
ĠÓ©Ð·Ð³ÐµÑĢ Ð³ÐµÐ½
ĠÐķÐ» ÑĪÑĸÑģÑĸ
ĠÐ¿ÑĸÐºÑĸÑĢ Ð»ÐµÑĢÑĸÐ½
ĠÐºÐ¸ ÑĸÐ¼Ð´ÐµÑĢ
ÒĽÐ°Ð± ÑĭÐ»
u st
Ð´ÐµÐ½ ÑĸÒ£
ĠÐ¾ÒĽÐ¸ ÒĵÐ°Ð½ÑĭÒ£
8 1
Ġ ÑĸÑĪÑĸ
Ðµ Ñĩ
Ð°Ñģ Ðº
ĠÐ¶ÐµÑĤ ÐºÑĸÐ½
ĠÐ¼Ò¯ÑĪ ÐµÐ»ÐµÑĢÑĸÐ½
ĠÐ´Ð°ÒĵÐ´Ñĭ ÑģÑĭÐ½
ĠÐ¶Ð°ÑĥÐ°Ð¿ÐºÐµÑĢÑĪÑĸÐ»ÑĸÐº ÑĤÑĸ
ĠÐ¼Ò¯Ð³ÐµÐ´ÐµÐº ÑĤÐµÑĢ
ĠÐĳÑĸÐ» ÑĸÐ¼Ð´ÑĸÐ»ÑĸÐº
ĠÒĽÑĭÐ·Ð¼ÐµÑĤÑĪÑĸÐ»ÐµÑĢ ÑĸÐ½ÑĸÒ£
ĠÒĽÐ°Ð¼ÑĤÑĭ ÒĵÐ°Ð½
? "
_ (
ÑĪ Ð°Ð»Ð°ÑĢ
ĠÐ¡ Ð°Ð½ÐºÑĤ
ÑĤÐ°Ð½ ÑĤ
Ð¢ Ò¯Ð¹
ĠÐ¶Ò¯ÑĢ ÐµÐ³
ÒļÑĭÐ» Ð¼ÑĭÑģÑĤÑĭÒĽ
ĠÐ¿Ð¾Ð»Ð¸Ð³ Ð¾Ð½
) &
b al
ĠÒĽ Ð°ÒĵÐ°Ð½
ĠÐķ ÑĢÑĤÑĸÑģ
ĠÑĸÑĪ ÐµÐº
ÐµÐ³ Ð¸Ð¾Ð½
ĠÐ¶Ð°Ð»Òĵ Ð°ÑģÑĭÐ¿
ĠW indows
) -
ĠÑĤ ÑĸÑģ
ĠÐ¾Ð±Ð» ÑĭÑģÑĤÐ°ÒĵÑĭ
ĠÐ¼ÐµÐºÑĤÐµÐ¿ ÑĤÐµÐ³Ñĸ
ĠÒ±Ð¹ÑĭÐ¼Ð´Ð°ÑģÑĤÑĭÑĢÑĥ ÑĪÑĭ
ĠÐ±Ð°Ð½Ðº ÑĸÐ½ÑĸÒ£
ĠÑħÐ°ÑĤ ÑĤÐ°Ð¼Ð°
Ð¾ÐºÑĢÐ°ÑĤ Ð¸ÑıÐ»ÑĭÒĽ
Ñĥ ÑĭÐ·
Ð± Ð°ÑıÐ½
ĠÐĸ Ð°Ð¹ÑĭÒĽ
ĠÐķ Ð²
ĠÐķ ÐºÐµÑĥ
ĠÐ°Ñģ ÑģÐ°Ð¼Ð±Ð»ÐµÑı
ĠÐºÐµÐ¹ iÐ½
ĠÐ¶Ð°ÑģÐ°Ñĥ Ñĭ
ĠÐ¶Ð°ÑĤÑĭÑĢ Ð¼ÑĭÐ½
ĠÒĽÐ¾Ð»Ð´Ð°Ð½Ñĥ Ð´ÑĭÒ£
ÐĨÐĽ ÐĨ
ĠÐ¼Ð°Òĵ ÑĭÐ½Ð°Ð½Ñĭ
ĠÐ¼ÐµÑĪÑĸ ÑĤÑĸ
ĠÑĪ ÐµÐ³Ñĸ
Ð¢ Ðĸ
ĠÒ±Ð¹ÑĭÐ¼ Ð´Ð°ÑĢÑĭÐ½Ð°
ĠÐ°ÑģÑĭÑĢ ÑĭÐ¿
ÐĲÐĿ ÐĶÐ«
ĠÐµÑĤÑĸ ÑģÑĤÑĸÐº
ĠÐ±Ð°ÑģÑĪÑĭÐ»ÑĭÒĵ ÑĭÐ¼ÐµÐ½
ĠÐĺÐ½Ð²ÐµÑģÑĤÐ¸ÑĨÐ¸Ñı Ð»Ð°ÑĢ
8 7
ÑĦ Ð¸
ĠÐĲÐ»Ð¼Ð°ÑĤÑĭ ÒĵÐ°
ÑģÐº Ð¾Ð¹
ĠÐ¼Ð°Ð³ Ð½Ð¸ÑĤ
ĠÐ¶ÑĥÑĢÐ½Ð°Ð»Ð¸ÑģÑĤ Ð¸ÐºÐ°
ĠÒ±Ð¼Ñĭ ÑĤÑĭÐ¿
Ð°Ñģ Ð°Ð´Ñĭ
ĠÐ¡ ÑĸÐ±ÑĸÑĢ
ĠÐµÐ½Ð³ÑĸÐ· Ð³ÐµÐ½
ĠÐ¶Ð°Ð¿ ÑĭÑĢÐ°ÒĽ
ÒĽÒ±Ð¶ Ð°ÑĤ
ĠÐ¾ÑĢ Ð°Ð»Ð´Ñĭ
ĠÐ¼ÐµÐ½ ÐµÐ½
ĠÒĽÒ±ÑĢ Ð°ÒĵÐ°Ð½
ĠÐ¼Ð¸Ð½Ð¸ÑģÑĤÑĢ Ð»ÑĸÐ³ÑĸÐ½Ð´Ðµ
ĠÑģÑĭÐ½ÑĭÐ¿ ÑĤÐ°Ð½
Ð°ÑĤÐµÐ³ Ð¾ÑĢ
ĠÑģÑĤÐ°Ð½ Ñģ
ĠÑĤÓĻÐ¶ÑĸÑĢÐ¸Ð± ÐµÐ»Ñĸ
ĠÓ©Ð·Ð³ÐµÑĢÑĸÑģÑĤÐµÑĢ Ð´Ñĸ
ĠÐ¼Ð¾Ð» ÐµÐºÑĥÐ»
Ð³ÑĸÐ» Ð´ÑĸÑĢ
ÑĤ ÑĸÐ»ÑĸÐ³Ñĸ
Ñģ Ð°Òĵ
ĠÐ±Ð°Ñģ ÑģÐµÐ¹Ð½
ĠÐ¶ÑĭÐ» Ð°Ð¿
ĠÑĢ ÑĥÐ±Ð»
Ðķ Ð¼
ĠÐ°Ð´Ð°Ð¼ Ñĭ
ĠÐºÓ©ÑĢÑģÐµÑĤ ÑĸÐ»ÑĸÐ¿
ÑĪÑĭÐ»ÑĭÒĽ ÒĽÐ°
ĠÑģÐ°Ð½ Ð´Ð°ÑĢÐ´Ñĭ
Ð¿Ð°Ñģ Ð°
ĠÑĪÐ°Ð¹ ÒĽÐ°Ñģ
ÑĸÑģ ÑĸÐ½Ð´ÐµÐ³Ñĸ
ĠÓ©Ð½ ÐµÐ³
Ð¥ Ð°Ð½
ĠÐ¼Ò±ÑĢ Ð°Ð¶
ĠÑĤÒ±ÑĢÐ°ÒĽÑĤÑĭ Ð»ÑĭÒĽ
ĠÐ´Ð°Ð¹ ÑĭÐ½Ð´ÑĭÒĵÑĭ
ĠÐ°ÑĢÐ°Ð» Ð°ÑģÑĭÐ¿
ĠÓĻÐºiÐ¼ ÑĪiÐ»iÐº
X PO
Ñı Ð±ÑĢ
ĠÐ±ÑĸÑĢ ÑĤÐµ
ÑĤÑĸ Ð³Ñĸ
ĠÐ¼ÐµÐº ÐµÐ½Ñĸ
ĠÒļÒ±ÑĢ Ð°Ð¼Ð°
ĠÐºÓ©ÑĢÑĸÐ½ Ð´Ñĸ
ĠÑĪÑĭ Ð´Ð°Ð¼
ĠÐ¶Ò±Ð¼Ñģ Ð°Ð»ÒĵÐ°Ð½
ĠÑĪÐ°Ò£ ÑĭÑĢ
ĠU n
ĠÐ°Ð¿Ð°ÑĢ ÑĭÐ¿
Ð°ÒĽÐ¿Ð°ÑĢÐ°ÑĤ ÑĤÑĭÒĽ
ĠÒļ ÑĭÑĤÐ°Ð¹Ð´Ð°
Ó¨ Ð»ÐµÒ£
ĠÐ¿Ð°Ð¹ Ð´Ð°Ð»
ĠÑĤÑĸÐ» ÑĸÐ¼
ĠÐ¶Ð°ÒĵÐ´Ð°Ð¹ Ð»Ð°ÑĢÑĭÐ½
Ð±Ð°Ñģ ÑĤÐ°Ñĥ
ĠÑģÒ¯Ð¹ Ð³ÐµÐ½
Ð°Ð· Ð°ÑĤÑĤÑĭÒĽ
ÑĭÐ¼ Ð°Ð»Ñĭ
Ð¡ ÐĿ
ĠÐ¶Ð°Ñĥ Ð°Ð±Ñĭ
ĠÐ¼ÓĻÐ»ÑĸÐ¼ Ð´ÐµÐ¼
ÑĥÐ¼ Ð¸Ð»ÐµÐ²
ĠÐĺÐ½ ÑĤÐµÑĢÐ½
ĠÐ´ÓĻÑģÑĤÒ¯ÑĢ Ñĸ
ĠÑģÑĥÑĢÐµÑĤ ÑĪÑĸ
ĠÐ°ÑĥÑĭÑģÑĤÑĭÑĢ ÑĭÐ»ÑģÑĭÐ½
ĠÐ¡Ð°Ñĥ Ð´Ð°
o ur
Ð· ÑĭÐ½
Ð³ ÐµÐ»Ñĸ
Ð¸Ðº Ð°ÑĤÐ¸Ð²ÑĤÑĸÐº
ĠÐ±ÑĸÑĢ ÑĸÐ½ÑĸÒ£
Ð¢ Ð¾
ĠÑĤÒ¯ Ð±ÑĸÑĢ
ĠÑĤÐ¸ ÐµÐº
ĠÐ¼Ò¯Ð´Ð´Ðµ ÑģÑĸÐ½
ĠÐ¾Ð±Ð»ÑĭÑģÑĤÐ°ÑĢ ÑĭÐ½Ð´Ð°
ĠÐºÓĻ Ð´ÑĸÐ¼Ð³Ñĸ
ÑĸÐ½ ÑĪÐµÐº
ĠÑĪÐµÑĪ ÑĸÐ¼Ð´Ñĸ
ĠÐ¾ÑĢÐ³Ð°Ð½ Ð´Ð°ÑĢÐ¼ÐµÐ½
ĠÐ¶ÐµÑĤÐºÑĸÐ· ÑĸÐ»Ð³ÐµÐ½
ĠÑģÐ¸Ð¿Ð°ÑĤ ÑĤÐ°Ñĥ
ĠÐ¡Ð°Ð¹ Ð»Ð°Ñĥ
I n
Ð°Ð± Ð¾ÑĢ
ĠÐĿ Ð°ÒĽÑĤÑĭ
ĠÑĤÐ¾Ð± ÑĭÐ½
ĠÐ¾Ð±ÑĬÐµÐºÑĤ ÑĸÐ»ÐµÑĢÑĸ
Ð¾ÑĢÐ´ Ð°Ð»ÑĭÒĽ
ĠÒ¯Ð¹Ð»ÐµÑģ ÑĸÐ¼Ð´Ñĸ
ĠÐ°Ð´Ð°Ð¼Ð· Ð°ÑĤÑĤÑĭÒ£
ĠÐ¼ÐµÑĢÐ´Ñĸ Ð³ÐµÑĢ
Ðĳ ÒļÐŀ
ĠÐĲÐ» Ð´ÑĭÐ¼ÐµÐ½
ĠÐ¶Ð¾Ð» Ð´Ð°ÑĢÑĭÐ½ÑĭÒ£
ĠÐµÐ½ ÑĸÐ¿
Ð¾Ðº ÑĢÐµÐ´Ð¸ÑĤ
ĠÐºÐµÒ£ ÑģÐµ
ĠÒĵÑĭÐ»ÑĭÐ¼ Ñĭ
ĠA stana
ĠÒĽÐ°Ð±ÑĭÐ»Ð´Ð°Ñĥ Ð´Ñĭ
ĠÐ¿Ð¾Ð» Ð¸
Ð°Ð¹ ÑĭÑĢ
ÐµÐ» Ñı
ÑĭÐ· Ð´ÑĭÒĽ
ĠÐ¶Ð°Ð½ Ð´Ð°Ð½Ð´ÑĭÑĢÑĥ
ĠÐ¾Ð¹Ð½ Ð°Ð¹Ð´Ñĭ
ĠÓĻÐ·ÑĸÑĢÐ» ÐµÐ½Ð´Ñĸ
ĠÑĦÐ¸Ð»Ð¾ÑģÐ¾ÑĦ Ð¸ÑıÐ»ÑĭÒĽ
Ð»Ð°ÑĢ ÑĭÐ½Ð°Ð½
ĠÐ°ÑĢ ÒĵÑĭ
ĠÑĪÐµÑĪ Ðµ
ĠÐºÐµÒ£ÐµÑģ ÑĪÑĸÑģÑĸ
ĠÐ¤ÐµÐ´ÐµÑĢ Ð°ÑĨÐ¸ÑıÑģÑĭ
ĠÐĶÓĻ ÑĥÑĢÐµÐ½
ĠÐ¼ÐµÑĢÐµÐ¹ÑĤÐ¾Ð¹ ÑĭÐ½Ð°
Ð°Ð» Ð°Ð½ÑĭÒ£
ÑĸÐ¼ ÑģÑĸÐ·
ĠÐ°Ð» Ð¼Ð°ÑĤÑĭ
ÐºÐµÐ½ Ñĸ
ĠÑĦ ÑĢ
Ð¼Ð°ÑĤ ÐµÐ¼Ð°ÑĤÐ¸ÐºÐ°
ĠÐ¶ÑĭÐ»Ð´Ð°ÑĢ Ð´Ð°
ĠÐĲÐ· Ð°ÑĤÑĤÑĭÒĽ
ĠÐ¡Ò¯Ð»ÐµÐ¹Ð¼ÐµÐ½ Ð¾Ð²
Ġ g
ĠÐŀ Ð±
ĠÐµÑĢ Ðº
ĠÐ¶Ð°ÑĢ ÑĭÐ»ÑĭÑģ
ĠÒ±Ð¹ÑĭÐ¼ Ð´Ð°ÑĢÐ¼ÐµÐ½
Ð¥ Ð°Ð»
ĠÐĳ ÐĲÒĴ
ĠÑģÐ°Ð» Ð°ÒĵÐ°
ÐĶ Ðľ
ÐŃ Ðļ
ĠÑģÐ°Ð¹ÑĤ ÑĭÐ½ÑĭÒ£
ÐºÐµÑĤ Ð±Ð¾Ð»
Ð°Ð» Ð¸Ð½
ĠÐľ Ð¸Ñħ
ÐĿ Ð«Ò¢
ĠÐ°Ð´Ð°Ð¼ Ð´Ð°ÑĢÑĭ
ĠÑĥÐ°ÒĽÑĭÑĤ ÑĤÑĭÒ£
ĠÑģÐ¿Ð¾ÑĢÑĤ Ð¿ÐµÐ½
ĠÑģÑĭÐ¹ ÒĵÐ°
ĠÒ±ÑĪ Ñĥ
ĠÒĽÐ°ÑĤÑĭÑģÑĥ ÑĪÑĭÑģÑĭ
ÐķÐļ Ð¢Ðķ
ĠÐºÓĻÑģÑĸÐ¿ÐºÐµÑĢÐ»ÐµÑĢ Ð´ÑĸÒ£
ĠÐŀÒļ Ð£
ĠÐ· ÓĻÑĢ
ĠÐ¾ÑĤÑĭÑĢ ÑĭÑģÑĭÐ½Ð°
Ð¾ÑĤ Ð¸Ð¿
ĠÐ¿ÑĢÐ¾ÐºÑĥÑĢ Ð¾ÑĢÑĭ
ĠÑįÑĤÐ½ Ð¾Ð¼ÓĻÐ´ÐµÐ½Ð¸
ÐĳÐµÐ» Ð³ÑĸÐ»Ñĸ
ĠÐ¼ÐµÐ¼Ð¾ÑĢÐ°Ð½Ð´ÑĥÐ¼ ÒĵÐ°
8 6
Òĵ ÑĭÐ½Ð°Ð½
ÑĸÒ£ Ð½ÑĸÒ£
ĠÑĤÒ±ÑĢÒĵÑĭÐ½ Ð´Ð°ÑĢÒĵÐ°
ĠÐ°Ð»Ð´Ñĭ Ð¼ÑĭÐ·
ĠÑģÓ©Ð¹Ð» ÐµÐ¹Ð´Ñĸ
ĠÐ°Ð»ÒĵÑĭÑģ ÑĭÐ½
ĠÐ½Ò±ÑģÒĽÐ°Ñĥ Ð»ÑĭÒĽ
ĠÑĤÒ¯Ð·ÐµÑĤÑĥ Ð»ÐµÑĢ
ÑĢ Ð¾ÑĤ
Ð±Ð» Ð¸
Ð»ÐµÐº ÑĤ
ÐĽ ÐĲÐľ
Ð¸Ð» Ð°
ĠÐ¼ÐµÐºÐµÐ½ Ð´ÐµÑĢ
ĠÐ¿Ð°ÑĢÑĤ Ð¸ÑıÐ½ÑĭÒ£
ĠÐ°Ð²ÑĤÐ¾Ð¼ Ð°ÑĤÑĤÐ°Ð½Ð´ÑĭÑĢÑĥ
ĠÐ´ÑĭÐ± ÑĭÑģÑĤÐ°ÑĢ
ĠÐ« Ð½
ĠÐµÐº Ð¿
Ò¯Ðº ÑĤÐµ
ĠÑĤÒ±Ð¶ÑĭÑĢÑĭÐ¼Ð´Ð°Ð¼ Ð°ÑģÑĭ
ĠÑĤÑĸÑĢÐºÐµ ÑģÑĤÐµÑĢ
Ð¿Ð¸Ð´ÐµÐ¼ Ð¸Ð¾Ð»Ð¾Ð³Ð¸ÑıÐ»ÑĭÒĽ
ĠÐ°ÑĤ Ñĥ
ĠÐ°Ð¿ Ð°ÑĤ
ĠÐ£ ÓĻÐ»Ð¸ÑħÐ°Ð½Ð¾Ð²
ĠÐ¾ Ð¼
Ñı Ðº
ĠÐ½ ÑĭÑĪ
ĠÒĽÐ°Ð±ÑĭÐ» Ð´Ð°Ð¹ÑĤÑĭÐ½
ĠÐ¾ÑĢÐ½ Ð°ÑĤÑĥÒĵÐ°
ĠP h
ĠÐ°ÑĤÑĭ Ð¼ÐµÐ½
ĠÐºÐ°ÑĢÑĤ Ð¾Ð¿
ĠÑĤÑĸÑĢÐºÐµÐ» Ñĥ
ĠÒĽÐ¾ÑĢÒĵ Ð°Ð¹ÑĤÑĭÐ½
ĠÐºÒ¯Ð½Ð´ÑĸÐ· Ð³Ñĸ
ĠÐ´Ð°ÑģÑĤÐ°ÑĢ ÑħÐ°Ð½
ĠÐĳÐĨÐĽ ÐĨÐľ
Ðº ÑĸÑģÑĸ
ÐĲ ÐĶÐ«
ĠÐ¡ Ð°ÑĢÐ°Ð¿
ĠÐĸ ÐµÐ·ÒĽÐ°Ð·ÒĵÐ°Ð½
Ðļ ÐĨ
ÑĢÑĥ Ð¿
ĠÑĤÒ¯Ñģ ÑĥÑĸ
ĠÐ¾ÑĢÑĤ Ð°ÑģÑĭÐ½Ð°
Ð°Ð¼ÑĭÐ· Ð´Ñĭ
ĠÐºÓ©Ò£ ÑĸÐ»Ñĸ
il l
ĠÐ¾Ð±Ð»ÑĭÑģÑĤÐ°ÑĢ ÑĭÐ½ÑĭÒ£
ÐķÐºÑĸ Ð±Ð°ÑģÑĤÒ±Ð·
ĠÐ¢Ð°Ð±Ð¸Òĵ Ð¸
ĠÐ°Ñĥ ÐºÑĨÐ¸Ð¾Ð½
ĠÐ±Ð°Ð» Ð°Ð½
ÐµÑģÑĤ Ð²
ÑĥÐ» Ðµ
Ò£Ð³ ÑĸÐ¼ÐµÐ½
Ð¼ÓĻ Ð»ÑĸÐ¼
ĠÐ¼ÐµÑħÐ°Ð½ Ð¸ÐºÐ°Ð»ÑĭÒĽ
ĠÐĲÐ·Ð°Ð¼ Ð°ÑĤ
ĠÓĻÐ´ÑĸÑģÑĤÐµÐ¼ ÐµÑģÑĸÐ½
Ð¢ Ðĳ
Ð¢ Ð¾Ð»ÑĭÒĽ
ĠÑĥ Ð»Ñĭ
ĠÑģÐ°ÒĽ ÑĤÐ°ÒĵÐ°Ð½
ĠÑĤÑĥ Ð´Ñĭ
ÑĥÑĪÑĭÐ»Ð°ÑĢ ÑĭÐ½ÑĭÒ£
Ð¤ ÐĲ
ĠÒĽÐ°Ñģ ÒĽÑĭÑĢ
ĠÐ°ÐºÑĤ iÐ»ÐµÑĢ
ĠÑĸÑģÑĤÐµÑĥ Ñĸ
ĠÐ¼Ð°ÑĢ ÑĪ
ĠÐ¡ÓĻ Ð»ÐµÐ¼
ĠÐ¢Ó© ÑĢÑĤ
ĠÑĤÐ¸Ð¿ Ñĸ
est i
ÑĪ Ð¸Ð½
ĠÑĤ Ó©Ð½Ð´ÑĸÑĢ
ĠÑģ ÑĭÐ¼
ĠÐ°Ð¹ Ð´ÑĭÐ½
ĠÐĲÐ» ÒĵÐ°ÑĪ
ĠÒĽÐ°Ò£ÑĤÐ°ÑĢ Ð´Ð°Ð½
Ð·ÐµÑĢ Ð±Ð°Ð¹Ð¶Ð°Ð½
Ð°ÑĤ Ð¾ÑĢÐ¸Ñı
ĠÒ »
ĠÐĿ Ðķ
ĠÒĽÐ¾Ð¹ Ð¼Ð°Ð¹Ð´Ñĭ
ĠÑģÐ°Ñı Ð±Ð°ÒĽ
ĠÐ´Ò¯Ð½Ð¸ ÐµÑģÑĸ
ÐĲÑĢ Ð¼Ð°Ð½
ĠÒĵÐ¸Ð¼Ð°ÑĢ Ð°ÑĤÑĭÐ½Ð´Ð°
ĠÐ¿ÑĢÐ¾Ð±Ð»ÐµÐ¼ Ð°Ð»Ð°ÑĢ
ĠÐ±ÐµÐ»Ð³ÑĸÐ»ÐµÑĢ ÑĸÐ½
W indows
ÑĭÐ» Ð¼Ð°Ð¹
ĠÐĲ ÒĽÑĭÐ»
ĠÐ¨ Ð¾ÒĽÐ°Ð½
ĠÒĽÐ°Ð½ Ð°ÑĤ
ĠÑģÐ°Ð¹ Ð»Ð°Ð½Ð´Ñĭ
ĠÐºÐµÑĤ ÑĥÐ³Ðµ
ĠÑĤÒ±Ð»Òĵ Ð°Ð»ÑĭÒĽ
ĠÐ¶ÐµÑĤÑĸÑģÑĤÑĸÐº ÐºÐµ
ĠÐ£Ð½Ð¸Ð²ÐµÑĢÑģÐ¸ÑĤ ÐµÑĤ
ĠÐ´Ò¯ÑĢ ÐºÑĸÐ½
g le
Ñģ ÐºÐµÐ½
ÐĲ Ð¯
ĠÐ¶Ð°Ð· ÑĭÐ»Ñĥ
ĠÐ±ÑĸÑĢÐµÑĥ Ð´ÑĸÒ£
ĠÒĽÐ¾Ð½Ð´ÑĭÑĢ ÒĵÑĭÐ»Ð°ÑĢ
ÑĸÐ¼ Ð¼ÐµÐ½
Ð¡ Ð°Ð¹ÑĤ
Ðŀ Ð´Ð°Ð½
ÒĽÐ°Ð½ ÑĭÒ£
ĠÐ¾Ð¹ Ð»Ð°Ð½ÑĭÐ¿
ĠÓ©Ð½Ð´ÑĸÑĢ ÑĸÐ»Ð³ÐµÐ½
ĠÐ¿Ð¾Ð»Ð¸ÑĨÐ¸Ñı ÑģÑĭ
ĠÐ½ÓĻÑĢÑģ ÐµÐ³Ðµ
ĠÒĽÐ°ÑĥÑĭÐ¼Ð´Ð°ÑģÑĤÑĭ ÒĵÑĭÐ½ÑĭÒ£
ÑĢ Ð°Ð¹
ĠÑģ Ð°ÑĤÑĥÒĵÐ°
ĠÒļ Ð°Ð´ÑĭÑĢ
ĠÐĸ ÐµÑĤÑĸ
ĠÐ±Ð°ÑĢ ÑĥÒĵÐ°
Ð¢ ÓĻÑĢÐ±Ð¸ÐµÐ»ÑĸÐº
ĠÐļ Ð°Ð¼
ĠÐĴ Ð°Ñģ
ĠÑģÐ°Ð»ÑĤÐ°Ð½ Ð°ÑĤÑĭ
Ð«Ðł Ð£
ĠÑĤÓ©Ð»ÐµÐ½ ÐµÐ´Ñĸ
ÐļÐµÐ¹ Ð±ÑĸÑĢ
Ñģ Ð¾Ð¼
ĠÒĽ Ð¸ÑĢ
ĠÑģ ÐµÐ¹
ÑĭÐ» Ð°Ñĥ
ĠÐºÓ©ÑĢ ÐµÐ¼ÑĸÐ½
ĠÐļ Ò¯Ð·
Ð¥ ÐĲÐĿ
ĠÒĽÐ°Ñģ ÑĸÑĢ
ĠÐ¼ÐµÐºÐµÐ¼ ÐµÐ½ÑĸÒ£
ĠÑĤÐ°Ò£Ð´Ð° ÑĥÒĵÐ°
ĠÐ½Ð¾ÑĢÐ¼ Ð°Ð»Ð°ÑĢÑĭ
ÑĢ Ð°Ñģ
ĠÑģ Ð¸Ð³
ÐºÑĸ ÑĤÐ°Ð¿
ĠÐ´ÓĻÑĢ ÑĥÐ¼ÐµÐ½
ĠÐ¸Ð½ÑģÑĤÐ¸ÑĤÑĥ ÑĤÑĭÐ½
ĠÑĦÑĥÐ½ÐºÑĨÐ¸Ñı Ð»Ð°ÑĢÐ´Ñĭ
ĠÑĦÐ¸Ð»ÑĮÐ¼ Ð´ÐµÑĢ
ĠÑĤÑĥÒĵÑĭÐ· Ð°Ð´Ñĭ
ÐµÐ´Ð¸ÑĨÐ¸Ð½ Ð°
ÑĪ Ð°ÒĵÐ°Ð¹
Ð³Ñĸ ÑģÑĸÐ·
ĠÐ°Ð» Ð³Ð¾ÑĢÐ¸ÑĤÐ¼
Ð´ÐµÐ½ ÑĨÐ¸Ñı
ĠÒ±Ð¹ÑĭÐ¼ Ð´ÑĭÒĽ
ĠÐ·Ð°Ò£Ð½Ð°Ð¼ Ð°ÑģÑĭÐ½ÑĭÒ£
ĠÐļÐµÒ£ ÐµÑģÑĸ
ĠÐ¼Ð°Ò£ Ð´Ð°Ð¹
Ġk az
ĠÑĤ Ð¾Ò£
ÑĭÐ· ÑĪÐ°
Ð¼ÐµÐ½ ÑĤÑĸ
ĠÐ¶Ð°Ð½ ÑĭÐ¿
ĠÐ¾ÒĽÑĭÑĤÑĥ ÑĪÑĭÐ»Ð°ÑĢÑĭ
ĠÑģÒ¯ÑĢ ÑĥÐ³Ðµ
Ð¾ÑĢÐ»Ð°ÑĢ ÑĭÐ½ÑĭÒ£
ĠÑĤÒ¯Ð· ÐµÑĤ
ĠÑģÐ¾Ð· ÑĭÐ»Ð¼Ð°Ð»Ñĭ
Ð³Ð¸Ð´ ÑĢÐ¾Ð¼
O S
ĠÐ¼ ÐµÐ³
ĠÐľ ÐµÐ½Ñĸ
ĠÑį ÑģÑĤÑĢ
ĠÑĦ Ð¾ÑĢ
ĠÐĹÐ°Ò£ Ð´Ñĭ
ÐµÑĢÐ»ÐµÑĢ ÑĸÐ½ÑĸÒ£
ĠÑĤÐµÐ½ Ð³Ðµ
ÑĦÐ¾ÑĢÐ¼Ð° ÑĨÐ¸Ñı
ĠÑĤ ÐµÐ±
ĠÐĶ Ð¸Ð¿Ð»Ð¾Ð¼
Ñĩ ÐµÐ½ÐºÐ¾
Ð±ÐµÑĢ Ð³
Ðĵ ÐµÑĢÐ¼Ð°Ð½
ÑĭÒĽÑĤÑĭ ÒĵÑĭ
ĠÑĤÐ¸Ð³ÑĸÐ· ÐµÑĤÑĸÐ½
Ð°Ð» Ð°ÒĵÐ°Ð½
Ð¶ Ò¯ÑĢÐ³ÑĸÐ·
ĠÐ¼Ð°ÒĽÑģÐ°ÑĤ ÑĤÐ°ÒĵÑĭ
ĠÐ¼Ò±ÒĵÐ°Ð»ÑĸÐ¼Ð´ÐµÑĢ Ð³Ðµ
ĠÑĤÐ°ÒĵÐ°Ð¼ Ð´Ð°ÑĢ
ĠÐ°ÑĢÐ´Ð°Ð³ ÐµÑĢÐ»ÐµÑĢÑĸ
ÑĤ Ð¾Ð±
Ð± ÐµÐ¹Ð½
ÑĭÐ¿ ÑĪÐ°ÒĽ
Ð¸Ñģ Ðº
ĠÐºÓ©Ð¼ÐµÐºÑĤ ÑĸÒ£
ĠÐºÐ¾Ð½ÑĨÐµÑĢÑĤ ÑĤÑĸÐº
Ð¢Ð°Ð±Ð¸Òĵ Ð°ÑĤ
ĠÐ¼ Ð¸Ð³
ĠÑģÐ°Ð¹ Ð»Ð°Ð½ÒĵÐ°Ð½
ĠÐĺ ÐĿ
ÑĤÑĤÐ°ÑĢ ÒĵÐ°
ĠÐ¶Ð¸ÑĭÐ½ Ñĭ
ĠÐ´ÐµÑģ ÐµÒ£ÑĸÐ·
Ð¼ Ð°Ð¼Ð°Ð½
ĠÓ©ÑĤ iÐ½iÑĪ
ĠÒĽÐ¾Ð» Ð´Ð°
ĠÐµÑĢ ÐºÑĸÐ¼ÐµÐ½
Ð¸ÑĨ Ð¸Ð´
ĠÒ® Ð¼
ĠÐ·Ð°Ò£Ð½Ð°Ð¼ Ð°ÑģÑĭÐ½
ĠÐ°ÐºÐ°Ð´ÐµÐ¼ Ð¸Ðº
ĠÒ±Ñı Ð»
o x
Ð¿ Ð°Ð´Ñĭ
Ð´ÐµÑĢ i
Ðľ Ð°Ð½
ĠÑĸÐ· Ð´ÐµÐ³ÐµÐ½
ÒĵÑĭÐ» Ð°ÑĢÑĭ
)) ))
ĠÐľ ÐµÐ´Ð¸ÑĨÐ¸Ð½Ð°Ð»ÑĭÒĽ
ĠÑĤÐ¾Ð¿ ÑĤÐ°ÑĢÐ´ÑĭÒ£
ĠÐ¶ÐµÑĢÐ»ÐµÑĢ Ð³Ðµ
ĠÐŀÒĽÑĥ Ð»ÑĭÒĽ
8 4
ĠÑĤ Ð°Ñı
ĠÐķ Ð³ÐµÐ¼ÐµÐ½
Ð°Ð»Ð°Ñĥ Ð°ÑĤÑĤÑĭ
ĠÑĤÓ©Ð» ÐµÐ¹Ð´Ñĸ
ĠÐ´ÓĻÑĢÑĸÐ³ÐµÑĢ Ð»ÑĸÐº
ĠÐ°Ð¹Ð½Ð°Ð»ÑĭÑģ Ñĥ
Ð³ ÑĥÐ¼Ð°Ð½Ð¸ÑĤÐ°ÑĢÐ»ÑĭÒĽ
ĠÐĲ ÐĻ
ĠÒĽÐ°ÑĢ Ð°Ð»ÒĵÐ°Ð½
ÐĶ ÓĻÑĢ
ĠÓĺ Ð·
ĠÐ¾Ð¹ ÒĵÐ°
ĠÐ°Ð· Ð°Ð¿
Ġ5 50
ĠÒ° ÑĢ
ĠÓĻÐ»ÐµÐ¼ ÑĸÐ½Ðµ
ĠÐ°Ð¿ Ð°ÑĤÑĭ
ĠÒĽÐ°Ñģ ÑĭÒĽ
ĠI T
ĠÐºÐ¾Ð¼Ð¿ Ð¾Ð·Ð¸ÑĤÐ¾ÑĢ
ĠÓ©Ð»ÑĸÐ¼ ÑĸÐ½Ðµ
Ð½ÐµÑģ Ð¸Ðµ
Ðµ Ð¾Ð½
ĠÑĪ Ó©
ĠÒĽÑĭÐ· ÑĭÐ½
ĠÒ±Ð¹ÑĭÐ¼ Ð´Ð°ÑĢÐ´Ð°
ĠÐ¥ Ð°ÑĤ
ĠÑģÑĭÐ½ ÑĭÐ±
Ð°Ð¸ Ð»
ĠÐ¼Ð¾Ð» Ð°Ð¹ÑĤÑĥ
ĠÑĦÐµÐ´ÐµÑĢ Ð°ÑĨÐ¸ÑıÑģÑĭÐ½ÑĭÒ£
ÐĳÐĲ ÐķÐĴ
Ñģ ÑĭÒĽ
Ð¶ Ð°Ð¹ÑĭÐ½
Ðķ Ò°
ĠÐŁ Ð¾Ð»ÑĮÑĪÐ°
Ġ3 50
ĠÑĤÐ°Ð¿ Ð¿Ð°Ð¹
ĠÑĤÐ°Ñĥ Ð»Ñĭ
ĠÐŃ Ð»ÐµÐºÑĤÑĢÐ¾Ð½Ð´ÑĭÒĽ
Ġ12 5
ĠT he
ĠÑģÑĤÐ°Ð½Ð´Ð°ÑĢ ÑĤÑĤÑĭ
Ð¿ ÑģÐ¸ÑħÐ¾Ð»Ð¾Ð³Ð¸ÑıÐ»ÑĭÒĽ
ĠÑģ ÑĭÐ¿
ĠÑģ Ð°Ð»ÑĭÒĵÑĭÐ½
ĠÒļ Ð°
ĠÐ±ÐµÑĢ ÐµÐºÐµ
ĠÐķ Ðł
ĠÐĲÐ» ÒĵÑĭÑģ
ĠÐĶ Ñĥ
ĠÑģÐµÐ· ÑĸÐ¼Ñĸ
ĠÒĽÐ¾Ð»Ð´Ð°Ð½Ñĥ ÑĪÑĭÐ»Ð°ÑĢÑĭ
ĠÐ³Ðµ Ð¾Ð»Ð¾Ð³Ð¸ÑıÐ»ÑĭÒĽ
Ð¼ÐµÐ´ Ð¸ÑĨÐ¸Ð½
ÐļÐ¾Ð¼ Ð¿Ð°Ð½Ð¸Ñı
ĠÑĤÑĸÐ»ÐµÐº ÑĤÐµÑĢ
ĠÐµÑĢÐµÑģÐµÐº ÑĤÐµÑĢ
ÐľÓĻÑģ ÐºÐµÑĥ
ĠÑĤÐ¾Ð½Ð½ Ð°ÒĵÐ°
ĠÐ´ÐµÐ¼ÐµÐº ÑĪÑĸ
ĠÐºÐµÐ»Ð´ÑĸÒ£ÑĸÐ· Ð´ÐµÑĢ
Ð¢Ó©ÑĢÐµ ÒĵÐ°Ð»Ð¸
Ñģ ÑĸÐ¼ÐµÐ½
Ð´Ð°Ð½ Ð°Ð´Ñĭ
ĠÐ¾ÑĢÑĭÐ½ Ð´Ð°Ð¹ÑĤÑĭÐ½
ĠÑĤÓĻ Ð¼Ð°Ð¼
ĠÐĵ Ð¾Ð»
ĠÐ¶Ð¸Ð½ Ð°Ð»ÑĭÑģ
ĠÒĽÐ°ÑĢÐ°ÑģÑĤÑĭÑĢ ÑĭÐ¿
ĠÐ¼Ð°Ð¼ÑĭÑĢ Ð´Ð°ÒĵÑĭ
ĠÐ±Ð°ÑıÐ½ Ð´Ð°Ñĥ
ÒĽÐ°ÑĤÑĭÐ½Ð°Ñģ ÑĤÐ°
ĠÐºÒ¯ÑĢÐµÑģ Ñĥ
ÑĥÐ´ Ð½ÑĭÐ¹
ĠÐ¿Ð°Ð»Ð°ÑĤ Ð°ÑģÑĭÐ½ÑĭÒ£
ĠÑĤÐ°Ð·Ð°ÑĢ ÑĤÑĥ
ĠÐ¡ÑĤÐ°ÑĤÐ¸ÑģÑĤ Ð¸ÐºÐ°
ĠÐ¿ÑĢÐ¾ÑĨÐµÐ´ ÑĥÑĢ
Ð°ÑĤ Ð¸ÑĦÐ¸ÐºÐ°ÑĨÐ¸Ñı
ĠÒĽÑĭÐ· ÒĵÐ°
ĠÐļ Ð¸
ĠÐ¨ ÐµÑĤ
ĠÐ¿ÑĢÐ¾ÑĨ ÐµÑģÑĸÐ½Ðµ
ĠÑģÐµÑĢ ÑĸÐº
ĠÐ±Ò¯ ÑĤÑĸÐ½
ĠÐľÒ±Ð½ Ð°Ð¹
ĠÑĤÐµÑĢÐµÒ£ Ð´ÐµÑĤ
ÐºÐ¾Ð¼Ð¼ÑĥÐ½ Ð¸ÐºÐ°ÑĨÐ¸ÑıÐ»ÑĭÒĽ
Òļ Ð°Ð±ÑĭÐ»
ĠÐ¶Ò¯Ð· Ð´ÐµÐ³ÐµÐ½
ĠÐ¼ÐµÑĤ Ð¾Ð´
ĠIn stagram
ĠÐŁÐ°Ð¹ÒĵÐ°Ð¼Ð±Ð°ÑĢ ÑĭÐ¼ÑĭÐ·
ĠÐ¶ÑĭÐ» ÑĭÐ½
ÑĤÑĭÐ½ Ð´Ñĭ
ĠÑĤÓ© Ð±ÐµÐ»
ĠÑģÐ°ÒĽ ÑĤÐ°Ð¹Ð´Ñĭ
ĠÐºÒ¯ÑĢ ÑĸÑĪ
ĠÒĽÑĭÐ·Ð¼ÐµÑĤÑĤÐµÑĢ ÑĸÐ½ÑĸÒ£
ĠÒ±Ð¹ÑĭÐ¼Ð´Ð°ÑģÑĤÑĭÑĢ ÑĭÐ»Ð°Ð´Ñĭ
Ðļ Ð¾Ð»
ÐĶ Ò±ÑĢÑĭÑģ
ÐŁ Ð¾ÑĢ
ÐŁ Ðĺ
ĠÐ°Ñı Ð·
ĠÐºÑĸÑĢ ÑĸÑģÑĤÑĸ
Ð°Ð±Ð°ÐµÐ² Ð°
Ð¾ Ð´Ðµ
ĠÐ¼ÓĻÑģÐµÐ»ÐµÐ»ÐµÑĢ Ð³Ðµ
ĠÐ°Ð»Ð°Ò£ ÒĵÐ°
ĠÐ°ÒĽÑĪ Ð°Ð½ÑĭÒ£
ĠÐ¼Ò¯Ð»ÑĸÐº ÐºÐµ
ĠÐ´Ð°Ò£ ÒĵÑĭÐ»
ÐŁÐĲÐł ÐĲÐ¢
Ð¼ ÐµÐ»Ñĸ
Ð°Ð½ Ð¸
Ð°ÒĽ ÑĪÐ°
ĠÒĽÐ°Ð» Ð¼Ð°Ð¹
ĠÓ©Ð· ÑĸÐ¼Ðµ
ĠÐ°ÑĥÐ´Ð°Ð½ Ð´Ð°ÑĢÑĭÐ½Ð´Ð°
ĠÐ¼Ð°ÑĢ ÒĽÒ±Ð¼
ĠÐ°Ð²ÑĤÐ¾Ðº Ó©Ð»
ĠÐľÐ¸Ð½Ð¸ÑģÑĤÑĢ Ð»ÑĸÐº
ĠÐ±Ð°ÒĵÐ°Ð»Ð°Ð½ Ð°Ð´Ñĭ
ĠÐ²Ð¾Ð» ÐµÐ¹Ð±Ð¾Ð»
ĠÐºÓ©Ð¹ Ð»ÐµÐº
Ð¾Ð½ Ð°Ð»Ð´Ñĭ
ĠÐĳ Ð°Ð±
ĠÐ°ÑĤ Ð°ÒĽ
ÑĤÐ°Ð» Ð°Ð¿
ĠÐ´Ð°Ð¼ÑĭÑĤÑĥ Ð´Ð°
ĠÒĵÐ°Ð»ÑĭÐ¼ Ñĭ
ĠÒĽÐ°ÑĢÐ°Ð¶ Ð°ÑĤÑĭÐ½
ĠÐ¶ ÑĭÐ¼
Ð± Ð¾
ĠÐ¾ ÑĦÐ¸ÑĨ
ÐĲ Ðº
Ð¾Ð² ÑĤÑĭ
ÒĵÑĭÐ½ Ñĭ
ĠÐ¼ÓĻÐ»ÑĸÐ¼ Ð´ÐµÐ³ÐµÐ½
ĠÒļÒ±ÑĢ ÑĭÐ»
ĠÐ¼Ð¸Ð»Ð»Ð¸Ð¾Ð½ Ð½Ð°Ð½
Ð² Ð¸Ð½
ĠÐ±Ð°ÑĢ ÑĭÑģÑĭÐ½
ĠÐ¶Ð°ÑĢ ÑĭÑģÒĽÐ°
ÑĤÒ¯ ÑģÑĤ
ĠÐĹ Ð°Ð¼Ð°Ð½
ĠÒ±Ð· Ð°ÑĢ
200 2
ĠÑĤÒ¯Ð¹ Ðµ
ĠÒĽÐ°ÑĢÐ°Ñĥ ÑĭÐ½Ð°
ĠÐ²Ð°Ð»Ñİ ÑĤ
ĠÐ¶Ò¯ÐºÑĤ ÑĸÐ»ÑĸÐº
ĠÐ±Ð°ÑģÐ¿ Ð°ÑģÑĭ
ĠÒĽ Ð°Ð»Ð°ÑĢ
ĠÑĤ iÐ»
Ð± Ð°ÒĽÑĤÑĭ
Ð± Ð°ÒĽÑĤÐ°ÑĢ
ÐµÑĢÐµÐº ÑĤÑĸ
ĠÑĤÓ©Ð¼ÐµÐ½ Ð´ÐµÑĥÑĸ
ÐĨÐľ ÐĶÐĨ
ĠÑĤÐ°ÒĵÐ°Ð¹ÑĭÐ½ Ð´Ð°Ð»
ĠÐ¿ÑĢÐ¾Ð±Ð»ÐµÐ¼ Ð°
ĠÑģÐ°Ð¿Ð°ÑĢ ÑĭÐ¼ÐµÐ½
ĠÐ°ÑģÐ¿Ð°Ð¿ ÑĤÐ°ÑĢ
ĠÑĤÐ¾Ð¼ Ð´ÑĭÒĽ
Ð°Ð¼ Ð°ÒĽ
ĠÑĪ ÐµÑĢÑĤ
ĠÐ¨ ÑĭÒĵÐ°ÑĢÐ¼Ð°ÑĪÑĭÐ»ÑĭÒĽ
ÐµÐ¹Ð½ÐµÑĤ Ð°ÒĽÑĭ
oo gle
ÑģÒ¯ÑĢ Ð³ÑĸÐ½
ÑĤ Ð°Ð±Ð¸Òĵ
ĠÓ©ÑĤ ÐºÐµÑĢ
ĠÐºÐµÐ· ÐµÐºÑĤÐµÐ½
ĠÑĪÐ°ÑĢ Ð°Ð½ÑĭÒ£
ĠÓ©ÐºÑĸÐ» Ð´ÑĸÐº
ĠÑĪÑĭÐ½ Ñĭ
ĠÑįÐ½ÐµÑĢÐ³ ÐµÑĤ
ĠÐ¾ÑģÑĭÐ½ Ð°Ñĥ
ĠÐµÑĢÑĸ ÑĤÑĸÐ½Ð´Ñĸ
ĠÒĽÐ°ÑĤ ÐµÐ»
ĠÐ¶Ð°Ð½ Ð¶Ð°Ð»
ĠÓĻÑĢÐµÐº ÐµÑĤÑĤÐµÑĢÑĸ
ĠÐ¶ÐµÐ»ÑĤÐ¾ÒĽÑģÐ°Ð½ ÑĭÐ½Ð´Ð°
ĠÑģÐ°Ð± Ð°ÒĵÑĭÐ½Ð´Ð°
ĠÐ¼Ð°Ð·Ð¼Ò±Ð½ ÑĭÐ½Ð°
ĠÐ¾Ò£ÑĤÐ°Ð¹ Ð»Ð°Ð½Ð´ÑĭÑĢÑĥ
Ð°Ð» Ð´ÑĭÒ£
ĠÐĲ ÐļÐ¢
ĠÓ¨ Ð»
Ġ8 3
ĠÐ¶Ð°Ð¹ ÑĭÐ¿
ĠÐ¿ÓĻÐ½ Ð³Ðµ
ĠÒ±Ð· Ð°Ð¼Ð°Ð¹
ÐĺÐ½ ÑĦÐ¾ÑĢÐ¼Ð°ÑĤÐ¸ÐºÐ°
ĠÐĸÐŀ ÐĽ
Ðµ Ð¿Ð°ÑĢÐ°ÑĤ
ĠÒ¯Ð¹ÑĢ ÐµÐ½Ð³ÐµÐ½
ĠÐ¼ÐµÐ¹ÑĢÐ°Ð¼ Ñĭ
ĠÐ°ÐºÐºÑĢÐµÐ´Ð¸ÑĤ ÑĤÐµÑĥ
Ð¸ Ð´Ð¶
ĠÐķ Ð²ÑĢ
ĠÐ±Ò±Ð» Ð°ÑĢ
Ò° ÐĳÐ¢
Ðº Ð¾Ð»
ÑĭÑģ ÑĭÐ·
ÑĸÐ¼ Ð´ÐµÑĢÑĸ
ĠÐ±ÐµÑĢ ÐµÑĢ
ĠÐ¶Ð°Ñģ Ð°ÑģÑĥ
ĠÐ¶ÐµÑĢ ÑĸÐ½ÐµÐ½
ĠÓĺ ÑģÐµÑĤ
ÒĽÒ± ÒĽÑĭÒĽ
ĠÓ©ÑĤÑĸÐ½ÑĸÑĪ ÑĤÑĸ
Ð¾ÑĢÑĤ Ð°Ð»ÑĭÒĽ
Ð·Ð° ÑĨ
ĠÐ¿ÑĢÐ¸Ð½ÑĨÐ¸Ð¿ Ñĸ
ĠÐ´Ð¾ÑĨ ÐµÐ½ÑĤ
ĠÑģÐ¼Ð°ÑĢÑĤ ÑĦÐ¾Ð½
ĠÐ± Ð°ÒĽÑĭÑĤÑĭ
Ñħ Ð°
Ñħ ÐµÐ½
ĠÐµÐ» Ð´ÐµÑĢÐ³Ðµ
ĠÐĶ ÐµÑĢ
ĠÐ°Ð¿ Ð°ÑĤÑĭÐ½Ð°Ð½
ĠÐĺÐ½ ÑĦÐ¾ÑĢÐ¼Ð°ÑĤÐ¸ÐºÐ°
ĠÐ±ÐµÐ»ÑģÐµÐ½Ð´Ñĸ Ð»ÑĸÐ³Ñĸ
ĠÐ°ÑĥÑĭÑĢ ÑĭÐ¿
ÓĻÑĢÐµÐº ÐµÑĤÑĸÐ½
ĠÒļÐ¾ÑĢ ÑĪÐ°ÒĵÐ°Ð½
ĠÑģÒ± Ð¹ÑĭÒĽ
ĠÒļÐ°Ð» Ð°Ð½ÑĭÒ£
ĠÐµÑĢÐµÐºÑĪÐµÐ»Ñĸ Ð³ÑĸÐ½
o g
Ð°Ñĥ ÒĽÐ°ÑĤ
Ð°Ð¿ Ð°Ð¹ÑĭÐ¼
ĠÐ³ Ð°ÑĢ
ĠÐ±ÐµÑģ ÑĸÐº
ĠÐ¿Ð°ÑĤÑĢÐ¸Ð¾ÑĤ Ð¸Ð·Ð¼
Ñģ Ò±ÑĢÐ°ÒĽ
ÑĭÒĽ ÑģÑĭÐ·
Ðľ Ð¢Ð£
Ðļ Ò¯Ð·
ĠÐ°Ð½ Ð°Ð½ÑĭÒ£
ĠÐ°ÑģÑĭÑĢ ÑĭÐ»Ð´Ñĭ
ĠÑĭÒĽ Ð¿Ð°Ð»Ñĭ
Ð¶Ð°Ð¹ Ð»Ð°ÑĢ
ĠÐ® ÐĿÐķÐ¡ÐļÐŀ
Ð¸ ÑĤÑĸ
ÑĪ ÑĭÐ¼ÐµÐ½
ĠÐ¼ ÐµÑĢÑĤ
Ð¸Ñı Ð´Ð°Ð½
ĠÐ¿ Ð°ÑĪ
ĠÐ¶Ò±Ð¼ÑĭÑģ ÑĭÐ¼ÐµÐ½
Ð¸Ð¼ Ð¸ÑıÐ»ÑĭÒĽ
Ð°ÑĤÐ¾ÑĢ Ð»ÑĭÒĽ
ĠÑĤÐ°Ð¼Ð°ÒĽ ÑĤÐ°Ð½Ð´ÑĭÑĢÑĥ
ĠÑĤÐµÑĢÐµÐ· Ðµ
Ð°Ð»ÐµÑĢ ÐµÑı
ĠÐ¡ ÑĤÐ°Ð½Ð´Ð°ÑĢ
ĠÐ¾ÑĢÑĤ Ð°Ð»ÑĭÒĵÑĭÐ½
ĠÐ¶Ð°Ò£Ð° ÑĪÑĭÐ»
ĠÐ·Ð°Ð¼Ð°Ð½ Ð½ÑĭÒ£
Ð¼ Ð¸ÑĢÐ°
ÐµÑģ ÐµÐ½
ĠÐ¿ Ð¾ÑĤ
ÑĨ Ð¸Ð¹
ĠÐ°ÑĢ ÐµÐ½
Ðĳ ÐķÐļ
ĠÐł Ð¾Ð·Ð°
ÐĶ ÐµÐ³ÐµÐ½Ð¼ÐµÐ½
ĠÒĽÐ°Ð±ÑĭÐ» Ð´Ð°Ð¼
ĠÐ¼Ò¯ÑĪ ÐµÐ»ÐµÑĢÑĸÐ½Ðµ
ĠÒĽÐ¾ÑĢÑĭÑĤÑĭÐ½Ð´Ñĭ Ð»Ð°Ñĥ
ĠÓĺÐ» Ð¸ÑħÐ°Ð½
ĠÓĻÑĥ ÐµÑģÒĽÐ¾Ð¹
ĠÑĢÐµÐ½ Ð¶
ĠÐºÐ¾Ð½ÑģÑĥÐ»ÑĮ ÑĤÐ°ÑĨÐ¸Ñı
Ð½ Ð°ÑĥÑĢÑĭÐ·
Ñģ Ð°Ñı
Ñģ Ð»Ð°Ð¹Ð´
ÑĭÒ£ÑĭÐ· Ð´Ð°
ĠÒĽÐ°Ð¶ÐµÑĤÑĤÑĸ Ð³Ñĸ
ĠÐĸÐ°Ð· ÑĥÑĪÑĭÐ»Ð°ÑĢ
ĠÑĤÐµÐ»ÐµÐ´Ð¸ Ð´Ð°ÑĢ
ĠÐ°Ð½ÑĭÒĽ ÑĤÐ°ÒĵÐ°Ð½
ĠÑħÐ°Ð±Ð°ÑĢÐ» Ð°ÑģÑĭÐ¿
ĠÑĪÑĭÐ½ ÑĭÐ¼ÐµÐ½
ĠÐ¼ Ð°Ð´Ð°ÒĽ
ĠÐ½ Ó©
ÑĭÑģÑĤ Ð°Ñĥ
ÐĽ ÐĨÐļ
Ġ7 6
ĠÐºÐµÐ·ÐµÒ£ Ð½ÑĸÒ£
Ð°ÒĽÑĭÐ» Ð°ÑĢ
Ð»Ð°Ñģ ÑĤÑĭÒĽ
Ġ15 00
ĠÐĲÑĢ Ñħ
ÐĳÐ°Ñģ ÒĽÐ°ÑĢ
ĠÐ¾Ð±Ð»ÑĭÑģÑĤÐ°ÑĢ Ð´ÑĭÒ£
ĠÐĸ Ð°Òĵ
ĠÐ¨ ÑĤ
ĠÑĤÒ¯Ð¹ ÑĸÐ½
ÐºÓ© Ðº
ĠÐºÐ¾Ð»Ð»ÐµÐ´Ð¶ ÑĸÐ½ÑĸÒ£
ĠÒĽÒ±Ð·ÑĭÑĢ ÐµÑĤÑĸ
ĠÐĲÑĥÐ´Ð°Ð½ Ð´ÑĭÒĽ
ĠÐĳ Ð¾Ð·
ĠÐ°ÑĢ Ð´Ð°ÒĽÑĤÑĭ
ĠÒ± ÑĤÑĭÐ¿
ĠÐºÓ©Ð¼ ÐµÐ³Ñĸ
ÑĤÓ© Ð±ÐµÐ»ÑĸÐº
Ó©Ð½Ð´ÑĸÑĢ ÑĸÑģÑĤÑĸÐº
ĠÐĳÐ°Ð¹ÑĤÒ±ÑĢÑģÑĭÐ½ Ð¾Ð²
a i
Ð°Ñĥ ÑĪÑĭÐ»Ð°ÑĢ
ÐµÐ¼ ÒĽÐ¾ÑĢÐ»ÑĭÒĽ
Ðł ÑĭÑģ
ĠÐµÐ½ Ñĸ
ĠÒĽÐ¸ ÑĭÐ»
ĠÐ°ÑĢÑĤÑĭÒĽ ÑĪÑĭÐ»ÑĭÒĵÑĭ
ÐŀÒĽÑĥÑĪÑĭÐ»Ð°ÑĢ Ð´Ñĭ
ĠÑĦÐ°ÐºÑĤÐ¾ÑĢ Ð»Ð°ÑĢÐ´ÑĭÒ£
ĠÐ¢ÐµÐ¼ÑĸÑĢ ÑĤÐ°Ñĥ
Ġ !
Ð» Ð¸ÑħÐ°ÑĤ
Ñģ Ñģ
ÑĤÐµÑĢ i
Ðľ Ð°Ð¹
ĠÐ· Ð¾Ð½
Ðĸ Ð°Ð¹
Ó¨ ÑĤÐµ
ÑħÐ°Ð½ Ð°ÒĵÐ°
ĠÐĨ ÑĪ
Ð±ÐµÑĤ Ð¾Ð²Ð°
ĠÒĽÐ°ÑĢÐ°Ð¶ Ð°ÑĤÑĤÑĭ
ĠÐ¶Ò± Ð´ÑĭÑĢÑĭÒĽ
Ð°Ð½ Ð°Ð»Ð°ÑĢÐ´ÑĭÒ£
ĠÐ¼ Ð°ÑĢÐ°
Ðŀ Ò£
Ñĩ Ð¸
ĠÐ´Ð°Ð¹ÑĭÐ½ Ð´Ð°Ð¹Ð´Ñĭ
ĠÒĽÐ¾Ð·ÒĵÐ°Ð» Ð´Ñĭ
ĠÐ¿Ð°ÑĤ ÑĪ
ĠÐĳÐµÑĢ ÑĸÐ»Ð³ÐµÐ½
ĠÒĽÒ±ÑĢ ÑĥÐ´Ñĭ
ĠI II
ĠÐ±Ð°ÑģÒĽ Ð°Ð»Ð°ÑĢÑĭ
ĠÑĤÐ°Ð½ÑĭÑĤ ÒĽÐ°Ð½
Ð¾Ð³ Ð¾ÑĢ
ĠÑĪÐµÑĪÑĥ ÑĪÑĸ
ÒĽÐ°Ð·Ð°ÒĽ ÑĪÐ°
ĠÐ¶Ò¯Ð³ÑĸÐ½ Ð³ÐµÐ½
ĠÐ¶ ÑĸÐºÑĤÐµÑĥ
ÑĥÐ±Ð» Ð¸ÑĨ
ĠÒĽÐ°Ð· ÑĭÐ»Ð°ÑĢ
ĠÒĽÒ±Ð½Ð´Ñĭ Ð»ÑĭÒĵÑĭ
ĠÑĤÐ¾Ð¹ Ñĭ
ĠÐ§ ÐµÑħ
ĠÐ¢Ðĸ ÐĶ
Ò®Ð» Ð³Ñĸ
ĠÐłÑĥÑģ Ð»Ð°Ð½
Ð¼ Ò±ÑĢ
Ð¾ ÑĤÑĢ
Ðľ ÑĭÑģ
ĠÐŁ ÐµÑĤÑĢ
ĠÒ±Ð¹ÑĭÐ¼ ÑĭÐ½Ð°
ĠÑģÒ¯Ð¹ ÐµÐ¼ÐµÐ»
Ð¢Ð¢ ÐĨ
Ð¢Ð¢ Ð«Òļ
ĠÐºÓ©ÐºÓ©Ð½ ÑĸÑģ
ĠÐµ Ð´ÑĸÒ£ÑĸÐ·
ĠÐ¸ ÐµÐ»ÐµÑĢÑĸÐ½ÑĸÒ£
ĠÑĤÓĻÑĢ ÐºÑĸÐ»
Ð¸Ð¿ ÑĤ
ĠÐµÑģÐµÐ¿ ÑĤÑĸÒ£
ĠÐºÐµÐ»Ð³ÐµÐ½ ÑĸÐ½
ĠÐ¿Ð°ÑĢ Ð°ÒĵÑĭ
ĠÑģÐ°ÒĵÐ°ÑĤ ÒĽÐ°
ÒļÒ± Ð´Ð°Ð¹
ĠÐ¶Ó©Ð½Ð´ÐµÑĥ Ð´ÐµÐ½
ĠÐºÑĸÑģ ÑĸÐ»ÐµÑĢ
Ð¼ Ñĥ
ĠÐ± ÑĢÐµÐ½
Ð°Ð» ÐµÐ½ÑĤ
ÑģÑĤ Ñĥ
ÑĸÒ£ ÑĸÑĪÐºÐµ
ĠÑģÐ°Ð» Ð°Ð½Ñĭ
ĠÐ°Ñģ ÒĽÑĭÐ½
ĠÐºÓ©ÑĪ ÑĸÑĢÑĸÐ¿
ĠÐ±ÐµÐº ÐµÑĢ
ÒĽÐ°ÑĤÑĭÐ½Ð°Ñģ ÑĤÐ°ÑĢ
ĠÐĲÐ´Ð°Ð¼ Ð´Ð°ÑĢ
ĠÑĪÑĭÒĵÐ°ÑĢÐ¼ Ð°Ð»Ð°ÑĢÑĭÐ½
ĠÑĦÐ¸Ð»ÑĮÐ¼ Ñĸ
ĠÒĽÐ°Ð»Ð´ÑĭÑĢ ÑĭÐ¿
l ine
ÑĤ Ð¸ÑıÑĢ
ĠÑĤ ÑĸÐ½
ĠÐ°Ð» ÐºÐ¾Ð³Ð¾Ð»ÑĮ
ĠÐ¿ Ð°Ð²Ð¸Ð»ÑĮ
Ñİ Ð¼
Ð¼Ð° Ð´
ĠÑĤÓĻÑĢÐ±Ð¸ ÐµÐ½ÑĸÒ£
ĠÐķÐ» ÑĸÐ¼ÑĸÐ·Ð´Ðµ
ĠÑĤÓ©Ð»ÐµÐ¼ Ð´ÐµÑĢÐ´Ñĸ
ĠÐ±Ð°Ð¹ÒĽ Ð°Ð¿
ĠÑĤÐµÒ£ÑĸÐ· Ñĸ
ÑĤÐ°ÐµÐ² Ð°
ĠÐ¢Ð°ÑĢÐ¸Ñħ Ð¸
ĠÑħÐ°Ð´ Ð¸Ñģ
% .
ĠÐ¶Ò¯ÑĢ Ð¼ÑĸÐ·
ĠÒĽÐ¾ÑĢ ÑĭÐ½Ð°Ð½
ĠÐ¿Ð°Ð¹Ð´Ð°Ð»Ð°Ð½ ÑĥÑĪÑĭ
ĠÑĸÐ· Ð³ÑĸÐ»ÑĸÐº
ĠÑĪÐ°ÒĽÑĭÑĢ ÒĵÐ°Ð½
ĠÓĺÐ» Ð¸
ÑĸÑĢ ÐµÐ´Ñĸ
ĠÐºÓ© ÑģÐµÐ¼
ĠÑĢ Ð°Ñħ
Ðĳ Ð¾Ñģ
Ðĸ Ð°Ð¿Ð¾Ð½
ĠÑĤÒ¯ÑĢ Ð³Ðµ
ĠÑĪÐµÑĪ ÐµÐ´Ñĸ
ĠÑĤÒ¯ÑģÑĸÐ½ ÑĸÑģÑĤÑĸÐº
ĠÐ´Ð°Ð¹ ÑĭÐ½Ð´Ð°ÒĵÐ°Ð½
ĠÑĦÐ°ÐºÑĤ Ð¾ÑĢÑĭ
ĠÑģÑĤÐ°Ð½Ð´Ð°ÑĢÑĤ ÑĤÐ°ÑĢÑĭ
ĠÐļÐ°Ð½ Ð°Ð´Ð°
ĠÐ¢ Ð¾Ð¹
ĠÐĶ Ð¼Ð¸ÑĤ
ĠÐŀÐ» Ð¸Ð¼Ð¿Ð¸Ð°Ð´
ĠÑģÐ¾Ð» Ð°ÑĢ
ĠÒĽÐ¾ÑĢÑĭÑĤÑĭÐ½Ð´Ñĭ ÑģÑĭÐ½
ĠÐ¶Ð°Ð·Ñĥ ÑĪÑĭÑģÑĭ
ĠÒĽÐ¾Ð½Ð°ÒĽ ÑĤÐ°ÑĢÑĭ
ĠÐ½Ð°ÑĢÑĭÒĽ ÒĽÐ°
Ġ d
Ð» Ñĥ
Ðŀ ÒĵÐ°Ð½
ĠÑģÑĸÐ· Ð´ÐµÑĢÐ´ÑĸÒ£
ĠÐ¿ÑĢÐ¾Ð±Ð»ÐµÐ¼ Ð°Ð»Ð°ÑĢÐ´Ñĭ
ĠÐ¼ÑĭÑģ ÑĭÒĽ
ĠÑĢÓĻÑģÑĸÐ¼ Ð´ÐµÑĥ
ĠÒĽÑĭÐ»Ð¼ ÑĭÑģÑĤÑĭ
8 2
ĠÐĳ ÑĭÐ»ÑĤÑĭÑĢ
ÑĤÐµ Ð°ÑĤÑĢ
ĠÓ¨ ÑģÑĸÐ¼Ð´ÑĸÐº
ĠÑģÐ¾Ð½ Ð°Ñĥ
ĠÑĤÑĥ Ð±ÐµÑĢÐºÑĥÐ»ÐµÐ·
ĠÐĲÑĢ Ð¼ÐµÐ½
ĠÑĤÓĻÐ¶ÑĸÑĢÐ¸Ð± ÐµÐ½Ñĸ
ĠÒ®ÐºÑĸÐ¼ ÐµÑĤÑĤÑĸÒ£
ĠÐºÒ¯ÑĢÐµÑģ ÑĸÐ½ÐµÐ½
ĠÒĽÐ°Ð»Ð°Ñĥ ÑĪÑĭ
ĠÐ¢Ð¸Ð¼ ÑĥÑĢ
ĠÐºÓ©ÑĢÑģÐµÑĤ ÑĸÒ£ÑĸÐ·
ĠÓ©Ð½ÐµÑĢ Ð´ÑĸÒ£
ĠÐºÓ©ÑĤÐµÑĢ ÐµÐ´Ñĸ
ĠÐ°ÒĽÑĪ Ð°ÑģÑĭÐ½
ĠÒĽÒ±ÑĤÑĤÑĭÒĽ ÑĤÐ°Ð¹Ð¼ÑĭÐ·
ÑĤÐµÐº ÑģÐµÑĢÑĥ
ÑĪÐ°ÑĢÑĥÐ° ÑĪÑĭÐ»ÑĭÒĵÑĭ
ĠÑĤÑĢÐ°Ð½ Ð·Ð¸ÑĤ
ĠÐ·ÑĭÐ¼ÑĭÑĢ Ð°Ð½
ĠÐ¢Ð£Ðł ÐĲÐĽÐ«
ÐµÐ¼ Ñĸ
ĠÐºÐµÐ» ÐµÐ¼ÑĸÐ·
ĠÐµÑģ ÑĸÐ¼ÑĸÐ½
ĠÑĤÐ°Ð» Ð°Ð½ÑĤ
ĠÐĵ ÐµÑĢ
ĠÐĸÒ±Ð¼ Ð°Òĵ
ĠÐºÓ©Ð» ÐµÒ£
ĠÐºÐµÐ»ÐµÑĪ ÐµÐº
ĠÑĤÐµÐ»ÐµÐºÐ¾Ð¼ Ð¼ÑĥÐ½
Ð¾Ð» Ð¸ÑĤ
Òļ Ð¾Ð¹
ĠÐĳ ÐĨÐł
Ðķ Ð¡Ð¢
ĠÑĤÒ¯ÑĢ Ð¼Ðµ
ÐĽ Ð°ÑĤÑĭÐ½
ĠÐºÑĸÑĤÐ°Ð¿ ÑĤÑĭÒ£
ĠÐ±ÐµÑĢÐ´Ñĸ Ð¼
ÐĺÐ½ Ð²ÐµÑģÑĤÐ¸ÑĨÐ¸Ñı
ĠÑĤÓĻÑĥ Ð»ÑĸÐ³ÑĸÐ½Ðµ
ĠÒļ ÑĭÑģÒĽÐ°
ĠÒļ Ò±Ñģ
Ð¢ Ð°Ð±
ĠÐĿ Ð¾Ð²
ĠÐ¾Ð¹ Ð»Ð°Ð¹Ð´Ñĭ
Ð±Ð° Ð´Ð°ÑĤ
ÑħÐ°Ð½ Ð°Ð»Ð°ÑĢ
ĠÑħÐ°ÑĤ ÑĪÑĭ
ĠÑģÐ¾Ð¼ Ð°ÑģÑĭÐ½
ĠÐ¿ÐµÑĢ ÑĸÑĪ
ÓĺÐ»ÐµÐ¼ Ð´ÑĸÐº
ĠÒĽÐ°Ð±ÑĸÐ»ÐµÑĤÑĤ ÑĸÐ»ÑĸÐ³Ñĸ
ÐļÓĻÑģÑĸÐ¿ ÐºÐµÑĢÐ»ÑĸÐº
ĠÐºÑĸÐ» ÑĤ
ĠÐłÐ°Ñħ ÑĭÐ¼
ÐĳÐ¸Ð·Ð½ ÐµÑģÑĤÑĸÒ£
ÑĸÐ» Ð¼ÐµÐ¹
ÑĦ Ð°Ð»ÑĮ
ĠÐ¡ ÑĥÑĢ
Ðł ÐĲ
ĠÐķ ÐĽ
ÑĥÐ» Ð¸Ð½
ĠÒ° Ð·Ð°ÒĽ
ĠÑĤÑĥ Ñĥ
ĠÐ¶Ð¸Ð½ Ð°Ð»Ð´Ñĭ
ĠÐ±Ò±ÑĢÑĭÐ½ Ð½Ð°Ð½
ĠÐ¶Ð°ÑĢÐ¸Ñı Ð»Ð°Ð¿
ĠÑĤÐµÑħÐ½Ð¾Ð»Ð¾Ð³Ð¸Ñı Ð»Ð°ÑĢÑĭÐ½
ĠÐ¼ÐµÑĢÐµÐº ÐµÑģÑĸÐ¼ÐµÐ½
ĠÐºÐµÐ·Ð´ÐµÑģ ÑĥÐ³Ðµ
ĠÑĤÑĸÑĢÐºÐµÑĥ Ð³Ðµ
ĠÐ±Ó©Ð»ÑĸÐ¼ÑĪ ÐµÐ»ÐµÑĢÑĸ
ĠÐ±ÑĸÐ»ÐµÑģÑĸÒ£ Ð´ÐµÑĢ
ĠÑģ Ð¿Ð¾ÑĢÑĤÑĭ
Òļ Òļ
ĠÐ¾ÑĤÑĭÑĢ ÑĭÑģÑĭÐ½ÑĭÒ£
ÑĭÐ½Ð°Ð½ Ð´Ð°Ð¹
ĠÐĶ ÐĲÐľ
ĠÐĹ Ð¸ÑıÑĤÐºÐµÑĢÐ»ÑĸÐº
ĠÑĤÐ°ÑĥÐ°ÑĢ Ð´Ñĭ
ĠÑĤÑĭÒ£ Ð°Ð¹ÑĤ
ĠÒĽÐ°Ð±ÑĭÐ»Ð´Ð°Ð½ ÑĭÐ¿
ĠÐ¿Ð¾ÑĢÑĤ ÑĦ
ĠÒ¯ÑĢÐ´Ñĸ ÑģÑĸÐ½
Ð³ Ó©Ð·
ĠÒĽ Ñĭ
ÑĭÐ» ÑĭÒĵÑĭ
ÑĭÑģ ÑĭÐ¿
ĠÐĳ ÒĴÐľ
ĠÑĤÒ¯Ñģ Ðµ
ĠÑĤÓ© Ð±
ĠÐ°ÒĽÐ¿Ð°ÑĢÐ°ÑĤ ÒĽÐ°
ĠÓ©ÑĤÐºÐµÐ½ Ð´ÐµÐ¹
ÑĤÓ© ÑĢÑĤ
ĠÐ±ÐµÐ¹Ð½ ÐµÑģÑĸÐ½
ĠÑĤÑĭÑĢ ÑĭÑģÑĤÑĭ
ĠÐµÐº ÐµÑĥÐ¼ÑĸÐ·
ÒļÑĭÑĢ ÒĵÑĭÐ·ÑģÑĤÐ°Ð½
Ðļ Ð°Ð·Ð°Ñħ
ĠÐ» ÐµÐ±
ĠÐ±Ð°Ð»Ð°Ð»Ð°ÑĢ ÑĭÐ½Ð°
ĠÐµÒ£Ð±ÐµÐº Ð°ÒĽÑĭ
an s
ĠÐ±ÑİÐ´Ð¶ ÐµÑĤÑĤÑĸ
ĠÐ±Ð¾Ð»Ñĥ ÑĭÐ¼ÐµÐ½
ĠÑģÑĥÑĢ ÐµÑĤÑĤÑĸ
ĠÐĲÐ·Ð¸Ñı Ð½ÑĭÒ£
ĠÐ½ÓĻÑĢÑģ ÐµÐ»ÐµÑĢ
ÐļÐ°Ð½ ÐµÐ»
Ð¾Ð³ ÑĢÐ°Ð´
ĠÐ¶Ð°Ð· Ð´Ð°
ĠÑģÓ©Ð· ÑĸÐ½ÐµÐ½
ĠÒĽÐ¾Ñģ ÑĭÐ½Ð´Ñĭ
ĠÒĽÐ°Ð½ Ð°ÑĤÑĤÑĭ
ĠÑĤÐµÒ£ ÐµÑģÑĤÑĸÑĢ
ĠÐºÒ¯ÑĪ ÐµÐ¹ÑĤ
ĠÐºÐ¾Ð¼Ð°Ð½Ð´ Ð°ÑģÑĭÐ½ÑĭÒ£
ĠÐ¢Ò±ÑĢ Ð°ÒĽÑĤÑĭ
ĠÒĽÑĭÐ·Ð¼ÐµÑĤÐºÐµÑĢ Ð´ÑĸÒ£
ĠÒĽÐ¾Ð¼ Ð°ÒĽÑĤÑĭ
i de
Ð°Ð± Ð°ÑģÑĭ
Ð¸Ðº Ð¾
ĠÑĦ Ð¸ÑĤ
Ð°ÑĪ ÐµÐ²
ĠÐ¾ÑĢÑĤÐ°Ð»ÑĭÒĵ ÑĭÐ½Ð´Ð°ÒĵÑĭ
ĠÐ¿Ð¾ ÑģÑĤ
ÑĢ Ñĭ
ĠÐ´ Ð°ÑģÑĤÐ°Ð½
Ð°Ñĥ Ð´ÑĭÒ£
ĠÐµ Ð³ÑĸÐ·
ĠÒĽÐ¾ÑĢ Ð»Ð°ÑĢÑĭÐ½
ĠÑģÐ¾ÑĤ ÑĤÐ°
ĠÐĳÐ°Ð¹ ÒĽÐ¾Ò£ÑĭÑĢ
ÓĺÐºÑĸÐ¼ ÑĪÑĸÐ»ÑĸÐº
l d
Ð°Òĵ ÑĭÐ¼ÑĭÐ·
ĠÐ¿ ÐµÑĪ
ĠÒĽÑĭÐ·Ð¼ÐµÑĤ ÑĪÑĸ
ĠÑģÐ°Ð¿ Ð°ÑģÑĭÐ½ÑĭÒ£
ĠÐºÐµÐ¼ Ðµ
ĠÑĤÒ±ÑĤÑĭÐ½ ÑĥÑĪÑĭÐ»Ð°ÑĢÐ´ÑĭÒ£
ĠÐ¼Ò±ÑģÑĭÐ»Ð¼Ð°Ð½ Ð´Ð°ÑĢÑĭ
Ð± Ð°ÒĽÑĭÐ»Ð°Ñĥ
ĠÐ° ÑĪÐ°
ÑģÐ°ÑĤ Ð°Ð¹
Ð¾Ðº Ð¾Ð¼
ĠÐ°ÑıÒĽ ÑĤÐ°ÒĵÐ°Ð½
ĠÐºÐµÑĢ Ð½
ÑĪÑĭÐ»ÑĭÒĵ ÑĭÐ½ÑĭÒ£
ĠÒ±Ð¹ ÒĽÑĭ
ĠÐ¼Ð¾Ð¹ ÑĭÐ½Ð´Ð°
ĠÐľÓĻÑģÐºÐµÑĥ Ð´Ðµ
Ð¶Ð°ÒĽ ÑģÑĭ
ĠÑĤÐ¾ÒĽÑĤÐ°ÑĤ Ð°
. ].
ĠÑģ ÑĸÑĢ
Ð¢ Ñĥ
ĠÐ³ Ñĥ
ÑħÐ°Ð½ Ò±Ð»Ñĭ
ĠÐĺ Ð±Ð½
Ð°ÑĢÑĤ Ð°Ð´Ñĭ
ĠÐĸÐ¾Ð» Ð´Ð°Ñģ
ĠÐ±ÓĻÑģ ÐµÐº
ÐµÐ¶Ò¯Ð· Ñĸ
ĠÐĳÐµÑĢ ÑĸÐº
ĠÐ°ÑĢÐ´Ð°Ð³ ÐµÑĢ
Ð¡Ð°ÑĢÑĭ Ð°ÑĢÒĽÐ°
Ð¿ ÓĻ
Ð¶ ÑĥÑĢÐ½Ð°Ð»
ĠÑģÐ¾Ð½ ÑĪÐ°
ĠÐ¿Ð°Ð¹Ð´Ð°Ð»Ð°Ð½ ÑĥÑĪÑĭÐ»Ð°ÑĢ
ĠÓ©ÑĤÐºÑĸÐ· ÐµÑĤÑĸÐ½
ĠÐ¼ÓĻÐ»ÑĸÐ¼ Ð´ÐµÐ¼Ðµ
ĠÐ´Ð¸Ð· Ð°Ð¹
t r
ĠÑĤÐ¾Ð¿ ÑĤÐ°ÑĢÒĵÐ°
ĠÑģÐ°Ñĥ ÑģÐ°ÒĽ
Ð¸Ð½Ð³ ÑĤÐ¾Ð½
ÑĢÐ¾ ÑģÑĭ
ĠÐ°ÐºÑĤ ÑĸÐ»ÐµÑĢÑĸ
ĠÐ¾Ð±ÑĬÐµÐºÑĤ iÐ»ÐµÑĢ
ĠÑĤÒ¯Ð»ÐµÐº ÑĤÐµÑĢÑĸ
! "
Ð¾ ÑģÑĤÐ°ÑĢ
ĠÐ°ÑĢ Ð¼Ð°Ð½Ñĭ
ĠÑĢ Ð°ÑĤÐ¸ÑĦÐ¸ÐºÐ°ÑĨÐ¸Ñı
ĠÐºÓ©ÑĢ ÑĸÐºÑĤÑĸ
ĠÐ±Ð°Òĵ Ð°Ð»Ð°Ð¿
Ó¨ ÐĹ
ĠÐ¤ Ð¸Ð·Ð¸ÐºÐ°
ĠÒ¯Ð¼ÑĸÑĤ ÑĤÐµÐ½
ÐĶÐ°Ð¼ Ñĥ
ĠÑĤÓ©Ð· ÑĸÐ¼Ð´Ñĸ
ĠÐºÐµÑĪÑĸÐºÑĤÑĸÑĢ Ð¼ÐµÐ¹
Ð± Ó©
ĠÑħ Ð¾ÐºÐºÐµÐ¹
Ó©Ð· Ð³ÐµÑĢ
ĠÐºÓ©Ð¼ÐµÐº ÑĪÑĸÑģÑĸ
ĠÓ©ÑĤÑĸÐ½ ÑĸÑĪÑĸ
ĠÐĲÒĽÑĤÓ©Ð±Ðµ Ð´Ðµ
ĠÐ´ÓĻÐ»ÐµÐ» Ð´Ñĸ
ÐŀÒĽÑĥÑĪÑĭÐ»Ð°ÑĢ ÒĵÐ°
ÑĤÐµÐ³Ð¶ÐµÐ¹ Ð»Ñĸ
Ðµ Ðµ
Ñģ Ð¾Ð»Ñİ
ĠÐĲ ÑĪ
ĠÐ¶ÐµÑĤ Ð¿ÐµÐ¹
ĠÐ°Ð¹ÑĤÑĥ Ñĭ
ĠÐºÐ¾Ð¼Ð¼ ÑĥÐ½Ð¸
ĠÓĻÒ£Ð³ÑĸÐ¼ÐµÐ» ÐµÑģ
Ð¼ ÐµÐ´Ñĸ
ĠÐŁ Ð¾
ĠÐ°ÑĢÐ½ Ð°
ĠÒĽÑĭÐ·Ð¼ÐµÑĤÐºÐµÑĢÐ»ÐµÑĢ ÑĸÐ½
ĠÒĽÐ°ÑģÐ¸ ÐµÑĤÑĤÐµÑĢÐ´Ñĸ
ĠÐ¼Ð°Ð» Ð´ÑĭÒ£
ĠÐ¶Ð°ÑĥÐ°Ð¿ÐºÐµÑĢ ÑĪÑĸÐ»ÑĸÐ³ÑĸÐ½
ĠÑĤÒ¯Ð»ÐµÐº ÑĤÐµÑĢ
ĠÑĦÐµÐ´ÐµÑĢ Ð°ÑĨÐ¸ÑıÑģÑĭ
ĠÐ¾ Ñģ
Ðľ Ð°Ð»
ĠÐºÓ©ÑĢ Ð´ÑĸÐº
Ð¤ Ð¸Ð»
ĠÑĤÐµÐ» ÐµÐ²Ð¸Ð·
ĠÐºÓ©ÑĢÑĸÐ½ Ð³ÐµÐ½
ĠÒĽÐ¸ÑĭÐ½ ÑĪÑĭÐ»ÑĭÒĽ
ĠÑģÓ©Ð¹Ð» ÐµÐ´Ñĸ
ÐĺÐļ ÐĲ
A D
Ð´Ñĸ Ð³ÑĸÐ½Ð´Ðµ
ĠÐķ Ðº
ĠÐĿ Ð°Ð·
ĠÐ¶ÐµÑĤ ÐµÑĤÑĸÐ½
ĠÐºÐ°ÑĦÐµÐ´ÑĢ Ð°
ĠÐ½ÐµÑģÐ¸ ÐµÐ»ÐµÑĥ
ĠÐ¢Ð¾ÑĢ ÒĵÐ°Ð¹
X V
Ð» ÑĸÐ½ÑĪÐµ
ĠÐµ Ð»ÑĸÐº
ÑĭÑĢ ÑĭÐ¿
Ð¸ÑģÑĤ ÑĸÒ£
ĠÐ¼Ð°ÑĥÑģÑĭÐ¼ ÑĭÐ½Ð´Ð°
ĠÐ°ÑģÐ¿ Ð°Ð¹Ð´Ñĭ
ĠÐ¼Ð¸Ð½ÑĥÑĤ ÑĤÐ°Ð½
ĠV I
ĠÐĶÓĻ ÑĥÐ»ÐµÑĤ
ĠÑĦÐ¸ÑĢ Ð¼
ĠÑģ Ñİ
ĠÐ¡ ÑĤÑĢ
ÑĤÑĥ Ð³Ð°Ð»
Ðĸ Ð°Ñĥ
ÑĤÐ°Ð¼ Ð°Ð»ÑĭÒĽ
ĠÑĤÐ¸ ÑĭÐ½
ÑħÐ°Ð½ Ð°Ð»ÑĭÒĽ
Ð¾Ð± Ð°Ð²
Ó©ÑĢ ÑĸÑģÑĸÐ½
ĠÐ¶Ð°Ð¹ ÑĭÐ»ÑĭÐ¼
ĠÓĻÐ´ÑĸÑģÑĤÐµÑĢ Ð´Ñĸ
ĠÐ¾ÒĽÑĭÑĢÐ¼Ð°Ð½ Ð´Ð°ÑĢ
ĠÐ¶ÑĭÐ»Ð¶ÑĭÐ¼ Ð°Ð»Ñĭ
ĠÐ´Ð¸Ð· Ð°Ð¹Ð½
ĠÐ¶Ð°Ð» ÒĵÐ°Ñĥ
ĠÒĽÒ±ÒĽÑĭÒĽ ÑĤÑĭÒ£
ĠÑģÒ¯ÑĢ ÐµÐ´Ñĸ
ĠÒĽÑĭÐ·ÑĭÒĽ ÑĤÑĭÑĢ
ĠÐ¿Ð¸Ð» Ð¾ÑĤÑĤÑĭÒĽ
ÐµÐ» Ð¸Ð½
ĠÑģÐ°Ð±Ð°ÒĽ ÑĤÐ°Ð½
ÐļÐ¾Ð½ ÑĦÐµÑĢÐµÐ½ÑĨÐ¸Ñı
ĠÐ¸Ð¼Ð°Ð¼ Ñĭ
Ñģ Ð¼ÐµÑĤÐ°Ð»ÑĭÒĽ
ÐµÐ» Ð»
ĠÒļ Ð°ÑĥÐ»
Ó©Ð· ÑĸÐ½Ðµ
ĠÒĽÑĭÐ·Ð¼ÐµÑĤ ÑĪÑĸÐ»ÐµÑĢÑĸ
ĠÐ¶ÐµÑĤ Ð¿
ĠÐ¶Ð°ÑĢ ÒĽÑĭÑĢ
ĠÓ©Ð¼ÑĸÑĢ Ð´ÐµÐ³Ñĸ
ĠÐ°ÑĪ ÑĤÑĭÒĽ
Ġ9 7
ĠÐĲÐ¹ Ð³Ò¯Ð»
ĠÑģÐ°Ð± ÑĭÑĢ
ÐľÓĻ Ð´ÐµÐ½Ð¸
ĠÐ¶Ð¾ÒĵÐ°Ð» ÒĵÐ°Ð½
ĠÑĤÒ±ÑĢÐ°ÒĽ ÑĤÐ°Ð½Ð´ÑĭÑĢÑĥ
ĠÐºÑĥÐ± Ð¾Ð³
ĠÑĦÐ°ÑĢÐ¼Ð° ÑĨÐµÐ²
ÑĤ Ð¾Ð»ÑĭÒĽ
ĠÐº Ð°ÑģÑģ
Ð¶ Ð¸Ð´
ĠÐ¡ ÑĤ
ĠÐ°Ð¹ Ð»
ĠÐł Ð°ÑħÐ¼ÐµÑĤ
Ð°ÒĵÐ°Ð½ Ñĭ
ĠÐĳÑĸÑĢ ÑĭÒ£ÒĵÐ°Ð¹
ĠÑĪÑĭÒĵÑĭÐ½ Ð´Ð°ÑĢÑĭÐ½
ĠÐºÐµÑĪÐµÐ½ ÑĸÐ½Ð´Ðµ
ĠÐ¶ÓĻ Ð±ÑĸÑĢÐ»ÐµÐ½
ĠÐ±Ð°Ñģ ÑĭÐ½ÑĭÒ£
ÑĸÑĪ ÑĸÐ»ÑĸÐº
ÐºÑĸÐ¼ Ð´Ñĸ
ĠÐ¼Ð°ÒĽÑģÐ°ÑĤÑĭ Ð¼ÑĭÐ·
ĠÐµÐ½Ð³ÑĸÐ·Ñĥ Ð´Ñĸ
ĠÐĳÐ¸ Ð¾Ð»Ð¾Ð³Ð¸Ñı
Òĵ Ð°ÒĵÑĭ
Ð¨ Ð°Ð»
ÑĸÐ¼ÑĸÐ· Ð±ÐµÐ½
ĠÒĽÒ±ÑĢÐ°Ð» Ð´Ð°ÑĢÑĭÐ½Ð´Ð°
Ð¾ÑĢÐ´Ð° Ð´Ð°
ÐĳÐ°Ð» Ð°Ð½ÑĭÒ£
ĠÒļÐ¾ÑĢ ÒĽÑĭÑĤ
ĠÐ²ÐµÐ´Ð¾Ð¼ÑģÑĤÐ² Ð¾Ð»ÑĭÒĽ
ĠÐ¡Ð°Ð¿Ð°ÑĢ Ð±Ð°ÐµÐ²
ĠÓ©Ð· ÑĸÐ¼Ð´Ñĸ
ĠÐ¢ ÐµÒ£ÑĸÐ·
Ð¾Ð² ÒĽÐ°
ĠÐ±Ð°Ð¹ ÑĭÑĤÑĥ
ĠÐ±Ð¸ Ñĸ
ĠÐ°Òĵ Ð°ÑģÑĭ
ĠÐ°Ð¹Ð½Ð°Ð» ÑĥÑĭ
ĠÐ´Ò¯Ð½Ð¸ ÐµÐ½ÑĸÒ£
ĠÓĻÐ¹ÐµÐ» Ð´Ñĸ
ar b
ĠÓ©ÑĤÑĥ ÑĸÐ½Ðµ
Ð±ÐµÐ» ÑģÐµÐ½Ð´Ñĸ
Ð±Ð¸Ð· Ð½ÐµÑģ
Òļ Ð°Ð»Ð°Ð¹
Ð¾Ð½ Ð´Ð°ÑĢ
ĠÐ±ÑĸÑĢ Ð»ÑĸÐ³ÑĸÐ½
Ðļ ÐµÐ¹ÑĸÐ½
ĠÐºÐ¾Ð½ ÑĤÑĢ
ĠÐĨ Ð»Ð¸ÑıÑģ
ĠÐĽ Ñİ
ĠÒĽÑĭÐ·Ð¼ÐµÑĤÑĤÐµÑĢ Ð³Ðµ
ĠÐ¼ÐµÐ¼Ð»ÐµÐº ÐµÑĤÑĤÑĸ
ĠÐ¶Ð°Ð½ ÑĭÐ½
ĠÐŃ Ð½
ĠÐºÓ©Ð»ÐµÐ¼ ÑĸÐ½Ð´ÐµÐ³Ñĸ
ĠÐ¿ÓĻÐ½ ÑĸÐ½
ĠÐ¼Ð°ÑĥÑģÑĭÐ¼ Ñĭ
ĠÒ¯Ð¹ÑĢÐµÐ½ ÑĥÐ³Ðµ
ĠÐ±Ð°ÑģÑĭÐ»ÑĭÐ¼ Ð´Ð°ÑĢ
Ī Ĵ
ÑĤ Ð°ÒĽÑĭÑĢÑĭÐ¿
ĠÐ¢ Ò®
ĠÐ±Ð°Òĵ Ð°Ð½Ñĭ
ÑĤÐ°Ð» ÑĥÑĪÑĭ
ÐŁ ÐµÐ´Ð°Ð³Ð¾Ð³Ð¸ÐºÐ°Ð»ÑĭÒĽ
ĠÐĹ Ð°Ð¹
ÑĢÐ¸ Ð¾ÑĤÑĤÑĭÒĽ
ĠÐºÐ¾Ð¼Ð¿Ð°Ð½Ð¸Ñı Ð»Ð°ÑĢÑĭ
ĠÑģÐ°ÑĢ Ð°Ð¹Ñĭ
ĠÐ¢Ð°Ñĥ Ð°ÑĢ
ĠÐ¼Ð°ÑĤÐµÑĢ Ð¸Ð°Ð»Ñĭ
ĠÒ¯Ð·ÑĸÐ» ÑĸÑģ
Ð¡ Ð°Ð¿
ĠÒĽÐ°ÑĢ Ð°Ð»
ĠÐ±Ð°Ð» ÑĥÐ°Ð½
ĠÒĽÒ±Ð½ ÑĭÐ½ÑĭÒ£
ĠÐºÒ¯Ð¹ ÑĸÐ½
Ð´ÑĢ Ð¾Ð¼
Ð¶Ñĸ Ð±Ð°ÐµÐ²
ÑĪ Ð¾ÑĤ
ÐµÐ» ÐµÑĤÑĸÐ½
Ð¾Ð½ Ð´Ð°
ĠÐ¶ÑĭÐ» Ð´Ð°ÒĵÑĭ
ÐµÑģÑĤ ÑĢ
ĠÐ°Ð¹ÑĤ Ð°Ð¹ÑĭÐ½
ĠÒĽÐ°ÑĢÐ¶ ÑĭÐ½Ñĭ
ĠÒļÐ°Ð» Ð°Ð»ÑĭÒĽ
ĠÐ½ Ð°Ð¹Ð·
Ð¾Ð¼ Ð°Ð½
Ð¥ ÐĿ
ĠÐ¶Ð°Ð± Ð°Ð¹Ñĭ
ĠÑĸÑģÑĤÐµÑĢ Ð´Ñĸ
ĠÐ°Ð± Ð°ÑĤÑĤÐ°Ð½Ð´ÑĭÑĢÑĥ
ĠÐ±Ð°Ð¿ ÐºÐµÑĢÑĸ
ĠÑģÑĤÐ°Ð½Ð´Ð°ÑĢÑĤ ÑĭÐ½Ð°
ĠÐµÐ³Ñĸ ÑģÑĤÑĸÐº
ÑĸÐ» ÑģÐµ
ĠÑģÑĥ Ð´Ð°
ĠÐ¼ÐµÐºÑĤÐµÐ¿ ÑĤÐµÐ½
ĠÓ©ÐºÑĸÐ» Ð´ÐµÑĢÑĸÐ½
ĠÐ¼Ò±ÑĢ ÑĭÐ½
ÓĻÑĢÐµÐº ÐµÑĤÑĸÐ½ÑĸÒ£
ĠÐµÑģÐµÐ± ÑĸÐ½Ð´Ðµ
ĠÐ¸Ð½Ð´ÑĥÑģÑĤÑĢ Ð¸Ð°Ð»Ð´Ñĭ
ĠÐ¼Ð°ÑĪÐ¸Ð½ Ð°Ð»Ð°ÑĢ
ĠÑĪÐ°Ñħ Ð¼Ð°ÑĤ
ĠÐ¼ÐµÑĤÐ°Ð»Ð»ÑĥÑĢÐ³ Ð¸Ñı
ÒĽ Ð¸
ĠÒļ ÐĲÐĹÐĲÒļ
Ðľ ÐķÐĿ
ÑĭÒĵ Ò±ÑĢÑĤ
Ð¿Ð°ÑĢ ÑĤÐ°
ĠÐľÒ± ÑģÑĤÐ°ÑĦ
ĠÑĪÑĭÒĵÑĭÐ½ Ð´Ð°ÑĢÑĭ
ĠÑĭÐ½ÑĤÑĭÐ¼Ð°ÒĽÑĤÐ°ÑģÑĤÑĭÒĽ ÑĤÑĭÒ£
ĠÐ°ÑģÑĤ ÑĭÐ½Ð´Ð°ÒĵÑĭ
ĠÒĽÐ°Ð»Ð´ÑĭÒĽ ÑĤÐ°ÑĢÐ´Ñĭ
ĠÒ¯ÑĢÐ´ÑĸÑģ ÑĸÐ½Ð´Ðµ
ĠÐŃÐ½ÐµÑĢÐ³ ÐµÑĤÐ¸ÐºÐ°
ĠÐ¼ Ð°Ð¹Ñĭ
ĠÐĲÐ» Ð´ÑĭÐ½
ĠÑģÐ°ÑĢÐ°Ð¿ ÑĪÑĭ
ĠÐ¶ÐµÑĤÐµÐº ÑĪÑĸÐ»ÐµÑĢÑĸ
un d
ÑĤ ÑĤÐ°ÑĢÑĭ
Ñģ Ð°Ð¹ÑĤ
ĠÐŃ Ð»ÑĮ
ĠÐ¼ÓĻÐ½ Ð´Ñĸ
ĠÐµÐºÑĸÐ½ÑĪÑĸ Ð´ÐµÐ½
ĠÑĪÐ°ÑĢÑĤ ÒĽÐ°
ĠÐ£ÐºÑĢÐ°Ð¸ Ð½
ĠÐĶÐ¸ÑĢÐµÐºÑĤ Ð¾ÑĢÐ»Ð°ÑĢ
ĠÐľ Ð°
ĠÐ¢ ÑĭÒ£
Ðĸ Ðŀ
00 00
ĠÐ±Ó©Ð» ÑĪ
ĠÒĽÐ¾ÑĢ Ð»Ð°ÑĢ
Ó¨ ÑĢÑĤ
ĠÐ¼ÐµÐºÑĤÐµÐ¿ ÑĤÐµÑĢÑĸÐ½ÑĸÒ£
ĠÐķÑĢ ÑĤÐµ
ĠÑĤÒ¯ÑģÑĸÑĢ Ð´Ñĸ
ĠÑĭÒĽÐ¿Ð°Ð» ÑĭÐ½
Ġ198 6
Ñ ľ
Ðµ ÑĨÐ¸Ñı
Ð» Ð¸Ð¼
ÑĪ Ó©Ð¿
ÑĭÐ· Ð´Ñĭ
ĠÐºÐµÐ» Ð¼ÐµÐ³ÐµÐ½
ĠÐºÐµÐ· ÑĸÐ½ÐµÐ½
ĠÐ±Ð°ÒĵÐ´Ð°ÑĢÐ»Ð°Ð¼ Ð°ÒĵÐ°
ĠÒļÐ¾ÒĵÐ°Ð¼ Ð½ÑĭÒ£
ig ht
ĠÐºÐ°Ð½ Ð°Ð»
ĠÒĽÐ°Ð¹Ñģ ÑĭÑģÑĭ
ĠÓĻ ÐºÐµÑĤ
ĠÐ¨ ÐµÑĢ
ĠÐ±Ð°ÑģÑĤÑĭ ÒĵÑĭÐ½ÑĭÒ£
ÑĤÓ© Ð¼ÐµÐ½
ĠÑĪÐµÑĤÐµÐ» Ð³Ðµ
ĠÑįÐºÐ¾Ð½Ð¾Ð¼Ð¸Ðº Ð°ÑģÑĭÐ½
ÐĲÐ»Ð»Ð° Ò»
ĠÐĺÐ· ÑĢÐ°Ð¸Ð»ÑĮ
ÐµÑģ Ð°ÑĢÑĭ
ĠÒĽÐ°Ð» Ð°ÑģÑĭÐ½
ÓĻÑĢ ÑĤÑĸÐ¿
ĠÐ°Ñģ ÒĽÐ°Ð·Ð°Ð½
ĠÐ°ÑĥÐ´Ð°Ð½ Ð´Ð°ÑĢÐ´ÑĭÒ£
ĠÐ¼Ò¯Ð¼ÐºÑĸÐ½ Ð´ÑĸÐ³ÑĸÐ½Ðµ
ĠÐ°ÑĥÑĭÐ» ÑĭÐ½Ð°
ĠÐ°Ð»ÒĵÐ°Ð½ Ñĭ
ĠÑģÑĤÑĥÐ´ÐµÐ½ÑĤ ÑĤÐµÑĢÑĸÐ½Ðµ
ĠÑĤÓ©ÑĢÐ°Òĵ Ð°Ð»ÑĭÒĽ
ĠÐŀÐ½ Ð»Ð°Ð¹Ð½
ĠÒ¯Ð¹ÑĢÐµÑĤ ÐµÐ´Ñĸ
ĠÐ° Ð´ÑĢ
ĠÒĽÐ°Ð» Ð°Ð¹Ð´Ñĭ
ĠÐ±Ð°ÑĢ ÑĪ
ĠÐ¢ Ð°ÑĢÐ°Ð¿
ĠÒĽÒ±ÑĢ Ð´Ñĭ
ĠÐĹÐ°Ò£ Ð´Ð°
ÑĨÐ¸Ð¾Ð½ Ð°Ð»Ð´Ñĭ
ĠÐ¾Ð¹Ð»Ð°Ñĥ ÒĵÐ°
ĠÓ©Ð»ÑĤÑĸÑĢ Ñĥ
ÑĭÑģ ÑĭÐ½Ð´Ð°ÒĵÑĭ
ĠÒļ Ð°ÑĤ
ĠÐ¾ÑĢÑĭÐ½ Ð´Ð°ÑĢÐ´Ð°
ĠÐ·Ð°Ò£ Ð´Ð°ÑĢÑĭ
ĠÐºÐµÐ·ÐµÒ£ ÑĸÐ½ÑĸÒ£
ĠÑĤÐ°Ñģ ÑĤÐ°Ð»Ð´Ñĭ
ĠÐ±Ò±Ð· ÑĭÐ»Ñĥ
ĠÒ±ÑģÑĭÐ½ÑĭÑģÑĤÐ°ÑĢ Ð´Ñĭ
ĠÑģÐ¾ÒĽ ÒĽÑĭ
ĠÐ¾Ð± ÑĮÐµÐºÑĤ
m at
ĠÐ± Ð°Ð·Ð°
Ð°Ð»Ð°ÑĢ ÑĭÐ¼ÑĭÐ·Ð´ÑĭÒ£
ĠÐ°Ñĥ ÑĭÑĢÑĤ
ĠÐ±Ð°Òĵ ÑĭÐ½Ð´ÑĭÑĢ
ĠÐĶ ÓĻÑĢ
ĠÑģÒ±ÑĢ Ð°Ð¹Ð¼ÑĭÐ·
ÐķÑĢ ÑĤÐµ
ĠÐ¥Ð¥ ÐĨ
ĠÑģÒ¯Ñİ Ð³Ðµ
ĠÐ½ Ñĭ
ĠÐ°ÑĢ ÑĥÑĭ
ĠÐ¾ÒĽ ÑĭÑģ
ĠÑĪÐ°ÑĢ ÑĪ
ĠÑĪÐ°ÑĢ Ð¸Òĵ
ĠÐ±Ð°ÑģÒĽÐ°ÑĢ Ð°ÑĤÑĭÐ½
Ġ10 5
Ò¯Ð» ÐºÑĸ
ĠÑĤÓ©ÑĢ Ð°Ð¹ÑĭÐ¼Ñĭ
ĠÐ¼ÐµÑĪÑĸÑĤ ÑĸÐ½ÑĸÒ£
ÒļÐ« Ò°
ĠÐºÓĻÑģiÐ¿ ÐºÐµÑĢ
ÑĤÒ¯ÑģÑĤ iÐº
Ð³ÐµÑĢ ÑĸÐ¼
ÐĶ ÐµÑĢÐµÐº
ĠÐ¿ÑĢ Ð¾ÑĢ
ĠÐ¶ÐµÐ» ÑĸÑģÑĸÐ½Ð´Ðµ
ĠÐ¼Ð¸Ð½Ð¸ÑģÑĤÑĢ Ð»ÑĸÐ³ÑĸÐ½Ðµ
Ð°Ð¹ÑĤÑĭÐ½ ÑĭÐ½
ĠÐºÒ¯ÑĢ ÐµÑģÑĸ
ĠÑģÐ°ÑĢÐ°Ð¿ ÑĤÐ°Ñĥ
ĠÓĻÐ·ÑĸÑĢÐ»ÐµÑĥ Ð³Ðµ
ÐĸÐ¾ Ð±Ð°
Ġ h
Ð´ ÑĭÐ½ÑĭÒ£
ĠÐ± Ð°ÑĤÐ°
Ñħ Ð°Ð±
Ð¾Ð½ Ð½ÑĭÒ£
ÐĲ Ðŀ
Ðĸ Ð¸ÑĭÐ½
ĠÑģÓ©Ð· Ð´ÐµÐ½
Ð±ÑĸÑĢ ÑĸÐ½ÑĪÑĸ
Ò° Ð¹ÑĭÐ¼
ĠÐºÑĸÑĢ Ðµ
199 7
ĠÑĤÒ¯Ð» ÐµÐ³Ñĸ
ĠÐķÐ³ Ð¸Ð¿
ÑĭÐ» Ð°ÑĢÐ´ÑĭÒ£
Ð°Ð¼ Ð°Ñģ
ĠÐ±Ð¾Ð» ÑĭÒ£ÑĭÐ·
ĠÐ¶Ð°Ñģ ÑĤÑĭÒĽ
ÐµÑĢÐµÐº ÐµÐ»ÑĸÐº
ÐĲÐ¹ ÒĽÑĭÐ½
ĠÐ°ÑĤÑĭ Ð¼
ÑĪÐµÐº ÐµÐ¹
ĠÐ°Ð¹Ð½Ð°Ð»ÑĭÑģ ÒĽÐ°Ð½
Ð»Ñı ÑĨÐ¸ÑıÐ»ÑĭÒĽ
ĠÐ´Ð°Ð» Ð°Ð½ÑĭÒ£
ĠÐºÒ¯Ð» Ð»Ñĸ
ĠÐ¶Ð°Ò» Ð°Ð½
Ð·Ð°Ò£ Ð´Ñĭ
ĠÑģ ÑĤÐ°ÑĢ
ĠÐĳ Ð°Ñħ
ĠÐļ ÑĥÑĢÑģÑĤÑĭÒĽ
ĠÐ±ÐµÑĢÑĥ Ð´ÐµÐ½
Ð°Ð² Ð°Ð½
ĠÐ·Ð°Ò£ Ð³ÐµÑĢ
ĠÐ» Ð¸ÑĤÑĢ
ĠÒ® ÑĢ
ĠÑĤÓ©Ð» ÐµÐ¿
ĠÐ¼Ð°ÒĽÑģÐ°ÑĤ ÑĭÐ½Ð´Ð°ÒĵÑĭ
ÒĵÑĭÐ» ÑĤ
ĠÐ¼ÐµÐ¼Ð»ÐµÐºÐµÑĤ ÑĸÐ¼ÑĸÐ·Ð´ÑĸÒ£
ĠÐºÓ©ÑĢÑĸÐ½ ÐµÑĤÑĸÐ½
ĠÐ¿Ð°Ð¹Ð´ Ð°ÑģÑĭÐ½Ð°
ĠÒ±ÑĪÑĭÑĢ Ð°Ð´Ñĭ
ĠÒĽÐ°Ð¶ÐµÑĤÑĤÑĸÐ»ÑĸÐº ÑĤÐµÑĢÑĸÐ½
ÑĢÐ¸ÑģÑĤ Ð¸Ð°Ð½
S P
ÒĽ ÑĭÐ½Ð´Ð°
ĠÐ± Ð°ÑıÒĵÑĭ
ĠÐ½ ÐµÐº
ĠÐ½ Ò¯ÐºÑĤÐµ
ĠÒĽÒ±ÒĽÑĭÒĽ ÑĤÑĭ
ĠÒĽÐ°Ò£ÑĤÐ°ÑĢ ÑĭÐ½Ð´Ð°
ĠÐ¼ÐµÑĤ Ð°Ð»
ĠÓ©ÑģÑĸÐ¼Ð´ÑĸÐº ÑĤÐµÑĢÐ´ÑĸÒ£
ĠÑĤÐµÒ£ÑĸÐ· ÑĸÐ½ÑĸÒ£
ĠÑĤÐµÑĢÑĢ Ð¾ÑĢ
ĠÑĪÐ°ÒĽ ÒĽÐ°Ð½
ĠÐ°ÑıÒĽÑĤÐ°Ð»ÒĵÐ°Ð½ Ð½Ð°Ð½
ĠÑģÐ¿ Ð¸ÑĢ
ĠÐ¼Ð°ÒĵÑĭÐ½Ð° Ð´Ð°
Ð°Ñĥ Ð´Ð°
ÐµÐ¹ Ñħ
ĠÑĢ Ð¾Ð»ÑĮ
ĠÐĸ Ð°Ð¿
ĠÑģÐ°ÒĽ ÑĤÐ°Ð½
Ð¾Ðº Ð¾Ð»
Ð¾Ð± ÐµÐ»ÑĮ
ĠÐ°Ð¿ ÑĤÐ°Ð½ÑĭÒ£
ĠÐ¾ÑĢÐ½Ð°Ð»Ð°Ñģ ÑĥÑĭ
ĠÑĤÐµÑħÐ½Ð¾Ð»Ð¾Ð³Ð¸Ñı Ð»Ð°ÑĢÑĭ
ĠÐ°ÑĥÐ´Ð°ÑĢ Ð°Ð´Ñĭ
ĠÒĽÐ°ÑģÐ¸ ÐµÑĤÑĸÐ½
ĠÑģÐµÐ±ÐµÐ¿ ÑĤÐµÐ½
ĠÓĻÑĢÑĸÐ¿ ÑĤÐµÑģ
ĠÑģÑĭÑĢ Ñĭ
ĠÑįÐ»ÐµÐ¼ÐµÐ½ÑĤ ÑĤÐµÑĢÑĸÐ½
ĠÒĽÐ°ÑĢÒĽÑĭÐ½ Ñĭ
, ...
Ñģ ÑĸÐ½ÐµÐ½
Ð°Ñĥ Ð¼Ð°ÒĽÑĤÑĭÒĽ
ÑĤÑĭÑĢ Ð°ÒĽ
Ðĳ Ò°Ò°
ĠÐ¢ ÐĲÐł
ĠÑĤÒ±ÑĢ ÑĥÑĭ
Ð±Ð° ÑĨÐ¸Ñı
ĠÐºÓ©Ð¿ ÑĤÐµÐ½
Ð±ÐµÑĢ Ð´Ñĸ
ĠÐ¤ Ð¸Ð½
ĠÐ¿ÓĻÐ½ Ð´ÐµÑĢÑĸ
ĠÐ¼Ò±ÑĢ Ð°Ð³
Ð¶ÐµÐ» Ð´ÐµÐ½
ĠÑĤÒ¯ÑĢÐ»ÐµÑĢ ÑĸÐ¼ÐµÐ½
ac k
ĠÒ¯Ð¹Ð»ÐµÐ½ Ñĥ
ĠÐº Ð°Ð»ÑĮ
Óĺ ÑģÐºÐµÑĢÐ¸
ĠÓĻÑĢ ÑĤÑĸÑģÑĸ
ĠÐºÐ¾Ð½ ÐºÑĥÑĢÑģÑĤÐ°ÑĢ
ĠÑĪÐ°ÒĽÑĭÑĢ ÑĭÐ»ÒĵÐ°Ð½
ĠÒĽÐ°ÑĢÐ°ÑģÑĤÑĭÑĢ ÑĭÐ»Ð´Ñĭ
ÐµÑĢÐ»ÐµÑĢ Ð´Ñĸ
Ñĭ Ð±ÐµÐº
ĠÐº ÐµÑĤÑĤÑĸÐ¼
Ð± ÐµÑĤÑĤÐµ
ÑĭÐ¼ ÒĵÐ°
ĠÐ¼ÓĻ Ð·
ÑĥÐ° ÑĪÑĭÐ»ÑĭÒĽ
ÐºÒ¯Ð¹ ÑĸÐ½
ĠÒĽÐ°Ð±ÑĸÐ» ÐµÑĤ
ĠÐ´Ð¸ÑĢÐµÐºÑĤ Ð¾ÑĢÐ»Ð°ÑĢ
Ð¶ÑĭÐ¼ Ð°Ð¹ÑĤÑĭÐ½
ÒļÐ¾ÑĢ ÑĪÐ°ÒĵÐ°Ð½
ĠÐ¸Ð½ÑģÐ¿ ÐµÐºÑĤÐ¾ÑĢ
ĠÐ¶Ð°ÑģÐ°Ð» ÑĥÑĭ
ĠÒĽÐ°Ð¼ÑĤÑĭÐ» Ð´Ñĭ
ĠÒļÐ¥ ÐĲ
Ð°Ð½ Ð°Ð»Ð°ÑĢÒĵÐ°
ĠÓ© ÐºÑĸÐ½ÑĸÑĪ
Ð¾Ð½ Ð¸Ñı
ĠÐºÐµÐ» ÐµÑĪÐµÐ³Ñĸ
ÐµÐ´ Ð¸ÑıÐ»ÑĭÒĽ
ĠÑĤÐ°Ð» Ð´Ð°Ð¿
ĠÑĤÑĥ Ð´ÑĭÑĢÑĥ
ĠÐ°Ð»Ð¼ Ð°Ð´ÑĭÐ¼
ĠÐ¾ÑĢÑĭÐ½Ð´Ð° Ð´Ñĭ
ĠÐ³Ð¸Ð¼Ð½ Ð°Ð·Ð¸Ñı
ĠÐ¿Ð» Ð°Ðº
Ð¼ Ð°Ò£ÑĭÐ·
Ð± Ñĥ
ĠÐ¶ÑĭÐ» Ð´ÑĭÒĵÑĭÐ½
Ð¢ Ð«Ò¢
ĠÐ· Ð°ÑĤÑĤÑĭ
ĠÐ¶Ð°Ð· Ð±Ð°Ð»Ð°ÑĢ
ĠÐ°Ð½ÑĭÒĽ ÑĤÐ°Ð¼Ð°ÑģÑĭ
ĠÒĽÒ±ÑĢÐ°Ð¼ ÑĭÐ½ÑĭÒ£
ĠÐ±Ó©Ð»ÑĸÐ¼ Ð½ÐµÐ½
ĠÐĲÐ¹ Ð½Ð°Ð»
ĠÑģÒ¯Ð¹ ÑĸÐ¿
ĠÐºÐµÐ»ÐµÑĤÑĸÐ½ ÑĸÐ½
ĠÐ°ÑĢÑħ Ð¸ÑĤ
ĠÐ¶Ð°ÑģÐ°Ð¹ Ð¼ÑĭÐ·
ĠÐ°Ð²Ð¸ Ð°ÑĨÐ¸Ñı
ĠÐ¸Ð½ÑĤÐµÐ»Ð»ÐµÐºÑĤÑĥ Ð°Ð»Ð´ÑĭÒĽ
ÑĤ Ò±Ð»
ĠÐ´ Ò¯Ð¹ÑģÐµÐ½Ð±Ñĸ
ĠÐ¾Ð¹ Ð»Ð°Ð´Ñĭ
ĠÑĤÐ°Ð¿ÑģÑĭÑĢ Ð°Ð´Ñĭ
ĠÐķÐ» ÐµÑĥ
ĠÐ°ÑģÑĤÐ°Ð¼ Ñĭ
ĠÐ´Ò¯Ð½Ð¸Ðµ Ð´ÐµÐ½
ĠÑĸÑĢÐ³ ÐµÑĤ
A l
ĠÐ°Ð» Ð°Ð¹ÑĭÒĽ
Ò±Ð» Ð¾Ð²
Ð¡ ÑĭÑĢÑĤÒĽÑĭ
ÐµÐ¿ ÑĥÑĤ
ĠÑĤÐ°Ð¿ ÑĪÑĭÐ»ÑĭÒĵÑĭ
ĠÓ©Ð·Ð³ÐµÑĢ Ñĥ
Ġ10 2
ĠÐ¶ÐµÐ¼ ÑĸÑģÑĸ
ÑĤÐµÑħÐ½ Ð¸ÐºÐ°
ĠÑįÐ»ÐµÐ¼ÐµÐ½ÑĤ ÑĤÐµÑĢ
ĠÑģÐ°Ð¿Ð°ÑĢ Ð¼ÐµÐ½
iÑģÑĤ i
t a
Ðº ÑĤÑĸ
Ð°Ð½ ÑĤÑĭ
Ð± iÑĢ
ĠÓ© Ð»Ñĸ
Ðľ Ð¾Ð»
ĠÐļ Ð°Ð±
ĠÐ¶ÐµÑĢ Ð»ÐµÑĢÑĸ
ĠÐ·Ð°Ò£Ð½Ð°Ð¼ Ð°ÒĵÐ°
ĠÓ©Ð»ÐµÒ£ ÑĸÐ½
ĠÑĤÓĻÑĢÑĤÑĸÐ¿ ÑĤÐµ
ĠÐĸÐ°Ð½ ÑģÐµÐ¹ÑĸÑĤ
ÐĨÐľ ÐĨ
ĠÐ´Ð°Ð» Ð°Ð´Ð°
ĠÑĢÐµÐ³ Ð»Ð°Ð¼ÐµÐ½ÑĤÑĸ
ĠÐ°ÑĢÑĤÑĥ Ñĭ
hat s
ĠÑģÐ¸Ð³ Ð½Ð°Ð»
e c
ĠÑĤ Ð°ÑĤ
Ð°ÒĽ ÑĤÐ°Ñĥ
ÐµÐ¼ Ð´Ñĸ
ÑĤÐµÑĢ Ð»ÐµÑĢ
ÐµÒ£ Ð´Ñĸ
ĠÐ¸ ÐµÐ»ÐµÐ½Ð³ÐµÐ½
ĠÐ» Ð¸ÑĢ
Ġ8 2
ÐºÐµÐ» ÑĸÑģÑĸÐ¼
ĠÐ¾ÒĽÑĭÑĤÑĥ Ð´Ð°
ÐµÐ´Ð¶ Ð¼ÐµÐ½ÑĤ
ÒĽÐ°Ñģ Ð¸
ĠÑĦÑĥÑĤÐ±Ð¾Ð» Ð´Ð°Ð½
ĠÑģÑĤÑĥ Ð´Ð¸Ñı
ĠÑĤ Ð°ÑıÑĥ
Ñħ Ð¸ÐºÐ°Ñı
Ð°Ð¿ Ð¾Ð»
ĠÐ°ÑĤ Ð°Ð½ÑĭÐ¿
ÐĨ Ð·
ĠÑģÐ¾Ð½ ÑĪÐ°Ð»ÑĭÒĽÑĤÑĭ
Ð±ÑĬ ÐµÐºÑĤÑĸ
ĠI V
ĠÐºÓĻÑģÑĸÐ¿ÐºÐµÑĢÐ»ÑĸÐº ÑĤÑĸÒ£
ÐľÐ°ÒĽ Ð°Ð»
ÐĲÐ»ÑĤÑĭÐ½ ÑģÐ°ÑĢÐ¸Ð½
ĠÐµÑĢÑĤÐµÒ£ Ð³Ñĸ
ĠÓĺÐ·ÑĸÑĢ Ð±Ð°Ð¹Ð¶Ð°Ð½
Ð¢ÓĻÑĢÐ±Ð¸Ðµ ÑĪÑĸ
ÑģÑĸÑĢÐµÐ¿ Ð¾Ð²
Ñĥ ÑĪÑĸÐ½ÑĸÒ£
ĠÐµ Ð·
ÑĤÑĥ ÒĵÐ°Ð½
ĠÐºÐµÐ» ÑĥÐ³Ðµ
ĠÐ±Ð°Òĵ Ð°ÑģÑĭÐ½ÑĭÒ£
ÑĸÑĪ ÐºÐµÐ½ÑĤÐ°Ð¹
Ð¨ Ð°Ñħ
ĠÓ©Ð½Ð´ÑĸÑĢ ÑĸÑģÑĸÐ½
ĠÐºÒ¯ÑĪ ÑĤÐµÑĢÑĸ
ĠÑħÐ°Ð»ÒĽ ÑĭÐ¼ÑĭÐ·
ÑĨÐ¸Ð¾Ð½ Ð°Ð»
ĠÐ»Ð°ÑĥÐ°Ð· ÑĭÐ¼Ð´ÑĭÒĽ
ÐĨÐĿ Ðķ
ĠÑģÐ¾Ð· ÑĭÐ»Ð°Ð´Ñĭ
ĠÐ¼Ð°Ð¼Ð°Ð½Ð´ÑĭÒĽ ÑĤÐ°ÑĢÑĭ
ĠÑģÒ±Ð»Ñĥ Ð»ÑĭÒĽ
ĠÐ´ÓĻÐ¼ Ð´Ñĸ
ĠÐĳ Ñĥ
ĠÐĿ Ð¾Ð²Ð¾ÑģÑĤÐ¸
ĠÐ±Ð°ÑģÒĽÐ°ÑĢ Ð°Ð´Ñĭ
ĠÐ¶Ð°ÑĥÐ°Ð¿ ÑĤÐ°ÑĢÑĭ
ĠÓ©Ñģ ÐºÐµÐ»ÐµÒ£
ĠÐºÐµÑĪ ÐµÐ³Ñĸ
ĠÐºÓ©Ð»ÑĸÐº ÑĤÑĸÒ£
ĠÒļÒ± Ð¶
Ð¶ÐµÐ» ÑĤÐ¾ÒĽÑģÐ°Ð½
ĠÐ±Ð°ÑģÑĤÐ°Ð» ÑĥÑĭ
ĠÓ©ÑĤÐµÐ¼ Ð°ÒĽÑĭ
ĠÐ²ÐµÐ»Ð¾Ñģ Ð¸Ð¿ÐµÐ´
ÑĤÐ°Ð½ Ð¾Ð²
ĠÑħ Ð°ÒĽ
ĠÑģÐ°Ð» Ð¼Ð°ÒĽÑĤÑĭ
ĠÐ¶Ð°ÑĢ Ð°ÑĤÑĭÐ»
ĠÐ¶Ò¯Ð¹ ÑĢÑĸÐº
ĠÐºÐ¸ Ð³ÐµÐ½
ÐµÑĢÐ»ÐµÑĢ Ð³Ðµ
ĠÐ¿Ð°ÑĤ ÐµÐ½ÑĤ
ĠÐ¿ÑĢÐ¾ÐºÑĥÑĢÐ°ÑĤÑĥÑĢ Ð°Ð½ÑĭÒ£
ĠÒ±ÒĽÑģ Ð°Ð¹Ð´Ñĭ
Ð°ÑĢ ÒĽÑĭÐ»Ñĭ
ÓĻ Ð¶
ÐµÐº ÐµÑĢ
ĠÐ½ Ð°Ð³
ĠÑĤÐ°ÑĢ ÑĤÑĭÑģ
ĠÐ¾Ð¹ Ð´Ð°ÒĵÑĭÐ´Ð°Ð¹
ĠÐ¼ÓĻ ÑĤÐµÐ»
ĠÐ¼Ò¯ÑĪ ÐµÐ»ÐµÑĢ
Ð°Ð½ÑĤ Ð¸ÐºÐ°Ð»ÑĭÒĽ
ĠÐ±Ð¾Ð»Ð¶Ð°Ð¼ Ñĭ
ÐļÓ©Ð¿ ÑĤÐµÐ³ÐµÐ½
) Â»
Ð¼ iÑĢ
Ðº ÑĢÐµÐ´Ð¸ÑĤ
ĠÑĢ ÐµÑĤÑĤÑĸÐº
ĠÐĸ Ð¸ÑĭÐ½
ĠÑģÐ°Ð» Ð°Ð¹ÑĭÒĽ
ĠÒĽÐ¾Ð¹ ÑĭÒ£ÑĭÐ·
ĠÑģÐ¾Ò£ ÑĭÐ½Ð°Ð½
ĠÐ¶ÐµÐ» ÑĸÑģÑĸÐ½
ĠÓ©Ò£ Ð´ÐµÑĥÐ³Ðµ
ÑĪÐ°ÑĢ Ð°Ð½ÑĭÒ£
ĠÒĽÐ°ÑĤÑĭÐ½Ð°Ñģ ÑĤÐ°ÑĢÑĭÐ½
ÑĤÐµÒ£ Ð´ÑĸÐº
ĠÑĤÓĻÑĢÑĤÑĸÐ¿ ÑĤÑĸÐº
ĠÐ¼ÐµÐ¹ Ð»ÑĸÐ½ÑĪÐµ
ĠÓ©Ð·Ð³ÐµÑĢÑĤÑĥ Ð»ÐµÑĢ
ĠÑĪÐ°ÑĢÑĥÐ°ÑĪÑĭÐ»ÑĭÒĵ ÑĭÐ½Ð°
Ð°Ð¿ ÑĥÑĢ
Ð¢ Ð°Ð»Ð´ÑĭÒĽÐ¾ÑĢÒĵÐ°Ð½
Ð¼ÐµÐ½ ÑģÑĤÐ°Ð½
ĠÑĤÐ°ÑĢ Ð°ÑĤÒĽÐ°Ð½
ÒĽÑĭÐ· ÑĭÐ»
ĠÐºÓ©Ð»ÑĸÐº ÑĤÑĸ
ÐĳÐ°Ñģ ÑĤÐ°Ð¿ÒĽÑĭ
ĠÑģÓ©Ð¹Ð»ÐµÑĥ Ð³Ðµ
Ð°Ð±ÐµÐº Ð¾Ð²
ĠÐļÓ¨ Ðł
ĠKazakh stan
ĠÐ¸ÐºÐµÐ¼ Ð´Ñĸ
ĠÐ¿ÑĢÐ¾ÑĦÐ¸Ð» Ð°ÐºÑĤÐ¸ÐºÐ°Ð»ÑĭÒĽ
ĠÓĺÐ±Ð´ÑĸÑĢ Ð°Ñħ
Ġ Ñİ
ĠÐ¼ ÑĭÐ½Ð°Ð½Ð´Ð°Ð¹
Ðĳ Ð°ÑĤÑĭÑĢ
ĠÐĸ Ò¯Ð½ÑĸÑģ
ĠÒĽÒ± ÑĪÐ°ÒĽ
ĠÑĤÒ¯ Ð»ÑĸÐº
ĠÑĪÐ°ÑĢ Ð°Ð»Ð°ÑĢÒĵÐ°
Ð¨ ÑĭÒĵÐ°ÑĢÐ¼Ð°ÑĪÑĭÐ»ÑĭÒĽ
ĠÐ°Ð· Ð°Ð¹ÑĭÐ¿
ĠÐ¿Ð°Ð¹ÑĭÐ· Ð´Ð°Ð½
ĠÒĽÒ±Ð» Ð´ÑĭÑĢ
ĠÐ±ÑĸÑĢÐµÑĥ Ð»ÐµÑĢ
ĠÐ¼Ð°ÑĢÐ°Ð¿Ð°ÑĤ ÑĤÐ°Ð»ÒĵÐ°Ð½
ĠÒĽÑĭÑĢÐºÒ¯Ð¹ÐµÐº ÑĤÐµÐ³Ñĸ
ĠÐ¾ÑĢ Ð°Ð¼Ð°Ð»
ĠÑĤÒ¯ÑĢ Ðº
ĠÐµÒ£Ð±ÐµÐº ÑĤÑĸÒ£
Ġ20 30
Ð½Ð°Ð¼ Ð°Ð»ÑĭÒĽ
ĠÒļÒ± ÒĽÑĭÒĽÑĤÑĭÒĽ
at e
ĠÐ¾Ð¿ÐµÑĢÐ°ÑĨÐ¸Ñı Ð»Ð°ÑĢÑĭÐ½
ĠÐ¾ÑĢÑĭÐ½Ð±Ð°ÑģÐ°ÑĢ Ð»Ð°ÑĢÑĭ
ÑĦ Ð¸Ð½
ĠÐ¡ ÐĨÐľ
ÑĤÐ°Ð¼ Ð¸Ð½
Ð»Ñĭ ÒĵÐ°ÑĪ
ĠÐĽ Ñĥ
ĠÐĳÐ°Ñģ Ð¿Ð°ÑģÓ©Ð·
ÑĪÐ°ÑĢ Ð°Ð»Ð°ÑĢÐ´ÑĭÒ£
ĠÂ §
ÐµÑģÑĤÐ¸Ð² Ð°Ð»ÑĮ
ÒĽÐ°Ð± Ð°ÑĤ
ÑĭÒ£ Ð½Ð°Ð½
ĠÐ¼Ò¯ Ð¹
ĠÒĽÒ±ÑĢÑĭÐ» ÑĭÑģÑĤÐ°ÑĢ
ĠÑĢÐµÑģ ÑĥÑĢÑģ
ĠÐ¾Ð¹ÑĭÐ½ Ð´Ð°ÑĢÑĭÐ½Ð´Ð°
ĠÑģÐ¸Ð¿Ð°ÑĤ ÑĤÐ°
ĠÐºÐµÑĤÐºÐµÐ½ ÑĸÐ½
Ð°Ð¹ÑĭÐ¼ Ð±ÐµÐº
ĠÒĽÐ¾Ð·ÒĵÐ°Ð» ÑĭÑģÑĭÐ½
ĠIn ter
ÐĳÐµÐ¹ Ð±ÑĸÑĤ
ĠÐ¶Ð¸Ò» Ð°Ð·
Ð¸ Ñĥ
Ð´Ð°ÑĢ Ð»Ñĭ
ÑĤÑĥ Ð°ÑĢ
ĠÐ±Ð°Ð¹ Ð»ÑĭÒĵÑĭÐ½
ĠÒĽÐ¾Ð»Ð´Ð°Ð½ ÑĥÐ´Ñĭ
ĠÐ°ÑĢÑĤ ÑĭÐ½Ð°Ð½
Ð°ÒĵÐ°ÑĤ Ð°Ð¹
ĠÑģÐ°ÒĽÑĤÐ°Ð» ÑĥÑĭ
ĠÐ¾ÑĢÑĤÐ°Ð»ÑĭÒĽÑĤÐ°ÑĢ ÑĭÐ½ÑĭÒ£
ĠÑĢÑĥÑħ Ñĭ
Ð¢Ó© Ð¼ÐµÐ½
? Â»,
ĠÐºÓ©ÑĢ ÐµÐ¹ÑĸÐº
ĠÐ±ÑĸÐ» Ð¼ÐµÐ³ÐµÐ½
ĠÐ±Ð°Ð»Ð°Ð»Ð°ÑĢ ÑĭÐ½ÑĭÒ£
ĠÐ¶ÑĥÑĢÐ½Ð°Ð» ÑĭÐ½ÑĭÒ£
ĠÐ¶Ð°Ð½ ÑĭÐ¼
ĠÐ¥ Ð¾ÑĢ
ĠÐµÑĤÑĥ ÑĪÑĸ
ĠÑĤÐ°Ð¼ÑĭÐ· Ð´Ð°ÒĵÑĭ
ĠV esti
ÐļÐŀ ÐĿ
ĠÑĢÐµÐ¶Ð¸Ð¼ Ñĸ
ĠÐºÐ¾Ð½Ð² ÐµÐ½ÑĨÐ¸Ñı
Ò®ÐºÑĸÐ¼ ÐµÑĤ
Ð¾ ÑĤÐµÑĢ
Ð² Ð¸
ÑĦ Ð°Ð²
ĠÐ°Ð¹ ÒĽÐ°Ð¹
ĠÐł Ð¤
ĠÐ¨ Ð°Ð½
ĠÐµÑĤ ÑĸÐ»ÐµÑĤÑĸÐ½
ĠÒĽÒ±ÑĢÑĭÐ» ÑĭÑģÑĭÐ½ÑĭÒ£
ĠÐĽ Ð¸
ĠÐŃ ÐºÐ¾Ð»Ð¾Ð³Ð¸ÑıÐ»ÑĭÒĽ
ĠÑĪÑĭÒĽ Ð¿Ð°Ð¹
ĠiÑģ ÐºÐµ
ÑĭÒ£ Ð½ÑĭÒ£
ĠÒĽÐ°ÑĢ Ð°Ð´Ñĭ
Ð¢ Ðł
Ðľ Ð°Ñħ
ĠÐ¾ÒĽ ÑĭÐ»Ð´Ñĭ
Ðĸ ÑĥÑĢÐ½Ð°Ð»
ĠÑĤÐ°ÑĢ Ð°ÑĤÑĭÐ¿
ĠÐ±Ð¾Ð»ÒĵÐ°Ð½ Ð´Ð°ÑĢ
Ð¤ ÑĥÑĤÐ±Ð¾Ð»
ĠÑĤÐµÑħÐ½Ð¾Ð»Ð¾Ð³Ð¸Ñı Ð»Ð°ÑĢÐ´ÑĭÒ£
ĠÑĥÓĻ Ð¶
ÐĲÑģÑĤÐ°Ð½ Ð°Ð½ÑĭÒ£
ĠÐºÓ©ÑĪÐ±Ð°Ñģ ÑĪÑĭÑģÑĭ
ĠÑģÐ¾Òĵ ÑĭÑģÒĽÐ°
ĠÐ¼Ð°ÑĢÑĪ ÑĢÑĥ
E N
Ð³ Ð¸
ĠÐ¢ ÐµÒ£
ĠÐ¾ÑĢÐ½ Ð°ÑĤÑĭÐ»Ð´Ñĭ
ĠÐºÐ°ÑĢÑĤ Ð°ÑģÑĭÐ½
Ð±Ð°Ð» Ð°Ð»Ð°ÑĢ
ĠÑĸÐ»Ð³ÐµÑĢ ÑĸÐ»
A L
ĠÑĪ Ð¸Ð¿
ĠÐ°Ð» Ð°ÑĪ
Ð´ÐµÐ» ÐµÐ´Ñĸ
ÑģÑĭÐ· Ð´Ð°Ð½
ĠÑĤÓ©Ð¼ÐµÐ½ Ð´ÐµÐ´Ñĸ
ĠÓ©Ð½ÑĸÐ¼ ÑĸÐ½ÑĸÒ£
ĠÒĽÐ°ÒĵÐ°Ð· Ð´Ð°ÑĢÐ´Ñĭ
ĠÒ±ÑģÑĭÐ½ÑĭÑģÑĤÐ°ÑĢ ÑĭÐ½
ĠÑĸÑĪÑĸÐ½ Ð°ÑĢÐ°
Ð¸Ð½ Ð°ÑĤ
ĠÐ¡ Ð°ÒĵÐ°
Ñİ Ð¼Ð¸Ð½
ĠÑĸÑĪ ÑĤÐµÐ¹
ĠÑĤÐ°ÑĢÐ¸Ñħ ÑĭÐ½Ð°Ð½
ĠÒļÐ°ÑĢ Ð°Ñģ
ĠÓĻÑĢÐµÐº ÐµÑĤÑĸÐ½ÑĸÒ£
ÐĺÐ½ ÑĤÐµÑĢÐ½ÐµÑĤ
ĠÐ·ÐµÑĢÑĤÑĤ ÐµÐ¹ÑĤÑĸÐ½
ÐľÒ±ÑħÐ°Ð¼ Ð¼ÐµÐ´
* *
ĠÐ´ Ð·ÑİÐ´Ð¾
ÐµÑģ Ð¸Ðµ
ÑĸÐº Ñĸ
Ð¸Ð½ Ð°ÑĢÐ»ÑĭÒĽ
ĠÐľ Ð°Ð³
ÐĶ Ð°Ð½
ĠÑģÒ±ÑĢ Ð°Ð¹Ð¼ÑĭÐ½
ĠÑĤÒ±ÑĢÒĵÑĭÐ½ Ð´Ð°ÑĢÑĭÐ½
ĠÐµÐ½Ð³ÑĸÐ· ÐµÐ´Ñĸ
ĠÐ·Ð°Ð¼Ð°Ð½ ÒĵÐ°
ĠÑģÐµÐ±ÐµÐ¿ ÑĤÐµÑĢ
Ð´ÑĭÒĵ ÑĭÐ¼ÐµÐ½
ĠÓ©ÑĤÑĸÐ½ÑĸÑĪ ÑĤÐµÑĢ
ĠÐ·Ð¸Ñı Ð»ÑĭÐ»Ð°ÑĢ
ĠÐ±ÓĻÑģ ÐµÐºÐµ
ÑģÑĤÑĢÐ°Ð» Ð¸Ñı
Òĵ Ð°Ð¶Ð°Ð¹ÑĭÐ¿
Ó© Ðº
ĠÒĽÐ°Ð» Ð°Ð½Ñĭ
Ð¢ ÑĭÐ½
ÐĶ ÓĻÐ»
ÑĤÐµÑħÐ½ Ð¾Ð»Ð¾Ð³Ð¸ÑıÐ»ÑĭÒĽ
ĠÐ°Ð± Ð·Ð°ÑĨ
ĠÐ»Ð°ÑĥÐ°Ð·ÑĭÐ¼ ÒĵÐ°
ĠÑĤÓĻÑĢÑĤÑĸÐ± ÑĸÐ½Ð´Ðµ
ĠÐºÐ¾Ð´ÐµÐºÑģ i
% ),
Ð½ Ð¾Ð¹
ÐµÑĤÑĤ Ð°Ð½
ĠÐ¡ Ð¸
ĠÒ± ÑĤ
ĠÐºÐµÐ» Ð¼ÐµÐ¹
ÑģÐº Ð¾Ð³Ð¾
ĠÐºÓ©ÑĤÐµÑĢ Ðµ
ĠÐĳÐ°Ñģ Ð¿Ð°ÒĵÐ°
ĠÐ±ÑĸÐ»ÑĸÐºÑĤ ÑĸÐ»ÑĸÐ³Ñĸ
ĠÒĽÐ°ÑĢÐ°Ð¼ Ð°Ð¹
ĠÑĤÐ°Ð½ÑĭÑģÑĤÑĭÑĢ ÑĭÐ»Ð´Ñĭ
ĠÐ³Ò¯Ð» Ð´ÐµÐ½
Ġ @
Ð´ Ð¾Ð¼
ĠÐ¼ Ð¾ÑĤÐ¸Ð²
ĠÒĽÐ°Ð» ÑĥÒĵÐ°
ĠÐ¶Ð¾Ð» Ð´Ð°Ð´Ñĭ
ĠÐµÐ¼ Ð´ÑĸÐº
ĠÐ°Ð· Ð°ÑĤ
ĠÐ¶Ð°Ñĥ Ð»Ð°Ð¿
ĠÑĤÐ°Ñģ ÑĤÐ°Ð»
ĠÐĳÐ°Ð» Ð°Ð»Ð°ÑĢÒĵÐ°
ĠT e
ĠÐ¶Ð°ÑģÐ°ÒĵÐ°Ð½ Ñĭ
ĠÐ±Ó©Ð»Ñĸ Ð³ÑĸÐ½Ðµ
ĠÐ¸Ð½ÑĦÑĢÐ°ÒĽÒ±ÑĢÑĭÐ»ÑĭÐ¼ Ð´Ñĭ
ĠÑģÐ°ÑĥÐ°Ð» Ð½Ð°Ð¼Ð°
ÒļÐ°Ð» Ð°Ð»ÑĭÒĽ
ÑĤÐ°ÑĢÐ¸Ñħ Ð¸
ĠÐ± Ð°ÑıÑĥ
Ðľ Ð¡
ĠÐ±ÐµÑĢÑĥ ÑĪÑĸÐ»ÐµÑĢÐ´ÑĸÒ£
ĠÐ¾ÑĢÑĭÐ½Ð´Ð°Ð» Ð°ÑĤÑĭÐ½
ĠÑģÑĤÐ°Ð½Ð´Ð°ÑĢÑĤ ÑĤÐ°ÑĢÑĭÐ½
ĠÐºÓ©ÐºÑĤÐµÐ¼ Ð³Ñĸ
Ð¢Ó© ÑĢÑĤ
ĠÐºÐµÐ»ÐµÑĪ ÐµÐºÑĤÐµ
Ð¼Ò±Ð½ Ð°Ð¹
Ġ Ñĸ
Ð°ÑĢ Ð½Ð°
ÑĭÐ· Ñĭ
ÐµÑĤÑĤ ÑĸÐ»ÑĸÐ³ÑĸÐ½
ĠÐĲ Ð¨
ĠÐ¡ ÐµÐ¼Ð¸Ð½Ð°ÑĢ
ĠÑģÑĭÐ½ÑĭÐ¿ ÑĤÑĭÒ£
ĠÑĤÐ°ÑĥÐ°ÑĢ Ð´ÑĭÒ£
Ð¼Ðµ ÑĪÑĸÑĤ
ĠÐ¶ÐµÐ¼ÒĽÐ¾ÑĢÐ»ÑĭÒĽ Ð¿ÐµÐ½
ĠÐ°Ð»ÑĤÑĭÐ½ ÑĪÑĭ
ĠÐºÐ¸Ð½ Ð¾ÑĦ
Ð°Ð»Ð¸ÑĤ Ð¸ÐºÐ°Ð»ÑĭÒĽ
ow er
ĠÐ¢Ò¯Ð¹ Ð¼ÐµÐ±Ð°ÐµÐ²
d ar
n g
Ðº Ð¼
Ðļ Ò¯Ð¹
Ðļ ÐķÐĿ
Ð¸Ð»Ð» Ð¸Ð¾Ð½
ol l
Ó¨Ð· Ð±ÐµÐºÑģÑĤÐ°Ð½
199 5
ĠÐĳÐ°Ð½Ðº ÑĸÐ½ÑĸÒ£
ĠÐ°Ð»ÒĽ Ð°ÑģÑĭ
ĠÐ¼ÓĻÑģÐ»Ð¸Ñħ Ð°ÑĤÑĭ
Ð¡ÐµÐ¹ ÑĦÑĥÐ»Ð»Ð¸Ð½
3 00
ĠÐ½ Ð¾ÑĢÐ¼Ð°
Ð´ÐµÐ½ ÐµÒ£
ĠÑģÐ°Ð½ Ð°Ð½Ñĭ
ĠÑģÐ¿Ð¾ÑĢÑĤ ÑĤÑĭÒ£
ĠÒĽÑĭÐ·Ð¼ÐµÑĤÐºÐµÑĢÐ»ÐµÑĢ Ð´Ñĸ
ĠÓ¨Ð· ÑĸÐ¼
ĠÑģÑĤÑĥÐ´ÐµÐ½ÑĤ ÑĤÐµÑĢÐ´Ñĸ
ÐµÐ»ÑĮ Ð´Ñĸ
ĠÐºÓ©ÑĪÑĸÑĢÐ¼ ÐµÑģÑĸÐ½
Ð³Ð¸Ð¼Ð½ Ð°Ð·
Ð°Òĵ Ð°ÑĢÑĤÑĥ
ÑģÐ°ÑĤ Ñĥ
ĠÐ¶Ð°Ð½ ÑĭÐ½Ð°
Ð´ÑĭÑĢ ÑĭÐ»Ð´Ñĭ
Ð±Ðµ Ð³Ñĸ
ĠÐĽ ÐµÐ½Ð¸Ð½
ĠA pp
ĠÐ·Ð°Ò£Ð½Ð°Ð¼ Ð°
ĠÐĲÑģ ÑħÐ°ÑĤ
ÒļÒ± Ð¶
ĠÐļÓĻÑģÑĸÐ¿ Ð¾ÑĢÑĭÐ½
ĠÑĪÐµÐºÐ°ÑĢ Ð°ÑģÑĭ
Ð°Ð½ Ð´Ð°ÑĢ
Ð· Ð¸ÑıÐ»ÑĭÒĽ
Ð°Ñģ ÑĭÒ£Ð´Ð°ÑĢ
Ð¢ ÐµÐ»
ĠÐ¢ ÑĢ
ĠÐ°ÒĽ Ð¸
ĠÑĤÒ¯ÑĢ ÑĸÐ½ÐµÐ½
ĠÐ¶Ð°Ð· ÑĥÑĭ
ĠÐ¨ Ð¸ÐµÐ»Ñĸ
ĠÐ¾Ð»Ð°ÑĢ Ð´Ð°
ÒĵÐ°ÑĢÑĭ ÑĪ
ĠÐ¶Ð°Ð± Ñĥ
Ġ: :
ĠÐºÓĻÑģÑĸÐ¿ÐºÐµÑĢÐ»ÐµÑĢ Ð³Ðµ
ĠÐ¢Ð°Ð» Ð°Ñģ
Ð¼Ð± Ñĭ
Ð¢Ð°ÑĢÐ¸Ñħ Ð¸
Òĵ Ð°Ð¹Ð´Ñĭ
ĠÑĢ Ð°Ð·Ñĭ
Ð¡ Ð¸
Ð¡ Ðŀ
Ðĸ ÐµÐ´ÐµÐ»
ĠÐ¶Ò¯ÑĢ ÑĥÐ³Ðµ
ĠÐ´Ò¯Ð½Ð¸ ÐµÑģÑĸÐ½
ĠÑģÑĭÐ¹ Ð»Ð°Ð´Ñĭ
ĠÒ¯Ð½ Ð´ÐµÑĥ
ĠÐľÐ¾Ð» Ð´Ð°
ÐĳÐĳ Ðľ
ĠÐ»Ð°Ò£ ÐºÐµÑģÑĤÑĸÐº
ÐĲ ÑĤÐ°Ð¿
ÐºÑĸÐ½ Ñĸ
ÐµÑģÑĤ ÑĸÐºÑĤÑĸ
ĠÐ±Ò±Ð» Ð°Ð¹
ĠÐ±Ò±Ð· ÑĭÐ¿
ĠÐºÒ¯Ð¹ ÐµÑĥÑĸ
ĠÐ¶Ò¯ÑĢÐ³ÐµÐ½ ÑĸÐ½
ĠÐ±Ð°ÒĵÐ°Ð»Ð°Ñĥ Ð´Ñĭ
ĠÐºÓĻÑģÑĸÐ¿Ð¾ÑĢÑĭÐ½ Ð´Ð°ÑĢÑĭ
ĠÐ¯ Ð½
ÐĶÐĲ Ð£
ĠÐ°Ð¹Ð½Ð°Ð»ÑĭÑģ ÑĥÒĵÐ°
ĠÐ¨ÑĭÐ¼ÐºÐµÐ½ÑĤ ÑĤÐµ
ĠÐºÐ°Ð´ÑĢ Ð»Ð°ÑĢ
ĠÑĪÐ°Ð¿ ÑĪÐ°Ò£
ĠÐľÐµÐ¹ ÑĸÑĢ
Òĵ Ð°ÑģÑĭÑĢ
Ð¢ Ðĺ
ÐĿ ÐµÐ³ÑĸÐ·
ÐĲÐ» ÑĮ
Ġ8 6
ĠÑĤÐ°Òĵ Ð·ÑĭÐ¼
or ld
ĠÓĻÑĢÐµÐº ÐµÑĤÑĸÐ½Ðµ
ÑĪÑĭÐ»ÑĭÒĵ ÑĭÐ½Ð°
ĠÐºÐµÐ»Ð± ÐµÑĤÑĸ
Ð± Ð¸Ñı
ĠÐºÐµÐ» Ð´ÑĸÐº
Ð¾Ð³ Ð¸ÐºÐ°Ð»ÑĭÒĽ
ĠÐ¨ ÒļÐľÐ£
ĠÑĤÐ°Ð» Ð°Ñģ
ĠÓĻÐ»ÐµÐ¼ ÑĸÐ½ÑĸÒ£
ĠÐ°Ð¿ Ð°Ð¹
ĠÐ¶Ð°ÑĢÐ¸Ñı Ð»Ð°Ð½Ð°Ð´Ñĭ
ĠÐ·Ð¸Ñı Ð½Ñĭ
Ð°Ð»Ñİ ÑĤÐ°
ĠÑģÑĥÐ±ÑĬÐµÐºÑĤ ÑĸÑģÑĸ
ĠÒĽÑĭÐ»Ð¼ÑĭÑģ ÒĽÐ°
iv e
ĠÐ¿ÑĢÐ°ÐºÑĤ Ð¸Ðº
ĠÐ»ÐµÐ± ÑĸÐ·
Ñģ ÑĥÑĢ
Ð¾Ð² ÑģÐºÐ¸Ð¹
ĠÓ©Ð» ÑĸÐ¼Ñĸ
ĠÐ¾Ð¹ÑĭÐ½ ÑĪÑĭ
ĠÐ¼ÐµÐ¹ÑĸÑĢ ÑĸÐ¼Ð´ÑĸÐ»ÑĸÐº
ĠÐ³ÑĢÐ°Ð¼ Ð¾ÑĤ
ĠÐ³ÑĢÐ°Ð¼ Ð¼Ð°ÑĤÐ¸ÐºÐ°Ð»ÑĭÒĽ
ÑĢÐµÑģÑĥÑĢ ÑģÑĭ
o int
Ð´Ð°Ð¹ Ð¼ÑĭÐ½
ĠÒĽÒ± Ð·ÑĸÑĢ
ĠÐ°Ð»Ð¼ Ð°ÑģÐ°
ĠÐ¼ÐµÑĢÐµÐº ÐµÐ»ÐµÑĢ
ÒļÐ°ÑĢ Ð¶ÑĭÐ»ÑĭÒĽ
Ð¾ÑĪ ÑĤÐ°
ĠÓĺÐ¹ ÑĤÐ¿ÐµÑģÐµ
ĠÐ¼Ð°ÑģÑģ Ð°ÑģÑĭ
ĠÑĭÒĽÑĭÐ» Ð°Ñģ
Òĵ ÑĭÑģÑĭÐ½Ð´Ð°
ĠÐ¿ Ð¾Ð²
ĠÐ¡ Ð°ÑıÑģÐ°ÑĤ
ĠÐ¸ Ð³ÑĸÐ»Ñĸ
ĠÐķ ÐĲÐŃÐŀ
ÐĶ Ð°Ñĥ
ĠÑĥ Ð°Ð¹ÑĭÐ¼
Ð¾ÑĤ Ð¾ÑĢ
Ð¶Ð°Ð½ Ð´Ñĭ
ĠÐ·Ð°Ò£Ð½Ð°Ð¼ Ð°Ð½Ñĭ
is h
ÑĤÐ¾Ð¼ Ð¾Ð±Ð¸Ð»ÑĮ
ĠÐľ Ð°ÑĪ
ÒĽÐ°ÑĢ Ð°ÒĵÐ°Ð¹
ÑģÑĤÐ°ÑĢ Ð´Ñĭ
ĠÒĽÐ°Ð»ÒĵÐ°Ð½ Ñĭ
[...]
