{"<|endoftext|>":0,"<|startoftext|>":1,"<|pad|>":2,"!":3,"\"":4,"#":5,"$":6,"%":7,"&":8,"'":9,"(":10,")":11,"*":12,"+":13,",":14,"-":15,".":16,"/":17,"0":18,"1":19,"2":20,"3":21,"4":22,"5":23,"6":24,"7":25,"8":26,"9":27,":":28,";":29,"<":30,"=":31,">":32,"?":33,"@":34,"A":35,"B":36,"C":37,"D":38,"E":39,"F":40,"G":41,"H":42,"I":43,"J":44,"K":45,"L":46,"M":47,"N":48,"O":49,"P":50,"Q":51,"R":52,"S":53,"T":54,"U":55,"V":56,"W":57,"X":58,"Y":59,"Z":60,"[":61,"\\":62,"]":63,"^":64,"_":65,"`":66,"a":67,"b":68,"c":69,"d":70,"e":71,"f":72,"g":73,"h":74,"i":75,"j":76,"k":77,"l":78,"m":79,"n":80,"o":81,"p":82,"q":83,"r":84,"s":85,"t":86,"u":87,"v":88,"w":89,"x":90,"y":91,"z":92,"{":93,"|":94,"}":95,"~":96,"¡":97,"¢":98,"£":99,"¤":100,"¥":101,"¦":102,"§":103,"¨":104,"©":105,"ª":106,"«":107,"¬":108,"®":109,"¯":110,"°":111,"±":112,"²":113,"³":114,"´":115,"µ":116,"¶":117,"·":118,"¸":119,"¹":120,"º":121,"»":122,"¼":123,"½":124,"¾":125,"¿":126,"À":127,"Á":128,"Â":129,"Ã":130,"Ä":131,"Å":132,"Æ":133,"Ç":134,"È":135,"É":136,"Ê":137,"Ë":138,"Ì":139,"Í":140,"Î":141,"Ï":142,"Ð":143,"Ñ":144,"Ò":145,"Ó":146,"Ô":147,"Õ":148,"Ö":149,"×":150,"Ø":151,"Ù":152,"Ú":153,"Û":154,"Ü":155,"Ý":156,"Þ":157,"ß":158,"à":159,"á":160,"â":161,"ã":162,"ä":163,"å":164,"æ":165,"ç":166,"è":167,"é":168,"ê":169,"ë":170,"ì":171,"í":172,"î":173,"ï":174,"ð":175,"ñ":176,"ò":177,"ó":178,"ô":179,"õ":180,"ö":181,"÷":182,"ø":183,"ù":184,"ú":185,"û":186,"ü":187,"ý":188,"þ":189,"ÿ":190,"Ā":191,"ā":192,"Ă":193,"ă":194,"Ą":195,"ą":196,"Ć":197,"ć":198,"Ĉ":199,"ĉ":200,"Ċ":201,"ċ":202,"Č":203,"č":204,"Ď":205,"ď":206,"Đ":207,"đ":208,"Ē":209,"ē":210,"Ĕ":211,"ĕ":212,"Ė":213,"ė":214,"Ę":215,"ę":216,"Ě":217,"ě":218,"Ĝ":219,"ĝ":220,"Ğ":221,"ğ":222,"Ġ":223,"ġ":224,"Ģ":225,"ģ":226,"Ĥ":227,"ĥ":228,"Ħ":229,"ħ":230,"Ĩ":231,"ĩ":232,"Ī":233,"ī":234,"Ĭ":235,"ĭ":236,"Į":237,"į":238,"İ":239,"ı":240,"Ĳ":241,"ĳ":242,"Ĵ":243,"ĵ":244,"Ķ":245,"ķ":246,"ĸ":247,"Ĺ":248,"ĺ":249,"Ļ":250,"ļ":251,"Ľ":252,"ľ":253,"Ŀ":254,"ŀ":255,"Ł":256,"ł":257,"Ń":258,"Ð°":259,"ĠÐ":260,"Ñĭ":261,"Ðµ":262,"Ð½":263,"ÑĤ":264,"ÑĢ":265,"Ñĸ":266,"Ð»":267,"Ñģ":268,"Ð´":269,"ÒĽ":270,"Ð¼":271,"Ñĥ":272,"Ðº":273,"Ð¾":274,"Ð°ÑĢ":275,"Ð°Ð":276,"Òĵ":277,"Ð°Ð½":278,"Ò£":279,"Ð¸":280,"ĠÐ±":281,"Ð°Ð»":282,"ÑĭÐ½":283,"ĠÐ¶":284,"ÑĪ":285,"ÐµÑĢ":286,"Ð·":287,"Ð³":288,"ĠÒĽ":289,"ÐµÐ½":290,"Ð¿":291,"ĠÑĤ":292,"ÑĸÐ½":293,"Ð´Ñĭ":294,"Ð°Ñģ":295,"Ò±":296,"ĠÐº":297,"Ó©":298,"ÓĻ":299,"ÑĤÑĭ":300,"Ð°Ð¹":301,"Ò¯":302,"ĠÐ¼":303,"ÐµÑĤ":304,"ĠÑģ":305,"Ð¹":306,"Ð´Ñĸ":307,"Ð´Ð°":308,"Ð±":309,"ÑĭÐ»":310,"Ð°ÒĽ":311,"Ð°ÑĤ":312,"ĠÐ¾":313,"ÑĭÒĽ":314,"Ð¾Ð»":315,"ĠÐ´":316,"ÐµÐº":317,"ÑģÑĤ":318,"Ð°Ñĥ":319,"ÑĸÐ»":320,"Ð´Ðµ":321,"ÑĭÒ£":322,"ÐµÐ»":323,"ÑĸÑĢ":324,"Ð°Ð¼":325,"ĠÐµ":326,"Ñı":327,"ÑĭÑģ":328,"Ð°Ð·":329,"Ð°Òĵ":330,"ÑĸÐ¼":331,"ÐµÑģ":332,"Òļ":333,"ÑĸÐº":334,"ĠÓ©":335,"ÑĭÐ¼":336,"ÑĸÐ·":337,"ÑĭÐ·":338,"ÒĵÐ°Ð½":339,"ÐµÐ¼":340,"Ð¸Ñı":341,"Ò±ÑĢ":342,"Ð´Ð°ÑĢ":343,"ÑĸÒ£":344,"ÓĻÐ½":345,"ÑĭÐ½Ð´Ð°":346,"ÒĵÐ°":347,"ÒĵÑĭ":348,"Ñħ":349,"Ð¾ÑĢ":350,"ĠÑĪ":351,"Ð°Ð¿":352,"ĠÐºÓ©":353,"ÑĭÐ¿":354,"Ð¶":355,"ÑĤÐ°ÑĢ":356,"Ð³Ðµ":357,"ĠÐ±Ð¾Ð»":358,"ĠÓĻ":359,"ÐµÑĤÑĤ":360,"Ð²":361,"ÓĻÐ½Ðµ":362,"ĠÐ¶ÓĻÐ½Ðµ":363,"Â»":364,"ĠÒļ":365,"ÑĭÐ½ÑĭÒ£":366,"ĠÐ´Ðµ":367,"Ð³Ñĸ":368,"ĠÐĲ":369,"Â«":370,"âĢ":371,"ĠÐ°Ð»":372,"ÑĭÑĢ":373,"Ð°Ð»ÑĭÒĽ":374,"ĠÐ¿":375,"Ð°Ð±":376,"Ð¾Ð½":377,"Ð°Ð´Ñĭ":378,"ĠÐ½":379,"Ð³ÐµÐ½":380,"ÐĲ":381,"ĠÒ¯":382,"Ð´ÑĭÒ£":383,"Ð¸Ðº":384,"Ð°Ò£":385,"ĠÐĳ":386,"ÐµÐ¹":387,"Ò±Ð»":388,"ĠÐ±Ð°Ñģ":389,"ÑĤÑĭÑĢ":390,"ĠÐ¾ÑĢ":391,"ÑĸÐ½Ð´Ðµ":392,"ĠÂ«":393,"ÑĭÐ½Ð°":394,"Ð´Ð°Ð½":395,"ÑĸÐ¿":396,"Ð»Ð°ÑĢ":397,"ÑģÑĤÐ°Ð½":398,"Ð°Ð·Ð°ÒĽ":399,"ÑĤÐµ":400,"Ò¯ÑĢ":401,"ÑĥÑĢ":402,"ĠâĢ":403,"ÑĨ":404,"Ð´ÐµÑĢ":405,"ÑĤÐµÑĢ":406,"ĠÐ°ÑĢ":407,"ÑĸÐ½ÑĸÒ£":408,"Ð¸Ð½":409,"ĠÐ°":410,"ĠÐ¼ÐµÐ½":411,"ÑĦ":412,"Ġ1":413,"Ð¾Ð¹":414,"ÑĸÑģ":415,"ĠÐ¶ÑĭÐ»":416,"ĠÐ¡":417,"Ð»ÑĭÒĽ":418,"ĠÐ±ÑĸÑĢ":419,"ÑĤÑĥ":420,"Ð°Ð»Ð°ÑĢ":421,"ÑĪÐ°":422,"Ð°Ð»Ñĭ":423,"Ġ2":424,"Ð´ÑĭÒĽ":425,"Ð°ÑĤÑĭ":426,"ÐµÐ·":427,"ÑĤÑĭÒĽ":428,"ÑĤÑĸ":429,"ĠÐŀ":430,"Ð´Ð°Ð¹":431,"ĠÐ°Ð¹":432,"ÐµÒ£":433,"Ġ(":434,"ĠÐľ":435,"ĠÑĢ":436,"Ð°ÑģÑĭ":437,"Ð¾Ð¼":438,"ÑģÑĭ":439,"ÑĪÑĭÐ»":440,"ĠÐ°Ñĥ":441,"ĠÒ±":442,"Ð´ÑĸÒ£":443,"Ð±Ð»":444,"ÐºÐµÐ½":445,"ĠÒĽÐ°Ð»":446,"ĠÐ±ÐµÑĢ":447,"Ð½ÑĭÒ£":448,"ĠÓ©Ð·":449,"ÒĽÐ°":450,"Ð¡":451,"ÑĸÐ½Ðµ":452,"Ðĳ":453,"Ð°Ð·Ð°ÒĽÑģÑĤÐ°Ð½":454,"ĠÒĽÐ°ÑĢ":455,"ĠâĢĵ":456,"Ð°ÑĤÑĭÐ½":457,"ĠÐĸ":458,"ĠÒĽÑĭÐ·":459,"Ġ-":460,"Ò±Ð¼":461,"Ð»ÐµÐº":462,"ĠÐ±Ð°ÑĢ":463,"ÑĤÐ°":464,"ÑĤÐ°Ð½":465,"Ð´ÐµÐ½":466,"Ð¢":467,"ÐµÑĥ":468,"Ðľ":469,"ĠÐ¢":470,"ĠÐºÓ©ÑĢ":471,"ĠÐºÐµÐ»":472,"ĠÐļ":473,"Ó©Ð»":474,"ÑĭÒĵ":475,"ĠÐ°ÑĤ":476,"ĠÐºÒ¯":477,"ÐµÐ´Ñĸ":478,"ĠÐ·":479,"ĠÐ¶Ð°Ñģ":480,"Ð³ÑĸÐ·":481,"ĠÑħ":482,"ĠÒĽÒ±ÑĢ":483,"Ð¾Ð²":484,"Ð¾Ñģ":485,"Ð¼ÐµÐ½":486,"ÓĻÑģ":487,"ÑĨÐ¸Ñı":488,"ĠÐ¶Ò±Ð¼":489,"ĠÒ¯ÑĪ":490,"ÓĻÑĢ":491,"ĠÐ±Ð¾Ð¹":492,"Ð»ÐµÑĢ":493,"Ð´Ð°Ð¼":494,"ÐµÑĤÑĤÑĸÐº":495,"ÑĤÑĭÒ£":496,"ĠÐ¾ÒĽ":497,"Ðŀ":498,"ĠÐ¸":499,"ÑĭÐ½ÑĪÐ°":500,"ÐµÐ¼Ð»ÐµÐº":501,"ĠÒĽÑĭÐ·Ð¼":502,"ĠÐ±ÑĸÐ»":503,"ÐµÑĤÑĸÐ½":504,"Ðķ":505,"Ðļ":506,"Ñį":507,"01":508,"ÑĮ":509,"ÒĽÐ°Ð½":510,"ĠÑĤÑĥÑĢ":511,"Ð´ÑĸÐº":512,"ÐºÐµ":513,"ĠÒļÐ°Ð·Ð°ÒĽÑģÑĤÐ°Ð½":514,"ĠÒĽÒ±":515,"ÑĪÑĸ":516,"Óĺ":517,"ÑĭÑĤ":518,"ĠÒ¯ÑĪÑĸÐ½":519,"ĠÐł":520,"ĠÑĤÒ¯":521,"ĠÓ©ÑĤ":522,"ĠÑģÐ°Ð»":523,"ĠÐºÐµÐ·":524,"Ð¾Ð³":525,"ĠÐ±Ð¾Ð¹ÑĭÐ½ÑĪÐ°":526,"Ð»Ñĸ":527,"ĠÐ±Ð°Òĵ":528,"Ðł":529,"ĠÐ¶Ò¯":530,"ĠÐ¶Ð¾":531,"ÑĢÑĥ":532,"Ð½Ð°Ð»":533,"ĠÐ´ÐµÐ¿":534,"ÐºÐµÑĢ":535,"ĠÑĤÑĥÑĢÐ°Ð»Ñĭ":536,"ĠÑĤÒ±ÑĢ":537,"Ðĸ":538,"ĠÐķ":539,"ĠÒĽÐ¾Ð»":540,"Ð»Ð°Ð½":541,"ĠÐ°Ñģ":542,"Ð»ÑĸÐº":543,"Ð°ÒĵÐ°Ð½":544,"ÑĤÐ°Ð»":545,"Ð°ÑĢÑĭ":546,"Ð³ÐµÑĢ":547,"Ð°ÑģÑĭÐ½Ð´Ð°":548,"ÑĸÑģÑĤ":549,"Ð¸ÐºÐ°Ð»ÑĭÒĽ":550,"ĠÐ´Ð°":551,"..":552,"ÑĭÑģÑĭ":553,"ĠÐ½Ðµ":554,"Ð³ÑĸÐ½":555,"ÐºÑĸ":556,"ÒĽÐ°ÑĢ":557,"ĠÑį":558,"ÐµÐ»ÐµÑĢ":559,"ÑĭÐ¼ÐµÐ½":560,"ÐĿ":561,"ĠÐ°ÒĽ":562,"ĠÐ°Ð´Ð°Ð¼":563,"ĠÐ¼ÐµÐ¼Ð»ÐµÐº":564,"ÐµÐ²":565,"Ð°ÑģÑĭÐ½ÑĭÒ£":566,"ÐµÑģÐ¿":567,"ÐµÑģÑĸ":568,"Ð¿Ð°ÑĢ":569,"ĠÐºÒ¯Ð½":570,"ĠÐĲÐ»":571,"Ó©Ð·":572,"ĠÐ¶Ò¯ÑĢ":573,"ĠÐ¶Ò±Ð¼ÑĭÑģ":574,"00":575,"ÐµÑĪ":576,"ĠÐ¼Ò¯":577,"ÐµÐ¿":578,"ĠÑĦ":579,"ĠÐµÑģ":580,"ĠÒĽÑĭÐ·Ð¼ÐµÑĤ":581,"ĠÑĤÐ°ÑĢ":582,"ÑĸÐ»ÑĸÐº":583,"ÑĥÐ±Ð»":584,"ÐµÐ´":585,"ÐºÑĸÐ½":586,"Ð´Ð°ÒĵÑĭ":587,"ÑģÑĭÐ½":588,"ÑĤÐ°Ð¼":589,"ĠÒĵ":590,"ÑĥÒĵÐ°":591,"ÑģÐµÑĤ":592,"ÐµÑģÐ¿ÑĥÐ±Ð»":593,"Ð¸ÑĤ":594,"ĠÓĻÑĢ":595,"ĠÐ±Ó©Ð»":596,"Ð»Ñĭ":597,"ÐĨ":598,"ĠÐ¾ÑĤÑĭÑĢ":599,"ÑĪÑĭ":600,"ĠÐµÐ»":601,"ĠÑģÐ¾":602,"ÑĤÐ°Ñĥ":603,"ĠÐºÓ©ÑĢÑģÐµÑĤ":604,"ĠÐ¾Ð±Ð»":605,"ĠÐ±Ð°Ð»":606,"ĠÑĤÒ¯ÑĢ":607,"ÑĪÑĭÐ»Ð°ÑĢ":608,"ÑĸÑĪ":609,"ĠÐ¶ÐµÑĢ":610,"ÐºÑĸÐ¼":611,"ÐĶ":612,"Ð°Ð¹Ð´Ñĭ":613,"Ð°ÑģÑĤÑĭÑĢ":614,"ĠÒ":615,"ĠÑĥ":616,"ÐµÑĤÑĤÐµÑĢ":617,"Ð±Ð¸":618,"ĠÐ¶Ð°Òĵ":619,"Ð«":620,"ĠÒĽÐ¾ÑĢ":621,"Ð°Ð¶":622,"ĠÓĻÐ»":623,"ÑĸÐ»Ñĸ":624,"Ñİ":625,"Ó¨":626,"ÑĭÐ½Ð°Ð½":627,"ÐµÑģÑĤ":628,"ĠÐĿ":629,"ĠÐ¶ÐµÑĤ":630,"ĠÐ¶Ð°Ò£":631,"ÐµÑĢÐµÐº":632,"ĠÑĤÐ°Ð±":633,"ĠÓĺ":634,"ÑĥÑĭ":635,"ÐµÑĤÑĤÑĸ":636,"ĠÓ©Ð½":637,"ĠÐ¿Ð°Ð¹":638,"ĠÐ±Ð°Ð¹":639,"ĠÐŁ":640,"Ð°ÑĤÑĭÑģ":641,"ĠÑĤÒ¯Ñģ":642,"ÐµÑģÐ¿ÑĥÐ±Ð»Ð¸Ðº":643,"ĠÐ¼ÐµÐº":644,"ĠÐ¾ÒĽÑĥ":645,"ÂŃ":646,"ĠÒĽÐ¾":647,"Ð°Ð½Ñĭ":648,"ĠÐµÑĢ":649,"Ð°ÑĤÑĤÐ°ÑĢ":650,"Ð¹ÑĭÐ¼":651,"ĠÑĪÐ°ÑĢ":652,"Ð´Ð°Ð»":653,"Ð½Ð¸":654,"ĠÐĶ":655,"Ġ201":656,"ĠÐ±Ð¾Ð»ÑĭÐ¿":657,"ĠÐ¶Ð¾Ð»":658,"Ġ3":659,"ĠÐ´Ð°Ð¼":660,"Ð¸Ñħ":661,"ÐºÑĤ":662,"ÑĭÐ»ÑĭÐ¼":663,"Ð°Ñı":664,"Ð±ÐµÐº":665,"ÐµÑģÐµ":666,"ĠÑĪÑĭÒĵ":667,"Ð¸Ð¼":668,"Ð¸ÑģÑĤ":669,"ĠÐºÐ¾Ð¼":670,"Ð°ÑĪ":671,"ÑĭÑģÑĤ":672,"ÑĤÑĭÐ½":673,"ĠÐ´ÐµÐ¹":674,"ĠÐ±ÐµÑĢÑĥ":675,"ĠÐ¾Ð¹":676,"ĠÐłÐµÑģÐ¿ÑĥÐ±Ð»Ð¸Ðº":677,"Ð¾Ð¿":678,"ĠÐ¿ÑĢ":679,"ÑĭÐ½Ð´Ð°ÒĵÑĭ":680,"ĠÐ³":681,"Ð°ÒĵÑĭ":682,"Ð»Ð°Ð¼":683,"ÑĤÐ°Ð¿":684,"ĠÑĸÑģ":685,"Ð¾Ð»Ð¾Ð³":686,"ĠÐ¶Ð°ÑĢ":687,"ÑĸÐ»ÐµÑĢ":688,"Ð½Ñĭ":689,"ĠÒĽÐ°Ð¹":690,"ĠÐ±ÑĸÐ»ÑĸÐ¼":691,"ĠÐ´ÐµÐ³ÐµÐ½":692,"ĠÒ¯Ð¹":693,"ĠÐ¼ÐµÐ¼Ð»ÐµÐºÐµÑĤÑĤÑĸÐº":694,"ÐµÐ±":695,"ĠÐµÐ¼":696,"Ð¸ÑıÐ»ÑĭÒĽ":697,"ĠÐµÒ£":698,"ÒĽÑĭÐ»":699,"ÐµÐºÑĤ":700,"ĠÐ¼ÓĻ":701,"ĠÑĤÐµ":702,"Ð±Ð°":703,"ÐĽ":704,"ĠÐ±ÐµÐ»":705,"ÒĽÑĭ":706,"ĠÒĽÐ°ÑĤÑĭÑģ":707,"ĠÑĤÑĸÐ»":708,"ĠÐ±Ð¾Ð»Ð°Ð´Ñĭ":709,"ÐµÐ³Ðµ":710,"Ð¸Ð»":711,"Ð´Ð°ÑĢÑĭ":712,"ĠÐ°Ð½":713,"ĠÐ¼Ð°ÒĽ":714,"ĠÐ¸Ð½":715,"Ð´ÑĸÑĢ":716,"Ð¨":717,"ÑģÑĸÐ·":718,"ĠÐ½ÐµÐ³ÑĸÐ·":719,"Ó©Ð½":720,"ĠÐ¶Ð°Ð·":721,"ĠÐ¶Ð°ÒĵÐ´Ð°Ð¹":722,"ĠÐ¾ÑĢÑĭÐ½":723,"Ð´Ð°Ñĥ":724,"ĠÐ¨":725,"ÐºÑĸÐ·":726,"ĠÐ°ÑĥÐ´Ð°Ð½":727,"ĠÒĽÐ°Ð±":728,"ĠÐ±Ò±Ð»":729,"ĠÑģÓĻ":730,"ĠÐ¶Ð°ÑĤ":731,"Ð°Ð½ÑĭÒ£":732,"ÑĤÑĤÑĭÒĽ":733,"ÑĸÐ¼ÑĸÐ·":734,"ĠÑĤÐ°Ð»":735,"Ð¸Ð·":736,"ĠÐ¾Ð»Ð°ÑĢ":737,"ĠÒ±Ð¹ÑĭÐ¼":738,"Ð°Ð¼Ð°Ð½":739,"ÑĸÐ¼ÐµÐ½":740,"Ð¼ÑĸÑĢ":741,"Ð°ÑģÑĭÐ½":742,"Ð°Ð³":743,"ÑĭÐ»ÒĵÐ°Ð½":744,"ÑĭÑĤÑĥ":745,"ĠÑĤÐ¸":746,"ĠÐ¶Ð°Ð»":747,"ĠÑģÓ©Ð·":748,"Ð¿ÐµÐ½":749,"Ð°ÒĽÑĤÑĭ":750,"ÑħÐ°Ð½":751,"ĠÑĸÑĪ":752,"Ð¼ÐºÑĸÐ½":753,"Ð°Ð²":754,"ĠÐ°Ð·":755,"Ġ\"":756,"ĠÐ¶ÑĭÐ»Ñĭ":757,"ĠÐĳÒ±Ð»":758,"ĠÐ¾Ð±Ð»ÑĭÑģ":759,"Ð¸ÐºÐ°":760,"ĠâĢĶ":761,"ĠÑĤÓ©":762,"ĠÐ¾Ð½ÑĭÒ£":763,"ÑĸÐ»Ð³ÐµÐ½":764,"Ð°ÒĵÐ°":765,"ÒĵÐ°Ð»":766,"ÐµÐ¼ÐµÑģÐµ":767,"Ð¿Ð°ÑĢÐ°ÑĤ":768,"ĠÐ¼Ò¯Ð¼ÐºÑĸÐ½":769,"ÒĵÐ°Ð¼":770,"Ð¼Ð°":771,"ĠÒĽÐ°Ð¼":772,"ĠÐºÐµÐ¹":773,"ÑĪÑĭÐ»ÑĭÒĽ":774,"ÑĸÐ¼Ð´Ñĸ":775,"ĠÐ¾ÑģÑĭ":776,"ÑĸÐ½ÐµÐ½":777,"ĠÒĽÐ¾Ñģ":778,"ÐŁ":779,"ÑģÐ°":780,"ĠÒĽÐ°Ð½":781,"ÐµÑĤÑĸ":782,"ĠÑĪÑĭÒĵÐ°ÑĢ":783,"ĠÑģÐ°Ð¹":784,"ĠÒ±Ð»":785,"ĠÐºÓ©Ð¿":786,"ÑĤÐµÐ¿":787,"ÑĸÐ½Ð´ÐµÐ³Ñĸ":788,"ÑĭÐ»Ð°Ð´Ñĭ":789,"ÐµÐ³":790,"ĠÒĽÐ°ÑĤ":791,"ĠÑįÐº":792,"ÑĤÐµÑĥ":793,"ĠÑħÐ°Ð»ÑĭÒĽ":794,"Ġ5":795,"ĠÑģÐ°Ð½":796,"ĠÐ°Ð»Ñĥ":797,"ĠÐµÐ¼ÐµÑģ":798,"Ð±ÑĸÑĢ":799,"Ð¼Ð°ÒĽ":800,"ÒĵÑĭÐ½":801,"ĠÐ±Ð¾Ð»ÒĵÐ°Ð½":802,"Ð¼Ð°Ð½":803,"ĠÐ¼ÓĻÑģ":804,"ĠÐ·Ð°Ò£":805,"ÑĪÐµ":806,"ĠÐºÐµÑĢÐµÐº":807,"ĠÐ±Ð°Ð¹Ð»Ð°Ð½":808,"ÓĻÑģÑĸÐ¿":809,"ÑħÐ½":810,"Ð°ÒĽÑĭÑĤ":811,"Ðĺ":812,"ĠÐ¾ÑĢÑĤ":813,"ĠÐ¶Ò¯Ð¹":814,"ĠÐ¾Ð»":815,"ĠÐ¼Ò±":816,"Ġ4":817,"ĠÐ¶Ð°ÒĽ":818,"ĠÐµÑĤ":819,"Ð¸ÑĢ":820,"ÐµÑĢÑĤ":821,"ÒĽÑĭÐ»Ñĭ":822,"ĠÒĽÐ°Ð·Ð°ÒĽ":823,"Ð°ÒĽÑĭÑĢ":824,"ĠÓ¨":825,"ĠÐ´ÐµÐ¹ÑĸÐ½":826,"ÑĭÑģÑĤÑĭ":827,"ÑĤÑĢ":828,"ĠÐµÐºÐµÐ½":829,"Ð¾Ð½Ð¾Ð¼":830,"ÑģÐ°ÑĤ":831,"ĠÐµÐ½":832,"ÑĥÐ³Ðµ":833,"Ò¯Ð¹":834,"ĠÑģÐ¾Ð½":835,"ÑĭÐ½Ð´Ñĭ":836,"ĠÐ½ÐµÐ¼ÐµÑģÐµ":837,"ĠÐ»":838,"ĠÐºÐµÐ·Ð´Ðµ":839,"ĠÒĽÐ°Ð¶":840,"Ñĩ":841,"ÒļÐ°Ð·Ð°ÒĽÑģÑĤÐ°Ð½":842,"ĠÑĤÓĻÑĢ":843,"ÑĥÐ»":844,"ĠÑĤÐ°Ð¿":845,"ĠÓĻÐºÑĸÐ¼":846,"201":847,"Ð°Ð±Ð°ÑĢ":848,"Ð´ÐµÑĢÑĸ":849,"ĠÐ¶Ð°Ò£Ð°":850,"ĠÐ¶Ò¯ÑĢÐ³ÑĸÐ·":851,"ĠÒ¯Ð»":852,"ÑĭÑģÑĤÐ°ÑĢ":853,"ÐµÐ½ÑĤ":854,"ĠÑĸÑģÑĤ":855,"Ð½ÑĸÒ£":856,"ĠÐ¶Ò¯Ð·":857,"ÑĤÑĸÐº":858,"Ð´Ð°ÑĢÐ»Ð°Ð¼":859,"ĠÐ¶Ó©Ð½":860,"ĠÑģÐ°ÒĽ":861,"ÑĤÑĸÒ£":862,"ĠÒĽÐ¾Ð»Ð´Ð°Ð½":863,"ĠÑĤÐµÒ£":864,"ĠÐ°ÑĢÒĽÑĭÐ»Ñĭ":865,"ĠÐ°ÑģÑĭÑĢ":866,"Ð´ÐµÐ³Ñĸ":867,"Â»,":868,"Ð°Ð±Ð°ÒĽ":869,"Ð±Ð°ÐµÐ²":870,"ĠÒĽÐ¾Ð¹":871,"Ð¾Ðº":872,"ĠÑĤÐ¾Ð»":873,"Ð»ÐµÐ¼":874,"ĠÑĢÐµÑĤ":875,"Ġ19":876,"ÐµÑĥÐ¼":877,"ĠÐ¶Ð°Ð½":878,"...":879,"Ð»Ð°Ñĥ":880,"ĠÐ¼ÓĻÑģÐµÐ»":881,"ÑĤÐ°ÑĢÑĭ":882,"Ð°Ò£ÑĭÐ·":883,"Ð¾ÒĽ":884,"Ð½Ð°Ð»ÒĵÐ°Ð½":885,"Ð°ÑĨÐ¸Ñı":886,"ĠÒ°":887,"Ð°Ð´Ð°":888,"Ð¸Ð¿":889,"ĠÐ¶Ð°Ñĥ":890,"ÑĭÐ¼ÑĭÐ·":891,"ÑĸÐ»Ð´Ñĸ":892,"Ð¸Ð²":893,"ĠÐĺ":894,"ÑģÐµÑĢ":895,"Ð°ÑģÑĤÑĭÑĢÑĥ":896,"Ð´ÑĭÑĢ":897,"Ð´Ð°ÑĢÐ´ÑĭÒ£":898,"Ð°Ð·ÑĸÑĢ":899,"Ð±Ð°Ñģ":900,"ÐµÐºÐµ":901,"ĠÓ©Ð¼ÑĸÑĢ":902,"ĠÐ±Ð°ÑģÒĽÐ°ÑĢ":903,"ĠÑħÐ°Ð±Ð°ÑĢ":904,"Ð±Ð°Ð¹":905,"ÑĸÑģÑĸ":906,"Ð¿Ð¾ÑĢ":907,"iÐ½":908,"ĠÐºÐµÒ£":909,"Ð´Ð°Ð»Ð°Ð½":910,"ĠÐ°ÑĢÐ½Ð°Ð»ÒĵÐ°Ð½":911,"ĠÐ°Ð¹ÑĤ":912,"ĠÐ±Ð°ÒĵÐ´Ð°ÑĢÐ»Ð°Ð¼":913,"ĠÐ±ÐµÐ»Ð³":914,"ĠÐ°Ñı":915,"ĠÑĤÐ°Ð½":916,"ĠÐ¡Ð¾Ð½":917,"ÑĤÑĸÐ½":918,"ĠÐ±Ò±":919,"ĠÐ±ÑĸÐ·":920,"ĠÑģÒ±ÑĢ":921,"ÐµÐ»ÑĸÐº":922,"ĠÐ¼ÑĸÐ½":923,"ÐµÐ¶":924,"ÑĪÑĸÐ»ÑĸÐº":925,"ĠÒĵÑĭÐ»ÑĭÐ¼":926,"ÐµÑĥÐ¼ÐµÑĤÑĤÑĸÐº":927,"ĠÐµÑģÐµÐ¿":928,"ĠÐ±Ð¾Ð»Ð´Ñĭ":929,"ĠÐ¶Ð¾ÒĽ":930,"Ò°":931,"ĠÐ²":932,"Ð£":933,"Ð¼Ð°ÑĤÑĭ":934,"ĠÐ°ÑĥÑĭÐ»":935,"ÐĲÐ»":936,"Ð¿Ñĭ":937,"ĠÑĤÑĥ":938,"ĠÐ¥":939,"ĠÐºÓ©Ð·":940,"ĠÒĽÐ¾ÒĵÐ°Ð¼":941,"ÑĸÑĤ":942,"ĠÑģÑĥ":943,"Ð¿Ð°Ð½":944,"ĠÑģÐ¾Ò£":945,"ÑĤÐ°Ñģ":946,"ÐºÐµÑģ":947,"Ð¸ÑģÑĤÑĢ":948,"ĠÐ¿Ð°Ð¹Ð´Ð°Ð»Ð°Ð½":949,"ĠÐ°Ð½ÑĭÒĽ":950,"ĠÐºÐµÑĤ":951,"ĠÓ©ÑĤÐºÑĸÐ·":952,"ÑĤÐ¸":953,"ĠÐ°ÒĽÐ¿Ð°ÑĢÐ°ÑĤ":954,"ĠÐłÐµÑģÐ¿ÑĥÐ±Ð»Ð¸ÐºÐ°ÑģÑĭÐ½ÑĭÒ£":955,"Ð´ÐµÑĥ":956,"ĠÑĥÐ°ÒĽÑĭÑĤ":957,"Ð¾Ð»Ð¾Ð³Ð¸Ñı":958,"Ð¾ÑĤ":959,"ÑĭÒĵÑĭ":960,"Ð³Ð°Ð½":961,"Ð´ÑĭÑĢÑĥ":962,"Ð¸Ñģ":963,"Ð°ÑģÑĭÐ½Ð´Ð°ÒĵÑĭ":964,"ÒĽÑĭÒĽ":965,"âĦ":966,"ĠÐ±Ð°ÑģÒĽÐ°":967,"ÑģÑĭÑĢ":968,"ĠÐºÐµÐ¹ÑĸÐ½":969,"âĦĸ":970,"ÑĤÑĭÐ»":971,"ĠÑĤÓĻ":972,"ĠÑĪÐµÑĪ":973,"ÒĵÐ°ÑĢÑĭ":974,"ĠÑĤÐµÑħÐ½":975,"ĠÑĤÒ±":976,"Ð°ÑģÑĭÐ·":977,"ÑĸÐ¼Ñĸ":978,"ĠÒĽÐ°Ð±ÑĭÐ»":979,"ÑĢÑĤ":980,"ĠÐ¼Ð¸Ð½":981,"ĠÐµÐºÑĸ":982,"ĠÑģÑĭÐ½":983,"Ð°ÑĢÐ°Ð»ÑĭÒĽ":984,"ĠÐºÓĻÑģÑĸÐ¿":985,"Ð´ÐµÐ½ÑĤ":986,"Ð°ÑĤÑĤÑĭ":987,"ĠÒĽÐ°Ñĥ":988,"Ð´ÐµÐ»":989,"ĠÑĤÐµÐº":990,"ÑģÑĭÐ·":991,"Ð»ÑĸÐ¼":992,"Ġ6":993,"ÐµÐ»Ñĸ":994,"ĠÑĤÐ°ÑĢÐ¸Ñħ":995,"ĠÐŀÐ»":996,"ÑĸÐ¼Ð´ÐµÑĢ":997,"Ð°Ð´":998,"Ð¸Ð°Ð»":999,"ÑĪÑĭÑģÑĭ":1000,"ĠÐ±Ð¸":1001,"ĠÐ¼ÐµÐºÑĤÐµÐ¿":1002,"ĠÐĳÑĸÑĢ":1003,"ÐºÑĸÐ»":1004,"Ð¸ÑĨ":1005,"ÑĤÐµÑĢÑĸ":1006,"ĠÐĵ":1007,"ĠÐ¾ÑĢÐ³Ð°Ð½":1008,"ĠÐºÐ¾Ð½":1009,"Ð°Ðº":1010,"ÑĤÐ°Ð¹":1011,"Ò¯Ð³ÑĸÐ½":1012,"Ð¸Ð¾Ð½":1013,"ĠÐ¶Ð¾Ñģ":1014,"ĠÑģÐ¾Ð»":1015,"Ġ7":1016,"ĠÒĽÐ°ÑĤÐ°ÑĢ":1017,"ĠÒĽÐ°Ð»ÑĭÐ¿":1018,"Ð´ÐµÐ½Ð¸":1019,"ĠÒ±ÑģÑĭÐ½":1020,"ĠÑģÐ°Ñı":1021,"ÐµÑģÑĸÐ½":1022,"Ð½Ð°Ð½":1023,"kz":1024,"ĠÑįÐºÐ¾Ð½Ð¾Ð¼":1025,"ĠÑĤÒ¯ÑģÑĸÐ½":1026,"ĠÐ¶Ò¯Ð·ÐµÐ³Ðµ":1027,"Ð±ÐµÑĢ":1028,"ÑĭÑĪ":1029,"ÑĥÑĪÑĭÐ»Ð°ÑĢ":1030,"Ð°Ð·Ð°ÑĢ":1031,"Ð°ÑĤÑĭÑĢ":1032,"ÐĹ":1033,"ĠÒĽÒ±ÑĢÑĭÐ»":1034,"ĠÓĻÐ»ÐµÑĥÐ¼ÐµÑĤÑĤÑĸÐº":1035,"ĠÐ±Ð°Ð»Ð°Ð»Ð°ÑĢ":1036,"ĠÑĤÐ°Ò£":1037,"ÒĵÐ°Ð½Ð°":1038,"ĠÐºÒ¯Ð½Ñĸ":1039,"ĠÑģÓĻÐ¹":1040,"ÑĥÐ°":1041,"ĠÑĤÐµÑĢ":1042,"ÑĤÒ¯":1043,"ÐºÐµÑĢÐ»ÐµÑĢ":1044,"ÐµÐ·Ð¸":1045,"ĠÐ±Ð°Ð¹Ð»Ð°Ð½ÑĭÑģÑĤÑĭ":1046,"Ð°Ð¹Ñĭ":1047,"ĠÐ¿ÐµÐ½":1048,"ÑĤÑĭÑĢÑĥ":1049,"ĠÒĵÐ°Ð½Ð°":1050,"ĠÐ´ÓĻ":1051,"ĠÐ¼ÑĸÐ½Ð´":1052,"ĠÐµÑĤÑĥ":1053,"ĠÐ¶ÑĭÐ»ÒĵÑĭ":1054,"Ġ_":1055,"ĠÐ¾Ð½":1056,"ĠÑĤÐ¾Ð¿":1057,"Ð°ÑĢÑĤ":1058,"ĠÐ¶Ð°ÑĥÐ°Ð¿":1059,"ĠÑĤÑĸÑĢ":1060,"ĠÐ¼ÑĭÒ£":1061,"Ð°Ð¹ÑĭÐ½":1062,"ĠÐ°ÑĪ":1063,"ĠÐºÓ©ÑĪ":1064,"ĠÓĻÐ´Ñĸ":1065,"ĠÐ´Ð°Ð¼ÑĭÑĤÑĥ":1066,"Ð°Ñħ":1067,"ĠÒ±Ð¹ÑĭÐ¼Ð´":1068,"ĠÑĤÐ°Ð¿ÑģÑĭÑĢ":1069,"ÐµÐ¹Ð´Ñĸ":1070,"ĠâĦĸ":1071,"ÑĸÐ»ÐµÐ´Ñĸ":1072,"ĠÐ°Ð·Ð°Ð¼":1073,"Ð°ÑĢÐ°":1074,"Ð°ÑģÑĭÐ½Ð°":1075,"ĠÐ¶Ð°ÑĤÒĽÐ°Ð½":1076,"ÑģÑĤÑĸÐº":1077,"Ġ8":1078,"ĠÐºÐµÐ»Ð³ÐµÐ½":1079,"ĠÐ¶ÐµÐºÐµ":1080,"ĠÐ±Ð°ÑĢÐ»ÑĭÒĽ":1081,"ĠÐĲÒĽ":1082,"ÐµÐ³ÐµÐ½":1083,"ĠÐ¿ÑĢÐ¾":1084,"ÑĤÑĭÐ¿":1085,"âĢĿ":1086,"ÐµÑĢÑĸ":1087,"ĠÑĸÑĪÑĸÐ½Ð´Ðµ":1088,"Ð³ÐµÐ¹":1089,"Ð¥":1090,"ĠÒĽÒ±ÒĽÑĭÒĽ":1091,"Ð´ÐµÐ¹":1092,"Ð°Ð»Ð°ÑĢÑĭ":1093,"ĠÑģÓĻÐ¹ÐºÐµÑģ":1094,"ĠÐ¶ÑĭÐ»Ð´ÑĭÒ£":1095,"ĠÐ°Òĵ":1096,"Ð°Ð¼ÑĭÐ·":1097,"ÑĭÐ±":1098,"ÐºÐµÐ»":1099,"ĠÐ¶Ð¾ÒĵÐ°ÑĢÑĭ":1100,"ĠÐ¼Ð°Ð¼Ð°Ð½":1101,"ĠÑģÐµÐ½":1102,"ĠÓ©Ð·Ð³ÐµÑĢ":1103,"Ð¾Ð±":1104,"ĠÓĻÐ»ÐµÐ¼":1105,"Ðĵ":1106,"ĠÐĹ":1107,"ĠÐµÒ£Ð±ÐµÐº":1108,"ĠÐ±Ð¾Ð»ÑģÐ°":1109,"Ð°Ð»ÒĵÐ°Ð½":1110,"ĠÓ©Ñģ":1111,"ĠÐ¶Ð¾Ð±":1112,"ÑĭÐ»Ð´Ñĭ":1113,"ÑĤÐ°Ð»ÒĵÐ°Ð½":1114,"Ð¼Ð°Ð¹":1115,"ÑĸÐ½ÑĪÑĸ":1116,"ÐµÐ½Ð´Ñĸ":1117,"Ð¾ÑĢÐ¼":1118,"ĠÐ±Ò±ÑĢ":1119,"ĠÐ±Ð°ÒĵÑĭÑĤ":1120,"ĠÒ®":1121,"Ð´ÐµÐ¼":1122,"ĠÐŁÑĢ":1123,"ĠÓ©ÑĤÐµ":1124,"Ð°Ð»Ð°Ñĥ":1125,"ÑĪÑĸÐ»ÐµÑĢ":1126,"ĠÑĤÒ±Ð»":1127,"Ð³ÑĸÐ½ÑĸÒ£":1128,"ĠÐ¼Ð°Ò£ÑĭÐ·":1129,"Ó©ÑĢ":1130,"ĠÓ©Ð»":1131,"Ð°ÑĦ":1132,"ĠÒĽÐ°ÑĢÐ¶":1133,"ĠÐ¶Ð¸Ð½":1134,"Ð¸Òĵ":1135,"Ġ20":1136,"ĠÐºÓ©Ð¼":1137,"ÑĭÒ£ÑĭÐ·":1138,"ĠÐµÑĢÐµÐº":1139,"ÒĵÐ°ÑĪ":1140,"Ð¿Ð¾ÑĢÑĤ":1141,"ĠÐ¶Ð°ÑģÐ°Ñĥ":1142,"Ð»Ð°ÑĢÑĭ":1143,"ÑĤÐ¸Ð¶":1144,"ÑģÑĤÐ°Ð½Ð°":1145,"ĠÐ°Ð¹Ð½Ð°Ð»":1146,"ÑĥÐ½":1147,"ĠÐ´Ð°Ð¼Ñĥ":1148,"ĠÐ°Ð¿":1149,"ĠÑĤÓ©Ð»":1150,"ÐµÐ»ÐµÑĢÑĸ":1151,"ÓĻÑĤÐ¸Ð¶":1152,"ÑĸÐ»ÐµÑĤÑĸÐ½":1153,"ĠÐ·ÐµÑĢÑĤ":1154,"ÑĢÐ°Ð½":1155,"ĠÑĤÒ±ÑĢÒĵÑĭÐ½":1156,"Ð´Ð°ÑĢÑĭÐ½ÑĭÒ£":1157,"Ò£Ð³ÐµÐ¹":1158,"Ð´Ð°ÑĢÐ´Ñĭ":1159,"ÑģÑĭÐ½ÑĭÒ£":1160,"ÑĥÑĸ":1161,"ÐµÐ¹Ð½":1162,"ĠÐ¼Ð°ÑĤ":1163,"ĠÐµÐ´Ñĸ":1164,"ĠÐºÐµÐ·ÐµÒ£":1165,"ĠÐ°Ð»ÒĵÐ°Ð½":1166,"ĠÒĽÐ°ÑĤÑĭÑģÑĤÑĭ":1167,"ÑĤÐ°Ð¼Ð°ÑģÑĭÐ·":1168,"ÑĤÐµÐ½":1169,"Ð°ÒĵÑĭÐ½":1170,"ĠÐ±Ð¾Ð»Ð°ÑĤÑĭÐ½":1171,"19":1172,"ĠÐ°Ð»ÑĭÐ¿":1173,"ĠÐĲÐ»Ð¼Ð°ÑĤÑĭ":1174,"Ð¾Ð²Ð°":1175,"ĠÐ¶Ð°Ð»Ð¿Ñĭ":1176,"Ð°Ð·ÑĸÑĢÐ³Ñĸ":1177,"ÑĸÒ£ÑĸÐ·":1178,"Ð°ÒĽÑĭÐ»":1179,"Ġ10":1180,"ÑĤÑĸÑĢ":1181,"Ð»Ð°ÑĢÐ´ÑĭÒ£":1182,"Ð±Ðµ":1183,"ĠÐ°ÑĢÐ½":1184,"Ð¼ÑĭÑģ":1185,"ĠÑĪÐ°ÑĢÑĥÐ°":1186,"ĠÐ¾ÑĢÑĤÐ°":1187,"ĠÑĤÓĻÑĢÐ±Ð¸":1188,"ĠÐ¶Ð°Ð¹":1189,"ĠÐ¶Ð¾ÑģÐ¿Ð°ÑĢ":1190,"ĠÐ¾Ð»Ð°ÑĢÐ´ÑĭÒ£":1191,"ÑģÐ°Ð½":1192,"ĠÐ´ÐµÒ£Ð³ÐµÐ¹":1193,"ĠÑĤÐ°ÒĽÑĭÑĢ":1194,"ĠÓ©ÑĤÐºÐµÐ½":1195,"ĠÒĽÐ°Ð¶ÐµÑĤ":1196,"ĠÐ¾ÑĤÑĭÑĢÑĭÐ¿":1197,"ĠÒĽÒ±Ð¶":1198,"ÑģÑĤÐ°ÑĢ":1199,"ĠÒĽÐ°Ð¼ÑĤÐ°Ð¼Ð°ÑģÑĭÐ·":1200,"Ð¾Ð»Ð¾Ð³Ð¸ÑıÐ»ÑĭÒĽ":1201,"Ð´ÑĭÒĽÑĤÐ°Ð½":1202,"ĠÐľÒ±":1203,"ÑĥÑĤ":1204,"ĠÑħÐ°Ð±Ð°ÑĢÐ»":1205,"Ġ9":1206,"ÑĤÐ°ÑĢÐ´ÑĭÒ£":1207,"ĠÐºÑĸÑĢ":1208,"ĠÐ½ÐµÐ³ÑĸÐ·Ð³Ñĸ":1209,"Ð°ÑĤÑĭÐ¿":1210,"ĠÐ¾ÑĢÐ½Ð°Ð»":1211,"ĠÐ¤":1212,"Ð¼ÐµÑĤ":1213,"ÐµÑĢÑģ":1214,"ĠÑģÐ°Ð¿":1215,"ÒĽÑĭÐ½":1216,"ÑģÐ°Ñĥ":1217,"ĠÐ´ÐµÐ½":1218,"ĠÐºÐµÑĪ":1219,"ĠÐ¶Ñĸ":1220,"ĠÑĤÐ°Ñĥ":1221,"ĠÐ¼ÓĻÐ»ÑĸÐ¼":1222,"ÒĵÐ°Ñĥ":1223,"in":1224,"ĠÐµÐ½Ð³ÑĸÐ·":1225,"ĠÑĢÐµÑģ":1226,"ĠÐ¶ÐµÐ»":1227,"Ġ200":1228,"ĠÑģÐ°Ñĥ":1229,"ÑĥÑĪÑĭ":1230,"ĠÐ¼Ð¸Ð½Ð¸ÑģÑĤÑĢ":1231,"ĠÐ°ÑĢÑĤ":1232,"ĠÐ¼ÐµÑĢ":1233,"ĠÐ¾Ð¹ÑĭÐ½":1234,"Ð¶Ð°Ð½":1235,"Ð¾Ð·":1236,"ĠÐŀÑģÑĭ":1237,"ĠÐ°Ð»Ð´":1238,"ĠÓ©Ò£":1239,").":1240,"ÑģÑĭÐ»":1241,"ĠÐ°ÑĤÒĽÐ°ÑĢ":1242,"ĠÐ¾Ð½Ñĭ":1243,"Ð°Ð»Ð´Ñĭ":1244,"ĠÐ°Ð²":1245,"ÑĤÐ°ÒĵÑĭ":1246,"ĠÑĢÐµÑĤÑĸÐ½Ð´Ðµ":1247,"ÐºÐ°":1248,"Ð¾Ð´":1249,"ÐĴ":1250,"ĠÐłÐµÑģÐ¿ÑĥÐ±Ð»Ð¸ÐºÐ°ÑģÑĭ":1251,"ÐµÐ¼Ð»ÐµÐºÐµÑĤÑĤÑĸÐº":1252,"ÑĭÒĽÑĤÑĭ":1253,"ĠÐ¾ÑĢÐ½":1254,"Ò¯Ð½Ð¸":1255,"ĠÐ¼ÓĻÐ´ÐµÐ½Ð¸":1256,"ĠÑĤÐµÒ£Ð³Ðµ":1257,"Ð»ÐµÐºÑĤÑĢ":1258,"ĠÒĽÒ±ÑĢÐ°Ð¼":1259,"Ð°ÐºÑĤ":1260,"ĠÐ¼Ð°ÒĽÑģÐ°ÑĤ":1261,"ÒĽÐ¾ÑĢ":1262,"ĠÐ¾Ð±Ð»ÑĭÑģÑĭ":1263,"ĠÐ±Ð°ÑģÑĤÐ°Ð¿":1264,"Ð°Ð»ÑĭÒĽÑĤÐ°ÑĢ":1265,"Ġ/":1266,"ĠÐ´ÓĻÑĢ":1267,"ĠÐ¶ÐµÒ£":1268,"ĠÑĤÐ°Ð»Ð°Ð¿":1269,"ÑģÑĭÐ½Ð´Ð°":1270,"Ð´Ð¶":1271,"ĠÓ©ÑĤÑĤÑĸ":1272,"ĠÐ½ÓĻÑĤÐ¸Ð¶":1273,"ĠÐºÓ©ÑĢÑģÐµÑĤÑĥ":1274,"ĠÑĤÐ°Ð±ÑĭÐ»Ð°Ð´Ñĭ":1275,"ÑĭÒĵÑĭÐ½":1276,"ĠÒļÐł":1277,"Ð³ÑĸÐ»ÑĸÐº":1278,"ÐĲÒĽ":1279,"ĠÒĽÐ°Ð½Ð´Ð°Ð¹":1280,"ĠÐ±Ó©Ð»ÑĸÐ¼":1281,"Ð°ÑģÑĤÑĭ":1282,"ÐµÑĤÑĸÐ½ÑĸÒ£":1283,"ÑĭÐ¼Ð´Ñĭ":1284,"ĠÐĴ":1285,"Ð»Ð°ÑĢÐ´Ñĭ":1286,"ĠÒ±Ð»ÑĤÑĤÑĭÒĽ":1287,"ĠÐĨ":1288,"Ð´Ð°ÑĢÒĵÐ°":1289,"),":1290,"ĠÐ¼ÐµÐ´":1291,"ĠÐ±ÐµÐº":1292,"Ð¸ÑĨÐ¸Ñı":1293,"ĠÑģÑĭ":1294,"20":1295,"Ð°Ð½Ðº":1296,"ÑģÐµ":1297,"ĠÐ°Ð»Ð°Ð´Ñĭ":1298,"Ð°ÒĽÑĤÐ°ÑĢ":1299,"ÑģÑĤÑĸ":1300,"Ð¸Ð½Ð³":1301,"Ð¸ÑıÑģÑĭ":1302,"Ð´Ð°ÑĢÑĭÐ½":1303,"ĠÑĤÐ¾Ð»ÑĭÒĽ":1304,"ĠÐ¶Ò±Ð¼ÑĭÑģÑĤÐ°ÑĢ":1305,"ÑģÐ°ÑĤÑĭ":1306,"ĠÑģÐ¾Ð½Ð´Ð°Ð¹":1307,"ĠÓ©Ð½ÐµÑĢ":1308,"ĠÑĤÐ°Ñģ":1309,"ĠÑģÐ°Ð±Ð°ÒĽ":1310,"ĠÐ±Ð¾Ð»Ð¼":1311,"Ó©Ð¹":1312,"ĠÐ¾ÒĽÑĭÑĤÑĥ":1313,"Ò®":1314,"ĠÐ¼Ð»":1315,"ÑĭÑģÑĭÐ½Ð´Ð°":1316,"ĠÐºÐµÐ»ÐµÐ´Ñĸ":1317,"ÑģÑĸ":1318,"ĠÒ±ÑģÑĤ":1319,"ĠÐĲÒļ":1320,"ÑģÐ¸":1321,"ĠÐ¶Ð°ÑĤÑĭÑĢ":1322,"ĠÒļÐ°Ð·Ð°ÒĽ":1323,"ÐµÑĤÑĤÑĸÒ£":1324,"ÒĴ":1325,"ÐµÐ½ÑĸÒ£":1326,"ÐµÑģÑĸÐ½ÑĸÒ£":1327,"Ð°Ð»Ð°ÑĢÐ´Ñĭ":1328,"ĠÐ°Ð²ÑĤ":1329,"ĠÐºÑĸ":1330,"Ð¾ÑĢÑĭ":1331,"ĠÐķÐ»":1332,"ĠÒļÐ°ÑĢ":1333,"Ð°Ð»ÑĭÒĵ":1334,"Ò¯Ð»":1335,"ÐµÑĢÐ¸Ð°Ð»":1336,"âĢĵ":1337,"ĠÐ¶ÐµÑĤÐºÑĸÐ·":1338,"Ð°ÒĵÐ°ÑĤ":1339,"ĠâĢľ":1340,"Ð¼Ð°Òĵ":1341,"ĠÐ¶Ð°ÒĽÑģÑĭ":1342,"ÑĭÐ½Ð´Ð°Ñĥ":1343,"ĠÐ±ÐµÑĤ":1344,"Ð»ÐµÑĢÑĸ":1345,"ĠÐ¾ÑĤ":1346,"ĠÒ¯Ð»ÐºÐµÐ½":1347,"Ð½ÐµÐ½":1348,"ĠÐ¶Ð¸":1349,"ĠÐ°Ð»Ð´Ñĭ":1350,"ĠÐ±ÑĸÑĢÑĸ":1351,"ĠÒĵÑĭÐ»ÑĭÐ¼Ð¸":1352,"ĠÒĽÐ¾ÑĢÒĵÐ°Ñĥ":1353,"Ð½Ð°Ð¼":1354,"ÐµÐ½Ñĸ":1355,"Ð°Ð¹ÑĤÑĭÐ½":1356,"Ð»ÑĭÒĵÑĭ":1357,"ĠÒĽÐ°Ð·":1358,"ĠÓĻÐ¹":1359,"ĠÐ¶Ó©Ð½ÑĸÐ½Ð´ÐµÐ³Ñĸ":1360,"Ð½Ð¸Ð²":1361,"ĠÂ»":1362,"Ð´ÐµÐ±Ð¸":1363,"Ð¤":1364,"Ð°Ð»Ð°":1365,"Ð¸Ð¹":1366,"Ð°ÑĤÑĭÐ½Ð°Ñģ":1367,"ÑĤÒ¯ÑģÑĤÑĸÐº":1368,"ĠÑĤÒ¯ÑĢÐ»Ñĸ":1369,"ĠÑģÑĭÐ½ÑĭÐ¿":1370,"Ð½Ð°":1371,"ĠÐ±Ò±ÑĢÑĭÐ½":1372,"Ð½Ð¸Ð²ÐµÑĢÑģ":1373,"ÒĵÑĭÐ·":1374,"iÐº":1375,"ĠÑħÐ°Ð»":1376,"ĠÒĽÒ±ÑĢÐ°Ð»":1377,"ĠÑģÐ°ÒĽÑĤÐ°Ñĥ":1378,"Ð»Ð°Ñģ":1379,"ĠÓ©Ð½Ð´ÑĸÑĢ":1380,"Ð´Ð°Ð¿":1381,"ĠÐºÐµÐ»ÑĸÑģ":1382,"Ð¿ÐµÑĢ":1383,"ĠÐ¾ÒĽÑĥÑĪÑĭÐ»Ð°ÑĢ":1384,"Ð°Ð»Ð°ÑĢÐ´ÑĭÒ£":1385,"Ð´ÑĸÐ³Ñĸ":1386,"ÑģÐº":1387,"ÑĤÐ°ÑĢÐ´Ñĭ":1388,"ĠÐĽ":1389,"ĠÐºÐµÐ·ÑĸÐ½Ð´Ðµ":1390,"ĠÐºÒ¯ÑĪ":1391,"ĠÓĻÑĢÑĸ":1392,"ÑģÑĥ":1393,"ĠÐ±Ð¾Ð»ÑĥÑĭ":1394,"Ð´ÑĸÑĢÑĥ":1395,"Ð¼ÑĭÐ·":1396,"ÑĬ":1397,"ÑĤÐµÑĢÐ´ÑĸÒ£":1398,"ĠÑĤÐ°Òĵ":1399,"ĠÐ°ÑĤÑĭÐ½Ð´Ð°ÒĵÑĭ":1400,"ĠÒĽÐ°ÑĢÑģÑĭ":1401,"an":1402,"ĠÐŃ":1403,"Ġ15":1404,"ĠÑħÐ°Ð»ÑĭÒĽÐ°ÑĢÐ°Ð»ÑĭÒĽ":1405,"ÑĭÑģÒĽÐ°":1406,"ĠÐ¼ÐµÑĢÐ·":1407,"Ð½Ð¸Ð²ÐµÑĢÑģÐ¸ÑĤ":1408,"ÑĭÐ»Ð°ÑĤÑĭÐ½":1409,"Ð±Ñĸ":1410,"ÑĸÑģÑĤÐµÑĢ":1411,"Ð»ÑĸÐ³Ñĸ":1412,"ĠÐºÒ¯ÑĢ":1413,"ĠÐ¶Ò¯ÑĢÐ³ÑĸÐ·Ñĥ":1414,"ÑģÑĤÐ¸":1415,"ĠÐŁÑĢÐµÐ·Ð¸":1416,"ÑİÐ´Ð¶":1417,"Ð°ÒĽÑĭÐ»Ð°Ñĥ":1418,"ĠÑģÐµÐ±":1419,"ÑĢÐ¸":1420,"Ð°ÑĤÑĥ":1421,"ĠÑĸÑģÐºÐµ":1422,"ĠÐºÓ©ÑĤÐµÑĢ":1423,"ĠÐ·ÐµÑĢÑĤÑĤÐµÑĥ":1424,"ÑĤÐ°ÑĢÑĭÐ½":1425,"ĠÐ¼Ò¯Ð¼ÐºÑĸÐ½Ð´ÑĸÐº":1426,"ÑĤÐ°Ð´Ñĭ":1427,"ĠÐ±ÐµÑĢÐµÐ´Ñĸ":1428,"ÑĸÐ»ÑĸÐ¼":1429,"ÐºÑĸÐ½ÑĪÑĸ":1430,"ĠÐºÓ©Ð»ÐµÐ¼":1431,"ÑĥÐµÐ»":1432,"ĠÓĻÐ½":1433,"ĠÒĽÑĭÐ»":1434,"ÑģÐºÐµÑĢ":1435,"ÐµÑĪÐµ":1436,"ĠÒĽÑĥ":1437,"ÑĥÑĢÑģ":1438,"ÒĽÐ°Ñĥ":1439,"ÐºÑĨÐ¸Ñı":1440,"ĠÑĤÓ©Ð¼ÐµÐ½":1441,"ĠÐ´Ò¯Ð½Ð¸":1442,"ÐŃ":1443,"ÑĪÑĸÑģÑĸ":1444,"ÑĪÑĭÐ»ÑĭÒĵÑĭ":1445,"ĠÐ±Ð°ÑģÑĤÑĭ":1446,"ÐĲÐł":1447,"ĠÐ¾ÑĢÐ½Ð°Ð»Ð°Ñģ":1448,"ÐĳÒ±Ð»":1449,"ÐµÑĦ":1450,"ĠÐ°Ð»ÒĵÐ°ÑĪ":1451,"ÑģÑĸÐ·Ð´ÑĸÐº":1452,"ĠÐ¼Ð°ÑĤÐµÑĢÐ¸Ð°Ð»":1453,"ĠÐ±Ò¯Ð³ÑĸÐ½":1454,"ÒĵÑĭÑģ":1455,"ĠÐĲÐ¹":1456,"ĠÑģÐ¾ÑĤ":1457,"ĠÑĤÐµÐ»":1458,"iÐ»":1459,"ĠÐ£":1460,"Ð°ÒĽÑĭ":1461,"ĠÐ¶Ð°ÑĢÐ¸Ñı":1462,"ĠÒĽÐ°Ð¹ÑĤÐ°":1463,"ĠÒĽÐ°Ð»Ð°Ð¹":1464,"ĠÐ°Ð»ÑĭÐ½":1465,"Ð±Ð°ÑģÑĭ":1466,"ĠÒĽÐ°ÑĥÑĸÐ¿":1467,"ĠÑĤÒ¯ÑĢÐ´Ðµ":1468,"ĠÐĿÒ±ÑĢ":1469,"Ò±ÑĢÑĭÑģ":1470,"ĠÐ±Ð°ÑģÑĪÑĭÑģÑĭ":1471,"ÑĭÑĢÑĤ":1472,"ÑĤÐµÑĢÑĸÐ½":1473,"ÑĭÑģÑĤÑĭÑĢ":1474,"ÑĢÐ°Ð¼":1475,"ĠÒĽÐ°Ð»Ð°ÑģÑĭ":1476,"ĠÐ¿ÓĻÐ½":1477,"Ð°Ð¹Ð´Ð°":1478,"ĠÐ°ÑĢÐ°ÑģÑĭÐ½Ð´Ð°":1479,"ÐºÐµÑĥ":1480,"ĠÐ´ÐµÐ´Ñĸ":1481,"ÑģÐ¸Ñı":1482,"ĠÑģÐ¿Ð¾ÑĢÑĤ":1483,"ĠÐ°ÑĥÐ´Ð°Ð½Ñĭ":1484,"Ð¶ÑĸÑĢ":1485,"Ð°ÑĢÐ°Ð¿":1486,"ĠÒ°Ð»":1487,"ĠÒĽÐ°Òĵ":1488,"ĠÐµÑĪ":1489,"Ð¸Ð·Ð¼":1490,"Ð¼ÑĭÐ½":1491,"ÐµÐ¹ÑĤÑĸÐ½":1492,"ĠÒĽÐ°Ñģ":1493,"ĠÐ¼ÐµÐºÐµÐ¼":1494,"ĠÐ°Ð»Ð¼":1495,"ĠÐºÑĸÑĤÐ°Ð¿":1496,"ÑĭÐ»ÑĭÐ¿":1497,"ÒĽÑĤÑĭ":1498,"ÑĸÐºÑĸÑĢ":1499,"ÑĤÑĸÐ¿":1500,"Ò£Ð³":1501,"ĠÐ¾Ð±Ð»ÑĭÑģÑĤÑĭÒĽ":1502,"Ð°Ð»Ð°ÑĢÑĭÐ½":1503,"ĠÐ¼ÓĻÐ½":1504,"ĠÐ³Ð°Ð·":1505,"ÑģÑĤÐ¸ÑĤÑĥ":1506,"ÑĤÐµÐ´Ñĸ":1507,"ĠÐ°ÑĥÑĢÑĥ":1508,"ÑĤÐµÑĢÐ´Ñĸ":1509,"ÑĸÑģÑĤÑĸ":1510,"or":1511,"ĠÓĻÐ´ÐµÐ±Ð¸":1512,"ĠÑģÑĸÐ·":1513,"Ð¼Ð¸":1514,"ĠÐ°ÑĤÑĤÑĭ":1515,"Ð°Ð·Ð°ÑĢÐ±Ð°ÐµÐ²":1516,"Ò±Ð»Ñĭ":1517,"ĠÑĤÓ©ÑĢ":1518,"ĠÐ´ÐµÐ¹Ð´Ñĸ":1519,"ĠÐ±ÑĸÑĢÑĸÐ½ÑĪÑĸ":1520,"ĠÐĳÐ°Ñģ":1521,"Ð±Ð¾Ð»":1522,"ĠÐ¼Ò±Ð½":1523,"ĠÐĲÑĢ":1524,"ÑģÑĤÐµÑĢ":1525,"Ġ0":1526,"ÑĤÐºÐµÐ½":1527,"ÑĸÐ»ÑĸÐ³Ñĸ":1528,"ÐµÑģÑĸÐ½Ð´Ðµ":1529,"Ð¶ÑĸÑĢÐ¸":1530,"ĠÐ±Ð°ÑģÒĽÐ°ÑĢÑĥ":1531,"ĠÐ±ÑİÐ´Ð¶":1532,"Ð»Ð°Ð¹":1533,"ĠÑĸÐ·":1534,"ĠÐ°ÑģÑĭÑĢÑĥ":1535,"Ð¸ÑĨÐ¸Ð½":1536,"ĠÐ±Ð°ÒĽÑĭÐ»Ð°Ñĥ":1537,"ĠÐ±ÐµÐ»Ð³ÑĸÐ»Ñĸ":1538,"ĠÐ¼Ð°Ò£ÑĭÐ·Ð´Ñĭ":1539,"Ð¸Ð´":1540,"Ð°ÑĤÑĤÑĭÒĽ":1541,"ĠÑĤÐ¸ÑĸÑģ":1542,"ÐµÑģÐµÐ¹":1543,"Ð±ÑĬ":1544,"Ð´ÐµÑĢÑĸÐ½":1545,"ÒļÐ°Ð·Ð°ÒĽ":1546,"ÑģÑĸÐ½":1547,"ĠÐ¶Ð°ÒĵÐ´Ð°Ð¹Ð´Ð°":1548,"ĠÐ¡Ð¾Ð»":1549,"Ð·ÑĸÑĢ":1550,"Ð°Ð»Ð°Ð´Ñĭ":1551,"ĠÒ±Ð¹ÑĭÐ¼Ð´Ð°ÑģÑĤÑĭÑĢÑĥ":1552,"ĠÐ¾Ò£":1553,"ĠÑįÐ»ÐµÐºÑĤÑĢ":1554,"Ð»Ð°ÑĢÑĭÐ½":1555,"ĠÐ¿Ð°Ð¹Ð´Ð°":1556,"ÒĵÑĭÐ»":1557,"ÒĵÐ½Ð¸":1558,"Ð¸ÑĦ":1559,"Ð³ÑĸÐ»ÑĸÐºÑĤÑĸ":1560,"Ð°ÑģÑĭÑĢ":1561,"10":1562,"ÑĪÐ°ÑĢ":1563,"Ð¼Ò±":1564,"ĠÐ°Ð¹ÑĤÑĥ":1565,"ĠÓ©ÐºÑĸÐ»":1566,"ĠÑįÐºÐ¾Ð½Ð¾Ð¼Ð¸ÐºÐ°Ð»ÑĭÒĽ":1567,"ĠÓĻÑģÐµÑĢ":1568,"ĠÑģÐ°ÑĤÑĭÐ¿":1569,"ĠÑĪÐµÐº":1570,"ĠÐ°ÑĤÐ°":1571,"ĠÐķÑĢ":1572,"ÐµÐ´Ð°Ð³":1573,"ĠÒ±ÑĢ":1574,"ÑĤÑĥÐ´ÐµÐ½ÑĤ":1575,"Ð°ÑĥÑĢ":1576,"ÑĭÑĤÑĭÐ½Ð´Ñĭ":1577,"ÑĥÐ¼":1578,"Ð±ÑĭÐ»":1579,"Ð¾ÑĢÑĭÐ½":1580,"ÐµÐ´Ð°Ð³Ð¾Ð³":1581,"ĠÑĤÐ¾ÒĽ":1582,"ĠÓĻÐ¹ÐµÐ»":1583,"Ð¿Ð°Ð½Ð¸Ñı":1584,"ĠÒĽÐ¾ÒĵÐ°Ð¼Ð´ÑĭÒĽ":1585,"er":1586,"ĠÒĽÑĭÐ·Ð¼ÐµÑĤÑĤÐµÑĢ":1587,"ÐĲÐĿ":1588,"ĠÐ±Ð°ÑģÒĽÐ°ÑĢÐ¼":1589,"ĠÑĤÐµÑħÐ½Ð¾Ð»Ð¾Ð³Ð¸Ñı":1590,"Ð±ÑĬÐµÐºÑĤ":1591,"âĢ¦":1592,"Ð°Ð»ÑĭÒĵÑĭ":1593,"ĠÐ¼Ò±ÒĵÐ°Ð»":1594,"ĠÑģÓ©Ð¹":1595,"ĠÐ±Ð°ÑĢÑĭÑģÑĭÐ½Ð´Ð°":1596,"ĠÑı":1597,"ĠÒĽÑĭÑĢ":1598,"ĠÐ±Ð¾Ð»Ñĥ":1599,"ÑĤÐ°Ð»Ð´Ñĭ":1600,"ĠÑĦÐ¸Ð»":1601,"ĠÐŀÑĢ":1602,"Ð½ÐµÑĢ":1603,"ĠÐ°ÑĥÐ´Ð°ÑĢ":1604,"ĠÐ´Ð°Ð¹ÑĭÐ½":1605,"ĠÐ±ÑĸÑĢÐ³Ðµ":1606,"ĠÐµÑģÐºÐµÑĢ":1607,"ĠÐĲÑģÑĤÐ°Ð½Ð°":1608,"Ð°Ò£Ð°":1609,"Ð°Ð½Ð´":1610,"ÑĤÐµÐ»":1611,"ĠÑģÑĭÐ¹":1612,"ĠÒ±Ð·":1613,"ĠÐŀÐ½ÑĭÒ£":1614,"ĠÐ±Ð°Ð»Ð°":1615,"ĠÑĥÐ½Ð¸Ð²ÐµÑĢÑģÐ¸ÑĤ":1616,"ÐµÑĤÑĢ":1617,"ĠÑģÑĥÑĢ":1618,"ĠÓ©Ð·ÑĸÐ½ÑĸÒ£":1619,"Ġ12":1620,"ĠÐ¿Ð°Ð¹Ð´Ð°Ð»Ð°Ð½Ñĥ":1621,"ÑĢÐ°ÑĦ":1622,"ÐµÑĤÑĤÐµ":1623,"ĠÑģÐ°Ð½Ñĭ":1624,"ĠÑĸÑĢ":1625,"Ð´ÐµÑĢÐ´ÑĸÒ£":1626,"Ð°Ð»ÑĮ":1627,"ÐµÑģÑĸÐ½Ðµ":1628,"ĠÓĻÑĢÐµÐº":1629,"ĠÑĤÐ°Ð¼":1630,"ÐµÐ½Ð³ÐµÐ½":1631,"ĠS":1632,"ĠÑĤÑĸÐ»Ñĸ":1633,"ĠÒĽÐ°ÑĢÐ°Ð¹":1634,"ĠÑĤÒ±Ð»Òĵ":1635,"ĠÓ©Ð·ÑĸÐ½":1636,"ÒĵÐ°ÑĢ":1637,"ÒĵÐ°Ð¹":1638,"ĠÒ¯Ð¹ÑĢ":1639,"ĠÐĳÑĸÐ·":1640,"ĠÐ°ÑĢÐ½Ð°Ð¹Ñĭ":1641,"Ð»Ð°":1642,"Ð´ÐµÑĢÐ´Ñĸ":1643,"ĠÐ±Ð°Ð½Ðº":1644,"ÑĥÐ·":1645,"ÑĢÐ¾":1646,"ĠÑģÒ¯Ð¹":1647,"ĠÐ±Ò±Ð·":1648,"ÐĲÒļ":1649,"ÑĸÑģÑĤÑĸÐº":1650,"ĠÑĪÐ°ÒĽÑĭÑĢ":1651,"ĠÐ½ÑĭÑģ":1652,"ÑĤÐ°Ð½Ð´ÑĭÑĢÑĥ":1653,"ĠÐ¿ÑĢÐ¾ÑĨ":1654,"Ð³ÑĸÐ½Ðµ":1655,"ĠÐºÐ¾Ð¼Ð¼":1656,"ÑĢÐ°ÑĤ":1657,"Ð·Ð¸Ñı":1658,"Ġ2018":1659,"ĠÐ°ÑıÒĽ":1660,"ÑĸÐ¼ÑĸÐ·Ð´ÑĸÒ£":1661,"Ġ18":1662,"ĠÐ´ÑĸÐ½":1663,"ĠÐĳÑĸÑĢÐ°ÒĽ":1664,"ĠÒĽÑĭÐ·Ð¼ÐµÑĤÐºÐµÑĢÐ»ÐµÑĢ":1665,"ÐĲÐĽ":1666,"ĠÓ¨Ð·":1667,"ÑģÐ°ÒĽ":1668,"ĠÑģÐ¾Ò£ÒĵÑĭ":1669,"ĠÑĪÐµÑĤ":1670,"Ð´ÐµÐ½ÑĤÑĸ":1671,"Ò»":1672,"ÑĤÐµÐ³ÐµÐ½":1673,"Ð´Ð°Ñģ":1674,"ĠÒĽÒ±Ð¶Ð°ÑĤÑĤÐ°ÑĢ":1675,"ĠÐ¿Ð°ÑĢ":1676,"ÑĤÓ©":1677,"ĠÑħÐ°Ð±Ð°ÑĢÐ»Ð°Ð¹Ð´Ñĭ":1678,"ĠÐ±ÑĸÐ·Ð´ÑĸÒ£":1679,"ĠÑĤÐ°Ð±Ð¸Òĵ":1680,"ĠÒĽÐ°Ð»Ð°":1681,"ĠÐ¶ÑĸÐ±ÐµÑĢ":1682,"Ð»ÐµÑĥ":1683,"Ġ...":1684,"ĠÐ±ÐµÐ»Ð³ÑĸÐ»":1685,"ĠÑĤÐ°ÒĽÑĭÑĢÑĭÐ±":1686,"ĠÒĽÐ°Ð»ÑĭÐ¿ÑĤ":1687,"Ò¢":1688,"Ð½ÐµÑĪÐµ":1689,"Ð°ÑĥÑĭ":1690,"Ġ,":1691,"Ð°Ð½Ð´Ñĭ":1692,"ĠÐ´Ò±ÑĢÑĭÑģ":1693,"ĠÐ¼Ò¯ÑĪ":1694,"ĠÐ¾ÑĤÑĭÑĢÒĵÐ°Ð½":1695,"ĠÑĤÑĸÐ·":1696,"ĠÐ¸Ðµ":1697,"ĠÑĤÐµÐºÑģÐµÑĢ":1698,"ĠÑģÐ¸Ñı":1699,"ĠÑĤÐ¸ÑĸÐ¼Ð´Ñĸ":1700,"ÐµÑģÐ¿ÑĥÐ±Ð»Ð¸ÐºÐ°Ð»ÑĭÒĽ":1701,"ÑĸÑĢÑĥ":1702,"ÒĽÑĭÐ·":1703,"ÑĥÑĸÑĢ":1704,"ĠÒĽÑĭÐ·Ð¼ÐµÑĤÑĸ":1705,"ĠÒĽÐ¾Ð½":1706,"ĠÐºÓ©Ð¼ÐµÐº":1707,"ĠÐ¶Ð°Ð±":1708,"ĠÑģÐ¸Ð¿":1709,"ÑĤÑĤÐ°ÑĢ":1710,"ĠÐ½Ð°ÒĽÑĤÑĭ":1711,"Ð°ÑĤÑĭÐ»":1712,"Ġ11":1713,"ÑĭÐ»ÑĭÒĽ":1714,"ĠÒĽÐ¸":1715,"ĠÓ©Ð·Ñĸ":1716,"Ġ2017":1717,"ĠÐ¼Ðµ":1718,"ÐºÑĸÑĪ":1719,"ÑģÐ¿":1720,"ĠÐ´ÐµÐ¼":1721,"Ð²ÐµÑģÑĤ":1722,"ĠÐ·Ð°Ð¼Ð°Ð½":1723,"ÑģÑĤÐµÐ¼":1724,"ĠÐ¼ÓĻÑģÐµÐ»ÐµÐ»ÐµÑĢ":1725,"ĠÑĪÑĭÒĽ":1726,"ĠÑĪÑĭÐ½":1727,"ĠÒĽÐ¾ÑĢÑĭÑĤÑĭÐ½Ð´Ñĭ":1728,"ÐºÐµÑĢÐ»ÑĸÐº":1729,"ĠÑģÐ¸ÑıÒĽÑĤÑĭ":1730,"ĠÐ¼Ð°ÒĽÑģÐ°ÑĤÑĭ":1731,"Ð´i":1732,"ĠÐ¾Ð±Ð»ÑĭÑģÑĭÐ½ÑĭÒ£":1733,"ÐºÒ¯Ð¹":1734,"ĠÐµÐºÐµÐ½ÑĸÐ½":1735,"Ð°ÑĤÐ¸Ð²":1736,"ĠÐ¼ÐµÐ¼Ð»ÐµÐºÐµÑĤ":1737,"ĠÑĤÓĻÐ¶ÑĸÑĢÐ¸":1738,"ĠÐ±ÑĸÐ»Ð´ÑĸÑĢ":1739,"ĠÐ¾ÑĢÐ½Ð°Ð»Ð°ÑģÒĽÐ°Ð½":1740,"ĠÓ©Ð·Ð³Ðµ":1741,"Ð³ÑĸÐ½Ð´Ðµ":1742,"Ò±Ñģ":1743,"ĠÐ°ÐºÑĤ":1744,"Ð°ÑĥÑĢÑĭÐ·":1745,"ÑĤÑĤÑĭ":1746,"ĠÓ©Ò£ÑĸÑĢ":1747,"ĠÒ¯Ð·":1748,"ĠÐ¿ÑĸÐºÑĸÑĢ":1749,"ĠÐ·Ð°Ò£Ð´Ñĭ":1750,"ÐµÐºÑĤÑĸ":1751,"ĠÐºÐµÐ¼":1752,"ĠÐ°ÑĪÑĭÐ»":1753,"ĠÐŀÒĽ":1754,"ĠÒļÐ¾":1755,"ĠÐ¼ÐµÐ´Ð¸ÑĨÐ¸Ð½":1756,"ĠÐ°ÑĤÐ°Ð¿":1757,"ĠÐļÓ©":1758,"Ð½Ð¾":1759,"ÑĥÑĭÐ½":1760,"ĠÐ¶ÐµÐ¼":1761,"ĠÐ±ÓĻÑĢ":1762,"Ð°ÑĤÐµÐ³":1763,"ĠÒ±ÑĪ":1764,"ÑģÐµÐ½":1765,"ĠÐµÐºÑĸÐ½ÑĪÑĸ":1766,"ĠÒ°Ð»ÑĤÑĤÑĭÒĽ":1767,"ĠÐłÐµÑģÐµÐ¹":1768,"ĠÑģÑĤÑĥÐ´ÐµÐ½ÑĤ":1769,"ĠÒĵÐ°ÑģÑĭÑĢ":1770,"ÑĥÐ»ÑĮ":1771,"ĠÐµÑĢÐµÐºÑĪ":1772,"ĠÐľÐµÐ¼Ð»ÐµÐºÐµÑĤÑĤÑĸÐº":1773,"Ò¯Ð½":1774,"ĠÑĢÑĥ":1775,"ĠÒĽÐ¾Ð·":1776,"ÐµÐ±Ñĸ":1777,"Ð¸Ð·Ð½":1778,"ĠÒļÐ°Ð·Ð°ÒĽÑģÑĤÐ°Ð½Ð½ÑĭÒ£":1779,"ÑĸÐºÑĤÑĸ":1780,"ÑĪÑĭÐ»Ð°ÑĢÑĭ":1781,"ĠÐºÐ»":1782,"ĠÒĽÒ±Ð½":1783,"ÑĸÐ»ÑĸÐ¿":1784,"ÐºÐµÐ¼":1785,"ÑĤÐ¾ÒĽ":1786,"ĠÐ°Ð¹ÑĤÒĽÐ°Ð½":1787,"Ð´ÑĸÐ³ÑĸÐ½":1788,"ĠÒĽÐ°Ð»ÒĵÐ°Ð½":1789,"ÑĥÑĭÐ½Ð°":1790,"ĠÐ¼Ð»Ð½":1791,"Ð¿Ð°Ñģ":1792,"di":1793,"ÑģÐ¸Ñħ":1794,"ĠÐ¿Ð°Ð¹ÑĭÐ·":1795,"ÑĤÐµÐ¼":1796,"Ð´ÐµÑĢÑĸÐ½ÑĸÒ£":1797,"Ð°Ð»ÑĭÐ¼":1798,"ĠÐ°Ð´Ð°Ð¼Ð½ÑĭÒ£":1799,"ĠÐºÓ©Ò£":1800,"ÑĥÐ´Ð°":1801,"Ò±Ð»ÑĤÐ°Ð½":1802,"ĠÐ°Ð·Ð°Ð¼Ð°ÑĤÑĤÐ°ÑĢ":1803,"Ð¡Ð¾Ð½":1804,"ĠÐºÐ¸":1805,"ÉĻ":1806,"Ð¸Ð»Ð»":1807,"ĠÐºÒ¯Ð¹":1808,"Ð¾ÑĢÐ´Ð°":1809,"ĠÐ°Ð¹ÑĭÑĢ":1810,"Ð¸Ð´Ðµ":1811,"ĠÐµÑĢÐµÐºÑĪÐµ":1812,"ĠÐ±ÑĸÑĢÐ½ÐµÑĪÐµ":1813,"ÑĸÐ³Ñĸ":1814,"Ð°ÐµÐ²":1815,"ĠÒĴ":1816,"ĠÐ¶ÐµÑĢÐ³ÑĸÐ»ÑĸÐºÑĤÑĸ":1817,"Ð¿Ð°ÒĽ":1818,"Ð°ÑĤÑĥÑĢ":1819,"ÑģÑĤÒ¯ÑĢ":1820,"ĠÑĤÐ°ÒĵÑĭ":1821,"ĠÐ½Ð°ÑĢ":1822,"ĠÑĪÑĭÒĵÐ°ÑĢÐ¼Ð°":1823,"ÐµÐ»ÐµÑĥ":1824,"ÑģÑĤÑĢ":1825,"ÐĻ":1826,"Ð°ÑıÐ½":1827,"Ò±ÒĽ":1828,"Ð¿Ð°Ð¹":1829,"Ð°ÑĢÐ»ÑĭÒĽ":1830,"ĠÐ¶Ò¯ÑĢÐ³ÐµÐ½":1831,"ĠÐ¾ÒĵÐ°Ð½":1832,"ĠÐµÑĤÐµÐ´Ñĸ":1833,"ĠÒļÑĭÐ·":1834,"ÐµÐ³ÑĸÐ·":1835,"ĠÐ¿Ð¾ÑĢ":1836,"ĠA":1837,"ÑĤÐ¾ÒĽÑģÐ°Ð½":1838,"ĠÒĽÐ°Ð·ÑĸÑĢÐ³Ñĸ":1839,"Ġ25":1840,"ĠÐ´ÓĻÐ»":1841,"Ð°Ð¼Ð°":1842,"ĠÑģÐ°ÒĵÐ°ÑĤ":1843,"ÑģÐ°ÑĥÐ»ÑĭÒĽ":1844,"ĠÐ¡Ð¾Ð½Ð´ÑĭÒĽÑĤÐ°Ð½":1845,"Ð°Ð²Ð»":1846,"ĠÐĹÐ°Ò£":1847,"ĠÑĤÐ°Ð¿ÑģÑĭÑĢÐ¼":1848,"Ð¾Ò£":1849,"ĠÒ±Ð¹ÑĭÐ¼Ð´Ð°ÑģÑĤÑĭÑĢ":1850,"ĠÐ¼Ò±ÑĢ":1851,"st":1852,"âĢĶ":1853,"ĠÐ¼Ð°":1854,"ĠÐ°Ð»ÒĵÐ°ÑĪÒĽÑĭ":1855,"ĠÐ½ÑĭÑģÐ°Ð½":1856,"ÐºÐ¾Ð½Ð¾Ð¼":1857,"ĠÐŀÐ»Ð°ÑĢ":1858,"ĠÐºÐµÐ»ÑĸÐ¿":1859,"ĠÐ°ÑıÑģÑĭÐ½Ð´Ð°":1860,"ĠÑĤÒ±ÑĢÒĵÐ°Ð½":1861,"ĠÐºÐµÐ»ÑĤÑĸÑĢ":1862,"ÓĻÐ»":1863,"ĠÒĽÐ°ÑĤÑĭÐ½Ð°Ñģ":1864,"ÑĨÐ¸ÑıÐ»ÑĭÒĽ":1865,"le":1866,"ĠÒĽÐ°ÑĢÐ°":1867,"ÓĻÑģÑĸ":1868,"ÐµÑĤÑĥ":1869,"ÐĳÑĸÑĢ":1870,"ĠÓ©ÑĤÑĸÐ½":1871,"ĠÐ¼ÐµÐºÐµÐ½":1872,"Ð´ÐµÐ¿":1873,"11":1874,"ĠÐĿÐ°Ð·Ð°ÑĢÐ±Ð°ÐµÐ²":1875,"ĠÑģÐµÑĢ":1876,"Ð±Ð°ÑĤ":1877,"ĠÓ©ÑĢ":1878,"ÑĤÐ°ÑĢÒĵÐ°":1879,"ÐµÐ»ÐµÐ½":1880,"ĠÒĽÐ¾Ð»Ð´Ð°Ñĥ":1881,"ÑģÑĭÐ¼":1882,"ĠÐ°ÑĢÐ°ÑģÑĭÐ½Ð´Ð°ÒĵÑĭ":1883,"Ġ199":1884,"Ó©Ð»ÑĪ":1885,"ĠÑģÑĤÐ°Ð½":1886,"ÑĪÑĭÐ½":1887,"ĠÐ¼ÐµÑĢÐµÐº":1888,"ĠÑģÒ¯ÑĢ":1889,"ĠÐ±ÑĸÑĢÐ»":1890,"ĠÑħÐ°Ð»ÒĽ":1891,"ĠÑĢÐµÑģÐ¼Ð¸":1892,"ĠÐ¼Ð°ÒĽÑģÐ°ÑĤÑĭÐ½Ð´Ð°":1893,"ÑģÑĭÐ½Ð´Ð°Ð¹":1894,"on":1895,"Ġ:":1896,"ĠÒĽÐ°ÑģÐ¸":1897,"Ð»ÑĭÒĵ":1898,"ÑĭÑģÑĭÐ½ÑĭÒ£":1899,"ĠÒļÐ°Ð·":1900,"Ð»Ð°Ð½ÒĵÐ°Ð½":1901,"ĠÓĻÑģÐºÐµÑĢ":1902,"Ð»ÑĮ":1903,"Ġ14":1904,"Ġ30":1905,"Ð´Ð°ÑĢÑĭÐ½Ð°":1906,"ĠÒĽÐ°Ð±ÑĸÐ»":1907,"ÑĥÑģ":1908,"ĠÐ¾Ðº":1909,"ĠÐºÐ¾Ð¼Ð¿Ð°Ð½Ð¸Ñı":1910,"Ð°ÑĪÐ°ÒĽ":1911,"ĠÒĽÐ°ÑĢÐ¶Ñĭ":1912,"ĠÑĤÒ±ÑĢÐ°ÒĽÑĤÑĭ":1913,"ĠÐ±Ð¾Ñģ":1914,"ĠÐ°Ð¹ÑĤÑĭÐ¿":1915,"Ð¼ÑĭÑģÑĤÑĭÒĽ":1916,"ĠÓĻÐ·ÑĸÑĢ":1917,"ar":1918,"ÐĲÐ¹":1919,"Ð´ÑĭÒĵÑĭ":1920,"ÑĦÐµÑĢ":1921,"ĠÑģÐ°Ð¹ÑĭÐ½":1922,"ÐķÐł":1923,"ĠÐ±ÐµÑĢÐ´Ñĸ":1924,"ĠÐ°Ð´Ð°Ð¼Ð´Ð°ÑĢ":1925,"ÐµÐ¼ÑĸÐ·":1926,"18":1927,"Ð¸ÐµÐ²":1928,"Ð«ÐĿ":1929,"Ġ13":1930,"Ð¸ÑĢÐµÐºÑĤ":1931,"ĠÐĳÐ°Ð»":1932,"Ð¡Ð¢":1933,"ĠÑĭÒĽ":1934,"ĠÐ°Ð»ÑĥÒĵÐ°":1935,"ĠÐ°ÑĥÐ´Ð°Ð½Ð´ÑĭÒĽ":1936,"Ġ16":1937,"ĠÑĪÐµÑĪÑĸÐ¼":1938,"ĠÑģÐ°Ð»ÑĭÒĽ":1939,"Ð¸Ð³":1940,"ÑĭÑģÑĭÐ½":1941,"ĠÑĭÐ½":1942,"ĠÑĤÐ°ÑĥÐ°ÑĢ":1943,"ĠÐ¶Ð°Ò£Ð°Ð»ÑĭÒĽÑĤÐ°ÑĢ":1944,"ĠÐ°Ð»ÑĭÐ½ÒĵÐ°Ð½":1945,"iÐ¼":1946,"ÑħÐ°Ð½Ð¸":1947,"ĠÑĥÐ°ÒĽÑĭÑĤÑĤÐ°":1948,"ÑĤÐµÒ£":1949,"ÑĪÑĭÐ½ÑĭÒ£":1950,"ÑĤÐ°ÒĵÐ°Ð½":1951,"ÑĤÑĭÐ»ÒĵÐ°Ð½":1952,"ĠÐ±Ò¯":1953,"ÑĤÐµÑĢÐ³Ðµ":1954,"ÐµÐ»ÑĮ":1955,"ĠÐĲÑĥ":1956,"ÑĭÑģÑĤÐ°ÑĢÑĭ":1957,"12":1958,"ÑĸÐ¿ÑĤÑĸ":1959,"ww":1960,"ĠÑĸÑĪÐºÑĸ":1961,"ĠÑĤÑĥÒĵÐ°Ð½":1962,"ĠÓĺÑĢ":1963,"ĠÐ´ÐµÑĢÐµÐº":1964,"ĠÐ¼Ð°Ð·":1965,"ĠÐ¶ÑĭÐ»ÒĵÐ°":1966,"ĠÐ¿ÐµÐ´Ð°Ð³Ð¾Ð³":1967,"ĠÑģÐµÐ±ÐµÐ¿":1968,"ĠÐµÑĢÐµÐ¶":1969,"Ð¸Ðµ":1970,"ÑĥÐ±":1971,"ÐĲÐ»Ð¼Ð°ÑĤÑĭ":1972,"ÑģÐµÐ½Ð´Ñĸ":1973,"ĠÒĽÒ±ÑĢÑĭÐ»ÑĭÐ¼":1974,"2017":1975,"Ð°ÑĤÑĤÑĭÒ£":1976,"ĠÐ±Ð°ÒĵÐ°Ð»Ð°Ñĥ":1977,"ĠÐ¥Ð°Ð»ÑĭÒĽ":1978,"ĠÐ¢Ò¯ÑĢ":1979,"ĠÓĻÐºÑĸÐ¼Ñĸ":1980,"Ð°Ð»Ð¿Ñĭ":1981,"Ð¼Ðµ":1982,"ĠÐ¾ÐºÑĢÑĥ":1983,"ĠÐ¶ÑĭÐ»Ð´Ð°Ð½":1984,"ĠÒĽÐ°Ð±ÑĭÐ»Ð´Ð°Ñĥ":1985,"ÐµÑģÑģ":1986,"ĠÐºÓ©Ð»ÑĸÐº":1987,"ÑĭÑĤÐ°Ð¹":1988,"ĠÑģÐµÐ·":1989,"ĠÐ´ÐµÐ¹ÑĸÐ½Ð³Ñĸ":1990,"ÒĵÑĭÑĢ":1991,"ĠÒ¯ÑģÑĤ":1992,"ĠÐ°Ð³":1993,"ĠÐ°ÑĢÑĤÑĤÑĭÑĢÑĥ":1994,"ĠÐ°Ð¹Ð¼Ð°ÒĽ":1995,"ĠÐ¼ÐµÐºÑĤÐµ":1996,"ĠÐ¼ÑĭÐ½Ð°":1997,"ĠÐ°ÒĽÐ¿Ð°ÑĢÐ°ÑĤÑĤÑĭÒĽ":1998,"ÑĤÓ©Ð±Ðµ":1999,"Ð³i":2000,"ĠÐ¾Ð»Ð°ÑĢÐ´Ñĭ":2001,"Ð°ÑĥÑģÑĭÐ¼":2002,"ĠÐ±ÐµÐ¹Ð½":2003,"ÐµÑĤÑĤÐµÑĢÑĸ":2004,"Ð¼Ð¸Ð½":2005,"ĠÐ¿Ð¾Ð»":2006,"ĠÐľÓĻ":2007,"ĠÐ±Ò¯Ð³ÑĸÐ½Ð³Ñĸ":2008,"50":2009,"ĠÑģÐ¸Ð¿Ð°ÑĤ":2010,"ĠÐľÐµÐ½":2011,"en":2012,"ĠÐ°ÑģÑĤÐ°Ð¼":2013,"ĠÒļÒ±ÑĢ":2014,"ÒĵÑĭÐ¼":2015,"Ð°Ð¼ÐµÐ½":2016,"ÑĭÐ¼ÑĪÐ°":2017,"ĠÓ©Ð½ÑĸÐ¼":2018,"ĠÐºÐµÐ»Ðµ":2019,"Ġ17":2020,"Ð½ÐµÑĢÐ³":2021,"ĠÐ¾Ð´Ð°Ð½":2022,"ĠÐ¶ÐµÑĢÐ´Ðµ":2023,"it":2024,"ĠÒĽÐ°Ð»ÑĭÐ¿ÑĤÐ°Ñģ":2025,"ĠÐ¾ÑĢÑĭÐ½Ð±Ð°Ñģ":2026,"ÐķÐ»":2027,"ÐµÐ³Ñĸ":2028,"ÑĥÐ´Ñĭ":2029,"Ð²ÐµÑģÑĤÐ¸ÑĨÐ¸Ñı":2030,"Ð¼ÑĸÐ½":2031,"Ġ[":2032,"Ò£Ð³ÑĸÐ¼":2033,"ĠÒĽÐ°Ò£":2034,"ÐŀÑģÑĭ":2035,"ĠÐ±ÐµÑĢÐ³ÐµÐ½":2036,"ĠÐ¶Ð°Ð»Òĵ":2037,"ĠÐºÐµÐ»ÑĸÑģÑĸÐ¼":2038,"ÑĨÐ¸Ð¾Ð½":2039,"ĠÑıÒĵÐ½Ð¸":2040,"ĠÒĽÐ°Ð¶ÐµÑĤÑĤÑĸ":2041,"ĠÐºÐµÑĤÐºÐµÐ½":2042,"ĠÐ¼Ó©Ð»ÑĪ":2043,"ĠÐ¼Ð°Ð¼":2044,"ÑĤÐµÑĢÐ½":2045,"ĠÐºÓ©Ò£ÑĸÐ»":2046,"ĠÐ¾ÑĢÑĤÐ°Ð»ÑĭÒĽ":2047,"ĠÑģÑĭÑĢÑĤ":2048,"ĠÐ¾Ð½Ð´Ð°":2049,"ĠÒĽÐ°Ð»Ð°ÑģÑĭÐ½ÑĭÒ£":2050,"Ð¼ÐµÐº":2051,"ĠÑģÐµÐº":2052,"ĠÑĤÓ©ÑĢÐ°Òĵ":2053,"ĠÑģÐ°ÑıÑģÐ°ÑĤ":2054,"ĠÐ´Ð°Ñĥ":2055,"ĠÐ±ÐµÐ¹":2056,"ÒĽÐ¾ÑĢÐ»ÑĭÒĽ":2057,"Ð¸ÑģÑģÐ¸Ñı":2058,"ÑĸÐ³ÐµÑĢ":2059,"Ð´Ð°Ð¹Ð´Ñĭ":2060,"ÑĸÐ½ÐµÐ´Ñĸ":2061,"Ð¾Ð³ÑĢÐ°ÑĦ":2062,"ĠÒ¯Ð½":2063,"ĠÑħÐ°ÑĤ":2064,"ĠÑĪÐ°ÑĢÑĥÐ°ÑĪÑĭÐ»ÑĭÒĵÑĭ":2065,"ĠÑĤÐ¾Ð±":2066,"ĠT":2067,"ÑĤÐ°Ð¼Ð°":2068,"ĠÐ±ÑĸÑĢÐ°ÒĽ":2069,"ĠÑĪÐµÑĤÐµÐ»":2070,"ĠÐ¶Ò¯Ð¹ÐµÑģÑĸ":2071,"ĠÐºÓĻÑģÑĸÐ¿Ð¾ÑĢÑĭÐ½":2072,"ĠÐ¾ÑĢÑĤÐ°Ð»ÑĭÒĵÑĭ":2073,"ÑĭÑģÑĤÑĭÒĽ":2074,"ĠÐ±Ð¸Ð·Ð½":2075,"ÑĭÐ¼Ð°Ð»":2076,"Ð°Ð»Ð°ÑĢÒĵÐ°":2077,"ĠÑģÐ°ÑıÑģÐ¸":2078,"Ð°Ð±Ð°ÒĽÑĤÑĭÒ£":2079,"ĠÒĽÐ°Ð·Ð°ÒĽÑģÑĤÐ°Ð½":2080,"ĠÑĢÐµÑĤÑĤ":2081,"Ð¾ÑĢÐ»Ð°ÑĢ":2082,"ĠÒĽÐ°Ð»Ð°ÑģÑĭÐ½Ð´Ð°":2083,".,":2084,"Ð»ÐµÑĢÑĸÐ½":2085,"ĠÐºÓ©ÑĢÑĸÐ½":2086,"Ġ100":2087,"ĠÑĤÐµÐ¼":2088,"ÑĤÐ°Ð»Ð°Ð´Ñĭ":2089,"ĠÑģÐ°Ð»Ð°ÑģÑĭÐ½Ð´Ð°ÒĵÑĭ":2090,"Ð¸Ð´ÐµÐ¾":2091,"ÐµÐ¼ÐµÐ½":2092,"ĠÐºÓ©ÑĢÑģÐµÑĤÑĸÐ»ÐµÑĤÑĸÐ½":2093,"ĠÑĤÐ°ÒĽÑĭÑĢÑĭÐ¿":2094,"ÐµÒ£Ð³ÐµÑĢ":2095,"ĠÑĤÐ°Ò£Ð´Ð°":2096,"ĠÐºÐµ":2097,"ĠÒĽÐ°ÑĢÑĭÐ¼":2098,"ÐµÑĤÐºÐµ":2099,"ĠÐ¡Ð¾Ð½ÑĭÐ¼ÐµÐ½":2100,"ĠÐ°Ð»Ð´ÑĭÐ½":2101,"ĠÒļÒ±":2102,"ĠÐ´Ð¸ÑĢÐµÐºÑĤ":2103,"ĠÑĪÐ°Ð¼":2104,"Ð°ÑģÐ°":2105,"ÒĽÐ°ÑĤ":2106,"ÑĮÑİ":2107,"2018":2108,"Ð¸Ð½Ð°":2109,"ĠÐŁÑĢÐµÐ·Ð¸Ð´ÐµÐ½ÑĤ":2110,"__":2111,"ĠÑĪÑĭÒĽÒĽÐ°Ð½":2112,"Ġ2016":2113,"ĠÒĽÐ°Ð»ÑĭÐ¿ÑĤÐ°ÑģÑĤÑĭÑĢÑĥ":2114,"ĠÑģÒ±ÑĢÐ°ÒĽ":2115,"Ð°Ð»Ð´ÑĭÒĽ":2116,"ĠÐĺÐ½":2117,"ĠÓ©ÑĤÐºÑĸÐ·Ñĥ":2118,"Â».":2119,"ĠÑįÐ»ÐµÐºÑĤÑĢÐ¾Ð½":2120,"Ð¿Ð°ÑģÓ©Ð·":2121,"ĠÐ±ÐµÐ»ÑģÐµÐ½Ð´Ñĸ":2122,"ÑĤÐºÐµÐ½Ñĸ":2123,"ĠÒ¯ÐºÑĸÐ¼":2124,"ĠÐ¼Ð¸Ð»Ð»":2125,"ĠÒĽÐ°ÑĢÐ°Ð¿":2126,"ĠÐ·Ð°Ò£Ð½Ð°Ð¼":2127,"ÑĭÐ¼Ð´ÑĭÒĽ":2128,"ĠI":2129,"Ð´ÐµÐ»Ñĸ":2130,"ĠÒĽÒ±Ð»":2131,"ÑĥÑĢÐ½Ð°Ð»":2132,"Ð´ÑĭÒĵ":2133,"ÐµÐ¹ÑĤ":2134,"ĠÑĸÑģÑĤÐµÑĢ":2135,"Ð»Ð°Ð¿":2136,"ÑĤÐµÐ³Ñĸ":2137,"ÑĤÐ°ÑĤ":2138,"ĠÐ½ÐµÐ³ÑĸÐ·ÑĸÐ½Ð´Ðµ":2139,"Ð¾ÐºÑĥÑĢ":2140,"ĠÐºÓ©Ð¿ÑĤÐµÐ³ÐµÐ½":2141,"ĠÐ±ÐµÑĢÐµÑĤÑĸÐ½":2142,"ÐºÐµÐ½ÑĤ":2143,"ÑĭÑģÐ°Ð»Ñĭ":2144,"ĠÐ¶ÐµÐ»ÑĤÐ¾ÒĽÑģÐ°Ð½":2145,"ĠÐ±ÐµÑĢÑĸÐ»Ð³ÐµÐ½":2146,"ĠÑģÐ°Ð»ÑĭÐ½":2147,"Ð¹ÑĤÐºÐµÐ½Ñĸ":2148,"ĠÐ¶Ñĥ":2149,"ĠÓ©Ð·Ð°ÑĢÐ°":2150,"Ð±ÐµÑĤ":2151,"ĠÑĤÑĭÒ£":2152,"ÒļÐ°ÑĢ":2153,"Ġ.":2154,"ĠÐµÐ½Ð³ÑĸÐ·Ñĥ":2155,"ĠÐ°ÑĥÑĭÑĢ":2156,"ÑĥÑĪÑĭÐ»ÑĭÒĽ":2157,"ÐŀÒĽ":2158,"Ð«Òļ":2159,"ĠÓ©Ð»ÐµÒ£":2160,"Ð°Ð»ÑĭÐ¿":2161,"Ð¾ÑĢÐ¸Ñı":2162,"ĠÐ¼Ð°Ð·Ð¼Ò±":2163,"Ð¼Ð°ÒĵÐ°Ð½":2164,"ĠÐ±Ó©Ð»ÑĸÐ½":2165,"ĠÐ°Ð½ÑĭÒĽÑĤÐ°Ñĥ":2166,"ĠÑģÓ©Ð·Ð´ÐµÑĢ":2167,"ĠÐ¼Ð°ÑĥÑģÑĭÐ¼":2168,"ÐµÐ¼Ð»ÐµÐºÐµÑĤ":2169,"Ð±Ð°Ð¿":2170,"ĠÐ¶Ð°ÑģÐ°Ð¿":2171,"ĠÐ±Ð°ÒĵÐ´Ð°ÑĢÐ»Ð°Ð¼Ð°ÑģÑĭ":2172,"ĠÒĽÑĭÐ·Ð¼ÐµÑĤÑĸÐ½":2173,"ĠÑĩ":2174,"ÐµÑĢÐ»ÑĸÐº":2175,"ĠÐ±Ð¾Ð¹Ñĭ":2176,"ĠÑģÑĸÐ»":2177,"ĠÐ¶ÐµÐº":2178,"ĠÐ±Ð°Ð¹Ð»Ð°Ð½ÑĭÑģ":2179,"ÓĻÑģÑĸÐ»":2180,"Ð°ÒĵÐ°Ð½Ð´Ð°":2181,"ĠÐŀÑĤÐ°Ð½":2182,"ĠÐ¼ÐµÒ£Ð³ÐµÑĢ":2183,"ÐĲÑģÑĤÐ°Ð½Ð°":2184,"ĠÑĢÐµÑģÐ¿ÑĥÐ±Ð»Ð¸ÐºÐ°Ð»ÑĭÒĽ":2185,"ĠÐ¾Ð¿ÐµÑĢ":2186,"ĠÑĤÒ±ÑĢÐ°Ð´Ñĭ":2187,"ĠÐ¶Ð°ÒĵÐ´Ð°Ð¹Ð»Ð°ÑĢ":2188,"ĠÐ°ÒĽÑĭÐ½":2189,"ĠÑĤÐ°ÑĢÐ¸ÑħÐ¸":2190,"ĠN":2191,"ĠÐ¶Ð°ÑģÑĤÐ°ÑĢ":2192,".)":2193,"at":2194,"Ð°ÑĥÒĵÐ°":2195,"Ò¯Ð·":2196,"ĠÐĲÒļÐ¨":2197,"ĠÐ¾ÑĢÑĭÐ½Ð´Ð°Ñĥ":2198,"ÐµÐ´Ð¶":2199,"Ð°ÑĨÐ¸ÑıÐ»ÑĭÒĽ":2200,"ĠÒĽÐ°Ð·Ð°ÒĽÑģÑĤÐ°Ð½Ð´ÑĭÒĽ":2201,"ĠÑĪÐ°ÑĢÑĤ":2202,"ĠÑĤÐ°Ð»Ð´Ð°Ñĥ":2203,"ĠÐ¢ÓĻ":2204,"ĠÒĵÐ¾Ð¹":2205,"ĠÒĽÐ°ÑĢÐ°ÑģÑĤÑĭÑĢ":2206,"ĠÒĽÐ°ÑĤÑĭÑģÑĥ":2207,"ĠÐºÐµÐ»Ð´Ñĸ":2208,"200":2209,"ĠÒĽÐ¸ÑĭÐ½":2210,"ĠÒĽÑĭÐ·Ð¼ÐµÑĤÑĤÑĸ":2211,"ĠÐ¿ÑģÐ¸Ñħ":2212,"Ð´Ð°ÑĢÑĭÐ½Ð´Ð°":2213,"ÐĿÒ±ÑĢ":2214,"ĠÐ°Ð¹ÑĤÑĤÑĭ":2215,"ĠÐ¾ÑĢÑĤÐ°Ð»ÑĭÒĵ":2216,"ĠÐļÐ¾Ð½":2217,"ÑĤÑĭÑĢÐ°Ñĥ":2218,"ĠÐ¾ÑĢÑĭÐ½Ð±Ð°ÑģÐ°ÑĢÑĭ":2219,"ĠÐºÐ¾ÑĢ":2220,"ĠÐ°Ð»Ð°Ò£":2221,"ĠÐ¼ÐµÐ´Ð¸ÑĨÐ¸Ð½Ð°Ð»ÑĭÒĽ":2222,"ĠÒĽÒ±ÑĢÑĥ":2223,"ĠÒĽÒ±ÑĢÑĭÐ»ÑĭÑģ":2224,"ĠÑĤÓĻÐ¶ÑĸÑĢÐ¸Ð±":2225,"ÐºÑĥÑĢÑģ":2226,"ÐĳÑĸÐ·":2227,"ĠÐ´Ð¾":2228,"Ð¼ÐµÐ¹Ð´Ñĸ":2229,"ĠÐ·Ð¾ÑĢ":2230,"ĠÒĽÐ°":2231,"ĠÐķÐ³ÐµÑĢ":2232,"ÐµÐ¼Ð¿":2233,"ÑĤÑĢÐ°ÑĤÐµÐ³":2234,"Ð°ÑĢÑĤÐ°Ð¼":2235,"ĠÐ°Ð»Ð¼Ð°Ð¹":2236,"ĠÓĻÑģÐºÐµÑĢÐ¸":2237,"ĠÐºÓ©Ð±":2238,"ÑģÒ±Ð»ÑĤÐ°Ð½":2239,"ĠÑĤÐ°ÑĢÐ¸ÑħÑĭ":2240,"Ð¿Ðµ":2241,"ĠÐķÑĥÑĢ":2242,"ĠÐ¸Ð½ÑģÑĤÐ¸ÑĤÑĥ":2243,"ĠÐ°ÒĽÑĪÐ°":2244,"ÑĸÐ»Ð´Ðµ":2245,"ÐĳÐ°Ð»":2246,"ĠÒĽÐ¾Ð»Ð´Ð°Ð½Ñĥ":2247,"Ð°Ð¹ÑĭÐ¼":2248,"ĠÐ°Ð»Ð°":2249,"Ð½Ð´Ñĸ":2250,"ĠÐ°ÑĪÑĭÒĽ":2251,"ÑĤÒ¯ÑĢ":2252,"ht":2253,"ÒĵÑĭÑĪ":2254,"Ġ2015":2255,"ĠÐºÐ¾Ð¼Ð¸ÑĤ":2256,"ÓĻÑĢÐµÐº":2257,"ĠÒĽÐ°Ò£ÑĤÐ°ÑĢ":2258,"ÑĸÑģÑĸÐ½":2259,"iÑĢ":2260,"ĠÐ½ÓĻÑĢ":2261,"ĠÐ¾Ð±ÑĬÐµÐºÑĤ":2262,"ÑģÐ°ÑĢ":2263,"ĠÐºÐ¾Ð¼Ð¿":2264,"ĠÑĤÒ¯ÑĢÑĸ":2265,"ÐĨÐĨ":2266,"Ð°Ð»Ð°ÑĢÑĭÐ½ÑĭÒ£":2267,"Ð°ÒĵÐ°Ð½Ð´Ñĭ":2268,"ÐµÐ¼ÑĸÐ½":2269,"ĠB":2270,"ÒĽÐ°Ð¹":2271,"ĠÐ´Ð°Ð¹":2272,"ĠÓĻÒ£Ð³ÑĸÐ¼":2273,"ĠÐ¡ÑĸÐ·":2274,"ĠÑĤÐ°Ð»ÒĽÑĭÐ»":2275,"ÑĸÐ»Ñĥ":2276,"ĠÐ±Ð°ÑģÐ¿Ð°ÑģÓ©Ð·":2277,"Ò£ÑĤÒ¯ÑģÑĤÑĸÐº":2278,"ĠÐ¾ÑĢÑĭÐ½Ð´Ð°Ð»":2279,"Ð¿Ð¸":2280,"ĠÐ½Ð¾ÑĢÐ¼":2281,"ĠÒĽÒ±ÒĽÑĭÒĽÑĤÑĭÒĽ":2282,"ĠÐ¼ÑĸÐ½Ð´ÐµÑĤÑĤÑĸ":2283,"ĠÐ´ÐµÐ¿Ð°ÑĢÑĤÐ°Ð¼":2284,"ĠÐ±ÐµÐºÑĸÑĤ":2285,"ÐľÒ±":2286,"ĠÑĤÓĻÑĥÐµÐ»":2287,"ĠÐľÒ±Ð½":2288,"iÒ£":2289,"Ð±Ð°ÑĢ":2290,"Ð´ÐµÐ»Ð³ÐµÐ½":2291,"ĠÑĤÐ°Ð½ÑĭÑģ":2292,"ĠÒĽÐ°Ð±ÑĭÐ»Ð´Ð°Ð½":2293,"Ð´ÑĢ":2294,"ÐµÐ¼Ð¿Ð¸Ð¾Ð½":2295,"Ð°Ð²Ð»Ð¾":2296,"ÐºÑĸÑĢ":2297,"ĠÑĤÑĸÐº":2298,"//":2299,"Ð»ÑĸÐ³ÑĸÐ½":2300,"Ð±ÐµÐ½":2301,"ÐµÐºÑģ":2302,"al":2303,"ĠÑĤÓ©Ð»ÐµÐ¼":2304,"ĠÐ±Ð°Ð¹ÒĽÐ°Ñĥ":2305,"ÐµÐ´ÐµÐ»":2306,"ĠÐºÐµÐ·Ð´ÐµÑģ":2307,"ÑĪÑĭÒĽ":2308,"ĠÐ½Ò±Ñģ":2309,"ĠÒĵÐ°Ð»ÑĭÐ¼":2310,"15":2311,"ĠÑĤÐµÑħÐ½Ð¸ÐºÐ°Ð»ÑĭÒĽ":2312,"ĠÒĽÐ¾Ð·ÒĵÐ°Ð»":2313,"Ð°Ð²Ð»Ð¾Ð´Ð°ÑĢ":2314,"ĠÐ¾ÑĢÐ°Ð¹":2315,"ĠÑĪÑĭÒĵÑĭ":2316,"ĠÑģÓĻÑĤ":2317,"ĠÑĤÐ°ÑĢÐ°Ð¿":2318,"ĠÐ¾ÑĢÑĭÑģ":2319,"ĠÓĺÐ»":2320,"ĠÐ¿Ð¾":2321,"ĠÑĢÐµ":2322,"ÑĪÑĸÐº":2323,"ĠÐ±ÐµÑģ":2324,"ĠÐ¼ÓĻÑģÐµÐ»ÐµÐ»ÐµÑĢÑĸ":2325,"ĠÓ©Ð·Ð³ÐµÑĢÑĸÑģÑĤÐµÑĢ":2326,"ÑĢÐ´":2327,"ĠÒĽÑĭÑģ":2328,"Ð¸ÑħÐ°ÑĤ":2329,"ĠÑģÐ°ÑĥÐ´Ð°":2330,"ÐºÐµÐ»Ð³ÐµÐ½":2331,"ĠÐ½Ð°Ð·Ð°ÑĢ":2332,"ĠÐ±Ð¾Ð»ÑģÑĭÐ½":2333,"Ð´ÐµÑĢÐ³Ðµ":2334,"Ð°Ð±Ñĭ":2335,"ĠÐ°Ðº":2336,"ĠÐ°Ð»Ð°ÑĤÑĭÐ½":2337,"ÑĸÐ¼Ð´ÑĸÐº":2338,"ĠÐĳÐ°Ð¹":2339,"ĠÐµÐ½Ð´Ñĸ":2340,"ĠÐ¾ÑĢÑĭÐ½Ð´Ð°":2341,"ĠÐ¶Ò¯Ðº":2342,"Ð¼Ð°ÒĵÑĭ":2343,"ĠC":2344,"ĠÐ´Ð°Òĵ":2345,"ÑĥÑĪÑĭÐ»Ð°ÑĢÐ´ÑĭÒ£":2346,"ĠÑĸÑģÑĤÐµÑĥ":2347,"ÑĭÒĵÑĭÑģ":2348,"ÑģÑĸÑĢ":2349,"ĠÒ¯Ð·Ð´ÑĸÐº":2350,"ĠÐ½ÐµÑģ":2351,"ĠÐ·Ð°ÑĤÑĤÐ°ÑĢ":2352,"Ð°Ð¼ÑĭÐ½":2353,"Ð¼ÐµÐ¹":2354,"ĠÐºÑĸÐ¼":2355,"ÑĤÐ°Ð¹Ð´Ñĭ":2356,"ÒĽÒ±":2357,"ol":2358,"ĠÐ°ÑģÐ°":2359,"ĠÐ¶Ð°Ð¹Ð»Ñĭ":2360,"ĠÐ¼Ð°Ð»":2361,"ÐµÐ¼Ð°ÑĤ":2362,"ĠÐ°ÑĥÑĭÐ»Ð´ÑĭÒĽ":2363,"ÐµÑĢÐ»ÐµÑĢ":2364,"ÐµÐ»ÐµÐ¹":2365,"ĠÐ¾ÑģÑĭÐ½Ð´Ð°Ð¹":2366,"ĠÑĪÐ°ÒĵÑĭÐ½":2367,"ĠÑĸÑĢÑĸ":2368,"ĠÐºÑĥ":2369,"ÐĳÐ°Ñģ":2370,"ĠÒĽÐ°ÑĪ":2371,"ĠÐ´ÓĻÑģÑĤÒ¯ÑĢ":2372,"ĠÐ¸Ð½Ð²ÐµÑģÑĤÐ¸ÑĨÐ¸Ñı":2373,"ÐµÐ½ÑĨÐ¸Ñı":2374,"ĠÑĤÓĻÑĢÑĤÑĸ":2375,"ĠÐ¼ÓĻÐ»ÑĸÐ¼ÐµÑĤÑĤÐµÑĢ":2376,"Ð°ÑĥÐ°Ð·":2377,"ĠÐĸÐ¾Ð»":2378,"ÐµÐ»ÐµÑĢÑĸÐ½":2379,"ĠÑĥÓĻ":2380,"ÒļÐŀ":2381,"ĠÐ¿Ð°ÑĢÑĤ":2382,"30":2383,"ÑĭÐ»Ð¾ÑĢÐ´Ð°":2384,"Ð¸Ð½Ð°ÑĢ":2385,"ĠÑģÐ¾Ð½ÑĭÐ¼ÐµÐ½":2386,"Ð±ÑĭÑĢ":2387,"ĠÐµÑĤÑĸÐ¿":2388,"ĠÑģÑĤÐ°Ð½Ð´Ð°ÑĢ":2389,"ÒļÑĭÐ·":2390,"ĠÐ¼ÑĥÐ·":2391,"ÐºÐ¾Ð½Ð¾Ð¼Ð¸ÐºÐ°Ð»ÑĭÒĽ":2392,"Ð»ÑĭÒĵÑĭÐ½":2393,"ĠÐ¶ÑĭÐ»Ð´Ð°ÑĢÑĭ":2394,"Ð°Ð·Ð°":2395,"Ð¾ÑĦ":2396,"Ð¶Ð°Ð¹":2397,"ĠÐĸÐ°ÑĢ":2398,"ÐµÐ½ÑĤÑĸ":2399,"ĠÐºÐ¾Ð¼Ð¸ÑģÑģÐ¸Ñı":2400,"ÑĥÑĢÑģÑĤÐ°ÑĢ":2401,"ĠÑĤÐµÐºÑģÐµÑĢÑĥ":2402,"ĠÑĤÒ¯ÑģÐºÐµÐ½":2403,"14":2404,"Ð¸Ð´Ð°":2405,"ÐºÓĻÑģÑĸÐ¿":2406,"ĠÑĨ":2407,"Ð¿Ð°Ð»":2408,"ÑĥÐ°ÑĢ":2409,"17":2410,"ĠÑģÒ±ÑĢÐ°ÒĽÑĤÐ°ÑĢ":2411,"Ð¸ÑıÐ½ÑĭÒ£":2412,"ĠÐ¼Ð°ÒĽÐ°Ð»":2413,"Ð»ÑĸÐºÑĤÑĸ":2414,"Ð¾ÑģÑĤÐ°Ð½":2415,"ĠÒĽÐ°ÒĵÐ°Ð·":2416,"ĠÓĻÑĢÐ±ÑĸÑĢ":2417,"ÑĤÑĭÑģ":2418,"ĠÐķÒ£":2419,"tp":2420,"Ð¶ÑĭÐ»":2421,"ÑĸÐ»ÐµÑĢÑĸ":2422,"ĠÑĤÐµÐ³ÑĸÐ½":2423,"ĠÒ®ÐºÑĸÐ¼":2424,"ĠÐ±ÐµÐºÑĸ":2425,"ĠÐ¶Ð°ÑģÐ°Ð»ÒĵÐ°Ð½":2426,"\",":2427,"ĠÐĳÒ±":2428,"ÓĻÑĢÐ±Ð¸":2429,"ĠÐ±Ó©Ð»ÑĸÐ¼Ñĸ":2430,"ĠÑģÐ°Ð¹ÑĤ":2431,"Ð°Ð¸":2432,"ĠÐ¼ÐµÐ½ÑĸÒ£":2433,"ÓĻÑģÑĸÐ±Ð¸":2434,"ĠÑģÐ°ÑĢÐ°Ð¿":2435,"ĠÑįÐ½ÐµÑĢÐ³":2436,"ĠÓĻÐºÑĸÐ¼ÑĪÑĸÐ»ÑĸÐº":2437,"ÑĤÐµÑĢÑĸÐ½ÑĸÒ£":2438,"://":2439,"Ð³ÑĸÑĤ":2440,"Ð¶ÑĭÐ¼":2441,"Ð½Ðµ":2442,"ĠÐ¶Ð¸ÑĭÐ½":2443,"ĠÐ»Ð°ÑĥÐ°Ð·":2444,"http":2445,"ÐľÐµÐ½":2446,"ÑĸÐºÑĤ":2447,"ÐĲÐ¡":2448,"ĠÐºÐµÒ£ÐµÑģ":2449,"ÑĸÐ»ÑĸÐ³ÑĸÐ½":2450,"ÐĲÑĥ":2451,"ĠÐ¿ÑĢÐ¾ÐºÑĥÑĢ":2452,"ĠÐºÓ©ÑĢÑģÐµÑĤÑĸÐ»Ð³ÐµÐ½":2453,"ÑĤÐ°ÑĢÑĭÐ½ÑĭÒ£":2454,"ĠÐ¼Ð¾Ð½":2455,"ÐļÓ©":2456,"ĠÑĤÐ°ÑĢÑĤÑĥ":2457,"ÑĤÑĭÐ¼Ð°ÒĽ":2458,"ÐĲÑĢ":2459,"ÐµÑĤÑĤiÐº":2460,"Ð¾Ð²ÑĤÑĭÒ£":2461,"ĠÐºÐµÐ·Ð´ÐµÑģÑĥ":2462,"ĠÑģÐ°Ð»Ñĥ":2463,"de":2464,"ĠÐµÑĤÐµÑĤÑĸÐ½":2465,"Ò±Ð¼ÑĭÑģ":2466,"ĠÐ¼ÓĻÐ´ÐµÐ½Ð¸ÐµÑĤ":2467,"ÐĲÐ¢":2468,"Ð¿Ð°Ð·":2469,"Ð°ÑĤÐ¸Ð²ÑĤÑĸÐº":2470,"ĠÐ¶ÐµÐ¼ÒĽÐ¾ÑĢÐ»ÑĭÒĽ":2471,"Ð°Ð½Ð°":2472,"ĠÐ±ÑĸÑĤ":2473,"az":2474,"ĠÐ¼Ð°Ò£ÑĭÐ·Ñĭ":2475,"ĠÒĽÐ¾ÑģÑĭÐ¼ÑĪÐ°":2476,"ĠÑĪÑĭ":2477,"ĠÐºÐµÐ¹Ð±ÑĸÑĢ":2478,"ÓĻÐ¹":2479,"16":2480,"ĠÓ©Ð½Ð´ÑĸÑĢÑĥ":2481,"Ð´Ð°ÒĵÐ°Ð½":2482,"Ð¸ÒĵÐ°":2483,"ĠÑĦÐ°ÐºÑĤ":2484,"ĠÐ±ÑĸÐ»Ñĥ":2485,"ÐµÑĤÑĤÐµÑĢÑĸÐ½":2486,"ÑĭÐ¼ÐºÐµÐ½ÑĤ":2487,"ĠÐµÐ»Ð´ÑĸÒ£":2488,"Ð°ÑĤÑĢ":2489,"ĠÐ¶ÐµÑĤÐµÐº":2490,"Ó¨Ð·":2491,"ĠÐ±ÐµÑĤÑĸÐ½":2492,"ÐµÐ¹Ð½ÐµÑĤ":2493,"ĠÐ¶ÑĥÑĢÐ½Ð°Ð»":2494,"ĠÐºÓ©ÑĢÑģÐµÑĤÐºÑĸÑĪ":2495,"ĠÐºÐµÐ»ÐµÑģÑĸ":2496,"ĠÑĤÒ¯ÑĢÐ»ÐµÑĢÑĸ":2497,"ĠÐ¶Ò±Ð¼ÑĭÑģÑĤÐ°ÑĢÑĭ":2498,"ÐºÐ°Ð´ÐµÐ¼":2499,"ĠÐ¶Ð°ÑĤÐ°Ð´Ñĭ":2500,"ĠÐ¡Ð¾Ð½Ð´Ð°Ð¹":2501,"ĠÒĽÐ°ÑĢÐ°Ð¶":2502,"Ð¾Ð»ÑĮ":2503,"ĠÐŁÑĢÐµÐ·Ð¸Ð´ÐµÐ½ÑĤÑĸ":2504,"ÑĤÐ°ÑĢÐ»ÑĭÒĽ":2505,"ĠÐ¿ÑĢÐµÐ·Ð¸":2506,"ĠÐ°ÑĢÐ°Ð»":2507,"ĠÑįÐºÐ¾Ð½Ð¾Ð¼Ð¸Ðº":2508,"ĠÓ©ÑĤÑĸÐ½ÑĸÑĪ":2509,"ĠÐ¶Ó©Ð½ÑĸÐ½Ð´Ðµ":2510,"ĠÐľÓĻÑģ":2511,"ĠÓ©ÑĤÐµÐ´Ñĸ":2512,"ĠÒĽÐ°Ð»Ð°Ð»ÑĭÒĽ":2513,"ÑĭÐ¼ÑĭÐ·Ð´ÑĭÒ£":2514,"ĠÐ±Ð°ÑģÑĤÐ°Ñĥ":2515,"Ð´ÑĸÐ³ÑĸÐ½ÑĸÒ£":2516,"ĠÐ¶Ð°ÑģÐ°ÒĵÐ°Ð½":2517,"ĠÐ·Ð¸Ñı":2518,"ĠÑĩÐµÐ¼Ð¿Ð¸Ð¾Ð½":2519,"ĠÐ¸Ð½ÑĦ":2520,"ĠÐ±Ó©":2521,"Ġ24":2522,"ÑħÐ°Ð½Ð°":2523,"ÐµÐºÑĤÐµÐ¿":2524,"ĠÑĤÒ¯ÑģÑĸÑĢ":2525,"ĠÐºÐµÑĢ":2526,"ĠÑĪÐ°ÑĢÑĥÐ°ÑĪÑĭÐ»ÑĭÒĽ":2527,"ÑĸÐ¼Ð½ÑĸÒ£":2528,"25":2529,"Ð½Ð¾Ð²":2530,"ÐµÑģÑĤÐµÑĢ":2531,"ĠÑģÐ¾Ð¼":2532,"ÐķÐ¢":2533,"ĠÐ½Ð°ÑĥÑĢÑĭÐ·":2534,"ĠÑĤÐ¸ÑĸÑģÑĤÑĸ":2535,"ĠÓĺÐ±":2536,"ĠÐ±ÐµÑĢÑĸ":2537,"ÑģÑĤÐµÐ¼ÐµÐ»ÑĸÐº":2538,"ĠÐĲÐ±Ð°Ð¹":2539,"ĠÐ´Ð¾Ð»":2540,"Ð»ÐµÑĤ":2541,"ĠÐ¶Ð¾Ð»Ñĭ":2542,"ĠÒĽÒ±Ð½Ð´Ñĭ":2543,"ĠÑĤÓ©Ð»ÐµÑĥ":2544,"ĠÐ´ÐµÐ½ÑģÐ°ÑĥÐ»ÑĭÒĽ":2545,"ÐĸÐ°Ñģ":2546,"ÐµÑı":2547,"Ð¼Ð°ÑĤ":2548,"ĠÒĽÐ°Ð·Ð°Ð½":2549,"ĠÐ°ÑĥÐ´Ð°Ð½ÑĭÐ½ÑĭÒ£":2550,"ĠÐ°ÑĢÐ°Ð»ÑĭÒĵ":2551,"ÓĻÐ¼":2552,"ĠÑĦÐ¾ÑĢÐ¼":2553,"ĠÑĪÑĭÒĵÐ°ÑĢÐ¼Ð°ÑĪÑĭÐ»ÑĭÒĽ":2554,"13":2555,"ik":2556,"ĠÐ¼Ð»ÑĢÐ´":2557,"ĠP":2558,"Ð¹ÑĢ":2559,"ÒĽÑĭÑĢ":2560,"Ð¸Ð¼Ð°ÑĢ":2561,"ÑĢÑĤÐ°Ð»ÑĭÒĽ":2562,"Ð°ÑĥÑĭÑĢ":2563,"ĠÐļÐµÒ£":2564,"Ð¸Ð»ÑĮ":2565,"ĠÑĢÑĥÑħÐ°Ð½Ð¸":2566,"ĠÓĻÐºÑĸÐ¼ÑĸÐ½ÑĸÒ£":2567,"ÐľÐµÐ¼Ð»ÐµÐºÐµÑĤÑĤÑĸÐº":2568,"ÑģÐµÐº":2569,"ĠÑĤÐ°ÒĽÑĭÑĢÑĭÐ±Ñĭ":2570,"Ò±ÑĢÑĤ":2571,"ÒĵÐ°Ð½Ð´Ð°":2572,"ÑĭÐ»ÑĥÑĭ":2573,"ĠÒļÐ°Ð¹":2574,"Ð°ÒĵÑĭÐ¼":2575,"ĠÓ©Ð½ÑĸÐ¼Ð´ÐµÑĢ":2576,"ÐµÑĦÐ¾Ð½":2577,"ĠÐµÑģÑĤ":2578,"ÐĳÒ¯Ð³ÑĸÐ½":2579,"Ð¡Ð°Ð±Ð°ÒĽÑĤÑĭÒ£":2580,"ĠÐ°ÑĤÑĭ":2581,"om":2582,"ĠÐ¶ÐµÒ£ÑĸÐ»":2583,"Ð´Ñĥ":2584,"ĠÒĽÒ±Ð¶Ð°ÑĤ":2585,"ĠÐµÐ»ÑĸÐ¼ÑĸÐ·":2586,"ĠÐ¶Ð°Ð·Ñĥ":2587,"ĠÒĽÐ°Ð»Ð´Ñĭ":2588,"ĠÑħÐ°Ð½":2589,"Ġ23":2590,"ĠÐ°ÑĢÑĤÑĭÒĽ":2591,"Ð°ÑģÑĤÐ°Ð½":2592,"ĠÐµÐ»Ð´ÐµÑĢ":2593,"ĠÐ¼ÐµÑĢÐ·ÑĸÐ¼":2594,"ÐķÐĿ":2595,"ĠÐ¾Ð±Ð»ÑĭÑģÑĭÐ½Ð´Ð°":2596,"%-":2597,"ĠÐĸÐ°Ò£Ð°":2598,"ÒļÐ°Ð·":2599,"Ð´Ð°ÒĽ":2600,"ĠÐ¿Ð°ÑĤ":2601,"ĠÒ±Ð»ÑĤ":2602,"ĠÑĤÒ¯ÑģÑĤÑĸ":2603,"ÑĤÐµÑħÐ½":2604,"ĠÐ±Ð°ÑģÑĤÐ°Ð´Ñĭ":2605,"Ð´ÑĭÒĽÑĤÐ°ÑĢ":2606,"ĠÐĲÐ½":2607,"ÑĥÐ»ÑĮÑĤ":2608,"ĠÒĽÐ°Ð·ÑĸÑĢ":2609,"ÑıÐ½":2610,"ĠÐ¼Ð°Ð¼ÑĭÑĢ":2611,"Ð¼Ð°ÒĵÑĭÐ½Ð´Ð°":2612,"ÑģÐ°Ð¼":2613,"ĠÐļÐ¾Ð¼":2614,"ĠÑģÓ©Ð¹Ð»":2615,"ĠÐºÐµÑĤÑĤÑĸ":2616,"ĠÐ¯":2617,"ĠÓĻÑĥ":2618,"ÑĪÑĭÐ»ÑĭÒĵ":2619,"Ð´ÐµÑĤ":2620,"ĠÒĽÐ°Ð¼ÑĤÑĥ":2621,"ĠÐºÐ°ÑĢÑĤ":2622,"Ð°ÑģÑĭÐ½Ð°Ð½":2623,"ĠÐ°Ð¹ÑĤÑĥÑĭÐ½ÑĪÐ°":2624,"ĠÓĻÑĢÑĸÐ¿":2625,"ĠÐ¼Ó©Ð»ÑĪÐµÑĢ":2626,"II":2627,"Ó©Ð·Ñĸ":2628,"Ð¿Ð°ÑĢÑĭ":2629,"Ġ50":2630,"ÑĤÑĭÐ¼Ð°ÒĽÑĤÐ°Ñģ":2631,"ĠÑĤÓĻÑĢÑĤÑĸÐ¿":2632,"ĠÐĲÐ·Ð¸Ñı":2633,"ĠÐ°Ð»Ð´ÑĭÐ½Ð´Ð°":2634,"ĠÑĤÑĸÑĢÐºÐµÑĥ":2635,"ĠÐ´ÐµÑĢ":2636,"ĠM":2637,"ĠÐ±ÐµÐ»Ð³Ñĸ":2638,"ĠÐ¼Ð¸Ð»Ð»Ð¸Ð¾Ð½":2639,"ĠÑħÐ°Ð»ÑĭÒĽÑĤÑĭÒ£":2640,"Ð±Ð°Ð¹Ð»Ð°Ñģ":2641,"ĠÐ¾ÑĢÐ½Ñĭ":2642,"ĠÒĽÐ¾Ñİ":2643,"Ð°ÑĢÐ´ÑĭÒ£":2644,"ÐµÐ¹ÑĸÐ½":2645,"ĠÐ¶ÑĸÐ³ÑĸÑĤ":2646,"Ð¸Ð¼ÑĭÐ»":2647,"ĠÐ¸Ð´Ðµ":2648,"ĠÓ©ÑĤÑĥ":2649,"ĠÐ¶Ð°ÒĽÑĭÐ½":2650,"ĠÒļÐ¾ÑĢ":2651,"ĠÐºÑĥÓĻ":2652,"ĠÑĪÑĭÒĵÐ°ÑĢÑĥ":2653,"ÑĭÒĽÑĤÑĭÒĽ":2654,"ĠÐ±Ð°ÑıÐ½":2655,"ÒĽÐ°ÑĤÑĭÐ½Ð°Ñģ":2656,"Ð°Ò£ÒĵÑĭ":2657,"ĠÑĤÐ°Ð±ÑĭÑģ":2658,"Ð¨Ð¡":2659,"ĠÐ±Ð¾Ð»Ð°":2660,"ĠÐĿÒ±ÑĢÑģÒ±Ð»ÑĤÐ°Ð½":2661,"ĠÐºÐ¾Ð»":2662,"ÐµÐ¹ÑĸÐº":2663,"ĠÐµÑģÐµÐ±":2664,"ĠÐ°Ð±":2665,"ÑĢÐµÐ´":2666,"ĠÐµÑĢÐµÐºÑĪÐµÐ»ÑĸÐº":2667,"Ð°Ð»Ð°Ð¹":2668,"ĠÐ´ÓĻÑĢÐµÐ¶":2669,"Ð»ÐµÐ½":2670,"ĠÑģÑĸÐ»ÑĤÐµÐ¼":2671,"ĠÑĤÓĻÑģÑĸÐ»":2672,"Ò±Ð»Ð´Ñĭ":2673,"ĠÐ´ÓĻÑĢÑĸÐ³ÐµÑĢ":2674,"ÐĶÐĲ":2675,"ĠÐĸÐ°Ð½":2676,"ĠÑĤÓĻÑĢÐ±Ð¸Ðµ":2677,"ĠÑĦÑĥÐ½":2678,"ĠÓĻÐ»Ñĸ":2679,"ĠÐºÐµÐ¿":2680,"ÑģÑĭÐ»Ð°Ð¹":2681,"ĠÐºÓ©Ð»ÐµÐ¼Ñĸ":2682,"ĠÒĽÑĭÑĢÐºÒ¯Ð¹":2683,"ÐµÑģÑĤÑĸÐº":2684,"ĠÑĪÑĭÒĵÑĭÐ½":2685,"ĠÐ°ÒĽÑĪ":2686,"Ð¾Ð»Ð°":2687,"ÒĵÐ°ÑĢÒĵÑĭ":2688,"Ð¼Ð°Ð¹Ð´Ñĭ":2689,"ĠÐ¶Ð¾ÑģÐ¿Ð°ÑĢÑĭ":2690,"ĠÑĤÐ°Ð±Ð¸ÒĵÐ¸":2691,"Ð¸Ð¼Ð¿Ð¸":2692,"ĠÐ¶Ð¸Ð½Ð°ÒĽ":2693,"Ð°Ð»Ð°ÑĤÑĭÐ½":2694,"ĠÐºÓĻÑģÑĸÐ±Ð¸":2695,"ĠÑĪÑĭÒĽÑĤÑĭ":2696,"ĠÑģÐ°ÑĢ":2697,"ĠÐŀÐ»Ð°ÑĢÐ´ÑĭÒ£":2698,"ĠÑģÐ°Ð¹ÑĤÑĭ":2699,"ĠÒļÐ°Ð·Ð°ÒĽÑģÑĤÐ°Ð½Ð´Ð°":2700,"ĠÓ©Ò£Ð´ÐµÑĥ":2701,"Ð»Ð°ÑĢÒĵÐ°":2702,"ÑĭÑĢÑĭÐ¼":2703,"ĠÐ±ÐµÑĢÑĸÐ»ÐµÐ´Ñĸ":2704,"ÑĦÐµÑĢÐµÐ½ÑĨÐ¸Ñı":2705,"ĠÐĳÑĸÐ»ÑĸÐ¼":2706,"as":2707,"ĠÐºÓ©ÑĢÐ¼":2708,"ĠÐ°Ð¹ÒĽÑĭÐ½":2709,"ĠÐ¼ÐµÐ¹":2710,"ÑıÑĢ":2711,"ĠÑĤÐµÑģÑĤ":2712,"ÑģÐ»Ð°Ð¼":2713,"ÐµÑĤÑĤÐµÐ½":2714,"Ð»ÐµÑĢÐ´ÑĸÒ£":2715,"ĠÐ°ÑĤÐ°Ð»ÒĵÐ°Ð½":2716,"ĠÐ¶Ð°ÒĵÑĭÐ½Ð°Ð½":2717,"ĠÐ¼Ð¾Ð»":2718,"ÑĪÑĸÐ»ÑĸÐ³Ñĸ":2719,"Ò±Ð»Ð´ÑĭÐ·":2720,"ÐŀÑĢ":2721,"ĠÐ°ÑĤÐ°Ñĥ":2722,"ĠÐ±Ð¸Ð·Ð½ÐµÑģ":2723,"ĠÒ±Ð·Ð°ÒĽ":2724,"ĠÑĤÐµÑĢÐµÒ£":2725,"ÒĵÐ°Ð´Ñĭ":2726,"ĠÐ¶ÑĭÐ»Ð´Ð°ÑĢ":2727,"ĠÐ¶Ð°ÑģÑĤÐ°ÒĵÑĭ":2728,"ÑĭÑĢÐ°ÒĽ":2729,"ĠÐĸÐ¨Ð¡":2730,"ĠÑĤÒ¯Ð·":2731,"ÑĤÐµÑĢÐ½ÐµÑĤ":2732,"ĠÐĲÐ»Ð°Ð¹Ð´Ð°":2733,"ĠÐ°Ð³ÐµÐ½ÑĤ":2734,"ĠÑĤÓĻÑĢÐ±Ð¸ÐµÐ»ÐµÑĥ":2735,"ÐĳÐ°ÑģÑĤÑĭ":2736,"Ð»Ð°ÑĢÑĭÐ½ÑĭÒ£":2737,"ĠÑĤÐ¾Ð¹":2738,"ĠÐºÐµÑģÑĤ":2739,"ĠÐ±ÓĻÑĢÑĸ":2740,"âĢľ":2741,"ĠÐºÓĻÑģÑĸÐ¿ÐºÐµÑĢÐ»ÑĸÐº":2742,"ĠÑģÐ°Ð±":2743,"ÑĥÐ´ÑĭÒ£":2744,"ĠÑĤÒ¯ÑģÑĸÐ½ÑĸÐº":2745,"ĠÒ¯Ð»Ð³Ñĸ":2746,"iÐ½Ð´Ðµ":2747,"Ð¸Ð²ÑĤÑĸ":2748,"ĠÐ·ÐµÐ¹Ð½ÐµÑĤ":2749,"ÐĨÐĿ":2750,"ĠÒļÑĭÑĤÐ°Ð¹":2751,"ĠÐ°ÒĽÑĭÐ»":2752,"ĠÐ°Ð¼":2753,"ĠÑĭÐ½ÑĤÑĭÐ¼Ð°ÒĽÑĤÐ°Ñģ":2754,"ĠÐ´Ð¸":2755,"ÐµÐ³ÑĸÐ·Ð³Ñĸ":2756,"ĠÐ±Ð°ÑģÒĽÐ°ÑĢÐ¼Ð°ÑģÑĭ":2757,"ws":2758,"Ð¸ÑĤÐ¾ÑĢ":2759,"ĠÒĵÐ¸Ð¼Ð°ÑĢ":2760,"ĠÑĤÐµÐ»ÐµÑĦÐ¾Ð½":2761,"ĠÐ±ÐµÐºÑĸÑĤÑĥ":2762,"ĠÑĤÒ±ÑĢÐ°ÑĤÑĭÐ½":2763,"ÐºÑĸÑģÑĤÐ°Ð½":2764,"Ð¯":2765,"ĠÒĽÒ±ÑĤÑĤÑĭÒĽ":2766,"Ð°Ð¹ÑĭÒĽ":2767,"Ð»ÑĸÐ³ÑĸÐ½ÑĸÒ£":2768,"ĠÐŀÐ½":2769,"ĠÐ±Ð°Ð·":2770,"ĠÒ±ÑģÑĤÐ°Ð·":2771,"ĠÑĪÐµÐ±":2772,"ĠÑĢÐµÑĤÑĤÐµÑĥ":2773,"ĠÑģÓĻÑĥÑĸÑĢ":2774,"ÐķÑĢ":2775,"ÑĤÐ°ÑĨÐ¸Ñı":2776,"ĠÒĽÐ¾ÑģÐ°":2777,"ÒļÐł":2778,"Ġ22":2779,"Ð°Ð¼Ð±ÑĭÐ»":2780,"ĠÐµÐ»ÑĸÐ¼ÑĸÐ·Ð´ÑĸÒ£":2781,"ÑĤÑĭÒĵ":2782,"ĠÐĲÑģ":2783,"ĠÐĲÐ»Ð»Ð°":2784,"ĠÑģÑĭÑĢÑĤÒĽÑĭ":2785,"ĠÑĭÒĽÐ¿Ð°Ð»":2786,"ĠÑĢÒ±ÒĽ":2787,"ÒĽÒ±Ð»":2788,"Ð¶ÐµÑĤ":2789,"ÑĭÒĵÐ°Ð½":2790,"ĠÐºÐ¾Ð´":2791,"ÑĭÒ£ÒĵÐ°Ð¹":2792,"ÐµÐ³ÑĸÐ½Ð´Ðµ":2793,"ĠÐ±Ð°ÑĤÑĭÑĢ":2794,"ĠÐ¸Ð¼":2795,"ĠÓ©ÐºÑĸÐ»Ð´ÐµÑĢÑĸ":2796,"ÑĪÐµÐº":2797,"ĠÑĪÑĸÐ»Ð´Ðµ":2798,"ĠÐ°Ð¹Ð½Ð°Ð»ÑĭÑģ":2799,"ĠÐķÑģ":2800,"Ð¼ÐµÑĢ":2801,"ĠÐ±Ð°ÒĵÑĭÑĤÑĤÐ°Ð»ÒĵÐ°Ð½":2802,"ĠÐ´Ð¸ÑĢÐµÐºÑĤÐ¾ÑĢÑĭ":2803,"ĠÐºÒ¯ÑĢÐµÑģ":2804,"ĠÒĽÑĭÐ»Ð¼ÑĭÑģÑĤÑĭÒĽ":2805,"ĠÑįÐºÐ¾Ð½Ð¾Ð¼Ð¸ÐºÐ°":2806,"ĠÐ¶ÑĭÐ»Ð´ÑĭÒĽ":2807,"ĠÐ°ÑģÐ¿":2808,"es":2809,"ĠÑĤÑĸÐºÐµÐ»ÐµÐ¹":2810,"ĠÐ¿Ð°Ð¹Ð´":2811,"ĠÐ±Ò¯ÐºÑĸÐ»":2812,"ÑĭÑģÑĭÐ½Ð°":2813,"ÐµÐ»ÐµÑĢÑĸÐ½ÑĸÒ£":2814,"ĠK":2815,"ĠÐ¶Ò±":2816,"Ð°Ð¹ÑĤÑĥ":2817,"Ð¸Ð¾":2818,"ĠÐºÐ¾Ð¼Ð¼ÑĥÐ½":2819,"Ð¶Ð°ÑĢ":2820,"ĠÑĤÑĭÑģ":2821,"ĠÐ°Ð´Ð°Ð¼Ð´Ð°ÑĢÐ´ÑĭÒ£":2822,"ÐĺÐ½":2823,"ÑĭÐ»Ñĥ":2824,"ĠÐ±Ð°ÑĢÐ»ÑĭÒĵÑĭ":2825,"ĠÐ°Ð¹ÑĭÐ½Ð´Ð°":2826,"ÑĤÐ°ÑĢÑĭÐ½Ð°":2827,"ĠÒĽÐ°ÑĤÑĤÑĭ":2828,"ĠÐ±ÐµÐ»Ð³ÑĸÐ»ÐµÐ½Ð³ÐµÐ½":2829,"ĠÐ¶Ð°ÑĢÑĭÒĽ":2830,"ÑĭÑģÑĤÐ°":2831,"Ð´Ð¸Ñı":2832,"ĠÐºÐµÑģ":2833,"ÑĤÒ¯ÑĢÐ»Ñĸ":2834,"ÑĪÑĸÐ½ÑĸÒ£":2835,"ĠÐ±ÓĻÑģ":2836,"ÐµÐ¹ÑĤÑĥ":2837,"ip":2838,"ÐµÒ£Ð±ÐµÑĢ":2839,"ĠÐľÑĭÑģÐ°Ð»Ñĭ":2840,"ĠÑħÐ°Ð»ÒĽÑĭÐ½ÑĭÒ£":2841,"Ð»Ð¾Ð¼":2842,"ÑĸÑģÑĸÐ½ÑĸÒ£":2843,"ĠÐ¶Ð°ÑĥÐ°Ð¿ÐºÐµÑĢ":2844,"ÒļÒ±ÑĢ":2845,"Ð°ÑĤÑĤÐ°ÑĢÑĭ":2846,"ĠÑĤÓ©ÑĢÑĤ":2847,"ĠÑĪÐµÑĪÑĥ":2848,"Ð´ÑĭÑĢÑĭÐ»ÒĵÐ°Ð½":2849,"ĠÑĪÑĭÒĵÑĭÐ¿":2850,"ÐµÐºÐµÐ»":2851,"ĠÐ±ÑĭÐ»":2852,"Ð¸ÑģÑĤÐµÑĢ":2853,"Ð»Ð°Ð½Ð´ÑĭÑĢÑĥ":2854,"ÐĶÐ«":2855,"000":2856,"Ð°Ð½ÐºÑĤ":2857,"Ð¸ÑģÑĤÑĸÐº":2858,"ÐĨÐľ":2859,"ĠÒ±Ð¼":2860,"ĠÐĲÑģÑĤÐ°Ð½":2861,"Ð¡Ð¾Ð½ÑĭÐ¼ÐµÐ½":2862,"ÑģÑĭÐ½Ð°":2863,"ĠÐ¼ÓĻÑĢ":2864,"ÐºÐµÑĤ":2865,"Ġ--":2866,"ĠÓĻÐºÐµÐ»":2867,");":2868,"Ð°Ð½ÑĤ":2869,"ÐķÐļ":2870,"ĠÓ©Ð·ÑĸÐ½Ðµ":2871,"âĢ¢":2872,"ĠÐ±ÐµÑĢÑĸÐ¿":2873,"ĠÐ±Ð¾Ð»Ð¼Ð°Ð¹Ð´Ñĭ":2874,"ĠÐ¼Ò±Ð½Ð´Ð°Ð¹":2875,"Ð±Ð°Ð±":2876,"ĠÐ¾ÒĽÑĥÑĪÑĭ":2877,"ĠÐ´ÐµÐ¿ÑĥÑĤ":2878,"ÑĭÐ»Ð°ÑĢ":2879,"ĠÐ±Ó©Ð»ÑĸÐ¼ÑĸÐ½ÑĸÒ£":2880,"Ð°ÑģÑĭÐ¼ÐµÐ½":2881,"ĠÐºÐµÐ»ÐµÑĤÑĸÐ½":2882,"Ð½ÐµÐº":2883,"ĠÐ¡Ð¾":2884,"Ð°ÑĤÐ¾ÑĢ":2885,"Ð¾ÑĢÑĥÐ¼":2886,"ĠÐĲÒĽÑĤÓ©Ð±Ðµ":2887,"Ġ27":2888,"il":2889,"ĠÐ´ÐµÐ¿Ð°ÑĢÑĤÐ°Ð¼ÐµÐ½ÑĤ":2890,"ĠÐ¶ÐµÑĢÐ»ÐµÑĢ":2891,"ĠÐŁÐ°ÑĢ":2892,"Ð¸Ð½Ðµ":2893,"ĠÐ¶ÑĥÑĭÒĽ":2894,"ÑĤÐµÑĢÐ»ÑĸÐº":2895,"ĠÐ¶ÑĭÑĢ":2896,"ĠÑĤÐ°":2897,"ĠÐĸÐ¾":2898,"iÐ½iÒ£":2899,"ĠÐĳÒ¯Ð³ÑĸÐ½":2900,"ĠÐ°Ð²ÑĤÐ¾Ð¼":2901,"ÒĽÐ°ÑĪ":2902,"ĠÒĽÐ°Ð½Ð°":2903,"ÑĸÐ»Ð´ÑĸÑĢÑĥ":2904,"ĠÒļÐ°Ð·ÑĸÑĢÐ³Ñĸ":2905,"ĠÑĤÓ©ÑĢÐ°ÒĵÐ°ÑģÑĭ":2906,"ÑĥÑĤÐ±Ð¾Ð»":2907,"ĠÐ¼ÐµÑĤÑĢ":2908,"Ġ2014":2909,"ĠÑģÐ°Ð»ÑĭÑģÑĤÑĭÑĢ":2910,"ÐĲÒĽÐ¿Ð°ÑĢÐ°ÑĤ":2911,"ĠÐ¶ÓĻÑĢ":2912,"ĠÐ°ÑĢÐ°Ð»ÑĭÒĵÑĭÐ½Ð´Ð°":2913,"ĠÐ¢Ð°ÑĢ":2914,"ĠÒĽÐ°ÑĥÑĭÐ¼":2915,"ĠÐºÐ¾Ð½ÐºÑĥÑĢÑģ":2916,"ĠÐ±Ð°ÑģÒĽÐ°ÑĢÐ¼Ð°ÑģÑĭÐ½ÑĭÒ£":2917,"ÐĸÐ°Ò£Ð°":2918,"ĠÐ´ÓĻÐ»ÐµÐ»":2919,"ĠÐ±Ðµ":2920,"ĠÑĢÐµÑĦ":2921,"Ð«ÐĽ":2922,"ĠÑģÐ°Ð¹Ð»Ð°Ñĥ":2923,"ĠÑĤÐ¾Ð½":2924,"ĠÐ±Ð°ÑģÑĪ":2925,"org":2926,"ĠÒ±Ð»Ñĭ":2927,"ĠÐĲÐ´Ð°Ð¼":2928,"ÑĪÐ°ÒĵÐ°Ð½":2929,"Ð¾Ð»ÑĭÒĽ":2930,"Ð»Ð°Ð¼ÐµÐ½ÑĤ":2931,"ÑħÐ°Ð¼":2932,"edi":2933,"ĠÐ´Ð°ÒĵÐ´Ñĭ":2934,"ĠÐ¼Ð°ÒĽÑģ":2935,"ÑįÐºÐ¾Ð½Ð¾Ð¼Ð¸ÐºÐ°Ð»ÑĭÒĽ":2936,"ĠÐ±Ó©Ð»Ñĸ":2937,"ĠÓ¨Ð¹ÑĤÐºÐµÐ½Ñĸ":2938,"ĠÐĸÐµÑĢ":2939,"ĠÐµÑĤÑĤÑĸ":2940,"ÒĵÑĭÐ½ÑĭÒ£":2941,"ĠÐ¼Ð°Ð·Ð¼Ò±Ð½":2942,"ĠÐ±ÑĸÑĢÐµÑĥ":2943,"ĠÐ¼Ò¯Ð´":2944,"ĠÑģÑĤÑĢÐ°ÑĤÐµÐ³":2945,"ĠÑĤÒ¯Ð¹":2946,"ĠÐ¾ÒĽÑĥÑĪÑĭÐ»Ð°ÑĢÐ´ÑĭÒ£":2947,"ÒĽÐ°Ñģ":2948,"ĠÐ±Ó©Ð»ÑĸÐ³Ñĸ":2949,"ĠÑĪÐµÒ£Ð±ÐµÑĢ":2950,"ĠÒ¯Ð¹ÑĢÐµÐ½":2951,"ĠÑģÐ°ÒĽÑĤÐ°Ð½Ð´ÑĭÑĢÑĥ":2952,"ÐĲÐĹ":2953,"ÑĪÑĭÐ»Ð°ÑĢÐ´ÑĭÒ£":2954,"ÑĤÐ°Ð»ÑĭÐ¿":2955,"Ð·Ð°Ð¼":2956,"ĠÐ±Ð¾Ð»Ð°ÑĪÐ°ÒĽ":2957,"ĠÐŀÒ£ÑĤÒ¯ÑģÑĤÑĸÐº":2958,"ĠÐ¶ÐµÑĤÐºÑĸÐ·Ñĥ":2959,"ĠÒ±ÒĵÑĭÐ¼":2960,"ĠÐºÐ¾Ð¼Ð°Ð½Ð´":2961,"ĠÒĽÒ±ÑĢÐ°Ð¹Ð´Ñĭ":2962,"ĠÒĽÑĭÐ·Ð¼ÐµÑĤÑĸÐ½ÑĸÒ£":2963,"ĠÑģÐ°Ð»Ð°":2964,"ĠÒĽÐ°Ð¶ÐµÑĤÑĤ":2965,"ĠÐ¾ÒĽÑĭÐ¿":2966,"ĠÐ³Ðµ":2967,"ĠÐºÐ¾Ð½ÑĨ":2968,"ĠÑģÑĭÑĢ":2969,"ĠÐ¶ÐµÑĤÑĸÐ»Ð´ÑĸÑĢÑĥ":2970,"ĠÐºÓ©Ð¼ÐµÐºÑĤ":2971,"ĠÐ´ÑĸÐ½Ð¸":2972,"ĠÐ¶Ð°Ð¿":2973,"Ð¶Ð°ÒĽÑĤÑĭ":2974,"Ð°Ð»ÑĭÑģ":2975,"Ġ28":2976,"Ð´Ð°ÑĢÐ¼ÐµÐ½":2977,"ĠÑģÐ°Ð½Ð°ÑĤÑĭ":2978,"Ð°ÒĽÑĭÑĤÑĭ":2979,"ĠÐ°Ð»ÑĤÑĭÐ½":2980,"ĠW":2981,"ÐµÐ´ÑĢ":2982,"ĠÒĽÐ°ÑĢÐ¶ÑĭÐ»ÑĭÒĽ":2983,"ĠÐĸÐ°Ñģ":2984,"Ð¸ÑıÑģÑĭÐ½ÑĭÒ£":2985,"ĠÒĽÐ°ÑĥÑĸÐ¿ÑģÑĸÐ·Ð´ÑĸÐº":2986,"ÐºÐµÑĢÑĸ":2987,"ĠÐ¥Ð°Ð»ÑĭÒĽÐ°ÑĢÐ°Ð»ÑĭÒĽ":2988,"ĠÐ°Ð¹ÑĭÐ¿":2989,"ĠÐ°ÑĥÑĭÐ·":2990,"Ð¶Ð¾Ð»":2991,"ĠÑĤÐ°Ð¼ÑĭÐ·":2992,"ĠÑįÑĤ":2993,"ĠÐºÓ©Ðº":2994,"ĠÐ¾ÑĤÐ±Ð°Ñģ":2995,"ÐµÑĢÑĤÑĤÐµÑĥ":2996,"ĠÐ¶Ò¯Ð¹ÐµÑģÑĸÐ½":2997,"ĠÓ©Ðº":2998,"âĢĿ,":2999,"ÑĤÐ¾ÑĢ":3000,"ĠÑĤÒ±Ð»ÒĵÐ°":3001,"ĠÑĤÑĢ":3002,"ĠÐ¼ÐµÐºÑĤÐµÐ±":3003,"Ð°Ð»Ñİ":3004,"ĠÒ¯ÑĢ":3005,"ĠÒ±ÑĢÐ¿Ð°ÒĽ":3006,"ĠÐĸÐ°Ð»Ð¿Ñĭ":3007,"ĠÐŀÑĢÑĤÐ°Ð»ÑĭÒĽ":3008,"ĠÑĪÐ°ÑĢÐ°Ð»Ð°ÑĢ":3009,"ĠÒĽÐ°ÑĢÐ°ÑĪÐ°":3010,"Ġ26":3011,"Ð°Ð½Ð´ÑĭÑĢÑĥ":3012,"ÑĨÐ¸Ð¿":3013,"ĠÑĤÒ¯ÑģÑĸÐ½Ð´ÑĸÑĢ":3014,"ĠÐ¼Ò±Ð½Ð°Ð¹":3015,"ĠÐ¾ÑĤÐ±Ð°ÑģÑĭ":3016,"ĠÐĳÐ¸":3017,"Ġ40":3018,"ĠÐ±Ð°Ð¹ÒĽ":3019,"Ð´Ð°Ð´Ñĭ":3020,"Ð°Ð½Ð´ÑĭÒĽ":3021,"ĠÐºÓ©ÑĢÑģÐµÑĤÐµÐ´Ñĸ":3022,"ĠÒĽÒ±ÑĢÑĭÐ»ÑĭÑģÑĭ":3023,"ĠÒĽÐ°ÑĢÐ°Ñĥ":3024,"2016":3025,"Ð¸Ð¿Ð»Ð¾Ð¼":3026,"ĠÐ¼Ð¾":3027,"ĠÐ°ÐºÐ°Ð´ÐµÐ¼":3028,"ĠÐ¼Ð¸Ð½Ð¸ÑģÑĤÑĢÐ»ÑĸÐ³Ñĸ":3029,"ÒĽÑĭÑĪ":3030,"ĠÑĥÑĩ":3031,"ĠÐ±Ð¸ÑĭÐ»":3032,"Ð´ÑĭÒĵÑĭÐ½":3033,"ĠÐºÒ¯Ð½Ð´Ðµ":3034,"ĠÐ¶Ò±Ð¼ÑĭÑģÐ¿ÐµÐ½":3035,"ĠÑįÐ»ÐµÐºÑĤÑĢÐ¾Ð½Ð´ÑĭÒĽ":3036,"ĠÐ¶Ð°Ð±Ð´ÑĭÒĽ":3037,"Ð´ÐµÐ´Ñĸ":3038,"ĠÐľÐ°ÒĽ":3039,"ĠÑģÐ°Ð»Ð°ÑģÑĭÐ½Ð´Ð°":3040,"ĠÑĢÐ°Ñģ":3041,"ÐµÐ±ÐµÐ±Ñĸ":3042,"ĠÐ±Ð°":3043,"Ð´ÐµÐ³ÐµÐ½":3044,"Ġi":3045,"ĠÑĤÑĸÐ»ÑĸÐ½Ð´Ðµ":3046,"Ð½ÐµÐ¼ÐµÑģÐµ":3047,"ÒĽÑĭÐ¼":3048,"Ð¼ÓĻ":3049,"ÐµÐ»ÐµÑĢÐ´Ñĸ":3050,"ĠÐ¼ÓĻÑģÐµÐ»Ðµ":3051,"ĠÓ©ÑĤÑĸÐ¿":3052,"ĠÐ¡ÐµÑĢ":3053,"Ð¾ÑĤÐ¾":3054,"Ñī":3055,"ĠÒ¯Ð¼":3056,"ĠÐ¼ÓĻÑģÐ»":3057,"ĠÐĸÐ°Ò£":3058,"ĠÐ¾ÑĤÐ°Ð½":3059,"Ð±Ð»ÐµÐ¼":3060,"Ð¼Ð¾Ð»Ð°":3061,"ĠÐ°Ð·Ð°Ð¼Ð°ÑĤÑĤÑĭÒĽ":3062,"Ð´Ð°ÑĢÑĭÐ½Ð°Ð½":3063,"ĠÒ±ÒĽ":3064,"ĠÐ±Ð°Ð»Ð°Ð½ÑĭÒ£":3065,"ĠÑĤÑĭÐ½":3066,"ĠÒ¯Ð½ÐµÐ¼":3067,"ĠÐ¼ÑĭÐ½Ð°Ð´Ð°Ð¹":3068,"ĠÐ¿ÐµÐ´Ð°Ð³Ð¾Ð³Ð¸ÐºÐ°Ð»ÑĭÒĽ":3069,"ĠÒĽÒ±ÑĢÐ°Ð¼ÑĭÐ½Ð°":3070,"ĠÐķÑĥÑĢÐ¾Ð¿":3071,"ĠÑĤÐ°ÒĽ":3072,"Ó©Ð¼ÑĸÑĢ":3073,"ÑĸÐ»ÑĸÐºÑĤÑĸ":3074,"Ð°Ð½ÑĭÑĪ":3075,"ĠÑĢÓĻÑģ":3076,"ĠÐ¾Ð¹Ð»Ð°Ñĥ":3077,"ĠÐµÐ³ÐµÑĢ":3078,"ĠÒĽÐ°ÑĢÐ¶ÑĭÐ»":3079,"Ð°ÑĦÐµÐ´ÑĢ":3080,"ÑģÑĸÑĢÐµÑģÐµ":3081,"ÓĻÑĢÐ±Ð¸Ðµ":3082,"ÐµÑĤÑĤÐµÑĢÐ´Ñĸ":3083,"ĠÑĪÐµÐºÑĤÐµÑĥ":3084,"ĠÑĢÓ©Ð»":3085,"ĠÐĲÑĤÑĭÑĢÐ°Ñĥ":3086,"Ð´ÐµÐº":3087,"ĠÐ¾ÒĽÐ¸Òĵ":3088,"ÑĸÐ¼ÑĸÐ½":3089,"ĠÑĤÑĸÐ»ÑĸÐ½":3090,"edia":3091,"ĠÐ¼Ð°ÑĢ":3092,"Ð°Ð½Ð´Ð°":3093,"ÑĢÐµÐ´Ð¸ÑĤ":3094,"Ð±ÑĢ":3095,"ÑĥÐ½Ð°Ð»":3096,"ÐµÐºÑĤÐµ":3097,"ĠÐ°ÒĽÐ¿Ð°Ð½":3098,"ĠÑģÒ¯":3099,"ĠÒĽÑĭÐ·ÑĭÒĵ":3100,"ÒĵÐ°Ð½Ñĭ":3101,"24":3102,"ÐľÓĻ":3103,"ĠÐŁÐ°Ð²Ð»Ð¾Ð´Ð°ÑĢ":3104,"Ð»Ð´Ðµ":3105,"Ð»Ð°ÒĵÐ°Ð½":3106,"ÒĽÐ°ÑĤÐ°ÑĢ":3107,"ĠÒļÐ°ÑĢÐ°ÒĵÐ°Ð½Ð´Ñĭ":3108,"ĠÐ±Ð°ÑģÑĭÐ¼":3109,"ÑĪÑĭÐ»ÑĭÒĵÑĭÐ½":3110,"Ð¸Ñĩ":3111,"ÐµÐ´ÐµÑĢ":3112,"ph":3113,"ĠÐ¡ÓĻ":3114,"ĠÑĢÒ±ÒĽÑģÐ°ÑĤ":3115,"ÑĪÐ°ÒĽ":3116,"Ð¿Ð°":3117,"ÑĤÐµÑĢÑĸÐ½Ðµ":3118,"ĠÒĽÐ¾Ñı":3119,"ĠÑģÑĥÐ±ÑĬÐµÐºÑĤ":3120,"ĠÐºÐ°Ð¿":3121,"Ð³ÑĸÐ»Ñĸ":3122,"ĠÐ¶Ò±Ð¼ÑĭÑģÑĭ":3123,"ĠÐµÐ»Ð´Ñĸ":3124,"ĠÑģÑĥÑĢÐµÑĤ":3125,"Ġ29":3126,"ÐµÐ¼Ð¸Ð½Ð°ÑĢ":3127,"ĠÑĤÒ±ÑĤÑĭÐ½":3128,"ÐĨÐļ":3129,"ĠÑĪÑĭÒĵÐ°ÑĢÐ¼":3130,"ĠÐºÒ¯ÑĢÐ´ÐµÐ»Ñĸ":3131,"ĠÐºÐ¼":3132,"ĠÐºÐ¾":3133,"ĠÐºÓ©ÑĢÐ³ÐµÐ½":3134,"ĠÓĻÐºÑĸÐ¼Ð´ÑĸÐ³ÑĸÐ½ÑĸÒ£":3135,"www":3136,"ÐķÐ¡":3137,"ĠÑĤÐµÐ·":3138,"ĠÒĽÐ°ÑĥÑĸÐ¿ÑģÑĸÐ·":3139,"ĠÑĤÓĻÑĥ":3140,"ĠÐ¼ÑĥÐ·Ñĭ":3141,"Ð¼ÐµÐ³ÐµÐ½":3142,"ĠÐ±Ò±Ð¹ÑĢ":3143,"ĠÐºÐµÑĪÐµÐ½":3144,"ĠÐ¾Ð¿ÐµÑĢÐ°ÑĨÐ¸Ñı":3145,"Ð³Ð°Ð»":3146,"ĠÐ°Ð´Ð°Ð¼ÒĵÐ°":3147,"ĠÓ©Ð»ÑĪ":3148,"Ð¥Ð°Ð»ÑĭÒĽ":3149,"ĠÒĽÒ±ÒĽ":3150,"Ð»Ð°Ð¹Ð½":3151,"ĠÐ¾Ð¹Ð½":3152,"ĠÐ¶Ò¯ÑĢÑĸÐ¿":3153,"Ð±Ð°ÑģÑĭÐ½ÑĭÒ£":3154,"ĠÐ½ÓĻÑĤÐ¸Ð¶ÐµÑģÑĸÐ½Ð´Ðµ":3155,"ĠÐºÐ»Ð°Ñģ":3156,"ĠÐ¶ÐµÐ´ÐµÐ»":3157,"ĠÒ°Ð»Ñĭ":3158,"Ð¸ÑĤÐ°Ð»":3159,"Ġ#":3160,"ĠÑģÐ¾Ð½ÑĭÒ£":3161,"ĠÐ°ÐºÑĤÑĸÐ»ÐµÑĢ":3162,"ĠÐ´Ð°Ð¼ÑĥÑĭ":3163,"Ġ21":3164,"ĠÑĭÐ½ÑĤÑĭÐ¼Ð°ÒĽÑĤÐ°ÑģÑĤÑĭÒĽ":3165,"Ð´Ð°ÑĢÐ´Ð°":3166,"ĠÐ±Ð¸Ð»ÑĸÐº":3167,"ĠÐ¸Ð´ÐµÑı":3168,"ĠÐ°ÑĤÒĽÐ°ÑĢÑĥÑĪÑĭ":3169,"ĠÑģÒ±":3170,"ĠÐ¿Ð°Ð¹Ð´Ð°Ð»Ð°Ð½ÑĥÒĵÐ°":3171,"ĠÐ°Ð¹ÑĤÐ°Ð´Ñĭ":3172,"ĠÐ¼Ð°Ð¹":3173,"ĠÐ°Ð½Ð°":3174,"Ð»ÐµÐ´Ð¶":3175,"https":3176,"ĠÐºÓ©ÑĪÐµÑģÑĸ":3177,"ÒļÐ°Ð·ÑĸÑĢÐ³Ñĸ":3178,"ĠÐ¾Ð»Ð°ÑĢÒĵÐ°":3179,"ĠÐ¼Ð¸Ð½ÑĥÑĤ":3180,"ĠÓĻÐ»ÐµÐ¼Ð´ÑĸÐº":3181,"ÑĢÐ°ÒĽ":3182,"ÑĥÑĪÑĸ":3183,"ÒĵÑĭÑĢÑĥ":3184,"ĠÐľÐµÐ¼Ð»ÐµÐºÐµÑĤ":3185,"Ð°Ð·Ð°Ñħ":3186,"ÑĥÐ½Ð°Ð»Ð´ÑĭÒĽ":3187,"ĠÑĤÐ°Ð¼Ð°ÒĽ":3188,"ĠÐµÑĤÐºÐµÐ½":3189,"ÑĮÐµÑĢ":3190,"ÐµÑģÑĤÑĸ":3191,"ĠÒļÑĭÐ·ÑĭÐ»Ð¾ÑĢÐ´Ð°":3192,"ĠÐ±Ð°ÑĢÑĭÐ¿":3193,"ĠÓ©ÑĢÑĤ":3194,"ĠÐ±ÐµÑĤÑĸÐ½ÐµÐ½":3195,"199":3196,"am":3197,"ÐºÑĸÐ»ÐµÑĤÑĤÑĸ":3198,"ic":3199,"ĠÐ±Ð°ÑģÑĤÐ°Ð¼":3200,"ĠÓĻÑĢÑĤÒ¯ÑĢÐ»Ñĸ":3201,"ÑĸÐ¼Ð¿Ð°Ð·":3202,"ĠÐ°ÐºÑĨÐ¸Ñı":3203,"ĠÒļÐ°Ð·ÑĸÑĢ":3204,"Ð¸ÐºÐ°ÑĨÐ¸Ñı":3205,"ĠÂ":3206,"Ð°Ò»":3207,"ĠÐ¶Ð¾Ð±Ð°ÑģÑĭ":3208,"ĠÐ¶Ð°Ð½ÑĥÐ°ÑĢ":3209,"ÐŀÑĢÑĤ":3210,"ĠÒĽÐ°Ð¹ÑĤÐ°ÑĢ":3211,"ĠÐºÓ©Ð·ÒĽÐ°ÑĢ":3212,"ĠÐ¶Ò±Ð¼ÑĭÑģÑĤÐ°ÑĢÑĭÐ½":3213,"ĠÑĤÑĭÑĢ":3214,"ro":3215,"ĠÑĤÒ±ÑĢÒĵÑĭ":3216,"ĠÑĦÐ¸Ð·":3217,"ĠÐ¶Ò±Ð¼ÑĭÑģÑĭÐ½":3218,"ÐķÒ£":3219,"ĠÐ¿ÑĢÐ¾ÑĦ":3220,"ÑħÐ°ÑĤ":3221,"ĠÐ±ÑĸÐ»ÑĸÐºÑĤ":3222,"wik":3223,"ĠÐ¶Ð¾Ð±Ð°":3224,"ĠÐ°ÒĵÑĭÐ»":3225,"ĠÐ°Ð´Ð°Ð¼Ð´Ñĭ":3226,"ÑĮÐ¼":3227,"ĠÐ´Ð°Ð¹ÑĭÐ½Ð´Ð°Ñĥ":3228,"ÒļÐ°Ð¹":3229,"ĠÐ¼ÑĸÐ½ÐµÐ·":3230,"ÓĺÑĢ":3231,"ĠÐ´ÑĭÐ±":3232,"Ð´ÑĸÐ¼":3233,"ĠÐ¶ÐµÑĤÑĸÑģÑĤÑĸÐº":3234,"ĠÑĢÐµÐ´Ð°":3235,"ĠÐ°Ð¶":3236,"ĠÐºÐ¾Ð¼Ð¿ÑĮÑİ":3237,"ĠÐ§":3238,"Ò°Ð»":3239,"ĠÓĻÐ´ÑĸÑģ":3240,"ĠÑħÐ°Ð±Ð°ÑĢÐ»Ð°Ð´Ñĭ":3241,"ÐŀÐ»":3242,"ÐŁÑĢ":3243,"ÑħÐ¼ÐµÑĤ":3244,"ÐµÑĤÑĸÐ½Ð´Ðµ":3245,"ÐµÒ£ÑĸÐ·":3246,"ĠÐ¡ÐµÐ½":3247,"ÑģÑĤÐ°Ñĥ":3248,"ĠÐºÐ»ÑĥÐ±":3249,"ÑĭÑģÑĤÐ°Ð½":3250,"Ð±ÐµÐºÐ¾Ð²":3251,"ÑĥÑĪ":3252,"Ð´Ð°Ð¹ÑĤÑĭÐ½":3253,"ĠSt":3254,"kk":3255,"ÐµÐ´Ðµ":3256,"Ð»ÑĭÒĽÑĤÐ°ÑĢ":3257,"ĠÐ¶Ð°ÑģÐ°ÑĥÒĵÐ°":3258,"ĠÐ¼Ð°ÑĪ":3259,"ĠÐ¶Ð°Ò£ÒĵÑĭÑĢÑĥ":3260,"Ð¼ÐµÑĤÑĤÑĸ":3261,"ĠÐ¼Ð°ÑĢÐ°Ð¿":3262,"ews":3263,"ĠÐ¼ÓĻÑĢÑĤÐµ":3264,"ĠÐ¡ÐµÐ±ÐµÐ±Ñĸ":3265,"ÑĥÑĸÐ½Ðµ":3266,"ĠÑĤÐ°ÒĵÐ°Ð¹ÑĭÐ½":3267,"ÒļÒ±":3268,"ĠÐ°Ð·Ð°Ð¼Ð°ÑĤ":3269,"Ó©Ð»ÑĸÐº":3270,"ĠÐ°Ð¹ÑĤÑĭÐ»":3271,"ĠÒĽÑĭÑģÒĽÐ°":3272,"Ð°ÑĤÑĮ":3273,"ĠÐ°ÑĥÑĭÑģ":3274,"ĠÐ¶Ð¸Ñĸ":3275,"ĠÐ´Ð°ÑıÑĢ":3276,"ĠÐ¿Ð¾Ð»Ð¸ÑĨÐ¸Ñı":3277,"ĠÐ¨ÑĭÒĵÑĭÑģ":3278,"ï»":3279,"ĠÐ°Ð»Ð´ÑĭÐ¼ÐµÐ½":3280,"ĠÐ¿Ð¾ÑĢÑĤ":3281,"ĠÒ±Ð½":3282,"ï»¿":3283,"ĠÒ±Ð¹":3284,"Ð¼ÐµÐ½ÑĤ":3285,"ĠÐ¿ÑĢÐ¾Ð±Ð»ÐµÐ¼":3286,"Ð¸Ð½Ð¸ÑģÑĤÑĢ":3287,"ÐµÑĤÑĸÐ½Ðµ":3288,"ĠÐºÐ¾Ð½ÑĦÐµÑĢÐµÐ½ÑĨÐ¸Ñı":3289,"Ð°ÑĢÐ´":3290,"ĠÐ¿ÑĢÐ¾ÐºÑĥÑĢÐ°ÑĤÑĥÑĢ":3291,"ĠÐ°ÒĽÐ¿Ð°ÑĢÐ°ÑĤÑĤÑĭ":3292,"Ð¿ÑĢ":3293,"ĠÐ±Ð°Ð¿":3294,"ĠÐ´ÐµÐ½Ðµ":3295,"ĠÐ´Ð¾Ñģ":3296,"Ð±Ò±":3297,"Ð¼ÑĸÐ·":3298,"ÐºÐ¾Ð¼":3299,"ĠÐ´ÐµÐ³ÐµÐ½ÑĸÐ¼ÑĸÐ·":3300,"ĠÒĽÐ¾ÑĢÑĭ":3301,"ÑģÐµÐ¼":3302,"ĠÐºÓ©ÑĢÐºÐµÐ¼":3303,"ĠÐĶÐµÐ½":3304,"ÑĥÑħ":3305,"ÑĸÑģÐºÐµ":3306,"ĠÐ°ÑĥÐ¼Ð°ÒĽ":3307,"ĠÐ°Ð¹ÑĤÒĽÐ°Ð½Ð´Ð°":3308,"ĠÐ±ÑĸÑĢÐ»ÐµÑģ":3309,"ÑģÑĭÐ»Ð¼Ð°Ð½":3310,"Ð±Ð¸Ð»ÑĮ":3311,"ĠÐľÐ°ÑĢ":3312,"ĠÐµÑĢÐºÑĸÐ½":3313,"ĠÑĪÐµÑĤÐµÐ»Ð´ÑĸÐº":3314,"ĠÐ¶Ð°ÑĥÐ°Ð¿ÑĤÑĭ":3315,"ĠÒĽÐ°ÑĢÐ°ÒĵÐ°Ð½Ð´Ð°":3316,"ĠÒ¯ÑĪÑĸÐ½ÑĪÑĸ":3317,"ĠÐ°ÑĢÑĤÑĤÑĭÑĢ":3318,"Ð°ÑĥÐ°Ð¿":3319,"ĠÒĽÐ°ÑĢÐ°Ð¼":3320,"Ð±Ð°ÐµÐ²Ð°":3321,"ĠÐ²Ð¸Ð´ÐµÐ¾":3322,"ĠÑĤÑĸÐ¿ÑĤÑĸ":3323,"ĠÐ¶ÑĭÐ»Ð´Ð°Ð¼":3324,"ÐµÐ³ÑĸÐ½":3325,"ÑĤÒ±ÑĢ":3326,"ĠÒ¯Ð¹Ð»":3327,"ĠÒĽÑĭÐ·Ð¼ÐµÑĤÐºÐµÑĢÐ»ÐµÑĢÑĸ":3328,"ĠÐ°ÒĵÑĭÐ¼":3329,"ĠÒĽÐ¾Ð¹Ð´Ñĭ":3330,"ĠÑĦÑĥÐ½ÐºÑĨÐ¸Ñı":3331,"ĠÑģÐ°Ð»ÑĭÐ¿":3332,"ĠÑĢÐµÑģÑĥÑĢÑģÑĤÐ°ÑĢ":3333,"Ð´ÐµÑĢÑĸÐ½Ðµ":3334,"ÒĽÐ¸Ð¼ÑĭÐ»":3335,"ÑģÑĤÐ²":3336,"Ð°Ð¹Ð»":3337,"ĠÐ±Ò±ÑĢÑĭÐ½ÒĵÑĭ":3338,"Ð´ÓĻ":3339,"ÐºÑĤÐµÐ¼":3340,"ĠÑģÐµÐ½ÑĸÐ¼":3341,"ÒĽÒ±ÑĢ":3342,"23":3343,"ĠÒ±Ñı":3344,"ĠÐºÓ©ÑĢÑĸÐ¿":3345,"ĠÑģÑĭÐ±Ð°Ð¹Ð»Ð°Ñģ":3346,"KZ":3347,"ĠÐ¼ÐµÐ½ÑĪÑĸÐº":3348,"ĠÐ»Ð°ÑĥÐ°Ð·ÑĭÐ¼":3349,"ĠÑĤÐµÐ°ÑĤÑĢ":3350,"ĠÐ¼ÓĻÑĤÑĸÐ½":3351,"ÐµÐºÑĤÐ¾ÑĢ":3352,"Ð¼Ð°ÒĵÑĭÐ½Ð°":3353,"Ð¶ÑĸÐ»":3354,"ĠÐ¼Ð°ÒĵÐ°Ð½":3355,"ĠÐ¢ÓĻÑĥÐµÐ»":3356,"Ò¯ÑĪ":3357,"ĠÐ°ÑĪÑĥ":3358,"ĠÐ¶Ð°ÑģÐ°Ð¹Ð´Ñĭ":3359,"2015":3360,"ÒĽÐ¾Ð»":3361,"ĠÐ´ÐµÐ»":3362,"ÐµÐ¼ÐµÐ¹":3363,"ĠÒ¯Ð¼ÑĸÑĤ":3364,"ĠÐ°ÑĢÒĽ":3365,"ĠÐ¶Ò±Ð¼ÑĭÑģÒĽÐ°":3366,"ÑĤÐ°Ð¹ÑĤÑĭÐ½":3367,"ĠÐ¶Ð°ÒĵÐ´Ð°Ð¹Ñĭ":3368,"Ð°Ð»Ð°Ð¼":3369,"ÐŀÑĢÑĤÐ°ÒĽ":3370,"ĠE":3371,"ĠÐ±Ð°ÑģÑĤÐ°ÒĵÐ°Ð½":3372,"ĠÐ¶ÐµÑĢÐ³Ðµ":3373,"ĠÑĢÐµÐ¶":3374,"ĠÒĽÐ°ÒĵÐ¸Ð´":3375,"ÑĸÐ½ÑĪÐµ":3376,"ĠG":3377,"Ð¸ÑħÐ°Ð½":3378,"ĠÐ´Ð°Ð¼ÑĥÑĭÐ½Ð°":3379,"))":3380,"ÑĸÑĢÑĸÐ¿":3381,"ĠÑĤÒ¯Ð½":3382,"ÑĥÑĢÐ³":3383,"ÑĸÑĢÐ³ÐµÐ½":3384,"ÑģÑĭÒ£":3385,"ĠÑĦÑĥÑĤÐ±Ð¾Ð»":3386,"].":3387,"ÑĸÐ¼ÑĸÐ·Ð´Ñĸ":3388,"Ð¸ÐºÐ°ÑģÑĭ":3389,"ĠÓ©Ð·ÑĸÐ½Ð´ÑĸÐº":3390,"ĠÒĽÐ°ÑĤÑĭÑģÑĥÑĪÑĭÐ»Ð°ÑĢ":3391,"Ð½Ð¾Ð²Ð°ÑĨÐ¸ÑıÐ»ÑĭÒĽ":3392,"Ð¸ÐµÐ½ÑĤ":3393,"ĠÐºÐ°ÑĦÐµÐ´ÑĢ":3394,"ĠÐºÐµÐ¹ÑĸÐ½Ð³Ñĸ":3395,"Ð´Ð°Ð»ÒĵÐ°Ð½":3396,"et":3397,"ĠÐ¼ÐµÐºÑĤÐµÐ±Ñĸ":3398,"ĠÐ¼ÐµÑĤ":3399,"ĠÐ¢Ò±ÑĢ":3400,"Ð°Ð´Ð°ÒĵÐ°Ð»":3401,"Ð´ÑĭÒĵÑĭÐ½Ð°":3402,"ÒĽÑĭÐ·Ñĭ":3403,"ĠÑĤÒ¯ÑģÑĸÐ½Ð´ÑĸÑĢÑĥ":3404,"ĠH":3405,"ÑĤÐ°Ð½Ñĥ":3406,"ĠÐ¼Ò±ÒĵÐ°Ð»ÑĸÐ¼Ñĸ":3407,".-":3408,"ipedia":3409,"Ò£ÒĵÑĭÑĪ":3410,"ĠÑĢÐµÑģÐ¿ÑĥÐ±Ð»Ð¸Ðº":3411,"ĠÑģÐµÐ±ÐµÐ±Ñĸ":3412,"ĠÐ¾ÑĢÑĤÐ°ÒĽ":3413,"ĠÑĦÐ¸Ð»ÑĮÐ¼":3414,"ĠÑģÑĸÐ»ÑĤÐµÐ¼Ðµ":3415,"Ð¶Ñĭ":3416,"ĠÑĥÐ°ÒĽÑĭÑĤÑĭ":3417,"ĠÒĽÒ±ÒĽÑĭ":3418,"ĠÐ¨ÑĭÐ¼ÐºÐµÐ½ÑĤ":3419,"ĠÑĦÐ°Ðº":3420,"Ð¾ÐºÑģ":3421,"ÑĪÑĸÐ»ÐµÑĢÐ´ÑĸÒ£":3422,"Ð°Ò£ÒĵÑĭÑģÑĤÐ°Ñĥ":3423,"ĠÐ¶Ð°Ð·ÑĭÐ»ÒĵÐ°Ð½":3424,"ĠÐķÐ»Ð±Ð°ÑģÑĭ":3425,"ĠÓĺÐ´Ñĸ":3426,"ÑĭÐ½Ñĭ":3427,"ĠÐ±ÐµÑĢÑĥÐ³Ðµ":3428,"ÓĺÐ»":3429,"ĠÒĽÐ¾Ð¹ÒĵÐ°Ð½":3430,"Ð³ÑĢ":3431,"ĠÑģÐµÐºÑĸÐ»Ð´Ñĸ":3432,"ĠÐ¸Ð³ÐµÑĢ":3433,"wikipedia":3434,"ĠÐ°Ð¹ÑĤÐ°":3435,"ĠÓ©ÑĤÐµÑĤÑĸÐ½":3436,"22":3437,"ĠÐ´Ò¯Ð½Ð¸ÐµÐ³Ðµ":3438,"ĠÒĽÐ¾Ð½Ð°ÒĽ":3439,"ĠÐĳÑĸÐ·Ð´ÑĸÒ£":3440,"ĠÒļÐ°Ð½":3441,"tit":3442,"ĠÐ±Ó©Ð»Ñĥ":3443,"ĠÐ±ÑĸÑĢÒĽÐ°ÑĤÐ°ÑĢ":3444,"Ð°Ð¹ÑĭÐ¿":3445,"ĠÐ±Ð°Ð»Ð°Ð»Ð°ÑĢÐ´ÑĭÒ£":3446,"ÐºÓ©":3447,"ĠÐ¶ÐµÐ¼ÒĽÐ¾ÑĢÐ»ÑĭÒĽÒĽÐ°":3448,"Ð¿Ð°ÑĢÐ°ÑĤÑĭ":3449,"ÐĲÐĻ":3450,"ÑĭÒĽÑĤÑĭÑĢÑĥ":3451,"ĠÒĽÒ±Ð±ÑĭÐ»":3452,"ĠÐ¶Ð°ÑĢÑĤÑĭ":3453,"ĠÐķÐ½Ð´Ñĸ":3454,"Ð±Ð°Ð½":3455,"ĠÐ¼ÐµÐ¼Ð»ÐµÐºÐµÑĤÑĤÑĸÒ£":3456,"Ð³ÐµÐ½Ñĸ":3457,"ĠÑĤÐ¾Ð±Ñĭ":3458,"Ð¶ÐµÐ»":3459,"ĠÐºÒ¯ÑĤ":3460,"ĠÐºÒ¯Ð½Ð³Ðµ":3461,"Ð»ÐµÑĢÐ´Ñĸ":3462,"ĠÐ±Ð¸Ð»":3463,"ĠÐºÐµÐ½":3464,"ĠÐºÒ¯Ð½ÑĸÐ½Ðµ":3465,"ĠÑĤÐ°Ò£Ð´Ð°Ñĥ":3466,"ĠÒĽÐ°Ð´Ð°ÒĵÐ°Ð»":3467,"ĠÑħÐ¸Ð¼":3468,"Ð·Ð°ÑĤ":3469,"dex":3470,"ĠÐ¿ÓĻ":3471,"ĠÐ¶Ð°ÒĽÑģÐ°ÑĢ":3472,"ĠÐ¶Ò¯Ð¹ÐµÑģÑĸÐ½ÑĸÒ£":3473,"ĠÐ±Ò±ÒĵÐ°Ð½":3474,"ÐĲÐ´Ð°Ð¼":3475,"Ġ2013":3476,"ĠÐ¼Ð°ÑĢÐ°Ð¿Ð°ÑĤ":3477,"ĠÒĽÒ±ÑĢÑĭÐ»ÒĵÐ°Ð½":3478,"ĠÐ±Ð¾Ð»Ð°ÑĢ":3479,"ĠÐ¶Ò±ÑĢÑĤ":3480,"ĠÐ¼Ò¯Ð¼ÐºÑĸÐ½Ð´ÑĸÐ³Ñĸ":3481,"ĠÐ°ÑĤÑĭÐ½":3482,"ÐŀÑĢÑĤÐ°ÒĽÒĽÐ¾ÑĢ":3483,"Ð¶ÑĭÑĢÑĭÐ¼":3484,"ÑĭÐ¼ÑĭÐ·Ð´Ñĭ":3485,"ĠÑģÐ¾ÒĵÑĭÑģ":3486,"ÐµÐ¼Ð°ÑĤÐ¸ÐºÐ°":3487,"ĠÐ°ÒĵÑĭÐ»ÑĪÑĭÐ½":3488,"ĠD":3489,"ĠÐ¼Ò¯Ð»ÑĸÐº":3490,"Ð¾Ò£ÒĵÑĭ":3491,"ĠÐµÑģÐºÐµÑĢÑĤ":3492,"ĠÐ±Ð¾Ð»Ð¶":3493,"ĠÑĤÐ°ÑģÑĭÐ¼Ð°Ð»":3494,"php":3495,"ĠÐºÐ¾Ð»Ð»ÐµÐ´Ð¶":3496,"ĠÑĤÓĻÐ½":3497,"ĠÐ¼ÐµÐ¼Ð»ÐµÐºÐµÑĤÑĤÐµÑĢ":3498,"ĠÑĤÒ±Ð»ÒĵÐ°Ð»Ð°ÑĢ":3499,"Ð±ÑĸÑĤ":3500,"Ð±Ð°ÒĽ":3501,"ÑĭÑģÑĤÑĭÒ£":3502,"ĠÐ°Ò£":3503,"Ð¦":3504,"ÑģÐ°Ò£":3505,"ĠÒĽÐ°Ð´Ð°Ð¼":3506,"ÐĲÐľ":3507,"ÐµÐ½Ð´ÑĸÑĢÑĥ":3508,"ĠÒ±Ð¶ÑĭÐ¼":3509,"ĠÐ°Ð³ÐµÐ½ÑĤÑĤÑĸ":3510,"ĠÐ¼Ð¾Ð¹":3511,"ĠÑĤÐµÐ¾ÑĢ":3512,"Ð»Ð°Ð´Ñĭ":3513,"ĠÑģÑĤ":3514,"ĠÐ¼Ò±ÒĵÐ°Ð»ÑĸÐ¼":3515,"ÑĸÐºÑĤÑĸÑĢ":3516,"ĠÑįÐºÑģ":3517,"ĠÑĤÐ°ÑĢÐ°Ð¿ÑĭÐ½Ð°Ð½":3518,"Ð±ÐµÑģ":3519,"ĠÓ©ÑģÑĸÐ¼Ð´ÑĸÐº":3520,"ĠÐ±Ð°ÒĵÐ°":3521,"ĠÒļÐ¾ÒĵÐ°Ð¼":3522,"ĠÐ²Ð°Ð»Ñİ":3523,"ĠÐĸÐŀ":3524,"index":3525,"ĠÒ¯ÑĢÐ´Ñĸ":3526,"ÑģÑĤÐµÑĢÑĸ":3527,"Ð°Ð¹Ð»Ñĭ":3528,"ĠÐ¼Ð°Ñģ":3529,"did":3530,"ĠÐ±Ó©Ð»ÐµÐº":3531,"ÐĲÐ£":3532,"ĠÐºÓ©Ð¼ÐµÐºÑĤÐµÑģ":3533,"Ó©ÑģÐ¿":3534,"ÑģÑĭÐ½ÑĭÐ¿":3535,"Ð«Ò¢":3536,"Ð¼Ð°Ð¹ÑĤÑĭÐ½":3537,"ĠÐ«":3538,"ĠÑĥÑĩÐ°Ñģ":3539,"ÑģÑĤÐ°":3540,"ĠÒĽÐ°ÑĥÐ»":3541,"ĠÐ±ÑĸÑĢÐ´ÐµÐ¹":3542,"ÐĶÐĨ":3543,"Ð´Ð°ÑĥÒĵÐ°":3544,"ĠÒĽÐ¾ÑĢÑĭÑĤÑĭÐ½Ð´ÑĭÑģÑĭ":3545,"Ð°ÑĤÑĭÐ½ÑĭÒ£":3546,"ÐµÑģÑĤÑĸÒ£":3547,"title":3548,"ÐºÐµÐ¹":3549,"ĠÑĦÐ¾ÑĢÑĥÐ¼":3550,"Ð´ÐµÐ¹Ð´Ñĸ":3551,"ĠÐ¸Ð½ÑĤÐµÑĢÐ½ÐµÑĤ":3552,"ĠÐŀÒĵÐ°Ð½":3553,"ĠÒĽÒ±Ð½Ñĭ":3554,"ÑĤÑĭÒĵÑĭ":3555,"ÑĸÐ»ÑĥÑĸ":3556,"oldid":3557,"ÐĳÑĸÐ»ÑĸÐ¼":3558,"Ð¢Ò¯ÑĢ":3559,"Ð°ÑĨÐ¸ÑıÑģÑĭ":3560,"ĠÐ±Ð°ÒĽÑĭÑĤ":3561,"ÑĤÐµÑħÐ½Ð¸ÐºÐ°Ð»ÑĭÒĽ":3562,"Ó©ÑģÐ¿ÑĸÑĢ":3563,"ĠÑįÐ»ÐµÐ¼":3564,"ĠÐ±Ð°ÑģÑĪÑĭÑģÑĭÐ½ÑĭÒ£":3565,"ĠÑĥÐ½Ð¸Ð²ÐµÑĢÑģÐ¸ÑĤÐµÑĤÑĸ":3566,"ÒĵÐ°Ð½ÑĭÒ£":3567,"ÒĵÑĭÑģÑĭ":3568,"ĠÑĤÓĻÑĢÑĤÑĸÐ±":3569,"ĠÐ¤ÑĢÐ°Ð½":3570,"Ð»Ð°Ð½Ð´Ñĭ":3571,"ĠÐ¼Ð¸Ð½Ð¸ÑģÑĤÑĢÑĸ":3572,"ĠÐ¼ÐµÑĢÐ·ÑĸÐ¼Ð´Ñĸ":3573,"ĠÐ¾ÑĢÐ½ÑĭÐ½Ð°":3574,"ĠÐ°ÑĥÐ°":3575,"ĠÓĻÑĢÐµÐºÐµÑĤ":3576,"Ð°ÑħÐ°Ð±":3577,"ÐķÐ³ÐµÑĢ":3578,"ÐĳÐ¾Ð»":3579,"ĠF":3580,"ĠÐ¶Ó©Ð½Ð´ÐµÑĥ":3581,"Ð°ÒĵÑĭÐ½Ð°":3582,"ĠÑĤÐµÒ£ÑĸÐ·":3583,"ĠÑĤÓĻÑĥÐµÐ»ÑģÑĸÐ·":3584,"ĠÐ¶Ð°Ò£Ð°Ð»ÑĭÒĽ":3585,"ĠÐ¶Ð°ÑĤÑĤÑĭÒĵ":3586,"ĠÒĽÐ°ÑĢÑĭÐ·":3587,"ĠÐ´Ò¯Ð½Ð¸Ðµ":3588,"ĠÓĻÐº":3589,"ĠÒĽÐ°Ð»Ð´ÑĭÑĢ":3590,"ĠÑĤÐ°Ð±Ð¸ÒĵÐ°ÑĤ":3591,"ĠÐ¼ÐµÐºÐµÐ¼ÐµÐ»ÐµÑĢ":3592,"ĠÐ±Ð°ÒĵÐ´Ð°ÑĢÐ»Ð°Ð¼Ð°":3593,"Ð¾ÑĢÑĤ":3594,"ÐµÑĤÐµÑĢ":3595,"21":3596,"ĠÐ¶Ð¾Ð»Ð´Ð°ÑĢÑĭ":3597,"ĠÐ¶Ð°ÑģÐ°Ð´Ñĭ":3598,"ĠÐ¼Ð°ÒĵÑĭÐ½":3599,"Ð°ÑģÑĥ":3600,"ĠÐ¼Ò¯Ð´Ð´Ðµ":3601,"Ð°ÒĵÐ´Ð°ÑĢÐ»Ð°Ð¼":3602,"Ð³ÑĸÐ»ÐµÑĢ":3603,"ĠÐµÑģÐµÐ¿ÐºÐµ":3604,"Ð°ÐºÑĤÐ¸ÐºÐ°Ð»ÑĭÒĽ":3605,"ĠÐ±ÐµÑĢÑĸÐ»Ð´Ñĸ":3606,"Ġ60":3607,"ĠÐ¼ÓĻÑģÐµÐ»ÐµÑģÑĸ":3608,"ĠÑĥÓĻÐºÑĸÐ»ÐµÑĤÑĤÑĸ":3609,"ĠÐ°Ð»Ð¼Ð°Ð¹Ð´Ñĭ":3610,"Ð°Ð»Ð°Ð½":3611,"iÐ·":3612,"ÑĤÒĽÐ°ÑĢ":3613,"ĠÑĪÐ°Ð±":3614,"Ð°ÑĢÑĤÑĥ":3615,"ĠÐ¼ÓĻÐ½Ñĸ":3616,"ĠÑĤÐµÐ¼ÑĸÑĢ":3617,"ĠÒĽÒ±ÒĽÑĭÒĵÑĭ":3618,"ÐķÑģ":3619,"ĠÑĤÐµÐ»Ðµ":3620,"....":3621,"ĠÑĤÑĭ":3622,"Ð¸ÑĤÐ°ÑĢÐ»ÑĭÒĽ":3623,"ÑĸÐ¼Ð´ÑĸÐ»ÑĸÐº":3624,"ĠÐĸÒ±Ð¼":3625,"ÐºÑĢ":3626,"ĠÓĻÐ´ÐµÐ±Ð¸ÐµÑĤÑĸ":3627,"ĠÑĤÐ°ÑĢÐ¼Ð°ÒĽ":3628,"ĠÐ°ÑģÑĭÑĢÑĭÐ»Ð°Ð´Ñĭ":3629,"ĠÐºÐ¸Ð½":3630,"ĠÒļÐ°Ð»":3631,"ĠÑģÑĸÒ£":3632,"Ð°ÑĤÐ°":3633,"ĠÒĽÐ°Ð¹ÑĤÐ°Ð»":3634,"ĠÒĽÐ°Ð»Ð°ÑģÑĭÐ½Ð´Ð°ÒĵÑĭ":3635,"ĠÑħÐ°Ð±Ð°ÑĢÐ»Ð°Ð¼":3636,"ÐµÐ¶Ò¯Ð·":3637,"ĠÑģÐ°Ð¿Ð°ÑģÑĭÐ½":3638,"Ò£ÑĸÑĢ":3639,"ĠÐ±Ð°Ð»Ð°Ð»Ð°ÑĢÒĵÐ°":3640,"ÑĤÒ±":3641,"Ð¸ÑĦÑĢ":3642,"ÐĿÐ°Ð·Ð°ÑĢÐ±Ð°ÐµÐ²":3643,"ĠÐ°Ð¹Ð½Ð°Ð»ÑĭÐ¼":3644,"Ð»ÐµÐºÑĤÑĢÐ¾Ð½":3645,"Ð¾ÑĪ":3646,"ĠÐ¶Ð¾ÒĵÐ°Ð»":3647,"Ð¸ÑıÐ´Ð°":3648,"ĠÓ©Ð½Ð´ÑĸÑĢÑĸÑģ":3649,"ÐµÐ»ÐµÐº":3650,"ÐļÓ©ÑĢ":3651,"40":3652,"ĠÐ¼ÐµÐ·":3653,"ĠÐĳÐ¾Ð»":3654,"ÑĪÐ°ÑĢÐ°Ð»Ð°ÑĢ":3655,"!Â»":3656,"ÑĸÐ½Ñĸ":3657,"ĠÐ½Ð°Ñĥ":3658,"ĠÒĽÐ¾Ð»ÒĵÐ°":3659,"ÑģÐ°Ð»":3660,"ĠÑħÐ°Ð»ÒĽÑĭ":3661,"ĠÐ¼Ð¸Ð½Ð¸ÑģÑĤÑĢÐ»ÑĸÐ³ÑĸÐ½ÑĸÒ£":3662,"ĠÐ¢Ó©ÑĢ":3663,"ĠÐ±ÑĭÐ»Ð°Ð¹":3664,"Ð³ÑĸÐ»":3665,"ÐµÐ¼ÑĮÐµÑĢ":3666,"ĠÒ¯Ð¹ÑĢÐµÑĤÑĥ":3667,"ĠÐ¸Ð½ÑģÑĤÐ¸ÑĤÑĥÑĤ":3668,"ĠÐ½ÑĭÒĵ":3669,"ÑĪÑĸÑĤ":3670,"ÐĳÐ°Ð¹":3671,"ĠÐºÓĻÑģÑĸÐ¿ÐºÐµÑĢÐ»ÐµÑĢ":3672,"ÓĻÐ´Ñĸ":3673,"Ð´ÑĥÑģÑĤÑĢ":3674,"ĠÐ°ÑĥÑĭÐ»Ñĭ":3675,"Ð±ÐµÐ»ÑĸÐº":3676,"28":3677,"ĠÐ°ÑĥÐ´":3678,"ĠÐ¶ÐµÒ£ÑĸÐ¼Ð¿Ð°Ð·":3679,"ĠÐ¼ÐµÒ£Ð³ÐµÑĢÑĥ":3680,"ĠÑģÐ¾Ð·":3681,"ĠÐºÑĸÑĤÐ°Ð¿ÑħÐ°Ð½":3682,"ĠÑĤÐ¸Ð³ÑĸÐ·":3683,"ĠÐ±Ð°ÒĵÐ´Ð°ÑĢÐ»Ð°Ð¼Ð°Ð»Ð°ÑĢ":3684,"ĠÐ¶ÐµÑĤÐºÐµÐ½":3685,"ĠÐ¢ÐµÐº":3686,"ĠÐŀÐ¹":3687,"ĠÑĤÐµÑĢÐ³Ðµ":3688,"Ð¢ÓĻ":3689,"ĠÐ¶Ð¾Ñİ":3690,"ÒļÐ°Ð·Ð°ÒĽÑģÑĤÐ°Ð½Ð½ÑĭÒ£":3691,"Ð°ÑĢÐ½":3692,"ĠÐ¶Ð°ÑģÒĽÐ°":3693,"ÐºÐ¸Ð½":3694,"ĠÑģÑĤÐ°Ð½Ð´Ð°ÑĢÑĤ":3695,"ÐºÐ¾":3696,"ĠÐºÓ©ÑĢÑģ":3697,"26":3698,"ĠÐ¼ÑĭÑģ":3699,"ĠÐºÓ©Ð·Ð´ÐµÐ»Ð³ÐµÐ½":3700,"ĠÐ½ÐµÑģÐ¸Ðµ":3701,"ĠÐ¼ÐµÐ¼Ð»ÐµÐºÐµÑĤÑĤiÐº":3702,"ÑĭÐ±Ñĭ":3703,"Ð°Ð´ÑĢ":3704,"ĠÐ°ÑĥÐ¼Ð°ÒĵÑĭÐ½Ð´Ð°":3705,"!!":3706,"ĠÓ©Ð·ÐµÐ½":3707,"ĠÑģÐ°Ð»ÑĤÐ°Ð½":3708,"ĠÐļÐ¾Ð½ÑģÑĤÐ¸ÑĤÑĥ":3709,"ÐľÐ°ÒĽ":3710,"ĠÒĽÐ°Ð¹ÑĢÐ°ÑĤ":3711,"Ð»ÑĭÒĵÑĭÐ½Ð°":3712,"ÑĨÐ¸ÑıÑģÑĭ":3713,"ÐµÑģÑĸÐ·":3714,"ĠÓĻÐ´ÑĸÑģÑĤÐµÑĢ":3715,"Ð´Ð°ÑĢÑĭÐ¼ÐµÐ½":3716,"Ð»Ð°ÑĤ":3717,"ĠÓĻÐ·ÑĸÑĢÐ»ÐµÑĥ":3718,"ÑģÐºÐ¸Ð¹":3719,"ĠÐľÒ±Ð½Ð´Ð°Ð¹":3720,"ÐĸÐµÑĢ":3721,"el":3722,"ĠÒĽÐ°Ð·Ð°ÒĽÑĤÑĭÒ£":3723,"ĠÑĤÐ°Ð¿ÑģÑĭÑĢÐ¼Ð°":3724,"Ð´Ð°Ð³":3725,"ĠÐ¶Ò±Ð»Ð´ÑĭÐ·":3726,"ÐµÐ·ÐµÐ½":3727,"ÑĥÐ»ÐµÑĤ":3728,"ĠÐ´ÐµÐ½ÑģÐ°Ñĥ":3729,"ĠÑĤÐ°ÑĥÑĭÐ¿":3730,"ĠÓ©Ð½ÐµÑĢÐºÓĻÑģÑĸÐ¿":3731,"ÑĸÑĢÐ¼":3732,"ĠÓ©Ð½Ð´ÑĸÑĢÑĸÑģÑĤÑĸÐº":3733,"Ð±ÐµÐ»":3734,"ĠÐ±Ð°ÒĵÐ´Ð°ÑĢ":3735,"ĠÒĽÐ¾ÑĢÑĪÐ°ÒĵÐ°Ð½":3736,"ĠÐ°ÑĥÐ´Ð°Ð½ÑĭÐ½Ð´Ð°":3737,"ÒĽÐ¾Ñģ":3738,"ĠÐ·ÐµÐ¹Ð½ÐµÑĤÐ°ÒĽÑĭ":3739,"Ð°Ð»Ð°ÑĢÑĭÐ½Ð´Ð°":3740,"Ð¿Ð¾ÑĢÑĤÑĤÑĭÒĽ":3741,"ĠÑĸÐ»":3742,"ÑĤÐ°ÑĤÐ¸ÑģÑĤ":3743,"ÐµÑĥÑĸ":3744,"ĠÐ¶Ð°Ð·ÑĭÐ¿":3745,"ÒĵÐ°ÑĪÒĽÑĭ":3746,"ĠÑĢÐ°Ð´":3747,"ĠÒĽÐ°ÑĢÐ°ÑģÑĤÑĭ":3748,"ÐķÐľ":3749,"ĠÐ±ÑĸÐ»ÑĸÐ¼Ð´Ñĸ":3750,"ĠÐºÐµÑĤÐµÐ¹ÑĸÐº":3751,"ÑģÑĤÐ°Ð½Ð°Ð¹":3752,"ĠÓ©ÑĤÐºÑĸÐ·ÑĸÐ»Ð´Ñĸ":3753,"ĠÑĤÐ¾":3754,"ĠÐ¼Ð°Ò£":3755,"ĠÐļÐµÐ»":3756,"ĠÐ°ÑĤÐ°ÑĥÑĭ":3757,"ĠÒĽÐ°Ð»Ð¿":3758,"ĠÐĳÐ°ÑĤÑĭÑģ":3759,"ĠÒĽÐ°Ð½ÑĪÐ°":3760,"ĠÒļÑĭÑĢ":3761,"ÑĪÑĸÐ»Ñĸ":3762,"ur":3763,"Ð¸Ð°":3764,"Ð°ÑģÐ¸ÑħÐ°ÑĤ":3765,"ĠÑĦÐ°ÐºÑĥÐ»ÑĮÑĤ":3766,"ĠÑĤÒ±ÑĢÑĭÐ¿":3767,"ĠÑįÐºÐ¾Ð»Ð¾Ð³Ð¸ÑıÐ»ÑĭÒĽ":3768,"ĠÐµÑĤÑĥÐ³Ðµ":3769,"ÑĭÐ»ÑĭÑģ":3770,"Ð¸Ð¼Ð¿Ð¸Ð°Ð´Ð°":3771,"ÒĽÐ°Ð½Ð´Ð°Ð¹":3772,"Ð¡Ðł":3773,"ĠÐĸÐ°Ð¼Ð±ÑĭÐ»":3774,"ĠÐ¼Ò±ÑģÑĭÐ»Ð¼Ð°Ð½":3775,"ĠÐ¾Ð½Ð»Ð°Ð¹Ð½":3776,"ĠÒĽÑĭÐ»Ð¼ÑĭÑģ":3777,"ĠÐ´ÐµÒ£Ð³ÐµÐ¹Ð´Ðµ":3778,"ĠÑĤÑĸÑĢÐºÐµÐ»":3779,"ĠÒ±ÑĪÑĭÑĢ":3780,"ĠÐ±ÐµÐºÑĸÑĤÑĸÐ»Ð³ÐµÐ½":3781,"ÑģÑĤÐ°ÑĢÑĭ":3782,"ĠÒĽÑĭÐ·Ð¼ÐµÑĤÑĸÐ½Ðµ":3783,"ÐĳÐ¸":3784,"ĠÐ°ÑģÑĤÐ°Ð½":3785,"ĠÒĽÐ¾Ð»Ð´Ð°Ð½ÑĭÐ»Ð°Ð´Ñĭ":3786,"Ð¡Ð¢ÐĲÐĿ":3787,"ĠÐ¾ÒĽÐ¸ÒĵÐ°":3788,"ĠÐºÐ¾ÑĢÐ¿Ð¾ÑĢ":3789,"ĠÐ±Ó©Ð»ÑĸÐ½ÐµÐ´Ñĸ":3790,"ĠÑĤÒ±Ð¶ÑĭÑĢÑĭÐ¼":3791,"Ð°Ð¼Ð°Ð·":3792,"ĠÑĤÒ¯ÑģÑĸÐ¿":3793,"ĠÐ°Ð¶ÑĭÑĢ":3794,"ĠÒĽÒ±Ð¿":3795,"ĠÐļÐ¾ÑĢ":3796,"ĠÐļÒ¯Ð½":3797,"ÑĤÐ°Ð½Ñĭ":3798,"Ġ2012":3799,"ĠÐ¿ÓĻÐ½Ñĸ":3800,"ÐµÐºÑĤÐµÐ½":3801,"ĠÐ¶Ò¯Ð»Ð´Ðµ":3802,"ÐµÑģÐµÐº":3803,"ĠÐ¿ÑĢÐµÐ·Ð¸Ð´ÐµÐ½ÑĤÑĸ":3804,"ĠÐ°Ð¼Ð°Ð½":3805,"ÐĨÐĽ":3806,"ak":3807,"ĠÐ±Ò±Ð·ÑĥÑĪÑĭÐ»ÑĭÒĽ":3808,"Ð³iÐ·":3809,"ĠÐ¿Ð¾ÑĢÑĤÐ°Ð»Ñĭ":3810,"ĠÐ±ÑĸÐ·Ð³Ðµ":3811,"ĠÐµÑĢÑĤÐµ":3812,"Ð°ÑĥÑĭÑĤ":3813,"im":3814,"ÑģÑĭÐ»Ð°Ð¹ÑĪÐ°":3815,"Ð¾Ð³ÑĢÐ°ÑĦÐ¸ÑıÐ»ÑĭÒĽ":3816,"27":3817,"ĠÐĸÑĭÐ»":3818,"Ġ70":3819,"ĠÐ±Ó©Ð»ÑĸÐ¼ÑĪ":3820,"ĠÐ½Ó©Ð¼ÑĸÑĢ":3821,"ĠÓĺÐ¹":3822,"ĠV":3823,"Ð¾Ð¶":3824,"ĠÐĳÐ°ÑĢ":3825,"ĠÐ´Ð°Ð¼ÑĭÑĤÑĥÒĵÐ°":3826,"ĠÐķÒ£Ð±ÐµÐº":3827,"ĠÐĨÐĨ":3828,"ĠÐ±Ð¸ÑĸÐº":3829,"ĠÐ¼ÐµÑĢÐ·ÑĸÐ¼Ñĸ":3830,"ĠÐ¾ÑĢÑĤÐ°Ð»ÑĭÒĵÑĭÐ½ÑĭÒ£":3831,"ĠÒ±ÑģÑĤÐ°Ð½":3832,"ĠÓĻÐ»ÐµÐ¼Ð´ÐµÐ³Ñĸ":3833,"ĠÐ±ÑİÐ´Ð¶ÐµÑĤ":3834,"Ð°Ð»Ð°Ð¿":3835,"ĠÑĪÑĭÒĵÐ°Ð´Ñĭ":3836,"ĠÐ´Ð¸Ð¿Ð»Ð¾Ð¼":3837,"ĠÐµÑĪÐºÑĸÐ¼":3838,"ĠÒĵÐ°ÑģÑĭÑĢÐ´ÑĭÒ£":3839,"Ð»Ð¸Ð½":3840,"ĠÑģÑĭÐ·":3841,"ĠÐļÓ©ÑĢ":3842,"Ð¡ÐŁ":3843,"ĠÒĽÒ±ÑĢÐ°Ð´Ñĭ":3844,"ĠÑĤÐ°Ð½ÑĭÑģÑĤÑĭÑĢ":3845,"ĠÐºÐµÐ·ÐµÒ£Ñĸ":3846,"ĠÐºÒ¯Ð½Ð½ÐµÐ½":3847,"ÒĽÑĭÒĽÑĤÑĭÒĽ":3848,"Ð¼ÐµÐ¹ÑĤÑĸÐ½":3849,"ĠÒ®Ð¹":3850,"ĠÐ½Ð°ÑĢÑĭÒĽ":3851,"ÑĤÐ°ÑĢÐ´Ð°":3852,"ĠÐĸÐ°ÒĽ":3853,"ĠÐ´Ð°Ð¹ÑĭÐ½Ð´ÑĭÒĽ":3854,"?Â»":3855,"____":3856,"ĠÐ±ÐµÐ½":3857,"ÐĸÐ°Ð»Ð¿Ñĭ":3858,"Ġ2011":3859,"Ð¿ÐµÐ¹":3860,"ĠÑģÐ°Ð¿Ð°Ð»Ñĭ":3861,"ĠÐŀÒĽÑĥÑĪÑĭÐ»Ð°ÑĢ":3862,"ĠÐµÑģÑĸÐ¼":3863,"Ġ198":3864,"ĠÐ¿ÐµÑĢ":3865,"Ð°Ð»Ð°ÑĢÑĭÐ½Ð°":3866,"Ð½ÑĭÐ¹":3867,"Ð¡ÑĸÐ·":3868,"Ð¶Ð°Ñģ":3869,"ĠÑĪÐµÒ£Ð±ÐµÑĢÑĸÐ½Ð´Ðµ":3870,"ÑĭÒĵÑĭÐ¼ÐµÐ½":3871,"ĠÑĤÐ°Ð½ÑĭÐ¼Ð°Ð»":3872,"ĠÐ³Ð°Ð·ÐµÑĤÑĸ":3873,"Ð¼Ð°Ð»Ñĭ":3874,"ĠStan":3875,"Ð³ÑĸÐ¼ÐµÐ½":3876,"Ð»Ð°ÑĢÑĭÐ½Ð°":3877,"ĠÐ·Ð¸ÑıÐ½":3878,"ĠÐĳÐµÑĢ":3879,"ĠÐ¢Ò¯ÑĢÐºÑĸÑģÑĤÐ°Ð½":3880,"ÐĲÒĽÑĤÓ©Ð±Ðµ":3881,"ÐºÐ¸":3882,"do":3883,"ĠÒĽÑĭÑĢÐºÒ¯Ð¹ÐµÐº":3884,"ĠÐ¼Ð°Ð¼Ð°Ð½Ð´ÑĭÒĽ":3885,"Ð´Ð°Ð¼Ð°":3886,"ĠÓĻÐ´ÑĸÑģÑĸ":3887,"ÑĭÐ¼ÑĪ":3888,"ĠÓ©Ð·Ð³ÐµÑĢÑĤÑĥ":3889,"ĠÐ¯ÒĵÐ½Ð¸":3890,"ĠÑĤÒ¯ÑģÐµÐ´Ñĸ":3891,"ÑĪÐ°ÑĢÑĤ":3892,"ÑĤÑĭÐ¼":3893,"ÑĤÑĤÑĸ":3894,"Ð°Ð»Ð»":3895,"Ð°ÑıÑģÐ¸":3896,"Ġ//":3897,"Ð°ÑĤÑĤÐ°ÑĢÐ´Ñĭ":3898,"Ð³ÐµÐ»":3899,"ĠÐ½Ò±ÑģÒĽ":3900,"ĠÐ±Ð°ÑģÑĤÐ°Ð»Ð´Ñĭ":3901,"ĠÐ½ÐµÐ³Ðµ":3902,"ĠÐ°ÑĪÑĭÐ»Ð´Ñĭ":3903,"ÐµÑĢÐ¼Ð°Ð½":3904,"ĠÐ°Ð»Ð°ÑģÑĭÐ·":3905,"ÑĢÐ°Ð½Ñģ":3906,"ĠÐŀÐ½Ñĭ":3907,"ĠÐ±ÑĸÑĢÐ´ÐµÐ½":3908,"ĠÐ¶ÐµÑĤÑĤÑĸ":3909,"ĠÑģÒ±ÑĢÐ°Ð½":3910,"ĠÑģÐ°Ð»ÑĭÐ½ÒĵÐ°Ð½":3911,"ĠÐµÑģÐºÐµ":3912,"Ð´Ð¸Ð½":3913,"ÑĢÐµÑģ":3914,"ĠÒ±ÒĽÑģ":3915,"ÑĸÑģÑĸÐ½Ðµ":3916,"ĠÐķÐºÑĸ":3917,"ĠÐ¶Ð°Ð·ÒĵÐ°Ð½":3918,"ÑĤÒĽÐ°Ð½":3919,"ĠÐ¶Ð¾ÒĵÐ°ÑĢÒĵÑĭ":3920,"Ð´Ð°Ð½ÑĭÒ£":3921,"ĠÐ´ÓĻÑĥÑĸÑĢ":3922,"ĠÐŁÑĢÐµÐ·Ð¸Ð´ÐµÐ½ÑĤÑĸÐ½ÑĸÒ£":3923,"ĠÐ¶Ð°Ð·Ð±Ð°":3924,"ĠÐ¼Ò¯Ð»":3925,"ĠÐ¼Ò±ÒĵÐ°Ð»ÑĸÐ¼Ð´ÐµÑĢ":3926,"ĠÐ´ÐµÒ£Ð³ÐµÐ¹Ñĸ":3927,"Ð´ÑĭÒ£ÒĵÑĭ":3928,"ĠX":3929,"ĠÐ°Ð»ÒĵÐ°Ð½Ð´Ð°":3930,"ĠÐ¶Ð¾Ð¹":3931,"ĠÐºÒ¯Ð½Ð´ÐµÑĢÑĸ":3932,"ÑĸÐ½Ð³ÐµÐ½":3933,"Ð³ÐµÑĢÑĸ":3934,"ĠÐ¶Ð°ÑĢÐ¸ÑıÐ»Ð°Ð½ÒĵÐ°Ð½":3935,"ĠÐ°Ð»ÒĵÑĭÑģ":3936,"ĠÑĤÓĻÐ¶ÑĸÑĢÐ¸Ð±Ðµ":3937,"ĠÐ°Ð¿Ð¿Ð°ÑĢÐ°ÑĤÑĭ":3938,"ÐŀÐ±Ð»":3939,"ÐļÐµÐ»":3940,"ĠÐ°ÒĵÐ°ÑĪ":3941,"ĠÒĽÐ°ÑĢÐ°Ð¿Ð°Ð¹ÑĭÐ¼":3942,"ĠÑįÐ»ÐµÐ¼ÐµÐ½ÑĤ":3943,"Ð·ÑĭÑĢ":3944,"ĠÐ±Ð°ÑģÑĭÐ»ÑĭÐ¼":3945,"Ð¾Ð³ÑĢÐ°ÑĦÐ¸Ñı":3946,"ĠÑĤÑĸÑĢÐºÐµÐ»Ð³ÐµÐ½":3947,"ĠÒĽÐ°Ð»ÑĭÐ¿ÑĤÐ°ÑģÑĤÑĭÑĢ":3948,"ĠÐľÐµÐ½ÑĸÒ£":3949,"Ð³ÑĸÑĪ":3950,"Ġ2010":3951,"ÑĤÐµÑĢÐ¼ÐµÐ½":3952,"ĠÑĤÑĭÐ¹ÑĭÐ¼":3953,"ĠÒĽÐ¾Ð¹ÑĭÐ»ÒĵÐ°Ð½":3954,"Ð°Ð·Ñĭ":3955,"ĠÐ¼Ò¯ÑĪÐµÑģÑĸ":3956,"ĠÑģÐµÐ¼Ð¸Ð½Ð°ÑĢ":3957,"ÐĲÐ»ÑĤÑĭÐ½":3958,"ĠÒļÐ¾ÑģÑĤÐ°Ð½Ð°Ð¹":3959,"ĠÐµÐ³":3960,"Ð´Ð°Ð»Ð´Ñĭ":3961,"ĠÐ°ÑĥÐ¼Ð°ÒĵÑĭ":3962,"ĠÐ¾Ð¹Ð»Ð°Ð¹":3963,"ĠÐºÐµÐ¿ÑĸÐ»":3964,"ĠR":3965,"ĠÓĻÑĢÑĸÐ¿ÑĤÐµ":3966,"ÑĥÐ´Ðµ":3967,"ÑĤÑĸÐ·":3968,"ĠÐ±Ð¾ÑģÑĤÐ°Ð½":3969,"ÑĸÐºÑĤÐµ":3970,"ĠÐ¾ÑĢÑĤÐ°ÑĪÐ°":3971,"ĠÒĽÒ±Ð¶Ð°ÑĤÑĤÐ°ÑĢÐ´Ñĭ":3972,"Ð°Ð±Ð¸Òĵ":3973,"ĠÐ¶Ð°Ò£ÒĵÑĭÑĢ":3974,"Ð°Ð±Ð¸":3975,"ĠÐºÐ¾Ð¼Ð¼ÑĥÐ½Ð°Ð»Ð´ÑĭÒĽ":3976,"ÒĽÑĭÑĤÑĥ":3977,"ĠÐºÑĥÑĢÑģ":3978,"ĠÐ·Ð°ÑĢ":3979,"ĠÐ¶ÐµÐ»Ñĸ":3980,"ĠÐ±ÑĸÐ»ÑĥÐ³Ðµ":3981,"iÐ¿":3982,"ĠÑįÐ½ÐµÑĢÐ³Ð¸Ñı":3983,"ÑĤÑĸÐ»ÑĸÐº":3984,"ĠÐ¶Ð¾Ð»Ð°Ñĥ":3985,"ĠÐ³Ò¯Ð»":3986,"ÑĸÐ»ÑĥÐ´Ðµ":3987,"ĠÐ½ÓĻÑĢÑģ":3988,"ĠÒĽÐ°Ð¹ÑĤÑĭÑģ":3989,"ĠÐ¶Ð¾ÑģÐ¿Ð°ÑĢÐ»Ð°Ñĥ":3990,"ĠÐºÒ¯Ð·":3991,"ÑĤÐµÐ½ÑĪÐµ":3992,"ĠÐµÑģÐµÐ¿ÑĤÐµÑĥ":3993,"ĠÐ¼Ð°Ð³":3994,"ĠÐ¼Ð°ÑĤÐµÑĢÐ¸Ð°Ð»Ð´ÑĭÒĽ":3995,"ÑĤÐ°Ð¼Ð°ÑģÑĭ":3996,"ĠÐ°ÑĢÒĽÐ°ÑģÑĭÐ½Ð´Ð°":3997,"Ð¾ÑĢÐ»ÑĭÒĽ":3998,"ĠL":3999,"Ð¾ÑģÐ¾ÑĦ":4000,"ÐļÐ¾Ð½":4001,"ĠÐ¶Ð°ÑĥÐ°Ð¿ÐºÐµÑĢÑĪÑĸÐ»ÑĸÐº":4002,"ÐµÑģÑĤÐ¸Ð²":4003,"ÑĤÐµÑĢÐ´Ðµ":4004,"Ó©Ð½ÐµÑĢ":4005,"ĠÐ¿ÑĢÐ¾ÑĦÐµÑģÑģ":4006,"ÑĸÒ£ÑĸÐ·Ð³Ðµ":4007,"ĠÐ±Ð°ÑģÑĭÐ¿":4008,"ĠÓĻÐ¹ÐµÐ»Ð´ÐµÑĢ":4009,"ĠÐ±ÐµÑĢÐµ":4010,"ÑĥÐ´Ñĸ":4011,"Ð°ÑģÑĭÐ¿":4012,"ĠÐ¶Ò±Ð¼Ñģ":4013,"Ð°ÑħÐ¼ÐµÑĤ":4014,"ÐºÐ¾Ð½":4015,"ĠÐļÓ©Ð¿":4016,"ĠÐĲÑĥÑĭÐ»":4017,"ĠÑĤÒ¯ÑĢÐ»ÐµÑĢ":4018,"Ð¡Ð¾Ð»":4019,"ĠÐ±Ð°ÑģÑĭÐ½Ð´Ð°":4020,"Ð±Ð°Ð»":4021,"ĠÐ¾ÑĢÐ¼Ð°Ð½":4022,"ĠÐ°ÑģÑĤ":4023,"ĠÑĤÐ°Ð·Ð°":4024,"ÐµÐºÐµÐ½":4025,"Ð»Ð°Ð½ÑĭÐ¿":4026,"ĠÐºÐ°Ð¿Ð¸ÑĤÐ°Ð»":4027,"ĠÐ¶ÑĭÐ»Ð´Ð°ÑĢÒĵÐ°":4028,"Ð¶ÓĻÐ½Ðµ":4029,"ÒĽÐ°ÑĪÐ°Ð½":4030,"ÐĿÐµÐ³ÑĸÐ·Ð³Ñĸ":4031,"ĠÐºÐ°ÑĢ":4032,"Ð´ÐµÐ½Ð¸ÐµÑĤ":4033,"Ð¸ÑĤÑĭÐ½":4034,"ĠÑĤÒ¯ÑĢÑĸÐ½Ð´Ðµ":4035,"ĠÒĽÐ¾ÑĢÒĵÐ°Ð½":4036,"ÐºÐ°Ñĩ":4037,"ÑĸÐ»ÐµÑĥ":4038,"ĠÑĸÑģÑĸ":4039,"is":4040,"ch":4041,"ĠÐ°ÑĤÐ°Ð»Ð°Ð´Ñĭ":4042,"ĠÐºÓ©Ð·Ñĸ":4043,"ĠÐºÐµÐ·ÐµÒ£Ð´Ðµ":4044,"ĠÑĪÐ°ÑĪ":4045,"Ð¾Ð±Ð¸Ð»ÑĮ":4046,"ĠÑģÐ°Ð¿Ð°ÑĢ":4047,"ÐķÐĽ":4048,"ÐºÓ©ÑĢ":4049,"ÑĥÐ»Ñĭ":4050,"ĠÐ±ÑĸÑĢÐ»ÑĸÐº":4051,"ĠÒĽÐ°Ð·Ð°":4052,"ĠÒļÐ°Ð·Ð°ÒĽÑģÑĤÐ°Ð½Ð´Ð°ÒĵÑĭ":4053,"ĠÐºÑĥÑĢ":4054,"Ð°ÑĥÐ»Ñĭ":4055,"60":4056,"ÐµÐ´Ð¸Ñı":4057,"ĠÐ°ÑĥÑĢÑĥÑħÐ°Ð½":4058,"ĠÐ°Ð»Ð´Ð°ÒĵÑĭ":4059,"ĠÐ¶ÐµÑĤÐº":4060,"ÑĥÐ½Ð¸":4061,"âĨ":4062,"ĠÐ´Ð°ÑĢ":4063,"ĠÑĤÐµÒ£Ð³ÐµÐ³Ðµ":4064,"ĠÑĤÐ¾Ð¿ÒĽÐ°":4065,"Ð¢Ð°ÑĢ":4066,"Ð¶ÐµÐ½":4067,"Ð¾ÑĢÐ¼Ð°":4068,"Ð°Ð»Ñĥ":4069,"ĠÐ±Ð°Ð½ÐºÑĤ":4070,"ion":4071,"ĠÐ¶ÑĭÐ»Ð´Ð°":4072,"ÐľÐµÐ½ÑĸÒ£":4073,"ĠÑģÐ°Ð»ÑĤ":4074,"ÑĸÐ½Ð´Ñĸ":4075,"ÑĭÐ»ÑĭÐ¼Ð¸":4076,"ĠÑĤÑĭÒĵ":4077,"ÐĳÒ±":4078,"ĠÐ±Ð¾Ð»Ð¼Ð°ÑģÐ°":4079,"ĠÐ±Ð°ÑĥÑĭÑĢ":4080,"70":4081,"ĠÐ¶Ð°ÑĤÑĤÑĭÒĵÑĥ":4082,"ĠÑĸÑģÑĤÐµÐ¹Ð´Ñĸ":4083,"ĠÐ°Ð¹ÑĤÑĭÐ»ÒĵÐ°Ð½":4084,"Ò¯ÑĢÐ³ÑĸÐ·":4085,"ĠÐºÓ©ÑĢÑģÐµÑĤÑĤÑĸ":4086,"ĠÐ±ÑĸÐ»Ð´ÑĸÑĢÐµÐ´Ñĸ":4087,"ĠÒĽÑĭÐ¼":4088,"ag":4089,"Ð»Ñı":4090,"ĠÑģÓ©Ð¹Ð»ÐµÑĥ":4091,"Ð°ÑĢÑĭÑĪ":4092,"ÑĭÐ½Ð´Ð°ÒĵÐ°Ð½":4093,"ĠÑĤÐµÑĢÐ¼Ð¸Ð½":4094,"ĠÐµÑĢÐµÐºÑĪÐµÐ»Ñĸ":4095,"ĠÑģÐ¾Ò£ÑĭÐ½Ð´Ð°":4096,"ĠÐ¼ÑĸÐ½Ð´ÐµÑĤÑĤ":4097,"ĠÑģÐ¾Ð½Ð´ÑĭÒĽÑĤÐ°Ð½":4098,"Ġ80":4099,"29":4100,"ĠÐ±Ð°ÒĽ":4101,"ÐĸÐ¾":4102,"ĠÐ·Ð°Ð»":4103,"ĠÑįÑĤÐ½":4104,"ĠÑĤÓĻÑĢÑĤÑĸÐ±Ñĸ":4105,"ĠÐĲÑħÐ¼ÐµÑĤ":4106,"ÐµÐ³ÑĸÐ¼ÐµÐ½":4107,"ÑĭÐ½Ð´ÑĭÒĵÑĭ":4108,"ĠÑĤÐµÑħÐ½Ð¾Ð»Ð¾Ð³Ð¸ÑıÐ»Ð°ÑĢ":4109,"ÐºÐ°ÑĩÐ°ÑĤÑĮ":4110,"ĠÐ¾ÑĤÑĭÑĢÐ°Ð´Ñĭ":4111,"ĠÐŀÒĽÑĥ":4112,"ĠÑĤÐ°Ð½Ñĭ":4113,"ĠÐºÓ©Ð»":4114,"Ð´ÐµÑģ":4115,"ĠÐºÐ¸ÑĸÐ¼":4116,"ĠÐ°Ð¿Ð¿Ð°ÑĢÐ°ÑĤ":4117,"ĠÒ±ÑģÑĭÐ½ÑĭÑģÑĤÐ°ÑĢ":4118,"Ð°Ð½Ñĥ":4119,"ĠÑĪÐ°ÒĵÑĭÐ¼":4120,"ĠÐľÐľ":4121,"ĠÐ±Ð¾ÐºÑģ":4122,"Ð°ÑĥÐ¸":4123,"ĠÐ¸Ð½Ð²ÐµÑģÑĤÐ¸ÑĨÐ¸ÑıÐ»ÑĭÒĽ":4124,"ĠÐºÐ¾Ð¼Ð¸ÑĤÐµÑĤÑĸÐ½ÑĸÒ£":4125,"ĠÐ¿Ð°Ð¹Ð´Ð°Ð»Ñĭ":4126,"ÑĥÑĢÐµÑĤ":4127,"ĠÐ±ÐµÑĢÑĥÑĪÑĸ":4128,"Ð»Ð°Ð¹Ð´":4129,"ĠÐĳÒ¯":4130,"ĠÐ¶Ò¯Ð¹Ðµ":4131,"ĠÐĲÐ±":4132,"ĠÐ¿Ðµ":4133,"ĠÐ¶Ò¯ÑĢÐµÐº":4134,"ÐľÐµÐºÑĤÐµÐ¿":4135,"ĠÐ¤ÑĢÐ°Ð½ÑĨÐ¸Ñı":4136,"ÑģÓ©Ð·":4137,"ÑĪÐ°Ð»ÑĭÒĽ":4138,"ĠÐºÒ¯Ð¼":4139,"ÐŀÐł":4140,"ĠÐ½ÐµÑģÐ¸":4141,"ĠÑĤÑĭÑĢÑĭÑģ":4142,"ĠÐ¼ÓĻÑģÐ»Ð¸ÑħÐ°ÑĤ":4143,"ĠÐ½Ð°ÑģÐ¸ÑħÐ°ÑĤ":4144,"ĠÑįÐ»ÐµÐºÑĤÑĢÐ¾Ð½Ð´Ñĭ":4145,"ĠÐ´Ð°Ð»":4146,"ĠÑĤÐ¾Ð½Ð½Ð°":4147,"us":4148,"ĠÐºÑĸÑĢÑĸÑģ":4149,"ĠÐ±Ð¾Ð»Ð°ÑĪ":4150,"ĠÒĽÒ±Ð·ÑĭÑĢ":4151,"ĠÐĲÐ²":4152,"ay":4153,"ĠÑĤÐ°Ð±ÑĭÐ»Ð°ÑĤÑĭÐ½":4154,"Ð¼ÑĭÑĪ":4155,"Ð¾ÒĵÐ°Ð¼":4156,"Ð¾ÑģÑĭÐ½":4157,"ÑĭÒĵÐ°ÑĢ":4158,"ĠÉĻ":4159,"ĠÐĸÐ¾Ð»Ð´Ð°Ñĥ":4160,"ĠÓ©Ð·Ð´ÐµÑĢÑĸÐ½ÑĸÒ£":4161,"ĠÑĤÐ¾Ð»ÑĭÒĽÑĤÑĭÑĢÑĥ":4162,"31":4163,"Ð´ÑĭÐ¼":4164,"Ġ31":4165,"ĠÐ°Ð·ÑĭÒĽ":4166,"ĠÒ±Ð¹ÑĭÐ¼Ð´Ð°ÑĢ":4167,"ĠÐºÑĸÑĪ":4168,"Ð°Ð½Ð´Ð¸Ð´Ð°":4169,"ĠÑĤÐ°ÒĵÐ°Ð¼":4170,"ÑĭÐ¼ÑĭÐ·ÒĵÐ°":4171,"ĠÒĽÐ¾Ð¹ÑĭÐ¿":4172,"ÐľÐµÐ¼Ð»ÐµÐºÐµÑĤ":4173,"ĠÓ©ÑĤÐºÑĸÐ·Ð´Ñĸ":4174,"Ð´ÐµÑģÑĥ":4175,"ĠÓĺÐ»ÐµÐ¼":4176,"ĠÒ¯Ð»ÐµÑģ":4177,"Ð¸ÑĨÐµÐ¹":4178,"ĠÐ¢Ó©":4179,"ĠÐ±Ð°Ð»Ð°Ð±Ð°ÒĽ":4180,"ÐŀÐ¹":4181,"ĠÐºÐ»Ð°ÑģÑģ":4182,"ĠÐ½ÐµÐ³ÑĸÐ·Ñĸ":4183,"ĠÑĸÑģÑĤÐµÑĢÑĸ":4184,"ĠÐ¶Ð°Ð»ÒĵÑĭÐ·":4185,"ĠÐķÑĥÑĢÐ¾Ð¿Ð°":4186,"ÐµÐºÑĸ":4187,"ĠÑĤÐ°Ð¿ÒĽÐ°Ð½":4188,"Ð¡Ð¾Ð½Ð´Ð°Ð¹":4189,"ĠÐºÓ©ÑĢÑģÐµÑĤÑĸÐ¿":4190,"ĠÐ¢Ò¯ÑĢÐº":4191,"ÐµÐ³ÐµÐ¹":4192,"ÐµÑĤÐ¸ÐºÐ°Ð»ÑĭÒĽ":4193,"ĠÐ´ÓĻÑģÑĤÒ¯ÑĢÐ»Ñĸ":4194,"ÐµÐ»ÐµÑĢÐ´ÑĸÒ£":4195,"ĠÐºÑĸÑĤ":4196,"ÑĥÑĭÐ»":4197,"ÐµÐ¼ÐµÑĤ":4198,"Ð³ÐµÐ´ÐµÐº":4199,"ĠÐµÐ´ÑĸÐ¼":4200,"ĠÐ¿Ð°Ð¹ÑĭÐ·ÒĵÐ°":4201,"ĠÐ±Ð°ÒĵÐ°ÑģÑĭ":4202,"ĠÐºÑĸÑģÑĸ":4203,"ĠÓ©ÑĢÐºÐµÐ½":4204,"com":4205,"ÐĸÐ°ÑĢ":4206,"ĠÓ©Ð»ÑĤÑĸÑĢ":4207,"ÓĻÑĢÑĸ":4208,"ÑĸÐ¼ÑĸÐ·Ð´Ðµ":4209,"ĠÒ¯Ð½ÐµÐ¼Ñĸ":4210,"ĠÑģÓ©Ð·Ñĸ":4211,"ĠÑģÐµÐ½ÑĸÐ¼Ð´Ñĸ":4212,"Ð´ÐµÑĤÑĤÐµ":4213,"Ð±Ò±Ð»":4214,"ĠÐĸÐ°Ò£Ð°Ð»ÑĭÒĽÑĤÐ°ÑĢ":4215,"ĠÐ´ÐµÑĢÐµÐºÑĤÐµÑĢ":4216,"ĠÐ¶Ð°ÑĤÐ°ÑĤÑĭÐ½":4217,"ÑĥÑħÐ³Ð°Ð»":4218,"ĠÑģÐ°Ð»Ð°ÑģÑĭ":4219,"ĠÐ¿ÑĢÐ¸Ð½":4220,"ÑĸÑģÑĤÑĸÒ£":4221,"ĠÐ±Ð°Ð±":4222,"ĠÓ©Ð·ÐµÐºÑĤÑĸ":4223,"ĠÐ¼ÐµÑħÐ°Ð½":4224,"ĠÐµÑģÐµÐ¿ÑĤÐµÐ»":4225,"ĠÒĽÐ°ÑĤÑĭÑģÑĭÐ¿":4226,"ÑĢÐ°Ð¼Ð¼":4227,"ÐĲÐ½":4228,"45":4229,"ĠÐ¶Ò¯ÑĢÐ³ÑĸÐ·ÑĸÐ»ÐµÐ´Ñĸ":4230,"Ð°ÑĪÐ°":4231,"ĠÑĤÒ±Ð»ÒĵÐ°Ð»Ð°ÑĢÐ´ÑĭÒ£":4232,"ut":4233,"Ð°ÑĤÒĽÐ°":4234,"ÐºÐ¾Ð²":4235,"ÑĸÒ£ÑĸÐ·Ð´Ñĸ":4236,"ĠÒĽÐ°ÑĢÐ¶ÑĭÐ»Ð°Ð½Ð´ÑĭÑĢÑĥ":4237,"ÑģÐ°Ð¼Ð±Ð»":4238,"ĠÐ¾ÒĽÐ¸":4239,"ĠÓĻÐ´ÐµÐ±Ð¸ÐµÑĤ":4240,"ĠÑĤÐ¾ÒĽÑĤ":4241,"UR":4242,"ĠÒĽÒ±ÑĢÐ°Ð»Ñĭ":4243,"ÑĦÑĢ":4244,"ĠÒĽÐ°Ð»Ð°Ð´Ñĭ":4245,"ÑĸÐ¼ÑĸÐ·Ð³Ðµ":4246,"ĠÐºÐ°Ð±":4247,"ĠÓĻÐ·ÑĸÑĢÐ»":4248,"ÑĭÐ¼Ð°":4249,"ĠÒĽÐ¾ÒĵÐ°Ð¼Ð½ÑĭÒ£":4250,"ĠÒĽÐ°Ð»Ð¿ÑĭÐ½Ð°":4251,"ĠÒĽÐ¾ÑģÑĥ":4252,"Ó©Ò£Ð³":4253,"ÐµÐ³ÐµÐ½Ð¼ÐµÐ½":4254,"ĠÐ°ÑĢÐ´Ð°Ð³":4255,"Ð°Ð±Ð°ÐµÐ²":4256,"Ð°Ð¹ÑĤ":4257,"ĠÐ±Ð¾Ð»Ð¼Ð°ÒĵÐ°Ð½":4258,"ĠÐ¼ÑĥÐ·ÑĭÐº":4259,"ÐĺÐļ":4260,"ÓĻÐºÑĸÑĢ":4261,"Ò±ÑĢÑĭÐ»ÑĭÐ¼":4262,"ÒĵÑĭÐ»Ð°ÑĢ":4263,"ĠÑĤÑĭÒĵÑĭÐ·":4264,"ĠÐ¶Ð°Ð¼Ð°Ð½":4265,"ĠÑĥÐ½Ð¸Ð²ÐµÑĢÑģÐ¸ÑĤÐµÑĤÑĸÐ½ÑĸÒ£":4266,"ÑĤÐ°ÐµÐ²":4267,"Ð»ÑĭÒĽÒĽÐ°":4268,"ÐµÐ¼ÑĸÑĢ":4269,"ÑĭÑģÑĤÐ°ÒĵÑĭ":4270,"ĠÐ¼Ò¯ÑĪÐµÐ»ÐµÑĢÑĸ":4271,"ĠÐ°ÑĢÑħ":4272,"ÒļÐ¾ÑĢ":4273,"ÑĪÑĸÐ»ÐµÑĢÑĸ":4274,"ĠÐļÐµÒ£ÐµÑģ":4275,"un":4276,"ÂŃÂŃ":4277,"ÑģÐµÐ½Ð±Ñĸ":4278,"Ð¿ÐµÑĢÐ°ÑĤÑĥÑĢ":4279,"ÐµÐ·ÐµÐ½ÑĤÐ°ÑĨÐ¸Ñı":4280,"ĠÑĤÑĸÐ»ÑĪÑĸÑģÑĸ":4281,"Ð·Ð°":4282,"Ð±ÐµÐºÑģÑĤÐ°Ð½":4283,"ÒĽÐ°Ð·":4284,"Ð°ÒĵÑĭÐ·":4285,"ĠÐ¡Ð¾Ð»ÑĤÒ¯ÑģÑĤÑĸÐº":4286,"ĠÐľÐµÐºÑĤÐµÐ¿":4287,"ĠÐ¾ÑĢÐ³Ð°Ð½Ð´Ð°ÑĢÐ´ÑĭÒ£":4288,"ĠÐ½Ð¸":4289,"ÒĵÐ°Ð¼Ð±Ð°ÑĢ":4290,"ĠÑħÐ°Ð»ÑĭÒĽÒĽÐ°":4291,"ĠÑĪÑĭÑĢ":4292,"ĠÐ¶Ð°ÒĽÑģÐ°ÑĢÑĤÑĥ":4293,"ĠÐ¿Ð°":4294,"ĠÐ½ÐµÐ¼":4295,"ĠÒĽÐ°Ð´Ð°ÒĵÐ°Ð»Ð°Ñĥ":4296,"ĠÐºÓ©ÑĢÑĸÐ½ÐµÐ´Ñĸ":4297,"re":4298,"ĠÐĲÐ¼Ð°Ð½":4299,"ĠÓĻÐ»ÐµÑĥ":4300,"Ð±Ò±Ð´Ð°Ð½":4301,"Ð¼Ð¸Ð½Ð¸ÑģÑĤÑĢ":4302,"iÐ½Ðµ":4303,"ov":4304,"ĠÐ¾ÑĢÐ³Ð°Ð½Ð´Ð°ÑĢ":4305,"Ð´Ð¸":4306,"ĠÐºÓ©ÑĢÑģÐµÑĤÑĸÐ»ÐµÐ´Ñĸ":4307,"ĠÐ°ÑĪÑĭÐ¿":4308,"Ð°ÑĤÑĭÐ»ÒĵÐ°Ð½":4309,"Ð°ÒĽÑĭÑĢÑĭÐ±Ñĭ":4310,"ĠÐ¾ÒĽÑĥÒĵÐ°":4311,"ĠÐµÑģÐµÐ±ÑĸÐ½ÐµÐ½":4312,"ĠÐ´Ð°ÑĥÑĭÑģ":4313,"ÐµÑģÑĸÒ£":4314,"ĠÐ¶Ð°ÑģÓ©ÑģÐ¿ÑĸÑĢ":4315,"ĠÓĻÐ´ÑĸÑģÑĤÐµÐ¼ÐµÐ»ÑĸÐº":4316,"ÒĴÐ«":4317,"ĠÐºÐµÐ´ÐµÐ½":4318,"Ò±ÑĢÐ°ÒĽ":4319,"ĠÐ°ÑģÑĭÑĢÐ°Ð´Ñĭ":4320,"Ð½Ð¸ÑĢ":4321,"ĠÑĤÒ±ÑĢÒĵÑĭÐ´Ð°Ð½":4322,"ĠÒĽÐ°ÑĤÑĭÑģÒĽÐ°Ð½":4323,"ÐĺÐ¯":4324,"ÑĤÐ¾Ð¼":4325,"ÑĥÒĵÐ°Ð½":4326,"ÐµÐ´ÐµÐ½":4327,"Ð°ÑĤÒĽÐ°Ð½":4328,"ĠÐ´Ð°Ð¼ÑĭÒĵÐ°Ð½":4329,"ÑģÑĭÐ»ÑĭÒĽ":4330,"ĠÐºÒ¯Ð»":4331,"ÑĥÐ¼ÐµÐ½":4332,"ĠÐļÐ°Ð·Ð°Ñħ":4333,"Ð³ÐµÑĢÑĪÑĸÐ»ÑĸÐº":4334,"ĠÐŀÐ±Ð»":4335,"ĠÐ¾Ð±ÑĬÐµÐºÑĤÑĸÐ»ÐµÑĢ":4336,"ĠÐºÐ°Ð½Ð´Ð¸Ð´Ð°":4337,"ĠÒĽÐ°ÑĢÐ°Ð¼Ð°ÑģÑĤÐ°Ð½":4338,"ÑĪÐºÑĸ":4339,"ÐĲÐ¹ÑĤÐ°":4340,"ĠÐ¾ÑĢÐ³Ð°Ð½Ð´Ð°ÑĢÑĭ":4341,"oo":4342,"ĠÐ¼ÐµÐºÑĤÐµÐ¿ÐºÐµ":4343,"ĠÐ¿ÑĢÐ¾Ð³":4344,"Ò±Ð»Ñĥ":4345,"ÐĳÑĸÐ·Ð´ÑĸÒ£":4346,"ÐºÑĨÐ¸Ð¾Ð½":4347,"Ð»Ð¾Ð³":4348,"ÐĲÑģÑĤÐ°Ð½":4349,"ĠÑģÓ©Ð¹Ð»ÐµÐ¼":4350,"Ð¼Ð°Ñģ":4351,"ĠÐ°ÑģÑĭÑĢÑĥÒĵÐ°":4352,"Ð¡Ð°Ð½":4353,"ÑĥÐ¼Ð°Ð½":4354,"ĠÐĳÒ¯Ð³ÑĸÐ½Ð³Ñĸ":4355,"ĠÐ¢Ó©Ð»":4356,"ÒĽÐ°Ð»":4357,"ÐĸÑĭÐ»":4358,"ĠÑģÐ°Ð½Ð°Ð»Ð°Ð´Ñĭ":4359,"ĠÑģÐ°Òĵ":4360,"ÒĽÑĭÐ¼Ð´Ñĭ":4361,"ĠÐ¼Ð°Ð·Ð¼Ò±Ð½Ñĭ":4362,"ĠÐµÐº":4363,"ĠÐĳÐĲÒļ":4364,"ĠÐ¡Ó©Ð¹":4365,"ÐµÑĢÑĤÐ¸ÑĦ":4366,"ÐĵÐĨ":4367,"Ð°ÑĥÐ»":4368,"ĠÐ¾Ò£Ð°Ð¹":4369,"ÒĵÐ°ÒĽ":4370,"ĠÐ±Ð°ÑĢÐ°":4371,"ĠÐ¾ÑĢÐ³Ð°Ð½Ð´Ð°ÑĢÑĭÐ½ÑĭÒ£":4372,"ĠÐ¼ÓĻÐ»ÑĸÐ¼ÐµÑĤ":4373,"Ð¸ÑģÑģ":4374,"ĠÑĤÒ¯ÑĢÐ»ÐµÑĢÑĸÐ½":4375,"ĠÒĽÒ±ÑĢÐ¼ÐµÑĤ":4376,"Ð»ÑĭÒĽÑĤÑĭ":4377,"ĠÐ´Ð¾ÐºÑĤ":4378,"ÒĽÐ°Ð±":4379,"ÑĥÐ´ÑĸÒ£":4380,"Ð»ÐµÑĢÐ³Ðµ":4381,"Ð´Ð°Ð½Ð´ÑĭÑĢÑĥ":4382,"ÑģÑĤÐ°Ð·":4383,"ĠÑĪÐ¾ÑĤ":4384,"ĠÒļÐ°Ð·ÐĲÒĽÐ¿Ð°ÑĢÐ°ÑĤ":4385,"ĠÐ´Ð¾Ð»Ð»Ð°ÑĢ":4386,"ĠÑĥÐ°ÒĽÑĭÑĤÑĪÐ°":4387,"ĠÐ½ÓĻÑĤÐ¸Ð¶ÐµÑģÑĸ":4388,"Ð´ÐµÐ¼Ñĸ":4389,"ĠÐ±Ð°ÒĵÐ°Ð»Ñĭ":4390,"ĠÐĿÐ°ÑĥÑĢÑĭÐ·":4391,"ĠÒĽÐ°Ð¹ÑĭÑĢ":4392,"ĠÒĽÒ±ÑĢÑĭÐ»ÑĭÐ¼Ñĭ":4393,"Ġ?":4394,"Ġt":4395,"ĠÐ°ÑģÑĭÑĢÐ°ÑĤÑĭÐ½":4396,"ĠÐ¶Ð°ÑģÑĭÑĢ":4397,"ĠÓ©Ð¼ÑĸÑĢÑĸ":4398,"ĠÐ±Ð°ÑģÒĽ":4399,"ĠÐºÓ©ÑĢÑģÐµÑĤÐºÐµÐ½":4400,"Ġ35":4401,"ĠÐ¿ÑĢÐµÐ·Ð¸Ð´ÐµÐ½ÑĤ":4402,"ÐļÐŀ":4403,"ÑĢÐ°ÒĽÒ±ÑĢÑĭÐ»ÑĭÐ¼":4404,"ĠÐ¶Ð°ÒĵÐ´Ð°Ð¹Ð»Ð°ÑĢÐ´Ð°":4405,"ÑĭÑĢÐ¼Ð°Ð½":4406,"ĠÑĤÐ°Ð·":4407,"ĠÑĪÐ¾":4408,"ÐºÐ»":4409,"ĠÐ¾Ð·":4410,"ĠÐ°ÒĵÐ°":4411,"ĠÐºÐµÒ£ÐµÑģÑĸÐ½ÑĸÒ£":4412,"ÐµÐ¶Ò¯Ð·ÑĸÐ»ÑĸÐº":4413,"ÐĳÐ¾Ð»Ð°ÑĪÐ°ÒĽ":4414,"ĠÐ°Ð¿ÑĤÐ°":4415,"ĠÐ¿Ð°ÑĢÑĤÐ¸Ñı":4416,"ĠÐ°ÑĢÐ¼Ð°Ð½":4417,"Ò°Ð»ÑĤÑĤÑĭÒĽ":4418,"ÑĥÐµÐ·":4419,"Ð¼ÐµÐ´":4420,"ĠÐ¼ÐµÐºÐµÐ¼ÐµÑģÑĸ":4421,"ĠÐµÐºÐµÐ½Ð´ÑĸÐ³ÑĸÐ½":4422,"ĠÐ¾ÐºÑĢÑĥÐ³Ñĸ":4423,"ĠÐ°Ð»ÒĵÐ°":4424,"ĠÑĪÐ°ÑĢÐ°":4425,"Ò±ÑĢÑĭÐ½":4426,"ÒĽÐ°Ð·Ð°ÒĽ":4427,"ĠÐĳÐµÐ»":4428,"ĠÓĻÑģÑĸÑĢÐµÑģÐµ":4429,"ĠÐ¼Ð°Ð¼Ð°Ð½Ð´Ð°ÑĢ":4430,"ĠÑĤÑĥÑĢÐ¸Ð·Ð¼":4431,"ĠÑĪÑĭÒĵÑĥ":4432,"Ð¼Ð°ÑĢ":4433,"ĠÐ¼ÐµÐ½Ñĸ":4434,"Ò®Ð¹":4435,"ÑĢÐµÐº":4436,"ĠÐ¢Ò±":4437,"ĠÑĪÐ°Ð¼Ð°ÑģÑĭÐ½Ð´Ð°":4438,"Ð¸Ð°Ð»Ñĭ":4439,"ĠÑģÐ¾ÒĽ":4440,"ĠÐ¶ÐµÑĢÑĸ":4441,"ÐľÐĶ":4442,"ĠÐºÓ©Ð¿ÑĪÑĸÐ»ÑĸÐº":4443,"ĠÒĽÑĥÐ°Ð½ÑĭÑĪ":4444,"ĠÐ´Ð¸Ñģ":4445,"ĠÒļÐ°Ñģ":4446,"ĠÓĻÐ»ÑĸÐ¿":4447,"ĠÐ¾ÑĢÑĤÐ°ÒĵÐ°":4448,"ĠÐ¼ÓĻÑĢÑĤÐµÐ±":4449,"ĠÐĲÒĽÐ¼Ð¾Ð»Ð°":4450,"ĠÐ¶ÓĻÑĢÐ´ÐµÐ¼":4451,"ÒĽÐ¾Ð¹":4452,"Ð¿ÑĭÐ½":4453,"ĠÑĪÒ±":4454,"ĠÑģÒ¯ÑĤ":4455,"Ġ90":4456,"Ð°ÑģÒĽÐ°Ð½":4457,"ÐµÐºÑĤÑĸÒ£":4458,"ĠÒĽÒ±ÑĢÐ°Ð¼Ñĭ":4459,"ĠÐ¶Ð°ÑģÐ°Ð¹":4460,"ĠÐ¼ÐµÑĪÑĸÑĤ":4461,"Ð¿Ð°Ð½Ð¸ÑıÑģÑĭ":4462,"ÑĸÑĤÐ°Ð¿":4463,"ĠÑĤÐµÑĢÑĢ":4464,"Ð´Ð°ÑģÑĤÑĭÑĢÑĥ":4465,"ĠÐĳÐ°Ð½Ðº":4466,"ĠÐºÐ¾Ð´ÐµÐºÑģ":4467,"ÐĸÒ±Ð¼ÑĭÑģ":4468,"ĠÐºÑĸÑĪÑĸ":4469,"ĠÐĳÐ°ÑĢÐ»ÑĭÒĽ":4470,"ĠÐ°ÐºÑĤÐ¸Ð²":4471,"Ð¡ÓĻ":4472,"Ð¾Ð½ÑĭÒ£":4473,"ÐµÑĢÑĤÐ¸ÑĦÐ¸Ðº":4474,"ĠÐĶÐ¶":4475,"ÐµÐºÐµÐ³Ðµ":4476,"ÑģÑĸÒ£":4477,"35":4478,"ĠÐ°ÑĥÑĭÑģÑĤÑĭÑĢ":4479,"ÐļÐ¾Ð¼":4480,"ÑģÑĤÑĸÒ£":4481,"ĠÐļÐµÐ¹":4482,"ĠÑĢÐµÐ¶Ð¸Ð¼":4483,"Ð°Ð»Ð´Ð°ÑĢ":4484,"Ð¶Ð°Ð¹Ñĭ":4485,"ĠÐ°ÒĵÑĭÐ¼Ð´Ð°ÒĵÑĭ":4486,"ĠÐºÒ¯Ð½ÑĤÑĸÐ·":4487,"Ð¾Ð»Ñİ":4488,"ĠÐĲÑģÑĤÐ°Ð½Ð°Ð´Ð°":4489,"ĠÒ¯ÐºÑĸÐ¼ÐµÑĤ":4490,"ĠÐ¿Ð¾ÑĢÐ½Ð¾":4491,"ĠÑģÐ°ÒĽÑĤÐ°Ð»":4492,"ĠÐ¾ÐºÑĢÑĥÐ³":4493,"ĠÑĤÑĥÑĭÐ½":4494,"ĠÐ½ÓĻÑĢÑģÐµ":4495,"Ð°ÑĥÑĭÐ½":4496,"ĠÑģÐ°Ð¿Ð°ÑģÑĭ":4497,"Ð°ÑģÑĤ":4498,"ĠÑģÐ°ÑıÑģÐ°ÑĤÑĭ":4499,"ĠÑĦÐ¸Ð»Ð¸Ð°Ð»":4500,"ÐĲÐ±Ð°Ð¹":4501,"ĠÐ¶Ð°Ð¹ÑĭÐ½Ð´Ð°":4502,"ÑĸÐ¼Ð´Ðµ":4503,"Ð»Ð°Ð¹Ð´Ñĭ":4504,"ÑĤÒ¯Ð»ÑĸÐº":4505,"ĠÐºÐ°Ð´ÑĢ":4506,"ĠÐŀÑģÑĭÒĵÐ°Ð½":4507,"Ð»Ð°Ð²":4508,"ĠÐ¶Ò¯ÐºÑĤ":4509,"ĠÐ¾ÑĤÐ°Ð½Ð´ÑĭÒĽ":4510,"ÑĪÐ°Ð¼Ð°":4511,"ÐĶÐķ":4512,"ĠÐµÐ¼Ð´ÐµÑĥ":4513,"ĠÐ±ÑĸÑĢÑĸÐ½":4514,"ÑĢÐ¸ÑĤÐ°Ð½":4515,"ÐŀÐĽ":4516,"ĠÐ¶ÑĭÐ½":4517,"ĠÐľÓĻÑģÐµÐ»ÐµÐ½":4518,"ÑĸÒ£Ð´Ñĸ":4519,"ĠÐºÓĻÑģÑĸÐ¿ÑĤÑĸÐº":4520,"ĠÐºÐµÐ´ÐµÑĢ":4521,"ac":4522,"ĠÐ°Ð»ÑĤÑĭ":4523,"ĠÐ¼ÑĭÒ£Ð½Ð°Ð½":4524,"ĠÑĤÒ±Ð»ÒĵÐ°Ð½ÑĭÒ£":4525,"ĠÐ¼Ð°ÑĤÐµÑĢÐ¸Ð°Ð»Ð´Ð°ÑĢ":4526,"ĠÐ±ÑĸÐ»Ð´ÑĸÑĢÐ´Ñĸ":4527,"ĠÐµÑģÐºÐµÑĢÑĤÐºÑĸÑĪ":4528,"Ð°ÑĪÐ°ÑĢ":4529,"ĠÒĽÐ°ÑĤÑĭÐ½":4530,"ĠÑģÐ°Ð±Ð°ÒĽÑĤÐ°ÑĢ":4531,"ĠÒĽÑĭÐ¼Ð±Ð°ÑĤ":4532,"ÑĭÑģÑĭÐ¼ÐµÐ½":4533,"Ð´ÑĭÒĽÒĽÐ°":4534,"36":4535,"ĠÑģÐ°Ð½Ð°ÑĤ":4536,"Ġ+":4537,"ĠÐ¾ÒĽÑĭ":4538,"Ð¸ÑĨÐµÐ½":4539,"ĠÐ¢ÑĸÐ»":4540,"ĠÑģÐ°ÑĤÑĥ":4541,"Ð¡ÐµÐ½":4542,"ĠÐºÓ©Ð·ÒĽÐ°ÑĢÐ°Ñģ":4543,"ĠÐ¡ÐµÐ¼ÐµÐ¹":4544,"ÒļÐ¾ÑģÑĤÐ°Ð½":4545,"ĠÐ½ÑĭÒĵÐ°Ð¹ÑĤÑĥ":4546,"ĠÐ´Ð¸Ð°Ð³":4547,"ĠÐ´ÐµÒ£Ð³ÐµÐ¹ÑĸÐ½":4548,"ĠÑĪÐ°ÒĽ":4549,"ĠÐ±Ð°Ð»Ð°Ð»Ð°ÑĢÐ´Ñĭ":4550,"ĠÐĸÐ°Ð·":4551,"Ð¸ÐºÐ°Ð½ÑĭÒ£":4552,"Ð°Ð»Ð°ÑĢÐ´Ð°":4553,"ĠÒĽÐ°ÑĤÑĭÑģÑĥÑĭÐ¼ÐµÐ½":4554,"ÑĤÓĻ":4555,"ĠÐ¿Ð°ÑĢÐ°ÒĽ":4556,"ĠÒĽÐ¾ÑģÐ¿":4557,"ĠÑĤÐ°Ð»Ð°Ð¿ÑĤÐ°ÑĢ":4558,"ĠÐ¿ÑģÐ¸ÑħÐ¾Ð»Ð¾Ð³Ð¸ÑıÐ»ÑĭÒĽ":4559,"Ð»ÑĭÐ¼":4560,"ĠÑĤÒ±ÑĢÒĵÑĭÐ½Ð´Ð°ÑĢÑĭ":4561,"80":4562,"ĠÒ¯Ð´ÐµÑĢ":4563,"ĠÐ±Ð°ÒĵÑĭ":4564,"ĠÐ°Ð·Ð°Ð¼Ð°ÑĤÑĤÐ°ÑĢÐ´ÑĭÒ£":4565,"Ð«Ð¡":4566,"ĠÑĤÐµÐ¼Ð¿ÐµÑĢÐ°ÑĤÑĥÑĢ":4567,"Ð°ÑĤÑĤÐ°Ð½":4568,"ĠÐĺÑģÐ»Ð°Ð¼":4569,"ÒĵÒ±ÑĢ":4570,"ÓĻÐ»Ñĸ":4571,"ĠÐ®":4572,"ÑĤÑĸÐ³ÑĸÐ½":4573,"Ð°ÑıÑĥ":4574,"ĠÐ¶Ð°Ð·Ð°Ð´Ñĭ":4575,"ĠÒĽÒ±ÑĢÐ°Ð»Ð´Ð°ÑĢÑĭ":4576,"ĠÒ±ÑģÑĤÐ°Ð¿":4577,"ÒĵÑĭÐ½Ð°":4578,"Ð¸ÐºÐ»":4579,"ÐĳÐ°Ð»Ð°Ð»Ð°ÑĢ":4580,"ÑĤÐ¿":4581,"ĠÑģÒ±Ñħ":4582,"ĠÑĸÑģÑĤÐµÐ¹ÑĤÑĸÐ½":4583,"Ð°Ð»Ð¸ÑĤ":4584,"ĠÐŀÐ½Ð´Ð°":4585,"ĠÐ±Ð°Ð»Ð°ÑģÑĭ":4586,"ĠÐ¶ÐµÑĤÑĸ":4587,"2014":4588,"ĠÒĽÐ¾Ð¹ÑĭÐ»Ð°ÑĤÑĭÐ½":4589,"ĠÐ½Ò±ÑģÒĽÐ°Ñĥ":4590,"Ò¯Ñģ":4591,"ĠÐ¾ÑĢÐ½ÑĭÐ½":4592,"ĠÑģÐµÑĢÑĸÐºÑĤÐµ":4593,"Ð´Ð°ÑĥÑĭ":4594,"ĠÒ¯ÑģÑĤÐµÐ»":4595,"ĠÑģÑĸÐ·Ð´ÑĸÒ£":4596,"ĠÐºÑĸÑĢÐµÐ´Ñĸ":4597,"ÑĥÑħÐ°Ð½Ð¸":4598,"ĠÐµÑĢÐµÐºÑĪÐµÐ»ÑĸÐºÑĤÐµÑĢÑĸ":4599,"ÐµÑģÑģÐ¸Ñı":4600,"ĠÐ°Ð»ÑĥÑĪÑĭ":4601,"ÑĪÑĸÐ»":4602,"ĠÑģÐ°Ð»Ð´Ð°ÑĢÑĭÐ½Ð°Ð½":4603,"ÐĲÑĤÑĭÑĢÐ°Ñĥ":4604,"ĠÑĤÑĥÑĢÐ°":4605,"ÐĸÐ°Ð½":4606,"ĠÐ±Ð°ÑģÑĤÐ°Ð»Ð°Ð´Ñĭ":4607,"ĠÓĻÐ»Ð´Ðµ":4608,"Ð°Ð·Ð¸Ñı":4609,"ĠÐ³ÑĢÐ°Ð½":4610,"ĠÐ¶Ð°ÑĥÑĭÐ½":4611,"ĠÐĳÑĸÑĢÑĸÐ½ÑĪÑĸ":4612,"ÑĤÐ°Ð¶":4613,"ĠÐ¼Ó©Ð»ÑĪÐµÑĢÑĸ":4614,"ĠÒĽÐ¾ÑĢÒĵ":4615,"ĠÐ½Ð°ÑĢÑĭÒĵ":4616,"ĠÐ¿ÑĢÐ¸Ð½ÑĨÐ¸Ð¿":4617,"ĠÓ©Ð¹ÑĤÐºÐµÐ½Ñĸ":4618,"ĠÐĵÐµÑĢÐ¼Ð°Ð½":4619,"ĠÐ±Ð¾Ð»ÑĥÒĵÐ°":4620,"ĠÐ¼Ð¾Ð½Ð¸ÑĤÐ¾ÑĢ":4621,"ĠÒļÒ±Ð´Ð°Ð¹":4622,"ĠÒĽÒ±Ð¿Ð¸Ñı":4623,"ĠÑĪÐ°Ð¹":4624,"ÐľÒ±Ð½":4625,"ÑĨÐ¸":4626,"Ð°ÑĤÐµÐ³Ð¾ÑĢÐ¸Ñı":4627,"ĠÑģÐ°Ð»ÑĭÑģÑĤÑĭÑĢÒĵÐ°Ð½Ð´Ð°":4628,"ĠO":4629,"ĠÐļÐµÐ·":4630,"ĠÑĨÐ¸ÑĦÑĢ":4631,"ĠÐ·ÐµÑĢÑĤÑĤÐµÑĥÐ»ÐµÑĢ":4632,"ÒĽÐ°ÑĤÑĭÐ½":4633,"Ð¾ÐºÑĢÐ°ÑĤ":4634,"ĠÐĸÒ±Ð¼ÑĭÑģ":4635,"Ð°Ð¿Ð°ÑĢ":4636,"ĠÑĸÑģÑĤÐµÐ¿":4637,"ĠÐ¾ÑĢÑĭÐ½Ð´Ð°ÑĢÑĭ":4638,"ĠÒĽÐ¾ÑģÒĽÐ°Ð½":4639,"ÑĭÒ£ÑĭÐ·ÒĵÐ°":4640,"Ò¯ÐºÐµÐ½":4641,"ÑĤÐ°ÑĥÒĵÐ°":4642,"ĠÐ´Ð°ÑıÑĢÐ»Ð°Ñĥ":4643,"Ð½Ð°Ð¼Ð°":4644,"Ð´ÑĭÐ½":4645,"ĠÑģÐ¼":4646,"ĠÐ¶Ð°ÑĢÐ°ÒĽ":4647,"ĠÐ¸Ð½Ð½Ð¾Ð²Ð°ÑĨÐ¸ÑıÐ»ÑĭÒĽ":4648,"ĠÐºÐµÐ»Ñĥ":4649,"ĠÑĪÐµÐ±ÐµÑĢ":4650,"ĠÑĤÐµÐ»ÐµÐ°ÑĢÐ½":4651,"Ò°Ò°":4652,"ÑĤÐ°Ð±":4653,"ÑĸÐ¼Ðµ":4654,"ĠÐ°Ð´Ð°Ð¼Ð´Ð°ÑĢÒĵÐ°":4655,"ĠÐ¼Ò±ÒĽ":4656,"ÑĭÑĢÐ°Ñĥ":4657,"ĠÐĳÐ°Ð»Ð°Ð»Ð°ÑĢ":4658,"ĠÒĽÐ°Ð±ÑĭÐ»Ð´Ð°Ð½ÒĵÐ°Ð½":4659,"Ò£ÑĭÐ·":4660,"ĠÒĽÑĭÐ·ÑĭÒĽÑĤÑĭ":4661,"ĠÑĪÐ°Ð±ÑĥÑĭÐ»":4662,"Ð¾ÑģÑĤ":4663,"ÐµÐ´Ð¾Ð¼":4664,"Ð½Ð°Ñı":4665,"ĠÐ¼ÐµÐ´Ð¸ÑĨÐ¸Ð½Ð°":4666,"ĠÐ¡Ð¾Ð½Ð´Ð°":4667,"ĠÐ¼Ð°ÒĽÑģÐ°ÑĤÑĤÐ°ÑĢ":4668,"ÐĲÐĽÐ«Òļ":4669,"ĠÑĤÑĥÑĭÐ½Ð´Ñĭ":4670,"ĠÐĲÐ·Ð°Ð¼":4671,"ĠÐ¼ÑĸÐ½Ð´ÐµÑĤÑĤÐµÑĢ":4672,"Ð¼ÑĥÐ½":4673,"ĠÐ±Ó©Ð»ÑĸÐ¿":4674,"ĠÐµÐ»ÑĸÐ¼ÑĸÐ·Ð´Ðµ":4675,"ÒĽÐ°ÑĢÐ°Ð»ÑĭÒĽ":4676,"ĠÐ¼ÓĻÐ»ÑĸÐ¼Ð´ÐµÐ´Ñĸ":4677,"ĠÐļÓ©Ðº":4678,"ĠÐ¿Ð¾ÑĪ":4679,"ÑģÑĭÐ¼ÐµÐ½":4680,"ÑĢÐ°Ð´":4681,"ĠÑģÑĤÑĥÐ´ÐµÐ½ÑĤÑĤÐµÑĢ":4682,"ĠÐ¶Ò¯ÐºÑĤÐµÑĥ":4683,"Ð³ÑĸÑĢ":4684,"Ð½Ð¸Ðº":4685,"ĠÐ±Ð°ÒĵÐ´Ð°ÑĢÐ»Ð°Ð¼Ð°ÑģÑĭÐ½":4686,"ĠÐ±Ð°ÑģÑĤÐ°ÑĥÑĭÑĪ":4687,"ĠÓ©Ð»ÑĪÐµÐ¼":4688,"Ð¾Ñı":4689,"ĠÐ¶ÑĭÐ»Ð´ÑĭÒĵÑĭÐ½Ð°":4690,"ĠÐ¸Ð½ÑĦÑĢÐ°ÒĽÒ±ÑĢÑĭÐ»ÑĭÐ¼":4691,"ĠÒĽÑĭÐ·Ð¼ÐµÑĤÐºÐµÑĢ":4692,"ĠÐºÐ¾Ð¼Ð¸ÑĤÐµÑĤÑĸ":4693,"ĠÐ¼Ð¸Ðº":4694,"ÑĥÐ´":4695,"ĠNUR":4696,"ÑĤÐµÐº":4697,"ĠÑĤÐ¸Ð¿":4698,"ĠÐ¾Ð±Ð»ÑĭÑģÑĤÐ°ÑĢ":4699,"ĠÐ¾ÑĢÑĭÐ½Ð´Ñĭ":4700,"ĠÐ¼ÑĸÐ½Ð´ÐµÑĤÑĤÐµÑĢÑĸ":4701,"ĠÑĭ":4702,"ĠÑģÐ°Ð»Ð¼Ð°ÒĽ":4703,"ĠÐ¾ÑĢÐ½Ð°Ð»Ð°ÑģÑĤÑĭÑĢ":4704,"ĠÐºÐ¾Ð¼Ð¼ÐµÑĢ":4705,"ÑĭÒ£Ð´Ð°ÑĢ":4706,"ĠÐ±Ð°ÑģÑĪÑĭÐ»Ð°ÑĢÑĭ":4707,"ĠÐºÐµÑĤÐµÐ´Ñĸ":4708,"Ġwww":4709,"ĠÑģÑĤÐ°ÑĤÐ¸ÑģÑĤ":4710,"ĠÐµÑĪÒĽÐ°Ð½Ð´Ð°Ð¹":4711,"ĠÑĤÐµÑĢÐ³ÐµÑĥ":4712,"ĠÑĤÒ±ÑĢÐ¼ÑĭÑģ":4713,"ÐµÑģÑĥ":4714,"ĠÓ©Ð½ÑĸÐ¼Ð´Ñĸ":4715,"ĠÐ¶ÐµÐºÐ¿Ðµ":4716,"ĠÐµÐºÐµÑĥ":4717,"ÑĪÐµÑĤ":4718,"ÑĮÑı":4719,"Ð°ÑģÐ¿":4720,"ĠÐµÐ½ÐµÐ´Ñĸ":4721,"ĠÑĸÐ·Ð´ÐµÐ½":4722,"ĠÑĦÐ¸Ð»Ð¾ÑģÐ¾ÑĦ":4723,"ÑĥÐµÐ·Ð¾Ð²":4724,"ĠÑĤÑĥÑĢÐ½Ð¸ÑĢ":4725,"ĠÓĻÐ´ÑĸÑģÑĤÐµÑĢÑĸ":4726,"ĠÐ±ÐµÑĢÑĸÐ»ÐµÑĤÑĸÐ½":4727,"Ð¼Ð°ÑĪÑĭÐ»ÑĭÒĽ":4728,"ÐŀÒĽÑĥÑĪÑĭÐ»Ð°ÑĢ":4729,"ÐľÐ£":4730,"ĠÐ±Ò±Ð¹ÑĭÐ¼":4731,"ÐµÑģÑĸÐ¼ÐµÐ½":4732,"ÑĸÐ±ÐµÐº":4733,"ĠÐ±ÐµÐ¹ÑĸÐ¼":4734,"ĠÐ¶ÑĭÐ»ÑĭÐ½Ð°":4735,"ĠÐ»Ð¾Ð³":4736,"ĠÐĵÒ¯Ð»":4737,"Ð¿ÑĸÑĢ":4738,"ĠÑĤÒ¯Ð»ÐµÐº":4739,"ĠÐ¸Ð½Ð´ÑĥÑģÑĤÑĢ":4740,"ĠÐ±Ð°Ð»ÑĭÒĽ":4741,"ĠÐ±ÑĸÐ»ÐµÐ´Ñĸ":4742,"ĠÒĽÑĭÐ·ÑĭÒĽ":4743,"ĠÐºÓ©Ð¼ÐµÐ³ÑĸÐ¼ÐµÐ½":4744,"ĠÐ½Ð¾ÑĢÐ¼Ð°ÑĤÐ¸Ð²ÑĤÑĸÐº":4745,"Ð±ÐµÐ¹":4746,"Ð·Ð°ÒĽ":4747,"ÐĳÐ¢":4748,"ĠÐ±Ð°ÑģÑĭÐ½":4749,"ÐµÑĢÐ¼ÐµÐ½":4750,"ĠÐºÐ¾Ð½ÑĨÐµÑĢÑĤ":4751,"ÐµÑĢÐ²":4752,"ÐµÑħÐ½":4753,"ÑĤÐ°ÑĥÑĭÑĪ":4754,"Ð±Ð°Òĵ":4755,"Ð±ÐµÑĤÐ¾Ð²":4756,"ĠÐ·Ð°ÑĢÐ´Ð°Ð¿":4757,"ÐµÐ»ÐµÑĢÑĸÐ½Ðµ":4758,"ÐµÑĥÐ³Ðµ":4759,"ĠÐ¼Ò¯Ð³ÐµÐ´ÐµÐº":4760,"ĠÐµÒ£Ð±Ðµ":4761,"Ð´Ð°ÑģÑĤÑĭÒĽ":4762,"ĠÐ¼ÐµÐºÑĤÐµÐ±ÑĸÐ½ÑĸÒ£":4763,"Ó©Ò£Ð³ÐµÐ»ÐµÐº":4764,"Ð´ÑĸÐ³ÑĸÐ½Ðµ":4765,"ĠÑĤÐ°Ð½ÑĭÐ¼Ð´ÑĭÒĽ":4766,"ĠÐŀÑĢÐ°Ð»":4767,"ĠÐ¸Ð½ÑģÐ¿":4768,"Ð»ÐµÐ¿":4769,"ĠÐ´ÐµÐ¼Ð°Ð»ÑĭÑģ":4770,"ĠÐ¼Ð°ÑĪÐ¸Ð½":4771,"ÑĸÐºÑĤÐµÑĥ":4772,"iÐ»i":4773,"ĠÒĽÒ±Ð½Ð´ÑĭÐ»ÑĭÒĽ":4774,"ĠÐµÑģÐµÐ¿ÑĤ":4775,"ĠÐ±ÑĸÑĢÐ°Ð·":4776,"ĠÐ¡Ð¾Ð½ÑĭÒ£":4777,"ÒĽÒ±ÒĽÑĭÒĽÑĤÑĭÒĽ":4778,"Ð°ÑħÐ°Ð±Ð±Ð°ÑĤ":4779,"Ġ500":4780,"ĠÐ±ÑĸÑĢÑĸÐºÑĤÑĸÑĢ":4781,"ĠÐ±iÑĢ":4782,"ÑĤÐ°Ò£":4783,"ĠÐ°Ð½ÑĭÒĽÑĤÐ°Ð¼":4784,"ÒĵÐ°Ð»Ð¸":4785,"ĠÐºÐ¾Ð¼Ð¿Ð°Ð½Ð¸ÑıÑģÑĭ":4786,"ĠÐ¶Ð°Ð½ÑĭÐ½Ð´Ð°ÒĵÑĭ":4787,"Ð«Ðł":4788,"ĠÑĪÐµÑĪÑĸÐ¼Ð´ÐµÑĢ":4789,"ĠÑĤÑĸÑĢÑĪÑĸÐ»ÑĸÐº":4790,"ĠÐ¼ÐµÐ¹ÑĢÐ°Ð¼":4791,"ĠÒĽÐ°Ð»Ð°Ð½ÑĭÒ£":4792,"ĠÐ±Ð°ÒĵÐ°Ð¼":4793,"ĠÐ¶Ð¾Ð»ÑĭÐ½":4794,"ĠÐºÑĸÐ½":4795,"ÑĤÐ°Ð½ÑĭÒ£":4796,"ĠÐºÐµÑĢÑĸ":4797,"ĠÐļÐ¾Ð´":4798,"ĠÑĪÐµÐºÑĤÐµÑĥÐ»Ñĸ":4799,"ĠÐĲÐ»ÑĤÑĭÐ½":4800,"ĠÐ±Ð¾Ð»ÒĵÐ°Ð½Ñĭ":4801,"ing":4802,"Ð°Ð½Ð°Ð»Ð°ÑĢ":4803,"Ð´ÐµÑĥÐ³Ðµ":4804,"ĠÐļÓĻÑģÑĸÐ¿":4805,"ĠÑħÐ°Ð»ÑĭÒĽÑĤÑĭ":4806,"ĠÐ±ÑĸÑĢÑĭÒ£ÒĵÐ°Ð¹":4807,"Ð¸Ð·Ð°":4808,"Ð¶ÐµÐº":4809,"ĠÒ¯Ð»ÐµÑģÑĸ":4810,"ÐĶÐµÐ½":4811,"ĠÑĤÒ¯Ð¿":4812,"ÒļÐ°Ð·Ð°ÒĽÑģÑĤÐ°Ð½Ð´Ð°":4813,"ĠÐ½ÐµÐ³ÑĸÐ·Ð´ÐµÑĢÑĸ":4814,"ĠÒ¯Ð¹Ð»ÐµÑģÑĤ":4815,"ĠÒĽÒ±ÒĽÑĭÒĽÑĤÐ°ÑĢÑĭ":4816,"ÐµÐ·Ð¸Ð´ÐµÐ½ÑĤ":4817,"ĠÓ©Ð»ÑĸÐ¼":4818,"Ð¢Ò±ÑĢ":4819,"ĠÒ±ÑģÑĭÐ½Ð°Ð´Ñĭ":4820,"ĠÐ¼ÐµÐ´Ð¸Ð°":4821,"ĠÐľÓĻÑģÐºÐµÑĥ":4822,"ĠÑĪÐ°Ð¼Ð°Ð¼ÐµÐ½":4823,"ÒļÐ¾ÑģÑĤÐ°Ð½Ð°Ð¹":4824,"ĠÑĪÑĭÒĵÐ°ÑĢÑĭÐ¿":4825,"ĠÑĤÑĸÐ·ÑĸÐ¼Ñĸ":4826,"ĠÐ¼ÓĻÑģÐµÐ»ÐµÐ»ÐµÑĢÐ´Ñĸ":4827,"ĠÐ±ÑĸÐ»ÑĸÐ¼Ð´ÐµÑĢÑĸÐ½":4828,"Ð¼Ð°Ñĥ":4829,"Ð°ÑĤÑĤÐ°ÑĢÐ´ÑĭÒ£":4830,"Ġ000":4831,"ĠÐ¢ÓĻÑĢÐ±Ð¸Ðµ":4832,"ĠÑĢÐµÐ´Ð°ÐºÑĨÐ¸Ñı":4833,"ĠÑĤÑĸÐ»Ð´Ñĸ":4834,"ĠÐĿÐ°Ð·Ð°ÑĢÐ±Ð°ÐµÐ²ÑĤÑĭÒ£":4835,"ĠÐ¿ÓĻÑĤÐµÑĢ":4836,"ÐļÐ¡ÐŁ":4837,"Ð«ÐĹ":4838,"ĠÐ»Ð°ÑĤÑĭÐ½":4839,"ĠÒ®ÑĪ":4840,"Ð°Ð´Ð°Ð¼":4841,"ĠÑĦÐµÑģÑĤÐ¸Ð²":4842,"Ð¸Ð½Ð°Ð»":4843,"ÑĤÐ°Ð»ÑĭÒĽ":4844,"ĠÑĤÑĸÐ»ÐµÐº":4845,"37":4846,"Ð½Ð°ÑĢ":4847,"ÑĭÐ¼Ð´ÑĭÐ»ÑĭÒĽ":4848,"Ð´ÐµÑĢÐ´Ðµ":4849,"Ð·ÐµÑĢÑĤÑĤÐµÑĥ":4850,"ĠÐ·Ð°ÑĤ":4851,"ĠÓĻÐ´ÑĸÑģÑĤÐµÐ¼":4852,"ĠÑĤÐ°ÒĵÐ´ÑĭÑĢ":4853,"ĠÐĲÑĤÐ°":4854,"ÒĵÑĭÐ·ÑģÑĤÐ°Ð½":4855,"ĠÓ©ÐºÑĸÐ»Ñĸ":4856,"Ð¾ÑĢÐ´":4857,"ĠÓĺÑĢÐ¸Ð½Ðµ":4858,"ĠÐ¾ÒĽÑĭÑĢÐ¼Ð°Ð½":4859,"ĠÑĥÑĩÐ°ÑģÐº":4860,"ĠÒĽÐ¾Ð»Ð°Ð¹Ð»Ñĭ":4861,"ĠÓĻÒ£Ð³ÑĸÐ¼Ðµ":4862,"ÑĸÑĢÐµÐº":4863,"ĠÐºÒ¯Ð´ÑĸÐº":4864,"ĠÐºÓ©ÑĢÑģÐµÑĤÐµÑĤÑĸÐ½":4865,"ĠÐ±Ð¾Ð»ÒĵÐ°Ð½Ð´ÑĭÒĽÑĤÐ°Ð½":4866,"ĠÐ¡Ð°Ñĥ":4867,"ĠÒĽÐ°Ð¹Ð´Ð°":4868,"Ð¸ÑıÐ´Ð°ÒĵÑĭ":4869,"ĠÒĵÐ°ÑĢÑĭÑĪ":4870,"ĠÐĶÐµÐ³ÐµÐ½Ð¼ÐµÐ½":4871,"ĠÑĢÐµÑĤÑĤÐµ":4872,"Ð¤Ð°ÑĢ":4873,"Ð¸ÑıÒĵÐ°":4874,"Ð±Ó©Ð»":4875,"ĠÐµÐºÐµÐ½Ñĸ":4876,"ĠÐ¶Ð°Ò£ÒĵÑĭÑĢÑĤÑĥ":4877,"ĠÐ±Ð°ÑģÑĭÐ½Ð°Ð½":4878,"ĠÐ¡Ð¾Ð´Ð°Ð½":4879,"ĠÑĤÐ°Ð¿ÑĤÑĭ":4880,"ĠÒĽÐ°ÑĤÐ°ÑĢÑĭÐ½Ð°":4881,"ĠÐ±Ð°ÑĢÑĭÐ½ÑĪÐ°":4882,"ĠÓ©ÑģÑĸÐ¿":4883,"ĠÑĤÐ°ÒĽÑĭÑĢÑĭÐ±ÑĭÐ½Ð´Ð°":4884,"ĠÑģÐµÐ·ÑĸÐ¼":4885,"ĠÒĽÐ°Ð½Ð°ÒĵÐ°ÑĤ":4886,"ĠÒĽÑĭÐ·Ð´Ð°ÑĢ":4887,"Ð¸ÑıÑĤ":4888,"ĠÐºÐµÐ·Ð´ÐµÑģÐµÐ´Ñĸ":4889,"ĠÑĤÓ©Ð»ÐµÐ½":4890,"ĠÐ¶Ð¾Ð±Ð°ÑģÑĭÐ½":4891,"ĠÐ·Ð°Ð¼Ð°Ð½Ð°ÑĥÐ¸":4892,"ĠÐ°Ð»ÒĽ":4893,"ÐºÐµÐ½ÑĤÐ°Ð¹":4894,"Ð°ÑĤÑĭÐ½Ð´Ð°":4895,"ĠÓ©Ð·ÑĸÐ½Ð´Ðµ":4896,"ĠÐ±Ð°Ð»Ð°Ð½Ñĭ":4897,"ÑĭÒ£ÑĭÐ·Ð´Ñĭ":4898,"ĠAl":4899,"ĠÐ¦":4900,"ĠÐ±Ð°ÑģÑĪÑĭÐ»ÑĭÒĽ":4901,"ĠÐºÐµÒ£ÑĸÐ½ÐµÐ½":4902,"ĠÐľÐ°Ò£ÒĵÑĭÑģÑĤÐ°Ñĥ":4903,"ĠÐºÐµÐ»ÑĤÑĸÑĢÑĥ":4904,"ĠÐłÐµÑģÐ¿ÑĥÐ±Ð»Ð¸ÐºÐ°ÑģÑĭÐ½Ð´Ð°ÒĵÑĭ":4905,"Â²":4906,"ÑĭÐ½ÑĭÐ¿":4907,"ĠÓĻÐºÑĸÐ¼Ð´ÑĸÐ³Ñĸ":4908,"ĠÐ´Ð°Ð¼ÑĭÑĤÑĥÐ´ÑĭÒ£":4909,"ĠÒĽÐ°Ð±ÑĸÐ»ÐµÑĤÑĸÐ½":4910,"ĠÐ°Ð½ÑĭÒĽÑĤÐ°Ð»Ð´Ñĭ":4911,"ĠÑĤÐµÑħÐ½Ð¾Ð»Ð¾Ð³Ð¸ÑıÐ»ÑĭÒĽ":4912,"ÐļÐ¡ÐŁÐŀ":4913,"ĠÑĤÐ°Ð±Ñĥ":4914,"ĠÐ½ÓĻÑĤÐ¸Ð¶ÐµÐ»ÐµÑĢÑĸ":4915,"ĠÒĽÐ¾Ð»Ð´Ð°Ð½ÑĭÑģÒĽÐ°":4916,"ĠÐ¢Ð°Ð»":4917,"ĠÑģÐµÑĢÑĤÐ¸ÑĦÐ¸Ðº":4918,"ÐµÐ²Ð°":4919,"ÐŀÒĽÑĥ":4920,"Ð¾Ñĩ":4921,"ĠÑĢÐµÑĦÐ¾ÑĢÐ¼":4922,"ĠÑĤÐ°ÑĢÑĤÑĭÐ»":4923,"ĠÑħÐ°ÑĤÑĪÑĭÑģÑĭ":4924,"Ð°Ð½ÒĵÐ°Ð½":4925,"ĠÑĤÐ°ÑĢÐ°ÑĤÑĥ":4926,"ÐµÐºÑĨÐ¸Ñı":4927,"ĠÐ¤ÐµÐ´ÐµÑĢ":4928,"ĠÐ±ÑİÐ´Ð¶ÐµÑĤÑĤÑĸÐº":4929,"Ð´ÓĻÑģÑĤÒ¯ÑĢ":4930,"ĠÓĻÐ»ÑĸÐ¿Ð±Ð¸":4931,"ĠÒļÐ¾Ñģ":4932,"ĠÐ¸Ð½ÑĤÐµÑĢ":4933,"ĠÐ¼ÐµÐ¼":4934,"Ð¢Ð¢":4935,"ĠÑĤÐ°Ð½Ñĥ":4936,"ĠÑģÒ¯Ð¹ÐµÐ½":4937,"ĠÐ°ÒĽÐ¿Ð°ÑĢ":4938,"?!":4939,"ĠÐºÑĢÐµÐ´Ð¸ÑĤ":4940,"ĠÐĶÐµÐ¼":4941,"ĠÑĪÐ°ÒĽÑĭÑĢÑĭÐ¼":4942,"ÐµÐ´Ð¾Ð¼ÑģÑĤÐ²":4943,"ĠÐ¸ÐµÑģÑĸ":4944,"ĠÐĸÐµÑĤ":4945,"ĠÐ¼ÑĭÒĽÑĤÑĭ":4946,"ĠÐ¼ÐµÐºÑĤÐµÐ¿ÑĤÑĸÒ£":4947,"ĠÑģÐµÐ±ÐµÐ¿ÑĤÑĸ":4948,"ĠÐ¶Ð°Ð»ÒĵÐ°ÑģÑĤÑĭÑĢ":4949,"ĠÐºÓ©Ð»ÐµÐ¼ÑĸÐ½Ð´Ðµ":4950,"ĠÑĤÑĸÐ·ÑĸÐ¼":4951,"Ð°Ð¶Ð°Ð¹":4952,"ent":4953,"ÐĲÐĹÐĲÒļ":4954,"ĠÐ°ÐºÑĨÐ¸Ð¾Ð½":4955,"ÐµÑħ":4956,"ĠÐºÐ°Ð±Ð¸Ð½":4957,"ĠÐŁÐ°ÑĢÐ»Ð°Ð¼ÐµÐ½ÑĤ":4958,"ĠÐ¨Ð°ÑĢ":4959,"ĠÐºÐµÑĤÑĸÐ¿":4960,"ĠÓĻÐ»ÐµÐ¼Ð½ÑĸÒ£":4961,"ĠÐºÐµÒ£ÐµÐ¹ÑĤÑĥ":4962,"ÑĪÐ°ÑĢÑĥÐ°":4963,"ĠÐ¾ÐºÑĢÑĥÐ³ÑĸÐ½ÑĸÒ£":4964,"ĠÐ¾ÑĢÐ½Ð°Ð»Ð°ÑģÑĤÑĭÑĢÑĥ":4965,"Ð¶ÐµÐ»Ð³Ñĸ":4966,"ÐŀÒ£ÑĤÒ¯ÑģÑĤÑĸÐº":4967,"ru":4968,"ĠÐ¿Ð°Ð»":4969,"ĠÑĤÓ©Ð¼ÐµÐ½Ð³Ñĸ":4970,"ĠÑĪÑĭÐ½ÑĭÒĽÑĤÑĭÑĢÑĥ":4971,"ĠÓ¨Ð·Ð±ÐµÐºÑģÑĤÐ°Ð½":4972,"Ð·Ð°Ð»":4973,"ĠÐ±Ð¾Ð»ÑģÐ°ÒĽ":4974,"ĠÐļÐ°ÑĢ":4975,"ĠÐ±Ð°ÒĵÑĭÑĤÑĭ":4976,"ÑĸÑģÑĸÐ½Ð´Ðµ":4977,"ĠÑĪÐ°Ò£":4978,"ĠÐµÑģÐµ":4979,"ĠÒĽÑĭÑģÒĽÐ°ÑĢ":4980,"ĠÒĽÒ±ÑĢÐ°Ð¼ÑĭÐ½Ð´Ð°":4981,"ĠÒĽÐ°ÑĢÐ°Ð¶Ð°ÑĤ":4982,"ĠÐłÐµÑģÐ¿ÑĥÐ±Ð»Ð¸ÐºÐ°Ð»ÑĭÒĽ":4983,"ĠÐ¼ÑĸÐ½Ð´ÐµÑĤÑĤÐµÐ¼":4984,"Ġ45":4985,"Ð»ÐºÐµÐ½":4986,"ÐŀÐ½ÑĭÒ£":4987,"ĠÐ±ÐµÑĢÑĥÐ´ÑĸÒ£":4988,"ÐµÑģÑĸÐ½Ð´ÐµÐ³Ñĸ":4989,"ĠÒĽÐ°Ð»ÑĭÐ¿ÑĤÐ°ÑģÒĽÐ°Ð½":4990,"ÐŁÐ°Ð²Ð»Ð¾Ð´Ð°ÑĢ":4991,"ĠÓĻÐºÐµ":4992,"Ġ36":4993,"ĠÒĽÒ±ÑĤÒĽÐ°ÑĢ":4994,"ĠÑģÑĥÐ±":4995,"Ò£Ð³ÑĸÐ»ÑĸÐº":4996,"ĠÐ±ÐµÑĢÑĥÐ´Ñĸ":4997,"ĠÒĽÐ°Ð·Ð°ÒĽÑĪÐ°":4998,"ĠÑĤÐ°ÑģÑĭÐ¼Ð°Ð»Ð´Ð°Ñĥ":4999,"ĠÑĤÒ±Ò£ÒĵÑĭÑĪ":5000,"ĠÑĪÐ°ÑĢÑĥÐ°ÑĪÑĭÐ»ÑĭÒĵ":5001,"ÑĤÑĸÐ½ÑĪÑĸ":5002,"ÑģÐ¾Ð½":5003,"Ð¸ÐºÐ¸Ð¿":5004,"ĠÐ¾ÒĽÑĥÐ»ÑĭÒĽ":5005,"ĠÐľÐ°ÑĤ":5006,"Ð¶Ð°Ð½Ð¾Ð²":5007,"ÑĪÐ°Ð»ÑĭÒĽÑĤÑĭ":5008,"ÑĤÐ¾Ð¿":5009,"Ð»ÑĸÐ³ÑĸÐ½Ðµ":5010,"ÑģÐ°Ð¹":5011,"ĠÐ½Ð°":5012,"ĠÒĽÑĭÐ·ÑĭÐ»":5013,"ĠÐ·Ð°ÑĥÑĭÑĤ":5014,"ĠÑĤÐµÐ¾ÑĢÐ¸ÑıÐ»ÑĭÒĽ":5015,"Ð°ÑĤÑĥÒĵÐ°":5016,"ĠÑģÓĻÐ¹ÐºÐµ":5017,"ĠÐ¼Ð¾Ð´ÐµÐ»":5018,"ÐºÓ©Ð»":5019,"Ò°Ð»Ñĭ":5020,"ĠÐ¼Ð°Ð¼Ð°Ð½Ð´Ð°Ð½":5021,"ĠÑĤÐµÒ£Ð³ÐµÐ½Ñĸ":5022,"ÑĦÐ¾ÑĢÐ¼":5023,"ÐºÑĢÐ°Ð¸":5024,"ĠÐ±Ð°ÑģÑĪÑĭÐ»Ð°ÑĢ":5025,"ĠÐ¶Ð°Ò£Ð°ÑĢ":5026,"ĠÐ½Ð¾Ð¼":5027,"ĠÐ¼Ð°Ð¼Ð°Ð½Ñĭ":5028,"ÐķÐºÑĸ":5029,"ĠÐµÐ»Ð³Ðµ":5030,"ĠÑĤÑĢÐ°Ð½Ñģ":5031,"ĠÐ±ÐµÐ»Ð³ÑĸÐ»ÐµÑĢÑĸ":5032,"ĠÐ±Ð¾Ð»Ð¶Ð°Ð¼":5033,"ĠÐķÐºÑĸÐ½ÑĪÑĸ":5034,"ÐŀÑĢÑĤÐ°ÒĽÒĽÐ¾ÑĢÐ´Ð°ÒĵÑĭ":5035,"ĠÐ¶ÐµÑĤÐºÑĸÐ·Ð´Ñĸ":5036,"ĠÒĽÐ°ÑĢÑĥ":5037,"ĠU":5038,"ÐĲÐ²":5039,"ĠÐ¼ÑĭÐ½":5040,"38":5041,"ÐµÐ»ÐµÐ³ÐµÐ½":5042,"ÐºÐµÐ·":5043,"ĠÐ°Ð´Ð°Ð»":5044,"ĠÐ¶ÑĭÐ»Ñĥ":5045,"ĠÐĸÐµÒ£":5046,"Ð¢ÑĸÐ»":5047,"ÐłÐµÑģÐµÐ¹":5048,"ÑĥÑħÐ³Ð°Ð»ÑĤÐµÑĢÐ»ÑĸÐº":5049,"ĠÐ°Ð²ÑĤÐ¾Ðº":5050,"ĠÓĻÐ½ÑĪÑĸ":5051,"Ð¿ÐµÐ¹Ð´Ñĸ":5052,"ÐĲÑĥÐ´Ð°Ð½":5053,"ĠÐ¾Ò£ÑĤÒ¯ÑģÑĤÑĸÐº":5054,"34":5055,"ĠÐ¶Ð°ÑģÐ°Ð»":5056,"ĠÐ¶ÐµÐ»ÑĸÐ»ÐµÑĢ":5057,"ĠÓ¨Ð¼ÑĸÑĢ":5058,"ĠÐºÐµÑĪÐµÐ½Ð´Ñĸ":5059,"Ð°Ð½Ñģ":5060,"ĠÐ´Ð¸ÑĢÐµÐºÑĤÐ¾ÑĢ":5061,"ĠÐºÒ¯Ð½Ð´ÐµÐ»ÑĸÐºÑĤÑĸ":5062,"ÐļÐµÐ·":5063,"ÑģÐºÐµÐ¼ÐµÐ½":5064,"ÑĸÐ·Ð´Ñĸ":5065,"ĠÐ¼ÐµÐ½ÐµÐ´Ð¶":5066,"ĠÐļÐµÐ½":5067,"Ð´ÐµÑĤÑĥ":5068,"ÓĺÐ»ÐµÐ¼":5069,"Ð¸Ð¼Ð½":5070,"ĠÒĽÐ°ÑĤÑĭÑģÐ°Ð´Ñĭ":5071,"ĠÐ°Ð³ÐµÐ½ÑĤÑĤÑĸÐ³Ñĸ":5072,"ÑĤÐ°ÑĢÑĭÐ½Ð´Ð°":5073,"ĠÓ©ÑĤÐµÑĥ":5074,"ĠÐ±ÐµÐ»Ð³ÑĸÐ»ÐµÑĢ":5075,"stan":5076,"Ð´iÒ£":5077,"ĠÒ±Ð¹ÑĭÐ¼Ð´Ð°ÑĢÐ´ÑĭÒ£":5078,"Ð±ÑĸÑĢÑĸÐ½Ðµ":5079,"ĠÐ°Ð¹ÑĭÐ½ÑĭÒ£":5080,"ĠÐºÐ¾Ð¼Ð¼ÑĥÐ½Ð¸ÐºÐ°ÑĨÐ¸Ñı":5081,"Ð°ÒĽÑĭÑĢÑĭÐ¿":5082,"ĠÐ±ÐµÐ¹Ð±ÑĸÑĤ":5083,"ĠÒĽÐ¾Ð»Ð´Ð°Ð½ÑĥÒĵÐ°":5084,"ĠÐ´ÐµÐ¿Ð°ÑĢÑĤÐ°Ð¼ÐµÐ½ÑĤÑĸÐ½ÑĸÒ£":5085,"ĠÐºÓĻÑģÑĸÐ¿ÐºÐµÑĢ":5086,"ĠÐ°Ð²ÑĤÐ¾Ð¼Ð¾Ð±Ð¸Ð»ÑĮ":5087,"ĠÑĤÐ°ÒĵÐ°Ð¹":5088,"ĠÒĽÑĭÐ·ÑĭÒĵÑĥ":5089,"ĠÑħÐ°Ð»ÒĽÑĭÐ½Ð°":5090,"ĠÑģÐ°ÑĥÐ°Ð»":5091,"ĠÐ°ÑģÑĭÐ»":5092,"ĠÐ³ÑĢÐ°ÑĦ":5093,"ĠÐµÑĤÐµ":5094,"ĠÐ´ÐµÒ£Ð³ÐµÐ¹Ð´ÐµÐ³Ñĸ":5095,"ad":5096,"ĠÐ¼ÑĸÐ½Ð´ÐµÑĤÑĸ":5097,"Ġ2007":5098,"ÒļÐ°ÑĢÐ°ÒĵÐ°Ð½Ð´Ñĭ":5099,"ÑĭÐ»ÑģÑĭÐ½":5100,"ĠÐĳÐ°ÒĽÑĭÑĤ":5101,"ÐķÐ»Ð±Ð°ÑģÑĭ":5102,"Ð´ÑĭÑĢÑĭÐ¿":5103,"ĠÒĽÐ¾Ð»Ð´Ð°Ð½ÑĭÐ»Ð°ÑĤÑĭÐ½":5104,"ĠÒ°Ð¹ÑĭÐ¼":5105,"ĠÐ¡Ð°Ð»":5106,"ĠÐ±ÐµÑĢÑĥÑĪÑĸÐ½ÑĸÒ£":5107,"ÑģÐ°Ð¼Ð±Ð»ÐµÑı":5108,"ÑĸÑĪÑĸ":5109,"ĠÐ±Ð°ÒĵÐ´Ð°ÑĢÐ»Ð°Ð¼Ð°ÑģÑĭÐ½ÑĭÒ£":5110,"ÓĻÐ´ÑĸÑģÑĤÐµÐ¼ÐµÐ»ÑĸÐº":5111,"ĠÐĳÒ±ÒĵÐ°Ð½":5112,"ĠÐ¡Ð¾Ò£ÒĵÑĭ":5113,"ed":5114,"Ð»Ð°ÑĥÒĵÐ°":5115,"ÑĤÐµÑģÑĤ":5116,"ĠÑģÐ¸Ð¼":5117,"ĠÐ¼Ð°ÒĽÐ°Ð»Ð°":5118,"Ġ300":5119,"ĠÐ±ÑĸÐ»Ð³ÐµÐ½":5120,"ĠÐ±Ó©Ð»ÑĸÐº":5121,"ĠÐ¶Ð¸Ð½Ð°Ñĥ":5122,"Ð±Ò¯ÑĢ":5123,"ĠÐ¶Ð¾Ð»ÑĭÐ½Ð´Ð°":5124,"ÐľÐ¸Ð½Ð¸ÑģÑĤÑĢ":5125,"ĠÐ¶Ò¯Ð¹ÐµÐ»Ñĸ":5126,"Ð¸ÐºÐ¸Ð¿ÐµÐ´Ð¸Ñı":5127,"ÐĲÐ·Ð°Ð¼":5128,"ÉĻÐ½Ðµ":5129,"ĠÐ½ÐµÐ³ÑĸÐ·Ð´ÐµÐ»Ð³ÐµÐ½":5130,"ĠÑĪÐ°ÑĢÑĤÑĤÐ°ÑĢ":5131,"ĠÑĤÐ¾Ð»ÑĭÒĽÑĤÑĭÑĢ":5132,"ĠÐ¶Ð°ÒĵÐ´Ð°Ð¹ÑĭÐ½Ð´Ð°":5133,"ÑĭÐ¼Ð½ÑĭÒ£":5134,"ĠÐºÓ©Ð±ÐµÐ¹":5135,"ĠÐľÓĻÐ´ÐµÐ½Ð¸ÐµÑĤ":5136,"ĠÐ¼Ð°Ð¼Ð°Ð½Ð´ÑĭÒĵÑĭ":5137,"ĠÑĪÐ¸Ðº":5138,"ĠÐ¾ÒĽÑĥÑĪÑĭÐ»Ð°ÑĢÑĭ":5139,"ĠÑĤÑĸÐ»ÑĸÐ½ÑĸÒ£":5140,"ĠÐĶÒ¯Ð½Ð¸":5141,"ĠÐ¾ÑĢÐ³Ð°Ð½Ð½ÑĭÒ£":5142,"ĠÑģÐ°ÒĽÑĤÐ°Ð¿":5143,"ĠÒĽÒ±ÑĢÑĭÐ»Ð´Ñĭ":5144,"ÐķÐ¢Ð¢":5145,"ĠÒ±ÑģÑĭÐ½Ñĥ":5146,"ĠÑĤÐµÐ½":5147,"ĠÐ°ÑĤÑĭÐ½Ð°Ð½":5148,"ĠÑĤÐ°ÑĢÐ¼Ð°ÒĽÑĪ":5149,"ĠÐ½ÐµÐ³ÑĸÐ·ÑĸÐ½":5150,"ĠÐ±ÓĻÑĢÑĸÐ½":5151,"ĠÐĲÐ»Ð»Ð°Ò»":5152,"ĠÐ°Ð¹ÑĭÑĢÐ±Ð°Ñģ":5153,"ĠÐ¡Ð°Ð±Ð°ÒĽÑĤÑĭÒ£":5154,"ĠÑģÐ¿Ð¾ÑĢÑĤÑĤÑĭÒĽ":5155,"ĠÐ¡Ð°ÑĢ":5156,"ĠÒĽÐ¾ÑģÑĭÐ¿":5157,"ÐĳÒ¯Ð³ÑĸÐ½Ð³Ñĸ":5158,"ÐĲÒĴ":5159,"ÑĢÑĭÒĽ":5160,"ĠÐĲÒĽÐ¿Ð°ÑĢÐ°ÑĤ":5161,"Ð¿Ñĥ":5162,"Ð¿ÐµÐº":5163,"Ð¾Ð½Ñĭ":5164,"ĠÐ³ÐµÐ½":5165,"ĠÐºÓ©ÑĪÑĸÑĢÐ¼":5166,"ĠÐºÐ¾Ð¼Ð¼ÐµÑĢÑĨÐ¸ÑıÐ»ÑĭÒĽ":5167,"ÐĳÐ°ÑĢ":5168,"ÒļÑĭÐ·ÑĭÐ»Ð¾ÑĢÐ´Ð°":5169,"ÑĸÑģÑĥ":5170,"ĠÐ¸Ð½Ð¶ÐµÐ½":5171,"ĠÐ¼Ð°Ð³Ð¸ÑģÑĤÑĢ":5172,"ĠÐ¿Ð°ÑĤÑĢÐ¸":5173,"ĠÐĲÐ¼ÐµÑĢ":5174,"ĠÐºÐµÑĤÑĥ":5175,"ĠÐ·ÐµÑĢ":5176,"ĠÐ¶Ð¾Ð±Ð°Ð»Ð°ÑĢ":5177,"ĠÐľÒ±ÑħÐ°Ð¼":5178,"ĠÒ±ÑģÑĭÐ½ÑĭÑģ":5179,"ĠÐ¢ÓĻÑĥÐµÐ»ÑģÑĸÐ·Ð´ÑĸÐº":5180,"Ð»Ðµ":5181,"ĠÐºÓ©ÑĢÑģÐµÑĤÑĥÐ³Ðµ":5182,"ÐµÐ´Ð¸":5183,"ĠÑĪÐµÐºÐ°ÑĢ":5184,"ĠÐĳÐµÐº":5185,"ÑĥÐ°Ð½":5186,"ÐµÑĤÐ¸ÐºÐ°":5187,"ĠÑĤÐ°Ð¿ÑģÑĭÑĢÐ¼Ð°Ð»Ð°ÑĢ":5188,"Ð¾Ð»Ð¾Ð²":5189,"Ð»ÐµÐºÑĤÑĢÐ¾Ð½Ð´ÑĭÒĽ":5190,"ĠÐ¿ÑĢÐ¾ÑĦÐµÑģÑģÐ¾ÑĢ":5191,"ĠÐķÐ»Ð±Ð°ÑģÑĭÐ½ÑĭÒ£":5192,"ĠÑĭÑģÑĤÑĭÒĽ":5193,"ĠÐ±Ð°ÑģÑĤÐ°Ð¹Ð´Ñĭ":5194,"ĠÐ¾ÑĢÐ½Ð°ÑĤÑĥ":5195,"ĠÐ¼ÑĥÐ·ÐµÐ¹":5196,"Ð·Ð´ÑĸÐº":5197,"ĠÐ¶Ð°ÒĵÐ´Ð°Ð¹ÑĭÐ½":5198,"Ð¾ÑĤÑĤÑĭÒĽ":5199,"Ð¨ÑĭÐ¼ÐºÐµÐ½ÑĤ":5200,"Ð¼Ð°ÑģÑĭ":5201,"Ð¡Ð°Ð±Ð°ÒĽ":5202,"ĠÑĤÐ¾Ð»ÑĤÑĭÑĢ":5203,"ĠÑĤÒ±ÒĽÑĭÐ¼":5204,"ĠÐŀÑĢÑĤÐ°":5205,"07":5206,"ĠÐĳÐµÐ¹":5207,"ÐµÐ»Ð³ÐµÐ½":5208,"ĠÐ¾ÑĢÑĤÐ°Ð»ÑĭÒĽÑĤÐ°ÑĢ":5209,"ĠÒĽÐ°ÒĽ":5210,"ĠÐŀÐ´Ð°Ð½":5211,"ĠÐ°Ð¹ÒĽ":5212,"ĠÐļÐ°Ð·Ð°ÑħÑģÑĤÐ°Ð½":5213,"ĠÐ°Ð»Ð´ÑĭÐ½Ð°":5214,"ĠÑģÒ±ÑħÐ±Ð°ÑĤ":5215,"ÑĢÐ°":5216,"ÑĪÐ°ÑĢÐ°":5217,"ĠÒĽÐ°ÑĤÑĭÐ½Ð°ÑģÑĤÐ°ÑĢ":5218,"ĠÐµÑģÐºÐµÑĢÐµ":5219,"39":5220,"ĠÑĦÐ°ÐºÑĤÐ¾ÑĢ":5221,"ĠÒĽÐ°Ð»Ð°Ð¼":5222,"ĠÒĽÐ¾ÑģÑĭÐ»ÒĵÐ°Ð½":5223,"Ð¿ÑĸÐ½":5224,"ÑĪi":5225,"ĠÑĤÒ±ÑĤÐ°Ñģ":5226,"Ò¯ÑĢÐ³ÑĸÐ·ÑĥÑĪÑĸ":5227,"ĠÑĢÐµÐ³":5228,"ĠÐºÐ°ÑĤÐµÐ³Ð¾ÑĢÐ¸Ñı":5229,"Ð¶Ð±Ò¯ÑĢ":5230,"ĠÓĻÐ´ÐµÐ¼Ñĸ":5231,"ĠÐºÐµÑĢÐµÐ¼ÐµÑĤ":5232,"ĠÐ¢ÑĸÐ¿ÑĤÑĸ":5233,"ĠÐ±ÑĸÑĢÐ»ÐµÑģÑĤÑĸÐº":5234,"gr":5235,"ĠÒĽÐ¾Ò£":5236,"Ġ2009":5237,"ĠÐ¶Ò±Ð¼ÑĭÑģÑĤÐ°ÑĢÐ´Ñĭ":5238,"Ð°Ð¿Ð¾Ð½":5239,"ÑĭÒĵÑĭÐ½Ð°":5240,"ĠÐĳÐ¸ÑĭÐ»":5241,"Ġ%":5242,"ĠÐ±ÓĻÑģÐµÐºÐµÐ³Ðµ":5243,"ĠÒĽÐ°ÑĥÑĸÐ¿ÑĤÑĸ":5244,"ĠÐ°ÑĥÐ´Ð¸ÑĤ":5245,"ÑĢÐ¾Ð¼":5246,"ĠÐ´Ð°Ð¼ÑĥÑĭÐ½ÑĭÒ£":5247,"ĠÐ´ÐµÐ¿Ð°ÑĢÑĤÐ°Ð¼ÐµÐ½ÑĤÑĸ":5248,"ĠÑĤÑĥÒĵÑĭÐ·":5249,"ÑĢÐ¾Ð½":5250,"ĠÐ±Ð°ÑģÑĤÐ°Ð¿ÒĽÑĭ":5251,"05":5252,"ĠÐ¼ÓĻÐ´ÐµÐ½Ð¸ÐµÑĤÑĸ":5253,"ÒĽÑĥ":5254,"ĠÐ¶ÉĻÐ½Ðµ":5255,"ĠÐ¾Ð¹ÑĭÐ½Ð´Ð°ÑĢ":5256,"ĠÐĸÐ¾ÒĵÐ°ÑĢÑĭ":5257,"ĠÐ°Ð²ÑĤÐ¾Ð±":5258,"ĠÐ¶ÐµÑĤÐµÐºÑĪÑĸÑģÑĸ":5259,"ĠÐ»Ð¸ÑĨÐµÐ½":5260,"ĠÒĽÑĭÐ·Ð¼ÐµÑĤÑĤÐµÑĢÐ´Ñĸ":5261,"Ġ(Â«":5262,"ÑĥÐº":5263,"ĠÂ·":5264,"ÑģÐ°Ò£ÑĭÐ·":5265,"77":5266,"ĠÐ±Ð¾Ð»Ð¼Ð°ÒĽ":5267,"Ð»Ð°ÑĢÐ´Ð°":5268,"ÐµÐ´i":5269,"ĠÐŁÑĢÐµÐ¼ÑĮÐµÑĢ":5270,"ĠÑģÐ°Ð»ÑĤÐ°Ð½Ð°ÑĤÑĤÑĭ":5271,"ĠÒ¯ÑģÑĤÑĸÐ½Ðµ":5272,"Ð°Ð½ÐºÑĸ":5273,"ĠÒļÑĭÐ»":5274,"ĠÓĻÐ»ÐµÑĥÐ¼":5275,"Ð°ÒĵÐ°Ð¹":5276,"ĠÐ°Ð»ÑĭÐ½Ð´Ñĭ":5277,"ĠÐ¶Ð°ÑĢÑĭ":5278,"ĠÐĶÐµÐ½ÑģÐ°ÑĥÐ»ÑĭÒĽ":5279,"ĠÐ¶Ð°ÑģÐ°ÑĢ":5280,"Ò®ÑĪ":5281,"ĠÑĸÐ·Ð´ÐµÑĥ":5282,"ĠÒļÐ¾Ð»":5283,"ÒĽÐ°Ð¹Ñģ":5284,"ÑĨÐµÐ½":5285,"Ð°ÑıÒĽ":5286,"ĠÐ¶Ð°Ò£Ð°Ð»ÑĭÒĽÑĤÐ°ÑĢÑĭ":5287,"ÐĲÑĥÑĭÐ»":5288,"ĠÐ¶Ð°ÑģÓ©ÑģÐ¿ÑĸÑĢÑĸÐ¼Ð´ÐµÑĢ":5289,"ĠÓ©Ð½ÑĸÐ¼Ð´ÐµÑĢÑĸÐ½":5290,"ĠÐ±Ð°Ð»Ð°ÒĵÐ°":5291,"ĠÐ¼Ð°ÒĽÑĤÐ°Ð½":5292,"ĠÐ±Ó©Ð»ÑĸÐ½Ð³ÐµÐ½":5293,"ĠÐ°ÑĤÒĽÐ°ÑĢÐ°Ð´Ñĭ":5294,"Ð¿Ò±Ð»":5295,"ĠÐļÐ¡Ðł":5296,"he":5297,"Ð²Ð¸Ð´ÐµÐ¾":5298,"ĠÐ´Ð°Ò£":5299,"ÑĤÐ¸Ð¼":5300,"ĠÒ¯Ð¹Ð´ÑĸÒ£":5301,"ĠÒ®ÐºÑĸÐ¼ÐµÑĤÑĸÐ½ÑĸÒ£":5302,"ĠÓĻÒ£Ð³ÑĸÐ¼ÐµÐ»":5303,"ĠÐ¿Ð°Ð¹Ð´Ð°Ð»Ð°Ð½Ð°":5304,"ĠÐºÓ©Ð¼ÑĸÑĢ":5305,"ĠÐĺÑģ":5306,"Ð¶Ð°Ð·":5307,"ĠÒĵÐ°Ð»ÑĭÐ¼Ð´Ð°ÑĢ":5308,"ĠÐŁÐ°Ð¹":5309,"ĠÒļÐ°ÑĢÐ¶Ñĭ":5310,"ĠÐĲÑĥÐ´Ð°Ð½":5311,"ĠÒ±ÒĽÑģÐ°Ñģ":5312,"ĠÑĪÐ°Ð»":5313,"ĠÐ±ÑĸÑĢÐ»ÐµÑģÐºÐµÐ½":5314,"ĠÒ¯Ð¹Ð´Ðµ":5315,"ĠÒĽÐ°Ð±ÑĸÐ»ÐµÑĤÑĤÑĸ":5316,"ĠÑĤÐµÑħÐ½Ð¸Ðº":5317,"ĠÐ±ÑĥÑĭÐ½":5318,"Ð°ÑĤÐ¸ÐºÐ°":5319,"Ð¼Ð°ÒĵÑĭÐ½ÑĭÒ£":5320,"ÐķÒ£Ð±ÐµÐº":5321,"ĠÑĢÓĻÑģÑĸÐ¼":5322,"ĠÐ¼Ð°Òĵ":5323,"Ð°ÑĤÑĭÐ½ÑĭÐ½":5324,"ĠÒĽÐ°ÑĢÐ°Ð»Ð´Ñĭ":5325,"ĠÑģÑĭÐ½Ð´Ñĭ":5326,"ĠÐ±Ð°ÑģÑĤÐ°Ð»ÒĵÐ°Ð½":5327,"ĠÐ¶ÐµÑĤÑĥ":5328,"ÑĭÑģÑĤÐ°ÑĢÐ´Ñĭ":5329,"Ð»ÑĭÒĵÑĭÐ½ÑĭÒ£":5330,"ÐĸÐ°ÒĽ":5331,"Ð°ÐºÑĤÐ¸Ð²ÑĤÑĸ":5332,"ÐľÐľ":5333,"ĠÐĲÐ»ÑĭÐ¿":5334,"Ð¸ÑĢÐµÐº":5335,"ĠÐ¶Ò±Ð¼ÑĭÑģÑĤÑĭ":5336,"ĠÑģÑĤÑĢÐ°ÑĤÐµÐ³Ð¸ÑıÐ»ÑĭÒĽ":5337,"ÒĵÐ°Ð»Ñĭ":5338,"ĠÑģÑĸÐ·Ð³Ðµ":5339,"ĠÐ±ÑĸÐ»ÐµÑĤÑĸÐ½":5340,"ĠÐ¶ÑĥÑĢÐ½Ð°Ð»Ð¸ÑģÑĤ":5341,"ĠÑĤÓĻÑĥÐµÐºÐµÐ»":5342,"ĠÐ±ÐµÑĢÑĸÐ»":5343,"ĠÑģÐ°Ð»ÒĵÐ°Ð½":5344,"Ġ2020":5345,"ĠÐ¼Ð¸Ð»Ð»Ð¸":5346,"ĠÒļÐ°ÑĢÐ°":5347,"eb":5348,"ĠÒĽÒ±ÑĢÐ¼":5349,"Ð´ÑĢÐ¾Ð»ÑĭÒĽ":5350,"ĠÐľÒ±Ð½Ð´Ð°":5351,"ĠÐºÒ¯ÑĪÑĸ":5352,"ĠÐ±ÐµÐ·":5353,"ĠÐ±Ð°ÑģÑĤÐ°Ð»":5354,"Ġ34":5355,"ĠÐ°ÑĥÑĭÐ»ÑĭÐ½Ð´Ð°":5356,"ĠÐ°ÑĤÐ°Ð½Ð´Ñĭ":5357,"Ð°Ð»Ð¸":5358,"Ð°Ð±ÑĭÐ»":5359,"ĠÐºÐµÐ·Ð´ÐµÑģÑĤÑĸ":5360,"Ð´ÐµÑĢÑĸÐ½Ð´Ðµ":5361,"ĠÐ£Ð½Ð¸Ð²ÐµÑĢÑģÐ¸ÑĤ":5362,"ĠÒ¯Ð¹ÑĢÐµÑĤ":5363,"ĠÒ±ÑĢÐ¿":5364,"Ð¤Ð°ÑĢÐ°Ð±Ð¸":5365,"ĠÐĳÒ°Ò°":5366,"ĠÐ±Ð¾ÑĢ":5367,"ÒĵÐ°Ð»ÑĸÐ¼":5368,"ĠÐ°Ð¹Ð¼Ð°ÒĵÑĭÐ½Ð°":5369,"ÐĲÒļÐ¨":5370,"ĠÐºÐ°ÑĢÑĤÐ°ÑģÑĭ":5371,"Ð¸ÑĨÐµ":5372,"ĠÑĤÐ¾ÒĽÑģÐ°Ð½":5373,"ĠÐ¿Ð¾Ñį":5374,"ĠÐµÐ½Ð³ÑĸÐ·ÑĸÐ»Ð³ÐµÐ½":5375,"ĠÐ¿Ð°Ð¹ÑĭÐ·Ñĭ":5376,"ĠÑĤÐ¾Ð»ÑĭÒĽÑĤÑĭÑĢÑĥÐ»Ð°ÑĢ":5377,"ĠÐ³ÐµÐº":5378,"ĠÐ¾ÑĢÑĭÐ½ÒĵÐ°":5379,"ĠÐļÐµÐ¹ÑĸÐ½":5380,"ĠÒ¯ÑĪiÐ½":5381,"Ð°Ð¼ÑĭÑĢ":5382,"ĠÐ¶ÐµÑĢÐ´ÐµÐ½":5383,"ĠÐºÓ©ÑĢÑĥ":5384,"ĠÐľÑĸÐ½Ðµ":5385,"ĠÐ°Ñħ":5386,"Ġ2008":5387,"ĠÐºÓ©ÑĤÐµÑĢÑĥ":5388,"ÒĽÑĭÐ½Ð´Ñĭ":5389,"ĠÐ°Ð¹ÑĤÑĥÒĵÐ°":5390,"ÐļÒ¯Ð½":5391,"ÐĨÒ¢":5392,"ĠÓĻÐ´ÑĸÐ»":5393,"ĠÐ´ÐµÑĢÐ±ÐµÑģ":5394,"Ò¯Ðº":5395,"ĠÑģÐ¾Ð´Ð°Ð½":5396,"ĠÑĢÑĥÑħ":5397,"ĠÐ±Ò¯Ð³ÑĸÐ½Ð´Ðµ":5398,"ĠÑģÑĥÑĢÐµÑĤÑĤÐµÑĢ":5399,"ĠÒĽÐ°Ð±ÑĸÐ»ÐµÑĤÑĤ":5400,"Ð¶Ð°ÑĥÐ°Ð¿":5401,"ÐµÐ»ÐµÑĢÐ³Ðµ":5402,"ĠÑĤÐ°Ð¼Ð°ÑĪÐ°":5403,"ĠÒĽÐ¾ÑıÐ´Ñĭ":5404,"04":5405,"ĠÓ©Ð·Ð´ÐµÑĢÑĸ":5406,"ĠÐ¸ÑģÐ»Ð°Ð¼":5407,"02":5408,"ÓĺÐĿ":5409,"ĠÒĽÐ°ÑĤÑĭÑģÑĥÒĵÐ°":5410,"ĠÒļÐ°Ð·Ð°ÒĽÑģÑĤÐ°Ð½ÒĵÐ°":5411,"ĠÒ±ÑģÑĤÐ°Ñĥ":5412,"ĠÐĨÑĪÐºÑĸ":5413,"ÐµÑģÑĤÐµ":5414,"):":5415,"ĠÐ¼ÐµÐ¹ÑĸÑĢ":5416,"ĠÐ¼ÓĻÐ¶Ð±Ò¯ÑĢ":5417,"ĠÒĽÑĭÐ·ÑĭÒĵÑĥÑĪÑĭÐ»ÑĭÒĽ":5418,"ĠÑĸÑĪÑĸÐ½Ð´ÐµÐ³Ñĸ":5419,"ĠÐ´ÐµÐº":5420,"ĠÐ±Ð°ÑģÑĭ":5421,"ĠÒ¯Ð¹Ð»ÐµÑĢ":5422,"ĠÒĽÐ°Ð¼ÑĤÐ¸":5423,"ÓĻÐ·":5424,"ĠÐºÐ»Ð¸ÐµÐ½ÑĤ":5425,"ĠÐºÑĢ":5426,"ĠÐ¶Ð°Ð·Ð´Ñĭ":5427,"ĠÐ¶Ð¾Ð»Ð´Ð°ÑĢÑĭÐ½":5428,"ÐļÓĻÑģÑĸÐ¿":5429,"ĠÐ°Ð´Ð°Ð¼Ð³ÐµÑĢÑĪÑĸÐ»ÑĸÐº":5430,"ÑģÑĭÐ·Ð´ÑĭÒĽ":5431,"ĠÐµÑĢÐµÐºÑĪÐµÐ»ÑĸÐ³Ñĸ":5432,"ĠÐľÐ¸Ð½Ð¸ÑģÑĤÑĢ":5433,"ĠÑĤÒ¯Ð±":5434,"ĠÐ½ÐµÐ³ÑĸÐ·ÑĸÐ½ÐµÐ½":5435,"Ò±Ð»ÑĭÐ½ÑĭÒ£":5436,"ÐĸÐ¾Ð»":5437,"Ð³ÐµÑĢÐ»ÑĸÐº":5438,"Ð³Ò¯Ð»":5439,"ĠÐ°Ð´Ð°Ð¼Ð´Ð°ÑĢÐ´Ñĭ":5440,"ĠÐ±ÑĸÑĢÐ»ÐµÑģÑĸÐ¿":5441,"Ð´ÑĭÑĢÐ°ÑĤÑĭÐ½":5442,"ĠÒĽÐ°Ð¼ÒĽÐ¾ÑĢ":5443,"ĠÒĵÑĭÐ»ÑĭÐ¼Ð´Ð°ÑĢÑĭÐ½ÑĭÒ£":5444,"ĠÐ¶ÐµÑĢÑĸÐ½Ð´Ðµ":5445,"2013":5446,"ĠÓ©Ð¼ÑĸÑĢÐ³Ðµ":5447,"ĠÐ°Ð½ÑĭÒĽÑĤÐ°Ð¼Ð°":5448,"ĠÐ¼ÐµÐºÑĤÐµÐ¿ÑĤÐµ":5449,"ĠÒ®ÐºÑĸÐ¼ÐµÑĤ":5450,"ĠÑĤÐ¾Ð±ÑĭÐ½ÑĭÒ£":5451,"ĠÓĻÑĢÐµÐºÐµÑĤÑĤÐµÑĢ":5452,"ÑĭÑĢÑĤÒĽÑĭ":5453,"ĠÒĽÒ±Ð¼":5454,"ĠÑĤÐ°Ð¹":5455,"ÑĭÐ¼Ñĭ":5456,"ĠÐ¡Ð°Ð¹":5457,"ĠÑĤÐ°Ð½ÑĭÑģÑĤÑĭÑĢÑĥ":5458,"ĠÐ±ÑĸÐ»ÑĸÐ¼Ñĸ":5459,"ĠÐ¶Ò¯Ð·ÑĸÐ½Ð´Ðµ":5460,"ĠÐºÐµÐ·ÐµÒ£ÑĸÐ½Ð´Ðµ":5461,"ÐºÑģ":5462,"ĠÐ¶Ò±Ð¼ÑĭÑģÑĭÐ½ÑĭÒ£":5463,"ĠÑĤÐ°Ð¼ÑĭÑĢ":5464,"ĠÐºÐµÐ·ÐµÐºÑĤÑĸ":5465,"ÐĶÐĲÐł":5466,"lo":5467,"ÐµÐ¹ÑĤÐ¾Ð¹":5468,"ĠÐ°ÑĤÐ°Ð»":5469,"Ð´ÐµÑģÑĤ":5470,"ĠÑħÐ¸Ð¼Ð¸ÑıÐ»ÑĭÒĽ":5471,"Ó©Ð¿":5472,"ÑĭÒ£Ð´Ñĭ":5473,"ĠÒĽÐ°Ð±ÑĭÐ»Ð´Ð°Ð´Ñĭ":5474,"Ð«ÐĿÐ«Ò¢":5475,"Ð«Ðľ":5476,"ĠÑģÑĥÐ±ÑĬÐµÐºÑĤÑĸÐ»ÐµÑĢ":5477,"ĠÐ¾ÑĤÑĭÑĢÑĭÑģÑĭ":5478,"ÐĺÐ¢":5479,"ĠÐ¸Ð½ÑģÑĤÐ¸ÑĤÑĥÑĤÑĭ":5480,"ĠÐĲÐ·":5481,"ĠÑģÐ¾ÑĤÒĽÐ°":5482,"ĠÐ¾ÒĽÑĭÑĤÑĥÐ´ÑĭÒ£":5483,"ĠÐŀÒĽÑĥÑĪÑĭÐ»Ð°ÑĢÐ´ÑĭÒ£":5484,"ĠÐĶÐ¾Ñģ":5485,"ĠÒ¯Ð»Ð³ÐµÑĢ":5486,"Ġ2050":5487,"ĠÐ±ÑİÐ´Ð¶ÐµÑĤÑĤÐµÐ½":5488,"ÒļÐ°Ð»":5489,"ĠÐ¶Ð°ÑĤÒĽÑĭÐ·":5490,"ĠÐĲÐ»Ð°ÑĪ":5491,"ĠÐļÐ¾Ð½ÑģÑĤÐ¸ÑĤÑĥÑĨÐ¸Ñı":5492,"ĠÒ±Ð¿Ð°Ð¹":5493,"of":5494,"ÑĪÐ°Ð¼":5495,"Ð°Ð·Ð¸ÑıÐ»ÑĭÒĽ":5496,"ĠÐĶÓĻ":5497,"ÐĸÐ¾ÒĵÐ°ÑĢÑĭ":5498,"ĠÒĽÑĭÐ·Ð¼ÐµÑĤÐºÐµ":5499,"ĠÐłÐµÑģÐ¿ÑĥÐ±Ð»Ð¸ÐºÐ°ÑģÑĭÐ½Ð´Ð°":5500,"ĠÐµÐ»Ð´Ðµ":5501,"ĠÐºÒ¯Ð½ÑĤÑĸÐ·Ð±ÐµÐ»ÑĸÐº":5502,"ĠÐ£Ð¸ÐºÐ¸Ð¿ÐµÐ´Ð¸Ñı":5503,"ĠÐ¶Ð°ÑģÑĤÐ°ÑĢÐ´ÑĭÒ£":5504,"ĠÐ¾ÑĤÑĭÑĢÐ¼ÑĭÐ·":5505,"ÐµÐ³ÑĸÐ½Ðµ":5506,"ĠÒĽÐ¾Ð»Ð¶ÐµÑĤ":5507,"ÑĥÐ½Ð¸ÑĨÐ¸Ð¿":5508,"ÒĵÑĥ":5509,"ĠÐ°Ð²ÑĤÐ¾ÑĢ":5510,"32":5511,"ĠÑĤÐµÐ¾ÑĢÐ¸Ñı":5512,"ÑģÐµÐ»":5513,"Ð¶Ð°Ð±":5514,"ĠÑĤÒ±ÑĢÒĵÑĭÐ½Ñĭ":5515,"Ð¥Ð°Ð»ÑĭÒĽÐ°ÑĢÐ°Ð»ÑĭÒĽ":5516,"ĠÑĤÐ°Ð±ÑĭÑģÑĤÑĭ":5517,"Ð´Ð°ÒĵÑĭÐ½ÑĭÒ£":5518,"ĠÑĤÐ°ÒĵÐ°Ð¹ÑĭÐ½Ð´Ð°Ð»Ð´Ñĭ":5519,"ÒļÐ°Ð½":5520,"ÐµÑĤÑĤi":5521,"ĠÑģÐ¾Ð»ÑĤÒ¯ÑģÑĤÑĸÐº":5522,"ĠÑĤÑĭÒ£Ð´Ð°Ñĥ":5523,"ĠÒĽÒ±ÒĽÑĭÒĵÑĭÐ½":5524,"Ð´Ð°Ð½Ñĥ":5525,"ĠÑģÑĭÐ¹Ð»ÑĭÒĽ":5526,"ĠÑģÐ°":5527,"ĠÐ±Ó©Ð»Ð¼":5528,"ÐºÒ¯Ð½":5529,"ĠÐºÒ¯ÑĤÑĸÐ¿":5530,"ÐĨÐł":5531,"Ð¼Ð¾Ð½":5532,"ĠÒĽÒ±ÑĤÑĤÑĭÒĽÑĤÐ°Ñĥ":5533,"Ġb":5534,"ĠÑģÐ¸":5535,"ĠÑĭÒ£ÒĵÐ°Ð¹":5536,"Ð¼Ð±":5537,"ĠÑĢÐµÐ¹ÑĤ":5538,"ĠÑģÐ°ÑıÑħÐ°ÑĤ":5539,"ĠÐ²ÐµÐ´Ð¾Ð¼ÑģÑĤÐ²":5540,"ĠÐ»Ð°ÑĥÐ°Ð·ÑĭÐ¼Ð´Ñĭ":5541,"ĠÐºÐ¾Ð¼Ð¼ÑĥÐ½Ð°":5542,"ðŁ":5543,"Ð°Ð±ÑĭÐ½":5544,"ÒĵÑĭÐ¿":5545,"ĠÐ¶Ð°Ò»":5546,"ĠÒĽÑĭÐ»Ð¼":5547,"ĠÑĪÐ°ÑĢÐ°Ð»Ð°ÑĢÑĭ":5548,"ĠÒĽÐ°Ð¶ÐµÑĤÑĤÑĸÐ»ÑĸÐº":5549,"ĠÐ°Ð»Ð°Ð¼ÑĭÐ·":5550,"ĠÒĽÐ°Ð±ÑĭÑĢ":5551,"ĠÒĽÐ°ÑĤÐ°Ò£":5552,"ĠÒĽÐ°Ð»ÑĭÐ¿ÑĤÑĭ":5553,"ĠÑģÒ¯ÑĢÑĥ":5554,"ĠÐ°ÑĥÒĽÑĭÐ¼Ð´Ñĭ":5555,"ĠÐºÓ©ÑĪÐ±Ð°Ñģ":5556,"ÑħÐ°Ð½Ð¾Ð²":5557,"ĠÓ©Ò£ÑĸÑĢÐ»ÑĸÐº":5558,"03":5559,"ÑĤÑĥÑĢ":5560,"ĠÐ¶Ð°ÑĤÒĽÐ°Ð½ÑĭÐ½":5561,"Ð´Ð°ÑĢÐ´Ð°Ð½":5562,"ĠÑĤÐµÑħÐ½Ð¾Ð»Ð¾Ð³Ð¸ÑıÐ»Ð°ÑĢÐ´Ñĭ":5563,"Ð°ÑĥÐ´Ð°Ð½":5564,"ÓĺÐ¹":5565,"Ò¯Ð¼ÐºÑĸÐ½":5566,"ĠÐ½Ð°ÑĥÒĽÐ°Ñģ":5567,"Ġ>":5568,"Ġ196":5569,"Ð»Ð°ÑĢÑĭÐ½Ð´Ð°":5570,"ĠÑģÐµÐºÑĤÐ¾ÑĢ":5571,"ĠÒĽÑĭÐ·Ð¼ÐµÑĤÑĤÑĸÒ£":5572,"ĠÐĳÐ°ÑģÒĽÐ°ÑĢ":5573,"ÐºÑĸÑĪÑĸ":5574,"ĠÐ±Ò±ÒĽÐ°ÑĢÐ°Ð»ÑĭÒĽ":5575,"ĠÐĳÑĸÐ»":5576,"aq":5577,"ĠÐ¾Ð¹Ð»Ð°Ð¿":5578,"ÑģÐ°ÑıÑģÐ¸":5579,"ĠÐ¶Ð¾ÒĵÐ°ÑĢ":5580,"ÐºÐ¾Ð½Ð¾Ð¼Ð¸ÐºÐ°":5581,"iÑģ":5582,"ĠÐºÓ©ÐºÑĤÐµÐ¼":5583,"ĠÐµÐ½Ð³ÑĸÐ·ÑĸÐ»ÐµÐ´Ñĸ":5584,"ÐµÐ¹Ð¼ÑĸÐ½":5585,"ĠÐŀÑģÑĭÐ»Ð°Ð¹ÑĪÐ°":5586,"ĠÐµÑĢÑĤÐµÒ£":5587,"Ð¾ÑģÑĦÐµÑĢ":5588,"ĠÐ¡ÐµÑĢÑĸÐº":5589,"ÐµÑĤÐµÑĢÐ¸Ð½Ð°ÑĢ":5590,"ĠÐ°ÑģÐ¿Ð°Ð¿":5591,"Ð´Ð°Ð»Ð°Ð´Ñĭ":5592,"ĠÐ¡Ð°Ð±Ð°ÒĽ":5593,"ĠÐļÐ¾ÑĢÐµÑı":5594,"ÐµÐ´Ð¸ÑĨÐ¸Ð½":5595,"ĠÒĽÐ¾Ð½Ð°ÒĽÑĤÐ°ÑĢ":5596,"ĠÐ°ÑĤÐ°Ð»Ð°ÑĤÑĭÐ½":5597,"Ð»Ð°Ð½ÑĭÒ£":5598,"Ð§":5599,"ĠÐŀÑģÑĭÐ½Ð´Ð°Ð¹":5600,"Ð¸ÑıÑĢ":5601,"ÐµÐ´Ð°Ð³Ð¾Ð³Ð¸ÐºÐ°Ð»ÑĭÒĽ":5602,"ĠÑģÐ¾Ð¼Ð°ÑģÑĭ":5603,"ÑĭÐ¼ÑĭÐ·Ð´Ð°":5604,"ÒļÐ¾ÒĵÐ°Ð¼":5605,"ĠÒĽÐ¾ÑĢÒĵÐ°Ð»":5606,"ĠÐ¾ÑĢÑĤÐ°Ð»ÑĭÒĵÑĭÐ½Ð´Ð°":5607,"ĠÒļÐ°Ð¹ÑĢÐ°ÑĤ":5608,"ÑĤÐ°ÑĢÐ»ÑĭÒĽÑĤÐ°Ð¹":5609,"ĠÐºÐµÐ·ÐµÐ³ÑĸÐ½Ð´Ðµ":5610,"ĠÑģÒ±Ð»Ñĥ":5611,"ÒĵÑĭÑģÑĭÐ½Ð°Ð½":5612,"Ð¾ÑģÐ¿Ð°ÑĢ":5613,"Ð°ÑĨÐ¸ÑıÑģÑĭÐ½ÑĭÒ£":5614,"ĠÑģÐ°Ð»Ð´Ñĭ":5615,"ĠÐ¼Ð¸Ð»Ð»Ð¸Ð°ÑĢÐ´":5616,"ÑĪÐµÑĤÐ°Ñĥ":5617,"ÐĲÑģ":5618,"ĠÐ°ÑĥÐ¼Ð°ÒĽÑĤÑĭÒĽ":5619,"Ð´ÓĻÑĢ":5620,"ĠÑģÐ¸Ð½":5621,"ĠÐ±Ð¾Ð¹ÑĭÐ½Ð´Ð°":5622,"ĠÒĽÑĭÐ·Ñĭ":5623,"ĠÐºÐµÐ»ÑģÐµ":5624,"Ð°Ð´ÑĭÐ¼":5625,"ĠÐ±Ó©Ð»ÑĪÐµÐº":5626,"ĠÒĽÒ±Ð±ÑĭÑĢ":5627,"ĠÓĺÐ´ÑĸÐ»ÐµÑĤ":5628,"ÐłÑĥÑħÐ°Ð½Ð¸":5629,"ĠÐºÐµÐ»Ð³ÐµÐ½Ð´Ðµ":5630,"ĠÐ´Ò¯ÐºÐµÐ½":5631,"Ð¼Ð¾":5632,"ĠÓĺÐºÑĸÐ¼":5633,"ĠÒĽÐ°Ð»Ð´ÑĭÒĽ":5634,"ĠÐ¢Ð¾Ð¿":5635,"ĠÑĪÐ°ÑĢÑĤÑĭ":5636,"Ð¶ÐµÐºÐµ":5637,"ĠÐ¾ÑĢÑĤÐ°Ð½Ñĭ":5638,"ĠÒ¯Ð¹Ð³Ðµ":5639,"ĠÐ¼ÓĻÑģÐµÐ»ÐµÐ½Ñĸ":5640,"ĠÐ±Ð°ÒĵÑĭÑĤÑĤÐ°":5641,"ĠÐ¶ÐµÑĤÐºÑĸÐ»ÑĸÐºÑĤÑĸ":5642,"Ð´Ð°ÑģÑĤÑĭ":5643,"ÑĤÐµÑĢÑĸÐ½Ð´Ðµ":5644,"ĠÐ°Ð¼Ð°Ð»":5645,"ĠÐ¿ÓĻÐ½ÑĸÐ½ÑĸÒ£":5646,"75":5647,"ÑĦÐ¾Ð½":5648,"Ð¾ÑĢÒĵÐ°Ð½":5649,"ÑĥÐ¼Ð°Ð½Ð¸ÑĤÐ°ÑĢÐ»ÑĭÒĽ":5650,"ĠÐ´ÐµÑģ":5651,"Ð°ÑĤÐ¸Ð²ÑĤÑĸ":5652,"Ð¢ÓĻÑĥÐµÐ»":5653,"ĠÐºÐµÐ¹ÑĸÐ¿":5654,"Ð½Ð¾ÑģÑĤ":5655,"Ð±Ð°Ð»Ð°ÑĢ":5656,"ĠÑģÐ°ÑĤÑĭ":5657,"ĠÒĽÐ°Ð¼ÑĤÐ¸Ð´Ñĭ":5658,"ĠâĢ¦":5659,"ÑĨÐ¸Ð°Ð»":5660,"ÓĺÐ»ÐµÑĥÐ¼ÐµÑĤÑĤÑĸÐº":5661,"ĠÐ¶Ð¾Ð»Ð°ÑĥÑĪÑĭÐ»Ð°ÑĢ":5662,"ÓĺÐ´Ñĸ":5663,"ĠÑĤÒ¯ÑĢÐºÑĸ":5664,"ÑĤÑĭÐ»Ð°Ð¹":5665,"ĠÐĳÒ±Ð´Ð°Ð½":5666,"ÐļÐµÐ»ÐµÑģÑĸ":5667,"Ð´Ð¾":5668,"ĠÐºÑĸÐ»":5669,"ĠÐķÐ½":5670,"ĠÐ´Ð¾Ð¼":5671,"ĠÐ°Ð»Ð´ÑĭÒ£ÒĵÑĭ":5672,"ÓĻÑĢÐµÐºÐµÑĤ":5673,"ĠÒĽÐ¾Ð¹Ð½":5674,"ÑĸÑģÐ¿ÐµÐ½":5675,"ÑĤÐ¾":5676,"ĠÑģÓ©Ð·Ð´ÐµÑĢÐ´Ñĸ":5677,"ĠÐ°ÒĵÐ·":5678,"ĠÑĤÐ°Ð»Ð°Ð¿ÑĤÐ°ÑĢÑĭÐ½Ð°":5679,"33":5680,"ĠÐ±Ð°ÑĢÐ°Ð´Ñĭ":5681,"ĠÒĽÒ±ÑĢÐ°Ð»Ð´Ð°ÑĢ":5682,"ĠÐ¼Ò±Ð½Ð´Ð°":5683,"Â»,-":5684,"ĠÐµÑģÑĤÐµ":5685,"Ð¾Ð·Ð¸ÑĨÐ¸Ñı":5686,"ĠÐ±Ð°ÑģÐ¿Ð°Ð½":5687,"Ð¨ÑĭÒĵÑĭÑģ":5688,"ĠÐ°Ð»Ð´ÑĭÐ½Ð´Ð°ÒĵÑĭ":5689,"ÐĲÒĽÐ¼Ð¾Ð»Ð°":5690,"Ð±Ð°Ð±ÑĭÐ½ÑĭÒ£":5691,"ĠÐ°Ð¹Ð½Ð°Ð»Ð´Ñĭ":5692,"ĠÒ±Ð»ÒĵÐ°Ð¹":5693,"ĠÐ¿Ð¾ÑĢÑĤÐ°Ð»":5694,"ĠÐ±ÐµÐ»Ð³ÑĸÑģÑĸ":5695,"ĠÑģÓĻÐ±Ð¸":5696,"ĠÐĲÐ»Ð¼Ð°ÑĤÑĭÐ´Ð°":5697,"ĠÐ¶Ð°Ð·Ð±Ð°ÑĪÐ°":5698,"ĠÑģÐ»Ð°Ð¹Ð´":5699,"Ð´ÐµÑĢÑĸÐ¼ÐµÐ½":5700,"ĠÑĢÐµÐ´Ð°ÐºÑĤ":5701,"ÐĲÑģÑĤÐ°Ð½Ð°Ð´Ð°":5702,"ĠÓĻÐ¶":5703,"ĠÒĽÑĭÐ·Ð¼ÐµÑĤÑĪÑĸÐ»ÐµÑĢ":5704,"Ð°Ð´Ð°ÒĵÑĭ":5705,"ĠÐ°Ð¹Ð»ÑĭÒĽ":5706,"ĠÒ¯ÑģÑĤÑĸÐ½Ð´Ðµ":5707,"ĠÐµÐ»Ð´ÐµÑĢÐ´ÑĸÒ£":5708,"Ð¾Ð·Ð¸ÑĤ":5709,"ĠÐ¶ÐµÑĤÐµÐºÑĪÑĸ":5710,"Ð¿Ð°Ð»Ñĭ":5711,"Ð¸ÐµÐ²Ð°":5712,"ĠÑĤÓĻÑĢÑĤÑĸÐ¿Ð¿ÐµÐ½":5713,"Ð°Ð¼Ð´Ñĭ":5714,"ĠÐ°ÑĢÐ½Ð°ÑĥÐ»Ñĭ":5715,"Ò°Ðł":5716,"ĠÑĤÓĻÑĢÑĤÑĸÐ±ÑĸÐ½":5717,"ÓĻÐºÑĸÑĢÑĤ":5718,"ĠÐ¿ÑĸÑĪ":5719,"ĠÒĽÑĭÐ·Ð¼ÐµÑĤÐºÐµÑĢÑĸ":5720,"ÑģÐ°ÑĤÑĭÐ½":5721,"Ð³ÐµÑĢÐ»ÐµÑĢ":5722,"Ð±Ð°ÐµÐ²ÑĤÑĭÒ£":5723,"ĠÐ°Ð½ÑĭÒĽÑĤÐ°Ð»ÒĵÐ°Ð½":5724,"ĠÐ¶Ð°ÑģÐ°Ð¹ÑĤÑĭÐ½":5725,"ĠÐºÐµÐ·ÐµÐº":5726,"ĠÐ¢Ð°ÑĢÐ°Ð·":5727,"ĠÐ½Ð°ÑĪÐ°ÑĢ":5728,"ĠÐľÓĻÐ¶ÑĸÐ»":5729,"ĠÐºÐµÐ¿ÑĸÐ»Ð´ÑĸÐº":5730,"ĠÐ¼ÐµÑħÐ°Ð½Ð¸Ð·Ð¼":5731,"ĠÐĸÐ¾ÒĵÐ°ÑĢÒĵÑĭ":5732,"ĠÐ¶Ò¯ÑĢÐ³ÑĸÐ·ÑĥÑĪÑĸ":5733,"ĠÐ°ÑħÑĥ":5734,"ĠÐ¼Ð°ÑĤÐµÐ¼Ð°ÑĤÐ¸ÐºÐ°":5735,"09":5736,"ĠÐºÐ¾Ð¼Ð¿ÑĮÑİÑĤÐµÑĢ":5737,"ÒĵÐ¾Ð»":5738,"ĠÐ°Ð·Ð°Ð¹ÑĤÑĥ":5739,"ĠÑĤÐ°Ð¿ÑģÑĭÑĢÑĭÑģ":5740,"ĠÑĤÐ°Ð»ÒĽÑĭÐ»Ð°Ñĥ":5741,"Ð°Ð¼Ð°Ð»":5742,"Ð±Ð°Ð»Ñĭ":5743,"ĠÐ½ÐµÑĪÐµ":5744,"ĠÐĳÐ°ÒĵÐ´Ð°ÑĢÐ»Ð°Ð¼":5745,"ÐºÐµÒ£":5746,"ĠÐ¶Ò±Ð¼ÑĭÑģÑĭÐ½Ð°":5747,"Ð°Ð´Ð°Ð½":5748,"ĠÐĳÐ°ÑıÐ½":5749,"ÐºÑĸÐ½ÑĸÑĪ":5750,"ĠÐ¼ÑĸÐ½Ð´ÐµÑĤ":5751,"ĠÑĤÐµÑĢÐµÐ·":5752,"ÑĸÐ³ÑĸÐ½":5753,"Ð¶Ó©Ð½":5754,"Ð°ÑĤÑĭÐ½Ð°":5755,"ĠÒĽÐ¾ÑģÑĭÐ»":5756,"ĠÑĪÐ¸ÐºÑĸÐ·":5757,"ĠÐ¾Ð¿":5758,"Ġp":5759,"ĠÒĽÐ°ÑģÐ¸ÐµÑĤÑĤÑĸ":5760,"Ð°Ð½Ð¾Ð²":5761,"ĠÓĻÐ´ÐµÑĤÑĤÐµ":5762,"ÐĲÐĳ":5763,"ÑĢÐµÐ½":5764,"ÐºÐµÑģÑĸ":5765,"ĠÐ¡Ð¾ÑĤ":5766,"ĠÐ±Ð°ÑĢÒĵÐ°Ð½":5767,"ĠÐĲÑĤÐ°Ð»ÒĵÐ°Ð½":5768,"ĠÐ¢ÐµÐ¼ÑĸÑĢ":5769,"ĠÑģÐ°Ð½ÑĭÐ½":5770,"ĠÐ¶ÐµÑĤÐµÐ´Ñĸ":5771,"ĠÐĸÐµÐºÐµ":5772,"Ð¿Ð°Ð¹Ð´Ñĭ":5773,"ĠÓ©Ð½ÐµÑĢÑĸ":5774,"ĠÐ¶Ð°Ð¿Ð¿Ð°Ð¹":5775,"ÒļÐ°Ð·Ð°ÒĽÑģÑĤÐ°Ð½Ð´ÑĭÒĽ":5776,"ĠÐ´Ð¾ÑģÑĤÐ°ÑĢ":5777,"ĠÐºÓ©ÑĢÐµÑĢÐ¼ÐµÐ½":5778,"ĠÒĽÐ°ÑĪÐ°Ð½":5779,"Ġhttp":5780,"ĠÑĤÐ¸ÑĸÐ¼Ð´ÑĸÐ»ÑĸÐ³ÑĸÐ½":5781,"ĠÐ°Ð¹ÑĤÐ°ÑĢÐ»ÑĭÒĽÑĤÐ°Ð¹":5782,"ĠÐ¶Ð°Ð½ÑĥÐ°ÑĢÐ»Ð°ÑĢ":5783,"ĠÐ·Ð°Ò£ÑģÑĭÐ·":5784,"ĠÑĢÐµÐ·":5785,"ĠÑĤÐµÑħÐ½Ð¸ÐºÐ°":5786,"ĠÐ¿Ð°ÑĢÐ°ÒĽÑĪ":5787,"Ġs":5788,"Ð°ÑģÑĭÒ£":5789,"Ð±ÑĭÐ·":5790,"Ð¢Ð£":5791,"ĠÐ±ÐµÑĢÐ¼":5792,"Ó©Ð½Ð´ÑĸÑĢ":5793,"ĠÐ°Ð»ÑĥÐ´Ñĭ":5794,"ĠÐ¼ÐµÐ´Ð°Ð»ÑĮ":5795,"ĠÒĽÐ°ÑĢÐ°ÑģÑĤÑĭÑĢÑĭÐ»ÒĵÐ°Ð½":5796,"ĠÒļÐ¾ÒĵÐ°Ð¼Ð´ÑĭÒĽ":5797,"Ð¶Ð¾":5798,"Ð»Ð¸":5799,"ĠÐ°ÑĢÑĭÐ·":5800,"ĠÑĤÒ¯Ð·ÐµÑĤÑĥ":5801,"ĠÐ¶ÐµÐºÐµÐ»ÐµÐ³ÐµÐ½":5802,"Ð¼ÓĻÐ´ÐµÐ½Ð¸":5803,"ÐĸÐ°Ð¼Ð±ÑĭÐ»":5804,"ĠÑĤÐ°ÑĢÑĤÑĭÐ¿":5805,"ÑĥÐ½Ð¸ÑĨÐ¸Ð¿Ð°Ð»Ð¸ÑĤ":5806,"ĠÐ±Ð¾Ð»ÑĥÑĭÐ½Ð°":5807,"ĠÐµÐ»Ñĸ":5808,"ma":5809,"Ð´Ð¾Ð½":5810,"ÑģÑĭÐ½Ð´Ð°ÒĵÑĭ":5811,"ĠÐ¡Ñĥ":5812,"Ð³ÑĸÐ¿":5813,"ĠÐ¶Ò¯ÑĢÐ³ÑĸÐ·ÑĥÐ³Ðµ":5814,"ÑĤÐ¸ÑħÐ°Ð½":5815,"ĠÐ°Ð»ÑĥÑĪÑĭÐ»Ð°ÑĢ":5816,"ĠÐ¼ÐµÑĢÐµÐ¹ÑĤÐ¾Ð¹":5817,"ĠÐ´ÐµÐ»ÑĸÐ½Ð³ÐµÐ½":5818,"Ð°Ð»ÑĭÒĵÑĭÐ½":5819,"ĠÐ°Ð½Ð°ÑģÑĭ":5820,"ĠÐ¿ÑĢÐ¾ÑĨÐµÑģÑĤÐµÑĢ":5821,"Ð°ÑĤÑĤÐ°Ñĥ":5822,"Ð°Ð¼ÐµÑĤÑĢ":5823,"ĠÐ¼Ð°Ð¼Ð°Ð½Ð´Ð°Ð½Ð´ÑĭÑĢÑĭÐ»ÒĵÐ°Ð½":5824,"ÐµÑĤÐµÐ»":5825,"ĠÐºÐ¸Ð½Ð¾":5826,"Ð°ÒĽÑĭÐ¼":5827,"ĠÒļÑĭÑĢÒĵÑĭÐ·ÑģÑĤÐ°Ð½":5828,"Ð±ÐµÑĢÐ³ÐµÐ½":5829,"iv":5830,"Ð¶Ð°ÒĽ":5831,"ĠÐ±Ð¾Ð»ÒĵÐ°Ð½ÑĭÐ½":5832,"ĠÐĳÐ°Òĵ":5833,"Ð´ÑĭÑĢÐ°Ð´Ñĭ":5834,"ĠÐ¶Ð°ÑĢÑĭÑģ":5835,"ĠÐĳÒ¯Ð³ÑĸÐ½Ð´Ðµ":5836,"ĠÑĤÐ¾Ð»ÒĵÐ°Ð½":5837,"ÐĳÑĸÑĢÑĸÐ½ÑĪÑĸ":5838,"ĠÒĽÑĭÐ·Ð¼ÐµÑĤÐºÐµÑĢÐ»ÐµÑĢÑĸÐ½ÑĸÒ£":5839,"ĠÐ¼Ð°Ð·Ð¼Ò±Ð½ÑĭÐ½":5840,"Ð°ÑĢÐ¸":5841,"ĠÐ¼Ð¸Ð½Ð¸ÑģÑĤÑĢÑĸÐ½ÑĸÒ£":5842,"ĠÑģÓ©Ð·Ð´ÑĸÐº":5843,"ĠÐ¢ÓĻÑĥÐµÐ»ÑģÑĸÐ·":5844,"ĠÑĪÐµÐºÑĤ":5845,"ĠÐ±Ð°ÑģÑĭÐ½Ð°":5846,"ĠÒĽÐ¾Ð¹Ð¼Ð°Ð¹":5847,"ĠÑģÐ¾Ò£ÑĭÐ½Ð°":5848,"ĠÑĤÓĻÐ¶ÑĸÑĢÐ¸Ð±ÐµÑģÑĸ":5849,"ĠÑĩÐµÐ¼Ð¿Ð¸Ð¾Ð½Ñĭ":5850,"ÑĭÐ¿ÑĤÑĭ":5851,"ĠÒĽÐ°Ð»ÑĭÒ£":5852,"ĠÐ±Ð¸ÑĭÐ»ÒĵÑĭ":5853,"Ġ2006":5854,"ĠIn":5855,"ĠÐ±Ð»Ð¾Ð³":5856,"ĠÐ¾ÑĤÐ±":5857,"ĠÒļÑĭÐ·ÑĭÐ»":5858,"Ð°ÒĵÑĭÐ½Ð´Ð°":5859,"Ġ194":5860,"ĠÐ¾Ð¹Ð»Ð°Ð¹Ð¼ÑĭÐ½":5861,"ĠÒĽÐ°Ð±ÑĸÐ»ÐµÑĤÑĤÐµÑĢÑĸÐ½":5862,"ÐĨÐĨÐĨ":5863,"ĠÑĪÐ°ÑĢÑĪÑĭ":5864,"ĠÑĤÑĸÐ»Ð´Ðµ":5865,"ĠÐ¡Ð°Ð½":5866,"ÑĭÐ¼Ð´Ð°ÑĢ":5867,"ĠÑĢÐµÑĦÐµÑĢ":5868,"ÒĽÒ±Ð¼":5869,"ÑİÑĢ":5870,"Ð¾Ð»Ð¾Ð²ÐºÐ¸Ð½":5871,"Ð¼Ð¸ÑĤ":5872,"Ò±ÑĢÐ°ÑĤ":5873,"ÐĲÐ¡Ð«":5874,"ĠÐ¡ÑĭÑĢ":5875,"ĠÐ¶Ð¸Ð½Ð°ÒĵÑĭ":5876,"ĠÐºÐ¾ÑĢÐ¿Ñĥ":5877,"ĠÑģÐ°ÑĤÑĭÐ»":5878,"ĠÐºÐµÐ´ÐµÑĢÐ³Ñĸ":5879,"ĠÐ¼ÐµÑĢÐµÐºÐµÐ»ÑĸÐº":5880,"ĠÒĽÐ°ÑĢÑģÑĭÐ»":5881,"ÑĤÑĭÐ¼Ð´Ñĭ":5882,"ĠÐ°ÑĤÐ°Ð¹Ð´Ñĭ":5883,"ĠÐ´ÓĻÑĢÑĸ":5884,"ĠÓ©Ð½ÐµÑĢÐº":5885,"Ð°Ð¼ÑĭÐ·Ð´ÑĭÒ£":5886,"Ð¾Ð¿ÐµÑĢ":5887,"ĠÑĤÐ¾Ð»Ð¼Ð°ÒĵÐ°Ð½":5888,"ot":5889,"ĠÑģÓĻÐ½":5890,"ĠÑģÐ¾Ð»Ð°Ð¹":5891,"Ð¿ÐµÐ³ÐµÐ½":5892,"ĠÐ´Ó©Ò£Ð³ÐµÐ»ÐµÐº":5893,"Ð±ÐµÐºÐ¾Ð²Ð°":5894,"ĠÑĤÒ±ÑĢÒĵÑĭÑģÑĭÐ½Ð°Ð½":5895,"Ð°Ð¼ÐµÑĢ":5896,"ÐµÐºÑĤÐ¾ÑĢÑĭ":5897,"ÐĸÐµÐºÐµ":5898,"ĠÑħÐ°Ð½Ð´Ñĭ":5899,"ĠÐ¾ÒĽÑĥÑĪÑĭÐ½ÑĭÒ£":5900,"ĠÐ¼ÓĻÐ»ÑĸÐ¼ÐµÑĤÑĤÐµÑĢÐ´Ñĸ":5901,"Ð¸ÑĢÐ°":5902,"ĠÑĦÐ¸Ð»Ð¸Ð°Ð»Ñĭ":5903,"ĠÐ¼ÐµÒ£Ð³ÐµÑĢÑĥÑĪÑĸÑģÑĸ":5904,"Ð¸ÑĢÑĥ":5905,"ĠÒ±Ð¹ÑĭÐ¼ÑĭÐ½ÑĭÒ£":5906,"ĠÑģÐ°ÒĽÑĤÐ°ÑĥÒĵÐ°":5907,"Ð¢Ðŀ":5908,"ĠÐ¿Ð°Ð»Ð°ÑĤ":5909,"ĠÒĽÐ¾Ð»Ð´Ð°Ð½Ð°":5910,"ĠÐ¼ÓĻÑģÐµÐ»ÐµÐ»ÐµÑĢÑĸÐ½":5911,"Ò¯ÐºÑĤ":5912,"Ð¢Ð°ÒĽÑĭÑĢÑĭÐ±Ñĭ":5913,"ĠÑĤÑĸÐ·Ð±":5914,"ĠÐ±ÐµÐ»Ð³ÑĸÑģÑĸÐ·":5915,"ĠÐºÓ©ÑĢÑĸÐ½ÑĸÑģ":5916,"ĠÐ°ÑģÑĤÑĭ":5917,"ÐĲÐ»Ð¼Ð°ÑĤÑĭÐ´Ð°":5918,"ĠÑĤÐ°Ð½ÑĭÑĤ":5919,"ĠÒĽÐ°Ð´ÑĸÑĢ":5920,"ÑĸÐ¼Ð´ÐµÑĢÑĸÐ½":5921,"ĠÐ¾ÑĤÑĭÑĢÑĭÑģÑĭÐ½Ð´Ð°":5922,"ĠÑĤÑĸÐ»ÑĸÐ½ÐµÐ½":5923,"ĠÐ°Ð¹Ð½Ð°Ð»ÑĭÐ¿":5924,"ÐĳÐ¸ÑĭÐ»":5925,"ĠÐ°Ð»ÑĥÑĭ":5926,"ĠÐºÐµÐ·Ð´ÐµÐ³Ñĸ":5927,"ĠÑģÓĻÑĥÐ»ÐµÑĤ":5928,"ÓĻÑĢÑĸÐ¼":5929,"ĠÒĽÒ±Ð¹":5930,"ĠÐĸÐŀÐŀ":5931,"ĠÑĥÐ½Ð¸Ð²ÐµÑĢÑģÐ¸ÑĤÐµÑĤ":5932,"ĠÑĤÒ¯ÑģÐµÑĤÑĸÐ½":5933,"Ð°ÑģÑģ":5934,"ĠÑĤÒ±ÑĢÐ°ÒĽ":5935,"ĠÐ°Ð¹Ð½Ð°Ð»ÒĵÐ°Ð½":5936,"ĠÐ¶Ð°ÑģÐ°Ð»Ð°Ð´Ñĭ":5937,"ĠÒ±Ð¼ÑĭÑĤ":5938,"Ð¿ÑĮÑİ":5939,"ĠÐ¼Ò¯Ð¼ÐºÑĸÐ½Ð´ÑĸÐ³ÑĸÐ½":5940,"Ġ2005":5941,"ĠÑģÐ¾Òĵ":5942,"Ð´ÑĸÒ£ÑĸÐ·":5943,"ĠÓ©ÑĤÐºÑĸÐ·ÑĸÐ¿":5944,"Ð´ÑĭÒĽÑĤÑĭ":5945,"ĠÐ¶Ð°Ð»ÒĵÐ°Ð½":5946,"ĠÐĵÐµÑĢÐ¼Ð°Ð½Ð¸Ñı":5947,"ĠÐ¶Ò¯ÑĢÐµÐ´Ñĸ":5948,"ĠÐºÑĸÑĢÑĸÑģÑĤÐµÑĢ":5949,"ĠÐ¶Ò¯Ð³ÑĸÐ½":5950,"ĠÐºÐµÐ»ÑĸÐ½":5951,"ĠÑĤÑĸÑĢÑĸ":5952,"06":5953,"ĠÒĽÐ°ÑĪÑĭÒĽÑĤÑĭÒĽ":5954,"ÑĤÐ¾Ð½":5955,"ĠÒ¯Ð¹Ð»ÐµÑģÑĤÑĸÑĢÑĥ":5956,"ĠÐ¾ÑģÑĭÐ»Ð°Ð¹":5957,"ÐĳÐ°ÑĤÑĭÑģ":5958,"Ó©Ò£":5959,"ĠÐºÐµÐ¹Ð´Ðµ":5960,"ĠÑĪÒ±ÒĵÑĭÐ»":5961,"ĠÑĪÑĭÐ½Ð°Ð¹Ñĭ":5962,"ĠÐºÑĸÑĪÐºÐµÐ½ÑĤÐ°Ð¹":5963,"ĠÐ±Ò±Ð´Ð°Ð½":5964,"ĠÐ¶Ð¾ÑģÐ¿Ð°ÑĢÐ»Ð°Ð½ÒĵÐ°Ð½":5965,"ĠÑģÐµÐ»":5966,"Ð¸Ð¼Ð¿Ð¸Ð°Ð´":5967,"ÐľÐ°ÒĽÑģÐ°ÑĤÑĭ":5968,"ĠÐ¶Ò¯ÑĢÐµÑĤÑĸÐ½":5969,"ÒĵÑĭÐ»Ñĭ":5970,"ĠÐ±Ó©Ð»ÑĸÐ³ÑĸÐ½":5971,"ĠÐŀÑĤ":5972,"ĠÐ¾Ð´Ð°ÒĽ":5973,"ÑĭÑģÑĤÐ°ÑĢÐ´ÑĭÒ£":5974,"ĠÑĤÓ©Ð¼ÐµÐ½Ð´ÐµÐ³Ñĸ":5975,"ĠÐ±Ð°ÒĽÑĭÑĤÑĤÑĭ":5976,"ĠÐ¼ÐµÐºÐµÐ¼ÐµÑģÑĸÐ½ÑĸÒ£":5977,"Ð¾Ð¼ÐµÑĤÑĢ":5978,"Ð¢ÑĥÒĵÐ°Ð½":5979,"ĠÒĽÒ±ÑĢÐ°ÑģÑĤÑĭÑĢ":5980,"ĠÐºÒ¯Ð½ÑĸÐ½ÐµÐ½":5981,"ĠÒĵÐ°Ð»Ð°Ð¼":5982,"Ġ)":5983,"ĠÐ½Ð°Ð½":5984,"ĠÐ¥Ð¥":5985,"Ð¸ÑĭÐ½":5986,"ĠÐ½Ð°Ð¼Ð°Ð·":5987,"ĠÐµÐ»ÐµÑĥ":5988,"Ð°ÑĥÑĭÑĢÐ¶Ð°Ð½":5989,"ĠÐºÑĸÑĤÐ°Ð¿ÑħÐ°Ð½Ð°":5990,"100":5991,"Ð°ÑĤÐ°ÑĢ":5992,"Ð°ÑĥÑĭÐ»":5993,"Ð¸ÑıÐ½":5994,"ĠÐ¡Ó©Ð·":5995,"ĠÐĸÐµÐ»":5996,"ĠÒĽÐ¾ÑĢÑĭÐ½ÑĭÒ£":5997,"ĠÐŀÐ»Ð¸Ð¼Ð¿Ð¸Ð°Ð´Ð°":5998,"ĠÐ°ÑĥÐ´Ð°ÑĢÑĥ":5999,"ĠÑĦÐµÐ´ÐµÑĢ":6000,"ĠÐºÐµÑĪÐµÐ½Ñĸ":6001,"ĠÐ¿ÓĻÐ½ÑĸÐ½ÐµÐ½":6002,"ĠÐ°ÑĢÐ°Ð»Ð°Ñģ":6003,"ain":6004,"ĠÒļÑĥ":6005,"ĠÑĤÐµÐ³Ñĸ":6006,"ĠÓĻÑĥÐµ":6007,"ĠÒ±ÑģÑĭÐ½ÒĵÐ°Ð½":6008,"ÒļÐ¾Ð»":6009,"ĠÒ¯Ð¹Ñĸ":6010,"ĠÐ°ÑıÒĽÑĤÐ°Ð»ÒĵÐ°Ð½":6011,"ÐµÐ¿Ð°ÑĢ":6012,"ĠÐ¶Ð°Ð»ÒĵÐ°":6013,"Ġ&":6014,"ĠÐ±Ò¯Ð»":6015,"ĠÐ±Ð¾Ð»ÒĵÐ°Ð½Ð´Ð°":6016,"ĠÓ©ÑģÑĥ":6017,"ĠÑįÐºÑģÐ¿":6018,"ĠÑĤÑĭÐ½ÑĭÑĪ":6019,"ation":6020,"ĠÒĽÐ¾Ð¶":6021,"ĠÑģÓĻÑĥÐ»":6022,"ĠÒĽÐ¾ÑģÑĭÐ¼ÑĪ":6023,"ĠÐ¢Ò¯":6024,"Ð°ÑĤÑĤÐ°":6025,"ĠÐĸÐ°Ð»":6026,"ĠÐ¶ÐµÐ»ÑĤÐ¾ÒĽÑģÐ°Ð½Ð´Ð°ÒĵÑĭ":6027,"ĠÐ±ÓĻÑģÐµÐºÐµÐ»":6028,"ĠÐ±ÐµÑģÐ¿":6029,"ĠÑģÑĤÑĥ":6030,"Ð°Ð±ÑĭÐ½Ð°":6031,"ÑĸÐºÐºÐµÐ½":6032,"ĠÑĤÐµÑĢÑĸÑģ":6033,"ÐµÑĤiÐ½":6034,"ĠÐ¶Ò±Ð¼ÑĭÑģÑĤÑĭÒ£":6035,"ĠÐ²Ð¸ÑĨÐµ":6036,"ÓĻÐ¼ÐµÐ»":6037,"ĠÑģÐ°Ð»Ð°ÑģÑĭÐ½ÑĭÒ£":6038,"ĠÐ¾ÒĽÑĥÑĪÑĭÐ»Ð°ÑĢÒĵÐ°":6039,"ÐĲÑĤÐ°":6040,"ĠÒĽÐ¾ÑĪ":6041,"ĠÐ¿ÑģÐ¸ÑħÐ¾Ð»Ð¾Ð³Ð¸Ñı":6042,"ÐĳÑĸÐ»":6043,"ĠÑģÓĻÐ»ÐµÐ¼":6044,"ĠÐĳÓ©":6045,"ĠÐ°ÑĢÐ°Ð´Ð°":6046,"ĠÑĤÐ°ÑĢÐ¸ÑħÑĭÐ½":6047,"Ð»Ð°ÑĤÐ½Ð¾":6048,"ĠÐºÓ©ÑĢÑģÐµÑĤÐµ":6049,"ÐĳÐĽ":6050,"Ð´ÑĭÑĢÒĵÐ°Ð½":6051,"ĠÒĽÐ°ÑĤÑĭ":6052,"ÑĭÐ¼Ð´Ð°":6053,"ĠÐ±Ð°ÒĵÑĭÐ½":6054,"ĠÑģÐµÐ·ÑĸÐ½":6055,"ĠÑįÐºÑģÐ¿Ð¾ÑĢÑĤ":6056,"ĠÑģÐ°Ð»ÑĥÒĵÐ°":6057,"ĠÐ»Ð¸ÑĨÐµÐ½Ð·Ð¸Ñı":6058,"ÑħÑĤÐ°ÑĢ":6059,"ĠÑĪÐ°ÑĢÑĥ":6060,"ĠÒĽÐ°ÒĵÐ°Ð·Ð´Ð°ÑĢ":6061,"Ð°Ð½ÑĭÐ¿":6062,"ĠÐµÒ£Ð±ÐµÐ³Ñĸ":6063,"ĠÐµÐ½Ð³ÑĸÐ·ÑĸÐ»Ð´Ñĸ":6064,"ĠÒĽÒ±ÑĢÐ°Ð¹ÑĤÑĭÐ½":6065,"ĠÐ¶Ò¯Ð¹ÐµÑģÑĸÐ½Ðµ":6066,"ĠÒĽÐ°ÑĥÑĸÐ¿ÑģÑĸÐ·Ð´ÑĸÐ³Ñĸ":6067,"ĠÒĽÐ°Ð¹ÑĢÐ°ÑĤÐºÐµÑĢÑĸ":6068,"ĠÐĲÐ»ÐµÐº":6069,"ĠÑĸÑĢÑĸÐºÑĤÐµÑĥ":6070,"III":6071,"ĠÑĤÒ¯ÑĢÑĸÐ½":6072,"ĠÐ¿ÐµÑĢÑģ":6073,"ĠÓ©Ð·Ð³ÐµÑĢÑĸÑģ":6074,"ÑģÑĭÐ½Ð°Ð½":6075,"ĠÑĤÐ¸ÐµÑģ":6076,"ĠÒĽÑĭÑĤÐ°Ð¹":6077,"ĠÓĻÑģÐµÑĢÑĸ":6078,"ÑĭÐ¼ÑģÑĭÐ·":6079,"ĠÐ¶Ð°ÑģÐ°Ð»Ð´Ñĭ":6080,"ĠÐ¢Ð°ÑĢÐ¸Ñħ":6081,"ÑģÑĤÑĢÑĥ":6082,"Ð¶Ð°Ð»":6083,"Ð¾ÑĤÐµÐº":6084,"ĠÐ°Ð¹Ð¼Ð°ÒĽÑĤÑĭÒĽ":6085,"ĠÒĽÐ¾ÑģÐ¿Ð°ÒĵÐ°Ð½Ð´Ð°":6086,"ĠÒĽÑĭÑĪ":6087,"ĠÒ±Ð¹ÑĭÐ¼Ñĭ":6088,"Ġ2000":6089,"ĠÑĤÐµÑģÑĤÑĸÐ»ÐµÑĥ":6090,"ĠÑģÓ©Ð·ÑĸÐ½":6091,"ĠÐ´ÓĻÐ¼":6092,"ĠÐ¶Ð°ÑĢÐ¸ÑıÐ»Ð°Ð½Ð´Ñĭ":6093,"ÑĪÑĸÐ»ÑĸÐ³ÑĸÐ½":6094,"ĠÐ±ÑĸÐ»ÑĸÐ¼ÑĸÐ½":6095,"ÑĤÒ±ÑĢÑģÑĭÐ½":6096,"ĠÐ¶Ò¯ÑĢÐ³ÑĸÐ·ÑĸÐ»Ð³ÐµÐ½":6097,"ĠÑĤÐ¾ÑĢ":6098,"Ð¸Ð°Ð»Ð¾Ð³":6099,"ĠÒ±Ð¼ÑĤÑĭÐ»":6100,"ĠÐºÒ¯Ð½Ð´Ñĸ":6101,"ĠÐ°Ð²ÑĤÐ¾ÑĢÑĭ":6102,"ÐµÐ»ÐµÐ½Ð³ÐµÐ½":6103,"ÑĤÑĢÐ°ÑĤÐµÐ³Ð¸Ñı":6104,"ĠÒĽÐ°Ð±ÑĭÐ»Ð´Ð°Ð½Ð´Ñĭ":6105,"Ð¶Ð°Òĵ":6106,"Ð±ÑĸÑĢÐµÐº":6107,"ĠÐ±Ð°Ð½ÐºÑĤÐµÑĢ":6108,"ĠÐ±ÐµÑģÐ¿Ð»Ð°ÑĤÐ½Ð¾":6109,"ab":6110,"ĠÑģÐ°ÑĥÐ°ÑĤÑĤÑĭ":6111,"ÐĸÐ°Ò£":6112,"ĠÑģÐµÐ³ÑĸÐ·":6113,"ÑĦÐ¾ÑĤÐ¾":6114,"ĠÐ¸Ð½Ð²ÐµÑģÑĤ":6115,"ĠÐ¾ÑĢÑĭÐ½Ð´Ð°ÑĢÑĭÐ½ÑĭÒ£":6116,"198":6117,"ĠÐµÐ»ÑĸÐ½ÑĸÒ£":6118,"ĠÐ¶Ð¸Ð½Ð°ÒĽÑĤÐ°Ñĥ":6119,"ĠÒĽÐ°Ð¿":6120,"ĠÐ¶Ò¯ÑĢÐ³ÑĸÐ·ÐµÐ´Ñĸ":6121,"ĠÑĦÐ°ÐºÑĤÐ¾ÑĢÐ»Ð°ÑĢ":6122,"ÑĪÐ°ÑģÑĭ":6123,"ĠÐĺÑĢÐ°Ð½":6124,"ĠÐ±Ó©Ð»ÑĸÐ³ÑĸÐ½Ð´Ðµ":6125,"Ð³Ð°Ð·":6126,"Ð¸Ð½Ð½ÑĸÒ£":6127,"ÐĲÐ½Ð°":6128,"ĠÐ¶ÐµÒ£ÑĸÑģÐºÐµ":6129,"ĠÐ¿ÑĢÐ°ÐºÑĤÐ¸ÐºÐ°Ð»ÑĭÒĽ":6130,"ÑĸÑģÑĸÐ½ÑĪÐµ":6131,"ĠÐ¼ÑĥÐ·ÑĭÐºÐ°Ð»ÑĭÒĽ":6132,"ĠÐ½ÓĻÑĤÐ¸Ð¶Ðµ":6133,"ĠÐ¿ÑĢÐ°ÐºÑĤ":6134,"ĠÐ¶Ð¾Ð±Ð°Ð»Ð°ÑĢÐ´Ñĭ":6135,"ĠÐ¶ÐµÒ£ÑĸÐ¿":6136,"ĠÐ±Ð¾Ð¿":6137,"ĠÒĽÐ°ÑĢÑģÐ°Ò£":6138,"ĠÐ¡Ò±Ð»ÑĤÐ°Ð½":6139,"ĠÑĥÐ°ÒĽÑĭÑĤÒĽÐ°":6140,"ĠÐ°Ð¹ÑĭÐ¿Ð¿Ò±Ð»":6141,"ÐĲÒ¢":6142,"ÐŀÐĴ":6143,"ĠÒĽÒ±Ñģ":6144,"Ġ38":6145,"ĠÑĤÓ©ÑĤÐµÐ½ÑĪÐµ":6146,"ÐºÐµÑģÑĸÐ½ÑĸÒ£":6147,"ĠÒ¯ÑĢÐ´ÑĸÑģ":6148,"ÓĺÐĿÐķ":6149,"ĠÑĤÑĥÑĭ":6150,"ĠÐºÐ²":6151,"ĠÑĤÐ°ÒĽÑĤÐ°":6152,"ĠÑģÓ©Ð·Ð´Ñĸ":6153,"ĠÐµÑģÐºÐµÑĢÑĤÑĥ":6154,"ĠÐ¡Ó©Ð¹ÑĤÑĸÐ¿":6155,"Ð»ÑĸÐºÑĤÑĸÒ£":6156,"ĠÒĽÐ°Ð¼ÑĤÑĭÐ»ÒĵÐ°Ð½":6157,"ĠÐ¾Ð¹ÑĭÐ¼":6158,"ĠÑĸÑģÑĤÐµÐ³ÐµÐ½":6159,"ĠÑĤÐ°ÑĥÐ°ÑĢÐ»Ð°ÑĢ":6160,"ĠÑĤÐµÒ£Ð³ÐµÐ´ÐµÐ½":6161,"ĠÐ·Ð°Ð¼Ð°Ð½ÒĵÑĭ":6162,"ĠÑįÐºÐ¾Ð½Ð¾Ð¼Ð¸ÐºÐ°Ð½ÑĭÒ£":6163,"ĠÒĽÒ±ÑĢÐ°Ð»Ð´Ð°ÑĢÑĭÐ½":6164,"Ð½ÐµÑģ":6165,"Â»;":6166,"Ġ37":6167,"ĠÐºÐ¾Ð½Ñģ":6168,"ÑģÐºÐµÑĢÑĤÑĥ":6169,"ÑĦÐ¸ÑĢ":6170,",-":6171,"55":6172,"Ð°ÒĵÐ°ÑĪ":6173,"ĠÐ´Ð°Ð½":6174,"Ġ150":6175,"ĠÓ©Ð·ÑĸÐ¼":6176,"ĠÐµÒ£Ð±":6177,"Ð°Ð¹Ð¼ÑĭÐ·":6178,"ĠÑĪÑĭÒ£":6179,"ĠÑĪÐµÐºÐºÐµÐ½":6180,"ĠÐ¼ÑĭÑģÐ°Ð»Ñĭ":6181,"ĠÑĤÒ±ÑĢÒĵÑĭÐ½Ð´Ð°ÑĢÑĭÐ½ÑĭÒ£":6182,"ĠÑģÐ°ÑĢÐ°Ð¿ÑĤÐ°Ð¼Ð°":6183,"Ġ39":6184,"ĠÐ°ÑĪÑĭÐ»ÒĵÐ°Ð½":6185,"ĠÐ´ÐµÐ³ÐµÐ½Ð´Ðµ":6186,"ĠÐ´Ð°Ð¼Ñĭ":6187,"ĠÒĽÐ°Ð±ÑĭÐ»Ð´Ð°ÒĵÐ°Ð½":6188,"ĠÐºÐµÐ½ÑĤ":6189,"ÒĽÐ°ÒĽ":6190,"ÑĭÒĽÑĤÐ°ÑĢ":6191,"ĠÐĸÓĻÐ½Ðµ":6192,"ĠÐºÐµÒ£ÐµÑģÑĸ":6193,"Ð°ÑĤÐ°Ð»":6194,"ĠÑĪÐµÑĪÑĸÐ¼Ñĸ":6195,"Ð¿Ð°ÒĵÐ°Ð½":6196,"ĠÑĤÒ±ÑĢÑĥ":6197,"ĠÑģÒ±ÑĢÐ°ÒĽÑĤÐ°ÑĢÒĵÐ°":6198,"ĠÐºÓ©ÑĢÐ½ÐµÐº":6199,"ÐļÓ©Ð¿":6200,"azak":6201,"Ð½Ð´ÑĸÑĢ":6202,"ÐĶÐ°Ð¼":6203,"ĠÑĤÐµÑħÐ½Ð¾Ð»Ð¾Ð³Ð¸ÑıÑģÑĭ":6204,"ĠÐ¡ÐµÐ¹":6205,"ĠÓĺÑģÑĸÑĢÐµÑģÐµ":6206,"ÑĤÐ¸ÐºÐ°Ð»ÑĭÒĽ":6207,"ĠÐ¡Ð°Ð»ÑĭÒĽ":6208,"ĠÐ´Ð°ÒĵÐ´ÑĭÐ»Ð°ÑĢÑĭÐ½":6209,"ĠÐĲÑı":6210,"ĠÐ°Ð²ÑĤÐ¾ÐºÓ©Ð»ÑĸÐº":6211,"ĠÐºÒ¯ÑĪÑĤÑĸ":6212,"ĠÑģÐ°ÒĵÐ°Ð½":6213,"ĠÑĪÐ°Ð¿":6214,"ĠÐ¢ÐµÑĢ":6215,"ĠÐ¼ÑĭÒ£ÒĵÐ°":6216,"ÑĸÑĢÑĤ":6217,"ÑĸÐ½ÐµÑģÐµ":6218,"ĠÐ°Ð»ÑĥÑĪÑĭÐ½ÑĭÒ£":6219,"Ð´Ð°ÑģÑĭ":6220,"ĠÒĽÒ±ÒĽÑĭÐ»Ñĭ":6221,"ĠÐ¶Ð°ÒĵÐ´Ð°Ð¹Ð´Ñĭ":6222,"ĠÐ°Ð½ÑĭÒĽÑĤÐ°Ð»Ð°Ð´Ñĭ":6223,"ĠÐ°Ð·Ð°Ð¼Ð°ÑĤÑĭ":6224,"ÐµÐ»ÐµÐ¿":6225,"ĠÐºÐ¾Ð¼Ð°Ð½Ð´Ð°":6226,"Ð¸Ð»ÑĮÐ¼":6227,"ÑĪÑĭÐ½Ñĭ":6228,"Ð³Ñĥ":6229,"ÐµÐ¼Ð°ÑĤÐ¸ÐºÐ°Ð»ÑĭÒĽ":6230,"ĠÓ¨ÑĤÐºÐµÐ½":6231,"ĠÐ½Ð°ÑģÐ¸ÑħÐ°ÑĤÑĤÐ°Ñĥ":6232,"ĠÐ¼ÓĻÐ¶ÑĸÐ»":6233,"ĠÐ¶Ò¯ÑĢÐ³ÑĸÐ·ÑĸÐ¿":6234,"Ð´ÐµÑĪÐµ":6235,"ĠÐĸÓĺÐĿÐķ":6236,"ĠÑĤÑĸÐ»ÑĸÐ½Ðµ":6237,"ĠÒ±ÑģÑĭÐ½Ð´Ñĭ":6238,"ÐĳÐ°ÑĢÐ»ÑĭÒĽ":6239,"ĠÒĽÐ°ÑĤÑĭÑģÑĥÑĪÑĭ":6240,"ter":6241,"Ð¡ÐµÑĢ":6242,"Ġ197":6243,"Ð°ÑĤÑĤÐ°ÑĢÒĵÐ°":6244,"ĠÐ±Ð°ÑĢÑĭÑģÑĭ":6245,"Ð³Ð¾ÑĢ":6246,"ĠÐµÑģÐºÑĸ":6247,"ĠÑģÐ¾Ð½Ð´Ð°":6248,"Ð¡Ð°Ð½Ð°ÑĤ":6249,"ĠÑĢÐ°Ð´Ð¸Ð¾":6250,"ÑĸÒ£Ðµ":6251,"ĠÐ±ÑĸÐ»ÑĸÐºÑĤÑĸ":6252,"Ð±ÑĸÑĢÑĸÐ¼ÐµÐ½":6253,"ĠÐ¾ÑĢÐ°Ð¹Ð´Ð°":6254,"ÑĤÐµÑĢÑĸÐ¼ÐµÐ½":6255,"ĠÐ¼ÑĭÑģÐ°Ð»":6256,"Ġ2003":6257,"ÑĸÐ»Ðµ":6258,"Ð´ÑĭÒĵÑĭÐ½Ð°Ð½":6259,"Ð»Ñİ":6260,"ĠÐµÐºÑĸÐ½":6261,"ĠÑĤÐ°Ð¼Ð°ÑĪ":6262,"ĠÑĢÐ¾Ð¼":6263,"ÐĺÐĿ":6264,"ĠÐ±Ð°Ð½ÐºÑĤÑĸÒ£":6265,"ĠÑĢÐµÐº":6266,"ĠÑģÐµÐ¿":6267,"ĠÐµÑģÑĤÑĸ":6268,"ĠÐ±Ð¾Ð»Ð°ÑĪÐ°ÒĵÑĭ":6269,"est":6270,"Ð»Ð¾Ð²":6271,"Ð¸Ð´Ñĭ":6272,"Ð¾Ð»Ð°ÑĢ":6273,"ĠÐ¶Ð¾Ð»ÒĵÐ°":6274,"ĠÑĭÐ½ÑĤÐ°Ð»":6275,"ĠÐ±ÑĸÑĢÐ´Ðµ":6276,"Ð¢ÐĲ":6277,"ĠÐ¼ÐµÑĢÐµÐºÐµÑģÑĸ":6278,"ĠÐ¶ÐµÑĢÐ»ÐµÑĢÐ´Ðµ":6279,"ĠÐ¼ÐµÑĤÐ°Ð»Ð»":6280,"iÐ»ÐµÑĢ":6281,"ĠÐµÑģÐµÐ¿ÑĤÑĸ":6282,"ĠÐºÐ¾Ð´ÐµÐº":6283,"ĠÑģÐ¿":6284,"Ð°ÑĤÐ°Ð´Ñĭ":6285,"ÑĭÐ±Ð°Ð¹Ð»Ð°Ñģ":6286,"ĠÐ¼Ð°Ð¼Ð°Ð½Ð´Ð°ÑĢÑĭ":6287,"ĠÐ½Ð¾":6288,"ĠÑĦÐ¸ÑĢ":6289,"ĠÒĽÐ°Ð¼ÑĤÑĭÐ»":6290,"ĠÐ±Ð¾Ð»Ð°ÑĤÑĭÐ½ÑĭÐ½":6291,"ÑĭÑĢÐ¼Ð°":6292,"ÐķÑĥÑĢ":6293,"Ð°ÑĤÑĤÐ°ÑĢÑĭÐ½ÑĭÒ£":6294,"Ð¼Ð°Ð½Ñĭ":6295,"ÐºÐ¾Ð»Ð¾Ð³Ð¸ÑıÐ»ÑĭÒĽ":6296,"Ð±ÑĢÐ¸ÑĤÐ°Ð½":6297,"ĠÑģÐ¾ÒĵÐ°Ð½":6298,"ĠÐ°ÑģÑĭÐ¿":6299,"ĠÐ½Ð°ÒĵÑĭÐ·":6300,"Ð¼ÐµÐ¼Ð»ÐµÐºÐµÑĤÑĤÑĸÐº":6301,"ÑĤÐ°Ð¼ÑĭÐ·":6302,"ĠÑģÒ±ÑĢÐ°Ñĥ":6303,"Ð³ÑĸÐ¼":6304,"ÑģÑĤÐµ":6305,"Ġm":6306,"Ð¸ÑĤÐ°ÑĢ":6307,"ĠÒĽÐ¾ÑĢÑĭÐ½":6308,"Ð¸Ð½Ð³Ñĸ":6309,"ĠÐĺÑĤÐ°Ð»":6310,"ĠÒĽÐ°ÑĢÒĽÑĭÐ½Ð´Ñĭ":6311,"ĠÐ¾ÒĽÑĭÒĵÐ°Ð½":6312,"ĠÐ¿Ð°Ð¹Ð´Ð°Ð»Ð°Ð½ÑĭÐ¿":6313,"ĠÑĤÓĻÑĥÐµÐ»ÑģÑĸÐ·Ð´ÑĸÐº":6314,"ÐķÐºÑĸÐ½ÑĪÑĸ":6315,"ĠÒĽÐ°Ð½ÑĪÐ°Ð»ÑĭÒĽÑĤÑĭ":6316,"Ð«ÐĿÐĶÐĲ":6317,"ĠÑĪÓĻÐºÑĸÑĢÑĤ":6318,"ÐŀÑĢÑĤÐ°ÒĽÒĽÐ¾ÑĢÐ´Ð°":6319,"ĠÐ´Ð¾ÐºÑĤÐ¾ÑĢÑĭ":6320,"ĠÐ¼Ð°ÑħÐ°Ð±Ð±Ð°ÑĤ":6321,"ĠÒĽÐ¾Ð»Ð¶ÐµÑĤÑĸÐ¼Ð´Ñĸ":6322,"ÑģÐ¸Ð´Ð¸Ñı":6323,"ĠÒĽÒ±ÑĢÑĭÐ»ÑĭÐ¼Ð´ÑĭÒĽ":6324,"ĠÐ¼ÓĻÑģÐ»Ð¸Ñħ":6325,"ĠÑģÐ°ÑħÐ½":6326,"Ð½ÐµÐ¼":6327,"ÑĤi":6328,"Ð·Ð°Ð½":6329,"ĠÐ°ÑĥÐ»":6330,"ÑĤÒ¯ÑģÑĤÑĸ":6331,"Ð¼Ð°Ð´Ñĭ":6332,"ĠÐ´Ð°ÑĢÑĭÐ½Ð´Ñĭ":6333,"ĠÐ°Ð»ÑĭÑģ":6334,"ĠÐ¶ÐµÑĤÑĸÐ¿":6335,"ĠÐļÐ¾Ð´ÐµÐº":6336,"ĠÐĿÓĻÑĤÐ¸Ð¶":6337,"ĠÑĤÑĥÑĢÐ¸ÑģÑĤÑĸÐº":6338,"ĠÐ¶Ð°ÒĵÐ°Ð»Ð°Ñĥ":6339,"ÑĸÐ¼Ð´ÐµÑĢÐ´Ñĸ":6340,"Ð¿ÑĢÐ¾":6341,"ĠÓ©ÑģÐºÐµÐ½":6342,"ĠÐ±ÐµÐ»Ð³ÑĸÐ»ÐµÐ½":6343,"ĠÐ±ÑĸÑĤÑĸÑĢÐ³ÐµÐ½":6344,"ĠÐ¼Ð¾Ð½Ð¸ÑĤÐ¾ÑĢÐ¸Ð½Ð³":6345,"ĠÐºÐµÐ»Ñĸ":6346,"ĠÐ´ÐµÐ³ÐµÐ½Ð´Ñĸ":6347,"ĠÐºÓ©ÑĢÐ¼ÐµÑģÑĸ":6348,"ĠÐ¸ÐµÐ»ÐµÐ½":6349,"ĠÑĤÓĻÑĥÐµÐ»Ð´Ñĸ":6350,"azakh":6351,"ĠÐ¶Ò¯ÑĢÐ³ÑĸÐ·ÑĸÐ»ÑĸÐ¿":6352,"ÑĭÐ»ÑĥÐ´Ð°":6353,"ĠÐ´Ð°Ð¼ÑĭÐ¿":6354,"ÐĹÐ°Ò£":6355,"ĠÐºÐ¾Ð¼Ð¿Ð°Ð½Ð¸ÑıÑģÑĭÐ½ÑĭÒ£":6356,"ÐºÐµÑĤÐ¸Ð½Ð³":6357,"ĠÑĪÐ¾Ð»":6358,"ĠÐ¼Ò¯Ð¼ÐºÑĸÐ½Ð´ÑĸÐºÑĤÐµÑĢÑĸ":6359,"ĠÐ½Ð°ÑĢÑĭÒĽÑĤÑĭÒĽ":6360,"ÑĸÐ»Ð´ÑĸÑĢ":6361,"ĠÐ¾ÒĽÑĥÑĪÑĭÑģÑĭ":6362,"Ð¢Ó©ÑĢ":6363,"ĠÑĢÐµÑģÑĥÑĢ":6364,"ĠÑĦÐ¸Ð·Ð¸ÐºÐ°Ð»ÑĭÒĽ":6365,"Ð°ÑĥÑĸÐ¿":6366,"ÐĸÒ±Ð¼":6367,"ĠÑıÐ´ÑĢÐ¾Ð»ÑĭÒĽ":6368,"ĠÐ¶Ð¾Ð±Ð°Ð»Ð°Ñĥ":6369,"ĠÐ´ÐµÐ¿Ð°ÑĢÑĤÐ°Ð¼ÐµÐ½ÑĤÑĸÐ½Ð´Ðµ":6370,"ĠÑĤÒ¯ÑģÑĥ":6371,"ĠÑĸÐ·Ð´ÐµÐ¿":6372,"ÑĢÐ°Ð·":6373,"ĠÐ±Ð°ÑģÒĽÐ°ÑĢÐ¼Ð°":6374,"Ð¶ÐµÑĢ":6375,"Ð´ÐµÐ¹ÑĤÑĸÐ½":6376,"ÐľÐ°ÑĤ":6377,"Ð¿Ñĸ":6378,"Ġ33":6379,"ĠÑĤÐ°Ð½ÑĭÐ¼":6380,"ĠÒ±Ð¹ÑĭÐ¼Ð´Ð°ÑģÑĤÑĭÑĢÑĥÑĭÐ¼ÐµÐ½":6381,"Ð°ÑģÑĤÐ°ÑĢ":6382,"ÑįÐ½":6383,"ĠÑĦÐ¾ÑĤÐ¾":6384,"ĠÐĶÐ°Ð¼":6385,"ĠÐ°ÑĢÑĤÑĭÐ¿":6386,"ĠÐ¶Ò¯ÑĢÑĥ":6387,"ĠÐ¶Ð¾Ð»Ð¼ÐµÐ½":6388,"Ð°ÒĵÑĭÐ»":6389,"ĠÐ¿ÑĢÐµÐ·ÐµÐ½ÑĤÐ°ÑĨÐ¸Ñı":6390,"ĠÒ±ÑģÑĭÐ½ÑĭÐ»ÒĵÐ°Ð½":6391,"ĠÐĲÐ½Ð°":6392,"Ð¢Ðķ":6393,"ĠÐºÓ©ÑĢÐ´Ñĸ":6394,"ĠÐ±Ñĥ":6395,"ĠÑĤÓ©ÑĢÐ°ÒĵÐ°ÑģÑĭÐ½ÑĭÒ£":6396,"ĠÐ±Ó©Ð»ÑĸÐ½ÑĸÐ¿":6397,"pp":6398,"ĠÐ¾Ð¹ÑĭÐ½Ñĭ":6399,"ĠÐ¼ÐµÐºÐµÐ¼Ðµ":6400,"ĠÑĤÐ¾Ð»Ñĭ":6401,"ĠÒ±Ð·ÑĭÐ½Ð´ÑĭÒĵÑĭ":6402,"ÑħÐ°Ð»ÑĭÒĽ":6403,"ĠÑĤÐ°Ð±Ð°":6404,"ÒĴÐĲ":6405,"ĠÐ¾ÑĢÑĭÐ½Ð´Ð°ÑĥÒĵÐ°":6406,"ĠÒĽÒ±ÑĢÐ°ÑģÑĤÑĭÑĢÑĥ":6407,"ĠÐĿÐµÐ³ÑĸÐ·Ð³Ñĸ":6408,"ĠÐ¿Ð°ÑĢÑĤÐ¸ÑıÑģÑĭ":6409,"and":6410,"ĠÐ¨ÑĭÐ½":6411,"47":6412,"Ð¢Ð¾Ð¿":6413,"Ð°ÑĤÑĤÐ°ÑĢÑĭÐ½":6414,"ĠÑĢÐµÐ²":6415,"ĠÑĦÐ°Ð¹Ð»":6416,"ĠÐ¾ÑģÑĭÒĵÐ°Ð½":6417,"Ð»ÐµÑģ":6418,"ĠÑĤÐ¾ÒĽÑĤÐ°ÑĤ":6419,"ĠÐ¶Ð°ÒĽÑĤÑĭ":6420,"ĠÐĲÑģÑģÐ°Ð¼Ð±Ð»ÐµÑı":6421,"ĠÐ°Ð¹Ð½":6422,"ĠÐ°ÑģÒĽÐ°Ð½":6423,"Ð»Ð°Ð¼ÐµÐ½ÑĤÑĸ":6424,"ĠÐ¼ÑĸÐ½Ð´ÐµÑĤÑĤÐµÑĢÐ´Ñĸ":6425,"ĠÑĢÓ©Ð»Ñĸ":6426,"ÒĵÒ±ÑĢÐ»ÑĭÐ¼":6427,"ÑĭÒĽÑĤÑĭÒ£":6428,"ĠÑĤÒ±ÑĤ":6429,"ĠÐºÑĸÑĢÑĸÐ¿":6430,"ĠÐºÓ©Ð»ÐµÐ¼ÑĸÐ½":6431,"Ð´iÐº":6432,"ĠÐ´Ð°Ð¹ÑĭÐ½Ð´Ð°Ð»":6433,"Ð°ÑģÐ¿Ð¸Ð¹":6434,"ÑĢÑĭÒĽÑĪÐ°":6435,"Ġ2001":6436,"ÐĸÐ°Ð·":6437,"ĠÑĤÑĭÐ¼":6438,"ĠÐ±Ð¾Ð¹ÑĭÐ½Ð°":6439,"ĠÐ¥Ð°Ð±Ð°ÑĢ":6440,"ĠÐºÓ©ÑĤÐµÑĢÑĸÐ¿":6441,"ĠÐ°Ð»Ð¼Ð°Ñģ":6442,"ĠÐºÓĻÑģÑĸÐ¿Ð¾ÑĢÑĭÐ½Ð´Ð°ÑĢ":6443,"Ð±ÑĸÐ·":6444,"Ð±Ð¸Ð½":6445,"Ġ75":6446,"ĠÐ´Ð°ÒĵÐ´Ð°ÑĢ":6447,"ÑĪÑĸÐ»ÐµÑĢÐ³Ðµ":6448,"ĠÐ±Ð°ÑĤÑĭÑģ":6449,"ĠÐ±Ó©Ð»ÑĸÑģ":6450,"ĠÐ°ÑĤÒĽÐ°ÑĢÒĵÐ°Ð½":6451,"ĠÐ¶ÑĭÐ»Ð¶ÑĭÐ¼":6452,"ĠÑĤÐ°Ð»Ð°Ð¹":6453,"ĠÐ°ÑĢÐ°Ð±":6454,"ĠÐ¢Ò¯ÑĢÐºÐ¸Ñı":6455,"ĠÒĽÐ°ÑĢÑģÐ°Ò£ÑĭÐ½Ð´Ð°":6456,"Ġ2004":6457,"ĠÐ¼ÑĥÐ·ÑĭÐºÐ°":6458,"Ð¾Ð»Ð¸Ðº":6459,"Ð¶ÐµÐ¹":6460,"ĠÐºÓĻ":6461,"ĠÐ°ÑģÐ¿Ð°Ð½":6462,"ĠÐµÐ½Ð³ÐµÐ½":6463,"ĠÐ¼Ò±Ð·":6464,"ir":6465,"Ð»Ð°Ð´":6466,"ĠÑĦÐµÑģÑĤÐ¸Ð²Ð°Ð»":6467,"ĠÒĽÐ¸Ð¼ÑĭÐ»":6468,"ĠÐ¸Ð¼Ð°Ð¼":6469,"ĠÑĤÒ¯ÑģÑĸÐ½Ñĥ":6470,"ĠÐµÑĪÑĤÐµÒ£":6471,"Ð±ÑĭÐ»Ð°Ð¹":6472,"ÒĵÑĭÐ½Ð´Ð°":6473,"ĠÑģÑĤÑĥÐ´ÐµÐ½ÑĤÑĤÐµÑĢÑĸ":6474,"ĠÐ°ÑĢÐ°Ð»ÑĭÒĽ":6475,"ĠÑģÓĻÑĤÑĤÑĸ":6476,"ÑĤÐ°ÒĽ":6477,"ĠÐ¶Ð°Ð»Ð°ÒĽ":6478,"ÒļÐ°Ð·Ð°ÒĽÑĪÐ°":6479,"ĠÐ±Ð°ÑĥÐ»":6480,"ĠÑģÐµÑĢÐ²":6481,"ĠÐ±Ð°ÒĽÑĭÐ»":6482,"ĠÐºÓ©ÑĢÑĥÐ³Ðµ":6483,"ĠÐ°ÑĤÑĤÐµÑģÑĤ":6484,"ÑĤÒ±Ð·":6485,"ĠÐ±ÐµÑĢÐ¼ÐµÐ¹Ð´Ñĸ":6486,"ĠÓĻÐºÑĸÐ¼Ð´ÑĸÐº":6487,"ĠÑĤÐ°Ð»ÒĽÑĭÐ»Ð°Ð½Ð´Ñĭ":6488,"ÑĤÓĻÑģÑĸÐ»":6489,"ĠÓĺÐ»ÐµÑĥÐ¼ÐµÑĤÑĤÑĸÐº":6490,"ĠÑĤÐ¸ÐµÑģÑĸÐ»Ñĸ":6491,"Ġ55":6492,"ĠÐºÐµÐ·ÑĸÐ½Ð´ÐµÐ³Ñĸ":6493,"ĠÐµÑģÐµÐ±Ñĸ":6494,"Ġ32":6495,"Ó©Ð½Ð´ÑĸÑĢÑĥ":6496,"48":6497,"Ð¸ÑģÑĤÐ¸ÐºÐ°Ð»ÑĭÒĽ":6498,"ĠÐ¡Ð°ÒĵÑĭÐ½":6499,"ÐĲÐĹÐĲÒļÐ¡Ð¢ÐĲÐĿ":6500,"Ð´ÐµÑĢÐ´ÐµÐ½":6501,"ĠÐ°Ð»Ð¼Ð°Ð¹ÑĤÑĭÐ½":6502,"ÑĪÐ°ÑĢÑĥÐ°ÑĪÑĭÐ»ÑĭÒĽ":6503,"ĠÐºÓ©ÑĪÐµ":6504,"ash":6505,"ĠÐĶÑĸÐ½":6506,"ĠÒ±Ð¹ÑĭÐ¼Ð´Ð°ÑģÑĤÑĭÑĢÑĭÐ»ÒĵÐ°Ð½":6507,"ĠÐ¶Ò¯ÑĢÐ³ÑĸÐ·ÑĸÐ»Ð´Ñĸ":6508,"ĠÐ°ÑĤÐ°Ð»Ð¼ÑĭÑĪ":6509,"ĠÐºÒ¯Ð½Ð½ÑĸÒ£":6510,"Ð¾Ð½ÐµÐ½ÑĤ":6511,"ĠÐ¶Ð°ÑĢÑĤÑĭÐ»Ð°Ð¹":6512,"ĠÐ°ÑıÒĽÑĤÐ°Ð»Ð´Ñĭ":6513,"ÐľÐ°Ò£ÒĵÑĭÑģÑĤÐ°Ñĥ":6514,"ĠÒ±Ð¹ÑĭÐ¼Ð´Ð°ÑģÑĤÑĭÑĢÑĭÐ»Ð´Ñĭ":6515,"ĠÐ³ÑĢÐ°Ð¼":6516,"ĠÐµÐ»ÐµÑĥÐ»Ñĸ":6517,"ĠÐŀÐ¹ÑĭÐ½":6518,"Ð¼Ð°ÒĵÑĭÐ½":6519,"Ð¶Ò±Ð¼":6520,"ÐºÐµÑĢÐ»ÐµÑĢÑĸ":6521,"ÐµÐ½Ð¸Ð½Ð³":6522,"ĠÐ´Ð°Ð½Ð°":6523,"ÒļÒ±ÑĢÐ¼ÐµÑĤÑĤÑĸ":6524,"ÐĳÒ¯":6525,"ĠÒĽÐ¾Ð¹ÑĭÐ»Ð´Ñĭ":6526,"ĠÐ°ÑĤÒĽÐ°ÑĢÑĥ":6527,"Ð´Ð°Ð¹ÑĭÐ¼":6528,"ĠÐ¼Ò¯ÑĪÐµ":6529,"ĠÓĺÐ½":6530,"ĠÐ¶Ð°Ð·ÑĥÑĪÑĭ":6531,"ĠÐºÓ©Ð¼ÐµÐºÑĤÐµÑģÐµÐ´Ñĸ":6532,"ĠÐµÑĥÑĢ":6533,"ÐľÐ°ÑĢ":6534,"ĠÐ´ÐµÐ¼Ð¾ÐºÑĢÐ°ÑĤ":6535,"ÐºÓ©Ð·":6536,"ĠHD":6537,"ĠÐ¾Ð±Ð»ÑĭÑģÑĤÑĭÒ£":6538,"Ð°ÑĤÐ°Ñĥ":6539,"ĠÑĪÑĤÐ°ÑĤ":6540,"ĠÐļÐµÑĢ":6541,"ĠÐ±ÑĸÐ»ÑĸÐºÑĤÑĸÐ»ÑĸÐ³ÑĸÐ½":6542,"ĠÐŀÑĢÑĭÐ½":6543,"ĠÒĽÐ°Ð¹ÑĭÑĢÑĭÐ¼Ð´ÑĭÐ»ÑĭÒĽ":6544,"od":6545,"ÑģÐ¾":6546,"ĠÐ»Ð°Ð¹":6547,"ĠÐ¼ÓĻÑģÐµÐ»ÐµÑģÑĸÐ½":6548,"ĠÐ±ÑĸÐ»ÑĸÐºÑĤÑĸÐ»ÑĸÐº":6549,"ĠÓĺÑĢÐ±ÑĸÑĢ":6550,"ĠÐĳÐ°Ð»Ð°":6551,"ĠÒĽÐ°ÑģÐ¸ÐµÑĤÑĤÐµÑĢ":6552,"ĠÑĪÐµÑĪÑĥÐ³Ðµ":6553,"ĠÐ±Ð°ÒĵÑĭÑĤÑĤÐ°ÑĢÑĭ":6554,"ĠÑĤÐ°Ð±ÑĭÐ»ÒĵÐ°Ð½":6555,"ĠÐµÐ¼ÑĤÐ¸ÑħÐ°Ð½":6556,"ĠÐĲÐ»ÒĵÐ°ÑĪÒĽÑĭ":6557,"ĠÑĦÐ¾ÑĤ":6558,"ĠÒ±Ð¹ÑĭÐ¼Ð´Ð°ÑĢÑĭÐ½ÑĭÒ£":6559,"ĠÒ°ÐĳÐ¢":6560,"ĠÐºÐµÐ»ÑĸÑģÑĸÐ¼ÑĪÐ°ÑĢÑĤ":6561,"Ð±Ð´ÐµÐ½":6562,"ĠÒļÑĭÐ»Ð¼ÑĭÑģÑĤÑĭÒĽ":6563,"ĠÐ±Ð°ÒĵÐ°Ð»":6564,"Ó¨Ð¼ÑĸÑĢ":6565,"ĠÓ©Ð½ÐµÑĢÐºÓĻÑģÑĸ":6566,"ĠÒĽÐ¾ÑĢÒĵÐ°Ð½ÑĭÑģ":6567,"ĠÓ©Ð¼ÑĸÑĢÐ´Ðµ":6568,"2012":6569,"ĠÐ°Ð»Ð¼Ð°ÑģÑĥ":6570,"ĠiÑģ":6571,"ĠÐłÐµÑģÐµÐ¹Ð´ÑĸÒ£":6572,"ÐļÓ©Ðº":6573,"ĠÓĻÑĢÐ¸Ð½Ðµ":6574,"ess":6575,"ĠÑģÐ°Ð¼":6576,"ĠÐ¶Ð¾ÑĢ":6577,"ĠÐ°ÑĢÑĤÑĤÑĭÑĢÑĥÒĵÐ°":6578,"ĠÐºÓ©Ð±ÑĸÑĢÐµÐº":6579,"ĠÐ¶Ð¸ÑĭÐ½ÑĤÑĭÒĵÑĭ":6580,"Ð»ÑıÑĨÐ¸Ñı":6581,"ub":6582,"ÓĻÐº":6583,"ĠÐ±Ð°ÒĵÐ´Ð°ÑĢÐ»Ð°Ð¼Ð°Ð»ÑĭÒĽ":6584,"ĠÐĲÑĪÑĭÒĽ":6585,"ÑĦÐ¸ÑĨ":6586,"ĠÐ°ÑĤÒĽÐ°ÑĢÐ°ÑĤÑĭÐ½":6587,"ĠÑĤÐ°ÒĵÐ°Ð¹ÑĭÐ½Ð´Ð°Ñĥ":6588,"Ð¾ÑĢÐ¸Ð·Ð¼":6589,"ĠÐ¡Ð°ÑĢÑĭ":6590,"ĠÑĪÑĭÒĵÐ°ÑĢÒĵÐ°Ð½":6591,"ĠÐ½ÑĭÑģÐ°Ð½Ñĭ":6592,"id":6593,"Ð±Ð°Ð±Ñĭ":6594,"ĠÐ¼ÐµÐ·Ð³ÑĸÐ»":6595,"Ð½Ò±Ñģ":6596,"ĠÓ©ÑĪ":6597,"ĠÐ¼Ð°ÑĢÐ°Ð¿Ð°ÑĤÑĤÐ°Ð»Ð´Ñĭ":6598,"ĠÐ°ÐºÑĨÐ¸Ð¾Ð½ÐµÑĢÐ»ÑĸÐº":6599,"65":6600,"Ð¾ÑģÑĭ":6601,"Ð»Ð°Ð½Ð°Ð´Ñĭ":6602,"ÒĽÐ°ÑĢÐ°":6603,"ĠÐ¶Ð°ÑģÑĭ":6604,"ĠÒĽÐ°Ð±ÑĭÐ»Ð´Ð°Ð¹Ð´Ñĭ":6605,"ĠÑĤÐ¾ÒĵÑĭÐ·":6606,"Ġc":6607,"ĠÐ¶Ò±ÒĽ":6608,"iÐ½Ð´ÐµÐ³i":6609,"ĠÒļÐ°ÑģÑĭÐ¼":6610,"ĠÐĸÐ°Ð¿Ð¾Ð½":6611,"ĠÑģÐ°ÑıÑģÐ°ÑĤÑĭÐ½":6612,"ĠÑĦÐ¸Ð·Ð¸ÐºÐ°":6613,"ÑĤÐ°ÑģÑĭ":6614,"ÑĪÐ°ÒĵÐ°":6615,"ĠÒ¯Ð¹ÑĸÐ½Ð´Ðµ":6616,"ĠÒĽÑĭÐ·ÑĭÒĵÑĥÑĪÑĭÐ»ÑĭÒĵÑĭÐ½":6617,"ĠÐ²ÐµÐ±":6618,"ĠÐ¶Ò¯Ð¹ÐµÐ»ÐµÑĢ":6619,"ĠÒĽÐ°ÑĤÐ°ÑĢÑĭÐ½Ð´Ð°":6620,"ĠÒĽÒ±Ð¶Ð°ÑĤÑĤÐ°ÑĢÐ´ÑĭÒ£":6621,"Ð´ÐµÑĢÐ¼ÐµÐ½":6622,"ĠÓ©ÑĤÐºÑĸÐ·ÑĸÐ»ÐµÐ´Ñĸ":6623,"ĠÑģÒ±ÑĢÐ°ÒĽÑĤÐ°ÑĢÑĭ":6624,"Ð°Ð¹Ð¼ÑĭÐ½":6625,"ĠÐ¶Ð¾Ð±Ð°Ð½Ñĭ":6626,"Ð½ÐµÐºÑĤÑĸ":6627,"ÐµÑģÑĸÐ½ÐµÐ½":6628,"ĠÐ¶Ð°Ð»ÒĵÐ°Ñģ":6629,"Ð°ÐºÑĨÐ¸Ñı":6630,"ĠÑĤÑĸÐ»ÑĸÐ½Ð´ÐµÐ³Ñĸ":6631,"ĠÑģÑĭÐ½Ð°ÒĽ":6632,"ĠÓ©Ð½ÑĸÐ¼Ð´ÐµÑĢÑĸ":6633,"Ġ195":6634,"ĠÒĽÒ±ÒĽÑĭÒĽÑĤÐ°ÑĢÑĭÐ½":6635,"Ðºi":6636,"ĠÐ±Ð¾Ñı":6637,"ĠÐ¡ÑĭÑĢÑĤÒĽÑĭ":6638,"ĠÐĿÐµ":6639,"ÐĳÐµÐ»":6640,"ĠÐ°Ð¿Ð°ÑĢ":6641,"ĠÓĻÑģÐµÑĢÑĸÐ½":6642,"ÐµÑĤÑĢÐ¾Ð¿":6643,"ĠÐºÐµÑĪÑĸÑĢ":6644,"ĠÐ¾ÑĤÑĭÐ½":6645,"ĠÐ¢Ð°Ñĥ":6646,"ĠÐľÐ°Ð¹":6647,"ĠÓĻÐºiÐ¼":6648,"ĠÐ±Ð°ÑģÑĤÑĭÒĵÑĭ":6649,"ĠÑģÑĤÐ°":6650,"Ó¨ÑĤÐºÐµÐ½":6651,"ĠÐ±ÑĸÐ»Ð¼ÐµÐ¹":6652,"ĠÐ±ÐµÑĤÑĤÐµÑĢ":6653,"Ð¼Ð°ÒĵÑĭÐ½Ð´Ð°ÒĵÑĭ":6654,"ĠÐ¼Ò¯ÑĪÐµÐ»ÐµÑĢÑĸÐ½ÑĸÒ£":6655,"ĠÐµÐ´ÑĸÐº":6656,"ĠÐľÐµÑĢ":6657,"ĠÐºÓĻÑģÑĸÐ¿Ð¾ÑĢ":6658,"ĠÐ¿Ð¾ÑĪÑĤÐ°":6659,"08":6660,"Ð®":6661,"ĠÐµÐ»Ð´ÐµÑĢÑĸ":6662,"ĠÐ·Ð°ÑĤÑĤÐ°ÑĢÐ´Ñĭ":6663,"ÒĽÒ±Ð»Ð¾Ð²":6664,"ĠÑģÑĥÒĵÐ°":6665,"ĠÐ¶Ð°ÒĵÐ´Ð°Ð¹ÒĵÐ°":6666,"Ð¼Ð°Ð½Ð¾Ð²":6667,"2020":6668,"ĠÑĤÑĭÐ½ÑĭÑģ":6669,"ĠÑĸÑģÐºÐµÑĢÐ»ÑĸÐº":6670,"ĠÐ¶Ð°Ð·Ð°":6671,"ÒļÐļ":6672,"ĠÐ¶ÐµÒ£ÑĸÐ»Ð´ÑĸÐº":6673,"ĠÐ¼Ð¸":6674,"ĠÑĤÒ¯ÑĢÑĸÐº":6675,"ĠÒĽÐ°ÑģÐ¸ÐµÑĤÑĤÐµÑĢÑĸ":6676,"ĠÐ¿ÑĢÐ¾Ð³ÑĢÐ°Ð¼Ð¼":6677,"ĠÐ°ÑıÒĽÑĤÐ°Ð»":6678,"ĠÑĪÑĭÒĵÑĭÑģ":6679,"Ð²ÑĢ":6680,"ĠÐ°Ð¹ÑĢÑĭÒĽÑĪÐ°":6681,"ÑĥÐ»Ð°ÑĤ":6682,"ĠÑĪÐ°ÑĢÐ°Ð»Ð°ÑĢÐ´Ñĭ":6683,"ĠÑĸÑĢÐ³":6684,"ĠÐºÐµÐ´ÐµÐ½Ð´ÑĸÐº":6685,"Ó©Ð½ÐµÑĢÐºÓĻÑģÑĸÐ¿":6686,"ĠÐļÐ¡ÐłÐŀ":6687,"ĠÐ¶Ò±Ð¿":6688,"ĠÒĽÐ°Ð±ÑĸÐ»ÐµÑĤÑĸ":6689,"ĠÐºÓ©ÑĢÐ¼Ðµ":6690,"ĠÑĤÓĻÑĢÐ±Ð¸ÐµÑģÑĸ":6691,"ĠÐ¼Ð¾Ð´ÐµÐ»ÑĮ":6692,"Ð±ÑĸÐ»ÑĸÐ¼":6693,"Ð´ÑĸÐ³ÑĸÐ½ÐµÐ½":6694,"ÐĿÒ±ÑĢÐ»Ñĭ":6695,"ĠÐºÓ©Ð½Ðµ":6696,"ĠÐ´ÑĢÐ°Ð¼":6697,"engr":6698,"ĠÓ©ÑĤÐºÑĸÐ·ÑĸÐ»Ð³ÐµÐ½":6699,"ĠÑģÑĤÑĢÐ°ÑĤÐµÐ³Ð¸Ñı":6700,"ĠÐºÐµÐ·ÐµÐºÑĤÐµ":6701,"\".":6702,"ÐºÐµÑĢÐ»ÐµÑĢÐ´ÑĸÒ£":6703,"ĠÓ¨ÑģÐºÐµÐ¼ÐµÐ½":6704,"ĠÐ¶ÐµÑĢÐ´ÑĸÒ£":6705,"ĠÐ¾Ð·ÑĭÒĽ":6706,"ÐµÑģÐ¼Ð¸":6707,"ĠÑįÐ½":6708,"Ð°ÑĤÑĭÐ»Ð´Ñĭ":6709,"ĠÐ¾ÒĽÑĥÑĪÑĭÐ»Ð°ÑĢÐ´Ñĭ":6710,"ĠÑĢÐµÑģÐµÐ¹":6711,"ÑĭÑģÑĥ":6712,"ÒļÐ°Ð¹ÑĢÐ°ÑĤ":6713,"ĠÑĦÐ¾ÑĢÑĥÐ¼Ñĭ":6714,"ĠÐ¶Ð°Ð¼":6715,"ĠÑģÒ±ÑĢÐ°Ð¿":6716,"ĠÑĤÐ¾Ð¼":6717,"ĠÒĽÒ±ÒĽÑĭÒĵ":6718,"ĠÓ©ÑĤÐºÑĸÐ·ÑĥÐ³Ðµ":6719,"ĠÐ±ÐµÐ»Ð³ÑĸÐ»ÐµÑĥ":6720,"Ð»ÑĭÒĵÑĭÐ¼ÐµÐ½":6721,"ĠÐ´Ð¾ÑģÑĤÑĭÒĽ":6722,"ĠÐºÒ¯Ð¼ÑĸÑģ":6723,"46":6724,"ĠÐ±ÐµÐ´ÐµÐ»":6725,"Ð»ÐµÑĢÑĸÐ½ÑĸÒ£":6726,"ĠÑĦÐ¸Ð½Ð°Ð»":6727,"ĠÑĤÐ°ÑĢÐ°Ñĥ":6728,"ĠÐ£ÐºÑĢÐ°Ð¸":6729,"ÐµÐ½ÐºÐ¾":6730,"ĠÐ¶Ð¾ÑģÐ¿Ð°ÑĢÑĭÐ½":6731,"ĠÐ²Ð°Ð»ÑİÑĤÐ°":6732,"ÑĭÐ»Ð°":6733,"ĠÐ¢Ð°Òĵ":6734,"ĠÓ©Ð·Ð³ÐµÑĢÑĤ":6735,"ĠÐ±Ð°Ð»Ð°Ð±Ð°ÒĽÑĪÐ°":6736,"ĠÑģÑĥÐ±ÑģÐ¸Ð´Ð¸Ñı":6737,"Ġk":6738,"ĠÐĲÐº":6739,"ĠÐºÐµÐ»ÑĸÑģÑģÓ©Ð·":6740,"ĠÐ°ÑģÑĤÑĭÐ½Ð´Ð°":6741,"Ð°Ð½Ð½ÑĭÒ£":6742,"Ð±Ð¾Ð»Ð°ÑĤ":6743,"ĠÑģÐ¾ÑĢ":6744,"ÐµÐ»ÐµÐ´Ñĸ":6745,"Ð£Ðł":6746,"Ð¸ÑģÑģÐµÑĢ":6747,"ĠÓĻÑĥÐµÐ¶":6748,"ĠÐ¶Ð¸Ð½Ð°Ð¿":6749,"ĠÐ°Ð»Ð¼Ð°ÒĵÐ°Ð½":6750,"ĠÐ°Ð³ÑĢ":6751,"ĠÐ¼Ð°ÑģÑģ":6752,"ÑģÐµÐ¹":6753,"Ð°ÑĤÑĭÐ½Ñĭ":6754,"ĠÓĻÐ·":6755,"ĠÐ±ÑĸÐ»ÑĸÐ¿":6756,"ĠÐ¸Ð½ÑĤÐµÐ»":6757,"ĠÐ¢ÑĥÑĢ":6758,"ĠÐĶÐ°Ð½":6759,"ĠÐ¶Ð°Ð±Ð´ÑĭÒĽÑĤÐ°Ñĥ":6760,"ĠÐĨÑģ":6761,"Ð°Ð»ÒĽÑĭ":6762,"ĠÑĤÐµÐ¿":6763,"ĠÑĤÒ±Ð»ÒĵÐ°Ð»Ð°ÑĢÒĵÐ°":6764,"ĠÐ¼ÓĻÑģÐ»Ð¸ÑħÐ°ÑĤÑĭÐ½ÑĭÒ£":6765,"Ò±Ñı":6766,"ÑħÐ¸Ð¼":6767,"ĠÒĽÐ°Ð»Ð°Ñĥ":6768,"ÐĸÐµÑĤ":6769,"ÑĤÐ°ÑģÑĭÐ½Ð°":6770,"ÐĹÐµÑĢÑĤÑĤÐµÑĥ":6771,"ĠÓ©ÑģÑĥÑĸ":6772,"ĠÐ±ÑĸÑĢÐµÐ³ÐµÐ¹":6773,"ÐľÐļ":6774,"ÐµÑĤÑĤÐµÐ³Ñĸ":6775,"Ð¢Ò¯ÑĢÐºÑĸÑģÑĤÐ°Ð½":6776,"ÑĢÐ¸ÑĦ":6777,"Ð¸ÑıÐ»":6778,"Ð´Ð°ÑĤ":6779,"ĠÐļÑĸÑĤÐ°Ð¿":6780,"ÐŀÐ½":6781,"ĠÑĤÒ±ÑĢÒĵÑĭÐ½Ð´Ð°ÑĢ":6782,"ÑĤÐµÑĢÐ´ÐµÐ½":6783,"ĠÑĸÑģÑĤÐµÐ¹":6784,"Ð¿ÐµÑĥ":6785,"ĠÐĲÐ·Ð°Ð¼Ð°ÑĤÑĤÑĭÒĽ":6786,"ĠÒĽÒ±ÑĢÐ¼ÐµÑĤÑĤÑĸ":6787,"ĠÐ¶ÐµÑĢÐ´Ñĸ":6788,"ĠÐ¶Ð¸Ð½Ð°Ð»ÒĵÐ°Ð½":6789,"Ð»Ð¸Ñı":6790,"Ð°Ð±Ð°Ð¹":6791,"ĠÐ¿ÑĸÑģ":6792,"ÐĲÐĽÐ«":6793,"ĠÑĪÐ°ÑĢÐ°Ð»Ð°ÑĢÑĭÐ½":6794,"ĠÐĵÐ¾Ð»Ð¾Ð²ÐºÐ¸Ð½":6795,"ĠÑģÐ°Ð½Ð´ÑĭÒĽ":6796,"ĠÐ°Ð½ÑĭÒĽÑĤÐ°Ð¹Ð´Ñĭ":6797,"ĠÐ±Ð°ÑģÑĤÑĭÑģÑĭ":6798,"ĠÑĪÑĭÒĵÐ°ÑĢÐ´Ñĭ":6799,"ÐºÑĥÑĢ":6800,"ĠÐ¾Ñı":6801,"ĠÐµÑĪÒĽÐ°ÑĪÐ°Ð½":6802,"ĠÑĸÑģÑĤÐµÑĥÐ³Ðµ":6803,"ĠÐ¶ÑĥÑĢÐ½Ð°Ð»Ð¸ÑģÑĤÐµÑĢ":6804,"ĠÒĽÐ°Ð»Ð°Ð»Ð°ÑĢ":6805,"ÑĤÑĥÒĵÐ°":6806,"ĠÐ¢Ð°Ð±Ð¸Òĵ":6807,"ĠÐµÑĢÐµÑģÐµÐº":6808,"ĠÑģÐ°Ð±Ð°ÒĽÒĽÐ°":6809,"ÑĤÑĭÒĵÑĭÐ½":6810,"inews":6811,"ĠÒ±Ð¹ÑĭÐ¼Ð½ÑĭÒ£":6812,"Ð°ÒĽÑĤÑĭÒĵÑĭ":6813,"ĠÐ¶Ð°ÑĢÐ¸ÑıÐ»Ð°Ð´Ñĭ":6814,"ĠÐ´Ð°Ð»Ð°":6815,"ÑħÐ¸ÑĤ":6816,"ĠÐ·ÐµÑĢÑĤÑħÐ°Ð½":6817,"Ð°Ð³ÐµÑĢ":6818,"ĠÐ¸Ð½ÑģÑĤÐ¸ÑĤÑĥÑĤÑĭÐ½ÑĭÒ£":6819,"ĠÓ©ÐºÑĸÐ¼":6820,"ĠÐ°Ð»ÑĥÐ°Ð½":6821,"ĠÐ¼Ð¾ÑĢ":6822,"ĠÐ°ÐºÐº":6823,"ĠÑħÐ°Ð±Ð°ÑĢÐ»Ð°Ñĥ":6824,"ÑĭÒĽÑĤÐ°Ñĥ":6825,"ĠÐºÑĥÓĻÐ»Ð°Ð½":6826,"ĠÐ¶Ò¯Ð¹ÐµÑģÑĸÐ½Ð´Ðµ":6827,"ÒļÑĭÑĤÐ°Ð¹":6828,"ĠÐ°ÑĥÑĭÑģÑĤÑĭÑĢÑĥ":6829,"ÐºÓ©ÑĢÑģÐµÑĤ":6830,"ĠÐ°Ð¹ÑĭÑĢÐ±Ð°ÑģÑĤÐ°Ñĥ":6831,"ĠÐĲÑĤ":6832,"ĠÐ°Ð´Ð°Ð¼Ð·Ð°ÑĤ":6833,"doc":6834,"ĠÑĪÐ°ÑĢÑĤÑĤÐ°ÑĢÑĭ":6835,"ÒĽÐ¾Ð½":6836,"Ð°Ð¿ÑģÑĭÑĢ":6837,"ĠÐ¡ÑĸÐ·Ð´ÑĸÒ£":6838,"ÑĥÐ»Ð»Ð¸Ð½":6839,"ÑĭÑĪÑĤÑĭ":6840,"ĠÐ±Ð°Ð¹ÒĽÐ°Ð»Ð°Ð´Ñĭ":6841,"ÐŀÑĤ":6842,"ĠÑģÐ°ÑĤ":6843,"ÐķÐłÐĨ":6844,"ĠÑĤÓ©Ð»ÐµÐ¼Ð´ÐµÑĢ":6845,"ĠÐ´Ð¾Ð¿":6846,"ĠÐ¶Ð°ÑĢÒĽÑĭÐ½":6847,"ĠÐ±Ó©Ð»ÑĸÐ¼ÑĸÐ½Ð´Ðµ":6848,"ĠÐ¶Ð¶":6849,"ĠÑĤÒ±Ð¶ÑĭÑĢÑĭÐ¼Ð´Ð°Ð¼":6850,"Ð·Ñĭ":6851,"ÐµÑĤÑĢÐ¾Ð¿Ð°Ð²Ð»":6852,"ĠÐµÐ»Ð´ÐµÑĢÑĸÐ½ÑĸÒ£":6853,"ĠÒ°ÑģÑĤÐ°Ð·":6854,"ĠÐ¶Ð°Ò»Ð°Ð½Ð´ÑĭÒĽ":6855,"ÑĭÐ¼ÑĭÐ½":6856,"49":6857,"Ð»ÑĭÒĽÑĤÑĭÒ£":6858,"ĠÐ¶Ò¯ÑĢÐ³ÑĸÐ·ÑĸÐ»ÑĥÐ´Ðµ":6859,"Ò¯ÑģÑĸÐ¿":6860,"Ð°ÐºÑģ":6861,"ÓĻÐ»ÐµÑĥÐ¼ÐµÑĤÑĤÑĸÐº":6862,"ĠÑģÑĸÒ£ÑĸÑĢÐ³ÐµÐ½":6863,"Ð»ÐµÒ£":6864,"ĠÒĽÐ°ÑĢÒĽÑĭÐ½":6865,"ĠÑįÐºÑģÑĤÑĢ":6866,"ĠÐºÐ¾ÑĢÐ¿Ð¾ÑĢÐ°ÑĨÐ¸Ñı":6867,"ĠÐ°Ð¹ÑĤÐ°ÑĢ":6868,"ĠÐµÑĤÑĸÐ»ÐµÐ´Ñĸ":6869,"Ð±Ð°ÒĵÐ°Ð½":6870,"ĠÐ¶Ð°Ò£Ð°Ð´Ð°Ð½":6871,"ÑĥÑĢÑģÑĤÑĭÒĽ":6872,"ÐķÑģÐºÐµÑĢÑĤÑĥ":6873,"ĠÒļÐ°Ð·Ð°ÒĽÑĪÐ°":6874,"--":6875,"ĠÑĪÑĥ":6876,"ĠÑĤÐ°Ð±ÑĭÐ»Ð´Ñĭ":6877,"ĠÒĽÐ°Ð±ÑĭÑĢÒĵ":6878,"engrinews":6879,"ÑĭÑĢÐ·":6880,"ĠÐºÐµÑĢÐµÐºÑĤÑĸÐ³ÑĸÐ½":6881,"Ò®Ð·Ð´ÑĸÐº":6882,"Ð¸Ð·Ð°ÑĨÐ¸Ñı":6883,"Ð¡Ð¾Ò£ÒĵÑĭ":6884,"ĠÑĤÐ°Ò£Ð´Ð°Ð¿":6885,"ĠÐ°Ò£ÑĭÐ·":6886,"ĠÒ±ÑģÑĤÐ°Ð·Ð´Ð°ÑĢ":6887,"ĠÑĤÓĻÑĥÐ»ÑĸÐº":6888,"ĠÑģÐ°Ð»Ð°Ð´Ñĭ":6889,"ĠÐĳÐ°ÑģÒĽÐ°":6890,"ĠÐ¼ÐµÑĢÐµÐºÐµ":6891,"ĠÓ©Ð½ÑĸÐ¼Ð½ÑĸÒ£":6892,"ĠÓĺÑĥÐµÐ·Ð¾Ð²":6893,"ĠÑģÐ°Ð»ÑĭÐ½Ð°Ð´Ñĭ":6894,"ĠÐ¸ÑĤ":6895,"ĠÑĤÐ¾Ð¿ÑĭÑĢÐ°ÒĽ":6896,"ÑĨÐ¸ÐºÐ»":6897,"ĠÐ¼Ò±ÒĽÑĤÐ°Ð¶":6898,"ÐµÐ¹Ð¼ÐµÐ½":6899,"ÐºÑĤi":6900,"Ð¸Ð½Ð¾":6901,"ĠÐºÐµÑģÑĤÐµÑģÑĸ":6902,"ĠÓ©Ð¼ÑĸÑĢÑĸÐ½":6903,"ĠÐ¼Ð°ÑĥÑģÑĭÐ¼Ð´Ð°":6904,"ĠÐºÐ³":6905,"ĠÐºÐ¾Ð¼Ð°Ð½Ð´Ð°ÑģÑĭ":6906,"ĠÐºÐµÐ»Ð¼ÐµÐ¹Ð´Ñĸ":6907,"ort":6908,"ÑĥÐ·Ñĭ":6909,"ĠÐ¼Ò±ÑĢÐ°Ð¶Ð°Ð¹":6910,"ĠÒĽÐ°ÑĢÐ°ÑģÑĤÑĭÑĢÑĥ":6911,"ÑĤÓĻÐ¶ÑĸÑĢÐ¸":6912,"ĠÐĿÒ±ÑĢÐ»Ð°Ð½":6913,"ĠÑĤÐ¾Ð»ÑĭÒĵÑĭÐ¼ÐµÐ½":6914,"ĠÐ¼Ò¯Ð»Ð´ÐµÐ¼":6915,"ÒļÐ°Ð·ÑĸÑĢ":6916,"Ð°Ð¼Ð±ÐµÑĤ":6917,"iÐ»iÐº":6918,"ĠÐĲÐ»Ð»Ð°Ð½ÑĭÒ£":6919,"ĠÐ±Ð°Ð»Ð°Ð¼":6920,"ĠÑģÐ°Ð¹ÑĭÐ½ÒĵÑĭ":6921,"ĠÐºÐ¾Ð¼Ð¸ÑģÑģÐ¸ÑıÑģÑĭÐ½ÑĭÒ£":6922,"em":6923,"ÐºÐµÐº":6924,"Ð¾Ð¿Ð¾Ð»":6925,"ĠÐ´ÐµÐ¼Ð°Ð»":6926,"ĠÐ°ÑĪÑĭÐ»Ñĥ":6927,"ÑĸÐ¼ÑĸÐ·Ð´ÐµÐ³Ñĸ":6928,"Ġ400":6929,"ĠÒĽÐ°ÑĥÑĭÐ¼Ð´Ð°ÑģÑĤÑĭ":6930,"ĠÓĻÑĢÒĽÐ°Ð¹Ñģ":6931,"ĠÐ¿ÑĢÐ¾ÑĨÐµÑģÑģ":6932,"Ð°ÒĵÑĭÐ½ÑĭÒ£":6933,"ÐĨÐĹ":6934,"ĠÓ©ÑĢÐºÐµÐ½Ð¸":6935,"ĠÐ¢Ò±Ò£ÒĵÑĭÑĪ":6936,"ĠÐĲÐ¹ÑĤ":6937,"ĠÐ·Ð°Ò£Ð½Ð°Ð¼Ð°ÑģÑĭÐ½Ð°":6938,"âĨĴ":6939,"Ð¿ÐµÐ»Ñĸ":6940,"ĠÐ¼ÓĻÐ¼":6941,"ĠÐºÒ¯Ð¹ÐµÑĥ":6942,"ĠÓĻÑĢÑĸÐ¿ÑĤÐµÑģÑĤÑĸÐº":6943,"Ð¶Ð°ÑĤÑĤÑĭ":6944,"ĠÐ¿ÑĢÐ¾ÑĨÐµÑģÑĸ":6945,"41":6946,"Ð°ÑĤÐ°ÐµÐ²":6947,"ĠÑĢÐµÐ·ÐµÑĢÐ²":6948,"Ð¼ÐµÒ£":6949,"ÑģÑĤÐ°Ð½Ñĥ":6950,"Ð¨Ð°ÑĢ":6951,"ĠÐºÐ¾Ð½ÐºÑĥÑĢÑģÑĤÑĭÒĽ":6952,"ĠÑĪÐµÐ³":6953,"ĠÐ´ÐµÐ¿ÑĥÑĤÐ°ÑĤÑĭ":6954,"ĠÐ°ÑĥÐ´Ð°ÑĢÐ¼Ð°":6955,"Ð¹ÑĭÒĽ":6956,"ĠÐ¶Ð°Ò£Ð°ÑĢÑĤÑĥ":6957,"ĠÒ¯Ð¹ÑĸÐ½Ðµ":6958,"Ð»Ò±Ð¼":6959,"ĠÑĪÐµÐ±ÐµÑĢÐ»ÑĸÐº":6960,"Ð¢Ð°ÑĢÐ¸Ñħ":6961,"ĠÐ°Ð¿Ð¿Ð°ÑĢÐ°ÑĤÑĭÐ½ÑĭÒ£":6962,"ĠÐ½Ð¸ÐµÑĤ":6963,"ĠÒĽÒ±ÑĢÐ¼ÐµÑĤÑĤ":6964,"ÑĤÐ°ÑĢÐ¼Ð°ÒĽ":6965,"ĠÑģÐ°Ð»Ð¼Ð°ÒĵÑĭ":6966,"ĠÐºÐ°ÑĦÐµÐ´ÑĢÐ°ÑģÑĭÐ½ÑĭÒ£":6967,"ĠÑģÑĤÐ°Ð½ÑĨÐ¸Ñı":6968,"Ð±ÑĥÑĢÐ³":6969,"ÒļÐ¾Ñģ":6970,"ĠÐľÒ±Ð½ÑĭÒ£":6971,"ĠÑĤÐ°ÑģÑĤÐ°Ð¿":6972,"um":6973,"ĠÐ¶Ð°ÑģÑĭÐ»":6974,"ĠÐ¼ÓĻÐ´ÐµÐ½Ð¸ÐµÑĤÑĸÐ½":6975,"ÑĪÑĸÐ½":6976,"Ð±Ð°ÑģÑĤÒ±Ð·":6977,"gov":6978,"ĠÐ·Ð°Ò£Ð½Ð°Ð¼Ð°Ð»ÑĭÒĽ":6979,"ĠÐ°Ð±ÑĭÑĢ":6980,"ĠÑħÐ¸Ð¼Ð¸Ñı":6981,"ÐķÐ½Ð´Ñĸ":6982,"ĠÑģÐ°Ð»Ð°Ñĥ":6983,"ĠÐ³Ð°Ð·ÐµÑĤ":6984,"Ð°Ð±ÐµÐº":6985,"ĠÐµÑģÐµÐ¿ÑĤÐµÐ»ÐµÐ´Ñĸ":6986,"ĠÐ¶ÐµÑĤÐµ":6987,"ĠÐĳÐ°ÑĥÑĭÑĢÐ¶Ð°Ð½":6988,"Ð´Ð°Ð½ÒĵÐ°Ð½":6989,"Ð¾Ð¹ÑĭÐ½":6990,"os":6991,"ĠÐµÑģÑĸÐº":6992,"ÐĶÐ¾Ñģ":6993,"ĠÐ±Ð¾Ð»Ð¼Ð°ÑĥÑĭ":6994,"ĠÑģÐ°Ð»Ð°ÑģÑĭÐ½Ð°":6995,"ĠÑĪÑĭÒĵÐ°ÑĢÑĭÐ»ÒĵÐ°Ð½":6996,"ig":6997,"Ð³ÐµÐ½ÑĸÒ£":6998,"Ð»Ð°ÑĢÐ¼ÐµÐ½":6999,"ĠÐºÐµÒ£ÑĸÑģÑĤÑĸÐº":7000,"ĠÐµÑĤÑĸÐ»Ð³ÐµÐ½":7001,"Ð¢ÐµÐº":7002,"Ð¸ÑģÑģÐ¸ÑıÑģÑĭ":7003,"Ð¸Ð¼Ð¸ÑĢ":7004,"ĠÐ°Ð»Ð¼Ð°Ð´Ñĭ":7005,"ĠÐŃÐļÐ¡ÐŁÐŀ":7006,"ĠÐ¾ÑģÑĭÐ½":7007,"Ð¡Ó©Ð·":7008,"ĠÐ¾Ð½Ð´Ð°Ð¹":7009,"ĠÐºÓ©ÑĪÑĥ":7010,"Ð±Ð½":7011,"ĠÐ¿ÑĢÐ¾Ð²":7012,"Ġ48":7013,"ĠÓ©ÐºÑĸÐ»Ð´ÐµÑĢÑĸÐ½ÑĸÒ£":7014,"Ð°Ð½ÑĤÑĤÑĭ":7015,"ÑĤÐµÐ³ÑĢ":7016,"ĠÐ°Ð½ÑĭÒĽÑĤÐ°Ð¿":7017,"ĠÐ°ÑĢÐ½Ð°Ð»":7018,"ĠÐ¶Ò¯Ð³":7019,"ÑĭÒ£ÑĭÐ·Ð´Ð°ÑĢ":7020,"!!!":7021,"ĠÓ©ÑĤÐºÑĸÐ·ÐµÐ´Ñĸ":7022,"ĠÑĤÓĻÑģ":7023,"ĠÐ±Ð°ÒĵÐ´Ð°ÑĢÐ»Ð°Ð¼Ð°ÑģÑĭÐ½Ð°":7024,"ĠÐ°Ð¼ÐµÑĢ":7025,"ĠÐ°ÐºÐ°Ð´ÐµÐ¼Ð¸ÑıÐ»ÑĭÒĽ":7026,"ĠÓ©ÑģÑĸÑĢÑĥ":7027,"Ġ01":7028,"ĠÐºÒ¯ÑĪÑĸÐ½Ðµ":7029,"ĠÐĲÐ¼ÐµÑĢÐ¸ÐºÐ°":7030,"ĠÐºÐµÐ·Ð´ÐµÑģÐµÑĤÑĸÐ½":7031,"Ð°Ð»Ð°Ñģ":7032,"Ð´ÑĸÐºÑĤÐµÐ½":7033,"ÐºÑĥÐ»":7034,"ĠÐ¶ÑĸÐ±ÐµÑĢÑĥ":7035,"ĠÐĲÐ»ÑĮ":7036,"ĠÑĤÒ±ÑĤÑĭÐ½Ñĥ":7037,"ÑĭÐ»Ð¼Ð°Ð¹Ð´Ñĭ":7038,"2011":7039,"ĠÐĹÐ°Ò£ÑĭÐ½ÑĭÒ£":7040,"ĠÓĻÐ±Ð´ÐµÐ½":7041,"ĠÓ©Ð½ÐµÑĢÐºÓĻÑģÑĸÐ¿ÑĤÑĸÐº":7042,"ÐĲÑĤÐ°Ð¼":7043,"Ð½Ð¸ÑĤ":7044,"Ð³ÐµÐ¼ÐµÐ½":7045,"Ð³Ð°":7046,"ĠÑĤÒ±Ð¼":7047,"ÑģÐºÐ°Ñı":7048,"ĠÐĶÐµÐ¼ÐµÐº":7049,"Ð²Ð°ÑĢ":7050,"ĠÐ±ÑĸÑĢÐ»ÑĸÐ³Ñĸ":7051,"ĠÑĤÓĻÑĢÑĸÐ·Ð´Ñĸ":7052,"ÓĻÐ¼ÐµÐ»ÐµÑĤÐºÐµ":7053,"Ð°ÑĤÑĭÐ»Ñĭ":7054,"ĠÐºÓ©ÑĢÐµ":7055,"ĠÐĲÑĤÐ°Ð¿":7056,"Ð¾Ð»ÑİÑĨÐ¸Ñı":7057,"ĠÐºÐµÑĤÐµÑĤÑĸÐ½":7058,"ÑģÐ°Ð½Ð´ÑĢ":7059,"ĠÐ°Ð»ÑĭÐ½ÑĭÐ¿":7060,"ĠÒĽÐ°ÑĤÑĭÐ½Ð°ÑģÑĤÐ°ÑĢÑĭ":7061,"ĠÑĤÒ¯Ð³ÐµÐ»":7062,"ĠÑģÑĤÐ°Ð½Ð´Ð°ÑĢÑĤÑĤÐ°ÑĢ":7063,"ĠÐ¢Ó©ÑĢÐµ":7064,"Ó©Ò£Ð´ÐµÑĥ":7065,"ĠÐ¢Ð¾ÑĢ":7066,"ĠÐ¶Ð¾ÒĵÐ°ÑĢÑĭÐ´Ð°":7067,"ĠÐ°ÑĥÐ´Ð°Ð½ÑĭÐ½Ð´Ð°ÒĵÑĭ":7068,"ĠÑħÐ°Ð±Ð°ÑĢÐ´Ð°ÑĢ":7069,"ĠÐ°Ð»Ð´ÑĭÐ¼":7070,"ÐµÐ½Ð½":7071,"CÑĤÑĢÐ°ÑĤÐµÐ³Ð¸Ñı":7072,"ĠÐ¶ÓĻ":7073,"ÑĤÑĭÑĢÑĭÐ¿":7074,"ĠÐĨÐĨÐĶ":7075,"ĠÐ½Ð¾Ð¼Ð¸Ð½":7076,"ÒĽÐ¾ÑģÑĭÐ¼ÑĪ":7077,".[":7078,"ĠÐ¸Ð¼Ð°Ð½":7079,"ĠÐ°ÑģÐ°Ð´Ñĭ":7080,"ĠÓĻÐ»ÐµÐ¼Ð³Ðµ":7081,"ĠÐ´Ð¸Ð·":7082,"ĠÐºÓĻÑģÑĸÐ¿Ð¾ÑĢÑĭÐ½Ð½ÑĭÒ£":7083,"ĠÐµÐ»ÑĸÐ¼ÑĸÐ·Ð´ÐµÐ³Ñĸ":7084,"ÒĽÐ°Ð½Ñĭ":7085,"ĠÑĤÒ±ÑĢÒĵÑĭÐ´Ð°":7086,"ĠÐ²ÐµÑĤÐµÑĢÐ¸Ð½Ð°ÑĢ":7087,"ĠÐ¶Ð¸Ð½Ð°Ð»":7088,"ĠÐ¶Ð¾ÒĵÐ°ÑĢÑĭÐ»":7089,"ĠÑģÒ¯Ð¹ÑĸÑģÐ¿ÐµÐ½":7090,"44":7091,"ĠÐ¼ÐµÐºÑĤÐµÐ¿ÑĤÐµÑĢ":7092,"ĠÒĽÐ°ÒĵÐ¸Ð´Ð°":7093,"ĠÑĪÑĭÒĵÐ°":7094,"ĠÐ¼Ð°ÒĵÐ»Ò±Ð¼":7095,"ĠÐ¢ÐľÐĶ":7096,"Ð»ÐµÑĢÑĸÐ½Ðµ":7097,"ĠÐ¾ÑĢÑĭÐ½Ð´Ð°ÑĢÑĭÐ½Ð´Ð°":7098,"ĠÐºÓ©ÑĤÐµÑĢÑĸÐ»":7099,"ĠÐ±ÐµÑĢÑĸÐ»ÑĸÐ¿":7100,"ÐĿÐ°Ð·Ð°ÑĢÐ±Ð°ÐµÐ²ÑĤÑĭÒ£":7101,"ĠÑģÐµÑģÑģÐ¸Ñı":7102,"ĠÐĲÑĢÐ°Ð±":7103,"ÑĪÑĸÐºÑĤÑĸ":7104,"ĠÐ¼Ð¾Ð¹ÑĭÐ½":7105,"ÑĪÑĸÐ»ÑĸÐ³ÑĸÐ½ÑĸÒ£":7106,"ĠÐŀÐł":7107,"Ð±Ò±ÑĢ":7108,"ÐĸÐ°ÑĥÐ°Ð¿":7109,"ĠÐ¾ÑĢÑĤÐ°ÑģÑĭÐ½Ð´Ð°":7110,"ĠÐºÐ¾Ð¼Ð¼ÑĥÐ½Ð¸ÐºÐ°ÑĨÐ¸ÑıÐ»Ð°ÑĢ":7111,"Ð½Ð°Ð¹Ñĭ":7112,"ÑĢÐµÑĤ":7113,"Ð¶Ñĸ":7114,"ĠÐ¼ÐµÐ¼Ð¾ÑĢ":7115,"ĠÒ®Ð»ÐºÐµÐ½":7116,"ĠÒĽÒ±ÑĢÐ°Ð¼Ð°ÑģÑĭ":7117,"ĠÑĤÐ°Ð¿ÑģÑĭÑĢÐ¼Ð°ÑģÑĭÐ½":7118,"ĠÑĢÐ¸Ð·Ð°":7119,"Ð¢Ó©":7120,"ĠÑĪÑĭÒĵÐ°ÑĢÐ°Ð´Ñĭ":7121,"ĠÐºÓ©Ð»ÑĸÐ³Ñĸ":7122,"ĠÐ³ÐµÐºÑĤÐ°ÑĢ":7123,"Ð¿Ð¾ÑĤÐµÐº":7124,"ĠÐºÓ©ÑĢÐµÐ´Ñĸ":7125,"ĠÐ¢Ó©ÑĢÐ°Òĵ":7126,"ÐµÑĢÐ»Ñĸ":7127,"Ð¾Ð»Ð¾Ð³Ð¸ÑıÑģÑĭ":7128,"ĠÐļÐľÐľ":7129,"ÒĵÐ°Ð»Ð¸ÐµÐ²":7130,"ÓĻÐ¼ÑĸÐ·":7131,"ÑĨÑĥÐ·":7132,"ÐŀÑĤÐ°Ð½":7133,"ĠÓ©Ð¼ÑĸÑĢÐ´ÑĸÒ£":7134,"ĠÑĤÐµÐ¾ÑĢÐ¸ÑıÑģÑĭ":7135,"ÑĭÒĵÐ°ÑĢÐ¼Ð°ÑĪÑĭÐ»ÑĭÒĽ":7136,"ĠÐ¶Ð°ÑģÐ°Ð¼":7137,"ĠÐ¾Ð±Ð»ÑĭÑģÑĭÐ½Ð´Ð°ÒĵÑĭ":7138,"ĠÐ¾ÑĢÐ½ÑĭÐ½Ð´Ð°":7139,"ĠÑģÐµÑĢÑĸÐºÑĤÐµÑģÑĤÑĸÐº":7140,"ÑĤÑĭÒ£ÑĭÐ·":7141,"ĠÐ´ÓĻÐ½":7142,"ÒĵÑĭÐ»ÑĪÑĭÐ½":7143,"Ð¸Ð¶":7144,"ĠÐ¶Ð¾Ð±Ð°ÑģÑĭÐ½ÑĭÒ£":7145,"Ð°Ð»Ð´ÑĭÒĽÐ¾ÑĢÒĵÐ°Ð½":7146,"ĠÐ³ÑĢÐ°Ð½ÑĤ":7147,"ÑĸÐ½Ð´":7148,"ĠÒļÐ°Ð·Ð°ÒĽÑģÑĤÐ°Ð½Ð´ÑĭÒĽ":7149,"ÒĽÑĭÐ·Ð¼ÐµÑĤ":7150,"ÒĴÐĲÐĿ":7151,"ĠÑĪÐµÑĪÑĸÐ¼ÑĸÐ½":7152,"ĠÒĽÐ¸ÑĭÐ½Ð´ÑĭÒĽ":7153,"ĠÐķÑģÐµÐ¿":7154,"Ð¸ÐµÐ½":7155,"ĠÐ¡Ð¿Ð¾ÑĢÑĤ":7156,"Ð°ÑĤÑĭÐ½Ð°Ð½":7157,"Ð°Ð²Ðº":7158,"ĠÐĲÒĽÑĤÐ°Ñĥ":7159,"ÐµÑĤÑĤÐµÑĢÐ´ÑĸÒ£":7160,"ÓĺÐ±":7161,"Ð¾ÑĤÐ°":7162,"ĠÑĤÐ°ÑĤÑĥ":7163,"ĠÐ°ÑĤÐ°ÒĽÑĤÑĭ":7164,"ĠÐºÐ»Ð¸Ð½":7165,"ÓĺÐ½":7166,"ĠÑĤÐ°ÑĢÑĤÒĽÐ°Ð½":7167,"ĠÐļÑĢ":7168,"ĠÐ¾ÑĤÐ±Ð°ÑģÑĭÐ»Ð°ÑĢ":7169,"Ð¢Ðļ":7170,"ÐļÓ©ÑĢÐ½ÐµÐº":7171,"Ð¼Ð¸Ð½Ð¸ÑģÑĤÑĢÑĸ":7172,"ĠÐ¶Ò±ÑĢ":7173,"ÑĪÑĸÐ¼":7174,"ĠÓĻÐ´ÐµÐ¿":7175,"ÑģÑĤÐ°ÑĢÐ´ÑĭÒ£":7176,"Ġ*":7177,"Ð¾Ð¹ÑĭÐ·":7178,"ĠÑĭÒ£ÒĵÐ°Ð¹Ð»Ñĭ":7179,"Ð¢ÐĲÐł":7180,"ĠÐ¶Ò±Ð¼ÑĭÑģÑĤÐ°ÑĢÑĭÐ½ÑĭÒ£":7181,"ĠÐ´Ò±":7182,"ĠÓĻÐ´ÐµÑĤ":7183,"ĠÑĸÑĪÑĸÐ½ÐµÐ½":7184,"ĠÑĤÒ±Ð·":7185,"ĠÐ¶Ð°ÑĢÐ½":7186,"Ð½Ð´ÑĸÑģÑĤÐ°Ð½":7187,"ĠÐ´ÐµÑģÐµ":7188,"ĠÑģÐ°Ð»ÑĭÐ¼":7189,"Ð¼Ð°Ð»Ð°ÑĢ":7190,"ĠÐºÐ°ÑĦÐµÐ´ÑĢÐ°ÑģÑĭ":7191,"ĠÓĻÑĢÑĸÐ¿ÑĤÐµÑģÑĤÐµÑĢ":7192,"ÐŁÐ£":7193,"ĠÒĽÐ°ÑĢÐ°ÑĪ":7194,"Ð¶ÑĭÐ»Ð´ÑĭÒĽ":7195,"ÑĭÑĢÐ»Ñĭ":7196,"ĠÑĪÐ°ÑĢÑĥÐ°ÑĪÑĭÐ»ÑĭÒĵÑĭÐ½":7197,"ĠÐ¼iÐ½":7198,"ĠÐĳÐĲ":7199,"ĠÒĽÐ°ÒĵÐ¸Ð´Ð°Ð»Ð°ÑĢÑĭÐ½":7200,"ĠÑĪÑĭÒĵÐ°ÑĤÑĭÐ½":7201,"ook":7202,"ÐµÐ´Ð¸ÑĨÐ¸Ð½Ð°Ð»ÑĭÒĽ":7203,"ĠÒ¯ÑģÑĤÐµÐ¼":7204,"ĠÑĤÐ°Ò£Ñĭ":7205,"ĠÐ½Ð°Ð¼":7206,"ĠÐ±Ð°Ð¹Ð»Ð°Ð½ÑĭÑģÑĤÑĭÑĢ":7207,"ĠÒĽÐ¾Ð·ÒĵÐ°Ð»ÑĭÑģÑĭ":7208,"ĠÐµÐºÐµÐ½Ð´ÑĸÐ³Ñĸ":7209,"ĠÐ¿ÑĥÐ½":7210,"ĠÒĽÐ°ÑĢÐ°Ð¼Ð°":7211,"ÑĪÑĭÐ»Ð°ÑĢÒĵÐ°":7212,"ĠÐºÓ©ÑĪÑĸÐ¿":7213,"ÐµÑĤÑĤÑĸÐ»ÑĸÐº":7214,"ĠÑģÐ°Ð»Ð°ÑģÑĭÐ½":7215,"ĠÑĸÑģÑĸÐ½":7216,"ĠÑģÓ©Ð·Ð´ÑĸÒ£":7217,"ĠÓĻÐºÐµÑģÑĸ":7218,"ĠÐ¼ÑĸÐ½Ð´ÐµÑĤÑĸÐ½":7219,"ĠÒĽÐ¾ÑģÑĭÐ»Ð´Ñĭ":7220,"ÐľÓĻÑģ":7221,"av":7222,"ĠÐµÑģÑĸÐ¼Ñĸ":7223,"mail":7224,"ĠÐľÐµÐ¼Ð»ÐµÐº":7225,"ĠÐ¶Ò±Ð¼ÑĭÑģÑĤÐ°ÑĢÑĭÐ½Ð°":7226,"ÒĽÐ°Ð¼":7227,"ĠÐµÐ¶ÐµÐ»Ð³Ñĸ":7228,"ĠÒĽÑĭÐ·Ð¼ÐµÑĤÑĸÐ½Ð´Ðµ":7229,"ĠÐ±ÑĥÑħÐ³Ð°Ð»ÑĤÐµÑĢÐ»ÑĸÐº":7230,"ĠÑģÓ©Ð·ÑģÑĸÐ·":7231,"art":7232,"Ð¾Ð´Ð°ÒĽ":7233,"ĠÐ±Ð°Ð»Ð»":7234,"ĠÐĲÐĽ":7235,"ĠÒĽÐ¾Ð»Ð°":7236,"90":7237,"ĠÑĤÐ°ÑĢÐ¸ÑĦ":7238,"ĠÐĳÐ°ÑģÑĤÑĭ":7239,"Ð¾Ò£ÑĭÑĢ":7240,"ĠÐ·Ð¸ÑıÐ½Ð´Ñĭ":7241,"ĠÐ¶Ð°Ð½ÑĢ":7242,"ÐĳÐ°Òĵ":7243,"ÑģÐºÐµÑĢÐ¸":7244,"ĠÐµÑģÑĸÐ¼Ð´Ñĸ":7245,"ĠÐĿÐ°ÑĢ":7246,"ĠÐ±ÑĸÑĢÐ»ÐµÑģÐµ":7247,"ĠÐĴÐ¸Ð´ÐµÐ¾":7248,"ĠÑģÐ°ÑĢÐ°Ð¹":7249,"ĠÑĢÐµÑģÐµÐ¹Ð»ÑĸÐº":7250,"ĠÐ¾ÑĢÐ³":7251,"ÑĭÐ»ÑĥÑĭÐ½":7252,"ÒĵÑĭÐ¼Ð´Ð°ÒĵÑĭ":7253,"ĠÐ»Ð°Ð¹ÑĭÒĽÑĤÑĭ":7254,"ĠÑĢÐ°ÑħÐ¼ÐµÑĤ":7255,"ĠÐ°ÑģÑĤÑĭÒĽ":7256,"ĠÐ±ÑİÐ´Ð¶ÐµÑĤÐºÐµ":7257,"ĠÐ¿Ð¾Ð»Ð¸ÑĨÐµÐ¹":7258,"ĠÐ±Ó©Ð»ÑĸÐ½Ð´Ñĸ":7259,"ÐĿÒ±ÑĢÑģÒ±Ð»ÑĤÐ°Ð½":7260,"ĠÐ»Ð¸Ð³":7261,"ĠÑģÐµÐ½Ñĸ":7262,"ĠÑģÐ°Ð½ÑĭÐ½ÑĭÒ£":7263,"ÑĤÐµÐ¹":7264,"ĠÐĶÐ°ÑĢ":7265,"ÒļÑĭÑĢ":7266,"ĠÒļÒ±Ð»":7267,"ĠÑĤÐ°Ð¿ÑģÑĭÑĢÐ´Ñĭ":7268,"ĠÐ¾Ò£ÑĤÐ°Ð¹":7269,"ĠÐ¶Ð°ÑĤÑĭÑĢÐ¼ÑĭÐ·":7270,"ĠÒĽÒ±ÑĢÑĥÒĵÐ°":7271,"ĠÒĴÑĭÐ»ÑĭÐ¼":7272,"ĠÐºÑĥÓĻÐ»ÑĸÐº":7273,"op":7274,"Ġ=":7275,"ĠÐ¶ÐµÐ»ÑĤÐ¾ÒĽÑģÐ°Ð½Ð´Ð°":7276,"ĠÒĽÒ±Ð¶Ð°ÑĤÑĤÐ°Ð¼":7277,"ĠÐ°ÒĽÑĪÐ°Ð»Ð°Ð¹":7278,"ĠÓĻÐ´ÑĸÑģÑĤÐµÑĢÑĸÐ½":7279,"ĠÐ´Ð°ÒĽÑĭÐ»":7280,"ÐĲÐ·":7281,"ĠÑĤÒ±ÑĢÐ°":7282,"ĠÐľÐµÐ¹":7283,"ĠÐ°ÒĽÑĭÑĢ":7284,"Ð±ÑĸÑĢÑĸ":7285,"ÐµÐ³ÐµÑĢ":7286,"Ð¼Ð¾ÑģÑĦÐµÑĢ":7287,"ĠÐłÐ°Ñħ":7288,"ĠÐ±ÑĸÑĢÑĸÐ½Ðµ":7289,"ÐŀÑĢÑĤÐ°Ð»ÑĭÒĽ":7290,"Ð°Ð¶Ð°Ð¹ÑĭÐ¿":7291,"ĠÒĽÐ°Ð±ÑĭÐ»Ð´Ð°ÑĥÒĵÐ°":7292,"ĠÐºÓ©Ð±ÑĸÐ½ÐµÑģÐµ":7293,"Ð±Ð¾ÑĢ":7294,"ĠÑģÐ¾Ð½Ñĭ":7295,"ÐŀÐ±Ð»ÑĭÑģ":7296,"Ð¸ÑĢÐ¶":7297,"ĠÐ½Ò¯ÐºÑĤ":7298,"ĠÒļÐ°Ð½Ð´Ð°Ð¹":7299,"ĠÑĤÒ¯ÑģÑĸÑĢÑĥ":7300,"ĠÐĳÒ±ÑĢÑĭÐ½":7301,"ĠÒĽÐ°Ð»Ð°ÑģÑĭÐ½Ð°":7302,"Ð¡Ð¾":7303,"ĠÐ¶Ð°ÑģÐ°ÒĽ":7304,"ĠÐ¼ÓĻÐ½ÑĸÐ½":7305,"ĠÐŁÐ°Ð¹ÒĵÐ°Ð¼Ð±Ð°ÑĢ":7306,"Ð°ÑģÐ°Ð½":7307,"Ð¶ÑĭÐ½":7308,"Ð¢ÓĻÑĥÐµÐ»ÑģÑĸÐ·Ð´ÑĸÐº":7309,"ĠÐ¼Ð°ÒĽÑģÐ°ÑĤÒĽÐ°":7310,"ĠÓĻÑĢÐ´Ð°Ð¹ÑĭÐ¼":7311,"ĠÒ±ÑģÑĭÐ½ÑĭÐ»Ð°Ð´Ñĭ":7312,"ĠÐ¿ÑĢÐ¾ÐºÑĥÑĢÐ¾ÑĢ":7313,"Ð¸Ð½Ð°Ð¼":7314,"ĠÐ¼Ð°ÑĪÐ¸Ð½Ð°":7315,"ÒĽÐ°Òĵ":7316,"Ð¡Ð¢ÐĲÐĿÐĲ":7317,"ĠÑĤÓ©Ð·":7318,"Ð°Ð»Ð°ÑĢÐ¼ÐµÐ½":7319,"ĠÐµÑģÐµÐ¿ÑĤÐµÑĢ":7320,"ĠÐ¼Ð°ÑĤÐµÑĢÐ¸Ð°Ð»Ð´Ð°ÑĢÑĭ":7321,"ĠÑģÒ±ÑĢÐ°Ð½ÑĭÑģ":7322,"ĠÒĽÐ¾Ò£ÑĭÑĢÐ°Ñĥ":7323,"ÑĪÐ°Ñĥ":7324,"ĠÐľÒ±ÑħÑĤÐ°ÑĢ":7325,"ĠÒĽÐ°Ð»ÑĭÐ¿ÑĤÐ°ÑģÑĥÑĭ":7326,"ĠÐ¾ÑĢÐ°Ð»":7327,"Ð°Ð¹Ð½":7328,"ĠÐ¼ÑĸÐ½Ð´ÐµÑĤÑĤÐµÑĢÑĸÐ½":7329,"ĠÐ°ÒĽÑĭÐ»Ñĭ":7330,"ĠÐ±Ó©Ð»ÑĸÐ¼Ð´ÐµÑĢ":7331,"ĠÐķÑĢÐµÐ¶":7332,"ĠÐ´ÐµÐ»ÐµÐ³":7333,"ĠÑĦÑĢÐ°Ð½":7334,"Ð±Ð°Ð¹Ð¶Ð°Ð½":7335,"Ð°ÑĥÑĸÐ¿ÑģÑĸÐ·Ð´ÑĸÐº":7336,"ĠÐ±Ð¾Ð»Ð¼Ð°Ð¹":7337,"ĠÒĽÐ°Ð·Ð°ÒĽÑĤÐ°ÑĢ":7338,"ĠÒļÒ±ÑĢÐ°Ð½":7339,"ĠÐ°ÒĽÑĭ":7340,"ĠÐ¸Ð½ÑĤÐµÑĢÐ½":7341,"ĠÒĽÐ¾Ð»Ð´Ð°Ð½ÑĭÑģÑĤÐ°ÒĵÑĭ":7342,"ĠÑĢÐ°Ð´Ð¸":7343,"ÐµÑĢÑĤÐµÒ£":7344,"ĠÐ¢ÐµÑħÐ½":7345,"ĠÐ±Ð°Ð¹ÒĽÐ°ÑĥÑĭ":7346,"ĠÐ°Ð²ÑĤÐ¾Ð±ÑĥÑģ":7347,"Ð¿ÐµÐ¹ÑĤÑĸÐ½":7348,"ÑĤÐ°Ð¹Ð¼ÑĭÐ·":7349,"ĠÒĽÐ°Ð¹ÑĤÐ°Ð´Ð°Ð½":7350,"Ð·Ð¸Ð½":7351,"ĠÐºÐµÐ»ÐµÑĪ":7352,"ĠÒĽÑĭÐ·Ð¼ÐµÑĤÑĤÑĸÐº":7353,"ĠÓĺÐ±ÑĸÐ»":7354,"ĠÐ°Ð½ÑĭÒĽÑĤÐ°ÑĥÒĵÐ°":7355,"ĠÐºÐµÒ£ÐµÑģÑĤÐµÑĢ":7356,"ÑĸÐ»Ð¼ÐµÐ³ÐµÐ½":7357,"ĠÐ´Ð¸Ð°Ð»Ð¾Ð³":7358,"Ð¼ÓĻÑĤÐµÐ»":7359,"ĠÐľÐ°Ñħ":7360,"ÐµÑģi":7361,"ĠÐŁÑĸÐºÑĸÑĢ":7362,"ĠÐºÓĻÑģÑĸÐ¿ÐºÐµÑĢÐ»ÑĸÐºÑĤÑĸ":7363,"ÐķÐĻ":7364,"Ð¸Ð²ÑĤÑĸÐº":7365,"Ð»ÐµÐºÑĤÑĢÐ¾Ð½Ð´Ñĭ":7366,"IV":7367,"ÓĻÑĢÑĸÐ³ÐµÑĢ":7368,"Ð´ÐµÐ¼Ðµ":7369,"Ð¸Ð°Ð»Ð´Ñĭ":7370,"ĠÐ·Ð°ÑĤÑĤÐ°ÑĢÐ´ÑĭÒ£":7371,"ĠÐ½Ó©Ð¼ÑĸÑĢÑĸ":7372,"Â»-":7373,"ĠÐºÓ©Ð·Ð´ÐµÐ»":7374,"ÒĵÐ°Ð·Ñĭ":7375,"ÑĤÑĭÐ·":7376,"ÑĸÑģÑĸÐ¼":7377,"ĠÐ±Ð¾Ð¹ÑĭÐ½Ð´Ð°ÒĵÑĭ":7378,"ĠÐ´Ð°Ð¼ÑĥÑĭÐ½":7379,"ĠÐ¾ÑĢÑĭÐ½Ð´Ð°ÑĢÑĭÐ½":7380,"ĠÑĤÐ°Ð·Ð°ÑĢ":7381,"ÐĽÐ«Òļ":7382,"ĠÑĸÐ·Ð´ÐµÑģÑĤ":7383,"ĠÐ±Ð¾ÑģÑĤÐ°Ð½Ð´ÑĭÒĵÑĭÐ½Ð°Ð½":7384,"ĠÐ°ÑĪÒĽÐ°Ð½":7385,"ĠÐ¾ÑģÑĭÐ´Ð°Ð½":7386,"ÑĢÐµ":7387,"ĠÐ±Ð¾Ð»Ð´ÑĭÑĢ":7388,"ÐŀÐľ":7389,"ĠÒ®ÐºÑĸÐ¼ÐµÑĤÑĸ":7390,"ĠÑįÑģÑĤ":7391,"ĠÐ¿ÑĢÐ¾ÐºÑĥÑĢÐ°ÑĤÑĥÑĢÐ°ÑģÑĭ":7392,"ĠÐ±Ð¾ÑĢÑĭÑĪ":7393,"ĠÑģÑĥÐ¼ÐµÐ½":7394,"ÐĨÑģ":7395,"ĠÒĽÐ°Ð·ÑĭÐ½":7396,"Ð´Ð¸ÐµÐ²":7397,"ĠÑģÐ¸ÑĢÐµÐº":7398,"ĠÐ·ÐµÑĢÑĤÑĤÐµÐ»":7399,"ĠÒļÐ°Ð·Ð°Ð½":7400,"ÐĳÒ±Ð´Ð°Ð½":7401,"ĠÐ¶Ð°ÑģÑĤÐ°ÑĢÒĵÐ°":7402,"ĠÐ·Ð°Ò£Ð´ÑĭÐ»ÑĭÒĽ":7403,"ÐµÑĤÑĸÐ½ÐµÐ½":7404,"ĠÐ¼Ò¯Ð»ÑĸÐºÑĤÑĸ":7405,"ÑĭÒĵÑĭÑĢÐ°ÒĽ":7406,"Ġ65":7407,"Ð¼Ð°ÑģÑĭÐ½":7408,"ĠÐ±Ð°Ðº":7409,"ĠÐ±Ð°Ð½ÐºÑĸ":7410,"ÑĤÐµÑĢÐµÐº":7411,"ĠÐ¤ÑĢÐ°Ð½ÑĨÐ¸ÑıÐ´Ð°ÒĵÑĭ":7412,"ĠÐ¾ÒĽÐ¸ÑĤÑĭÐ½":7413,"ĠÑĤÐ°ÑĢÐ°ÒĵÐ°Ð½":7414,"ĠÐ¶Ð°ÒĽÑģÑĭÐ»ÑĭÒĽ":7415,"ĠÑħÐ°Ð±Ð°ÑĢÐ»Ð°Ð¼Ð°":7416,"ĠÐ¼Ó©Ð»ÑĪÐµÑĢÐ´Ðµ":7417,"ĠÑĤÓĻÑģÑĸÐ»Ð´ÐµÑĢÑĸ":7418,"ĠÐ¼Ð°ÒĽÑģÐ°ÑĤÑĤÐ°ÑĢÑĭ":7419,"ĠÑĢÐ°Ð¹Ñĭ":7420,"ĠÐµÑĢÐµÐ¶ÐµÐ»ÐµÑĢ":7421,"ĠÐ¶ÐµÑĤÑĸÑģ":7422,"ĠÐĶÓĻÐ»":7423,"Ð¸ÐºÐ°Ð½Ñĭ":7424,"ĠÐ¸ÐµÐ³ÐµÑĢÑĸ":7425,"ĠÐºÐµÐ¼ÑĪÑĸÐ»ÑĸÐº":7426,"ĠÐ°Ð·Ð°Ð¼Ð°ÑĤÑĤÐ°ÑĢÐ´Ñĭ":7427,"ĠÓ©ÑģÑĤÑĸ":7428,"ĠÑĤÐ¾Ð»ÑĭÒĽÑĤÐ°Ð¹":7429,"ĠâĨĴ":7430,"ÑĦÐ¸Ð»":7431,"ÑĤÐ°Ð»Ð¼ÑĭÑĪ":7432,"ĠÐŁÐ¾ÑĢ":7433,"42":7434,"ĠÐ±ÑĸÐ»ÐµÐ¼ÑĸÐ·":7435,"ĠÐ¾ÑĢÑĭÐ½Ð´Ð°ÑĢ":7436,"Ð´Ð°ÑģÑĤÐ°ÑĢ":7437,"ÑĸÐ³ÑĸÑĤ":7438,"ĠTengrinews":7439,"Ð¾Ð´Ð°":7440,"Ð¸ÐºÐ°ÑĨÐ¸ÑıÐ»ÑĭÒĽ":7441,"ĠÐ´ÑĭÐ±ÑĭÑģ":7442,"ĠÑģÐ°Ð»ÑĭÑģ":7443,"Ð´ÐµÑĥÑĸ":7444,"ĠÐ´Ð°Ð¼ÑĥÐ´ÑĭÒ£":7445,"ĠÐ±Ò±Ð¹ÑĢÑĭÒĽ":7446,"ĠÑĤÐ°Ð¿ÑģÑĭÑĢÐ¼Ð°ÑģÑĭ":7447,"Ð³ÐµÐ½Ð´Ðµ":7448,"ĠÐ±ÑĸÐ»Ð´ÑĸÑĢÑĥ":7449,"ers":7450,"ĠÑĤÐ°Ð½ÑĭÑģÑĤÑĭ":7451,"ĠÐµÐ»Ð´ÐµÑĢÐ´Ðµ":7452,"ĠÐ°Ð¹ÒĽÑĭÐ½Ð´Ð°Ñĥ":7453,"ĠÐ¶Ð°ÑĥÐ°Ð¿ÑĤÐ°ÑĢ":7454,"ĠÐ¶Ð°ÑģÑĭÐ½Ð°":7455,"Ð°ÑĤÑĭÐ»Ð°Ð´Ñĭ":7456,"ĠÐĲÐ»ÑĤÐ°Ð¹":7457,"ĠÐ·Ð°Ò£Ñĭ":7458,"ĠÑĤÐ¾Ð¿ÑĤÑĭÒ£":7459,"ĠÐ°Ð¹ÑĭÑĢÐ¼Ð°":7460,"ĠÐ°Ð¹Ð½Ð°Ð»ÑĭÑģÐ°ÑĤÑĭÐ½":7461,"Ð²Ð°Ð½":7462,"Ð¡Ð°Ð»":7463,"ĠÑĪÐ°ÑĢÑĤÑĤÑĭ":7464,"ĠÐ½ÐµÐ³ÑĸÐ·Ð´Ðµ":7465,"ĠÒĽÒ±ÑĢÐ±Ð°Ð½":7466,"Ð¶ÑĭÐ¼Ð´ÑĭÒĽ":7467,"ĠÐ½Ò±ÑĢ":7468,"ĠÒĽÐ¾Ð½Ð´ÑĭÑĢ":7469,"ĠÑĤÒ¯ÑģÑĸÑĢÑĸÐ¿":7470,"ÐŀÐ±Ð»ÑĭÑģÑĤÑĭÒĽ":7471,"ĠQ":7472,"ÑĤÑĸÐ»":7473,"ĠÒ¯Ð·Ð´ÑĸÐºÑģÑĸÐ·":7474,"ĠÒĽÑĭÐ·Ð¼ÐµÑĤÑĤÐµÑĢÑĸÐ½":7475,"ĠÐµÑĪÑĤÐµÒ£Ðµ":7476,"ĠÐµÑĤÑĸ":7477,"ĠÒĽÐ¾ÑĢÒĵÐ°ÑĥÒĵÐ°":7478,"ĠÐ±Ð°ÒĽÑĭÐ»Ð°ÑĥÐ´Ñĭ":7479,"âĢ¦âĢ¦":7480,"ĠÐºÐµÐ¼ÑĸÐ½Ð´Ðµ":7481,"ĠÑģÐ¸Ð¿Ð°ÑĤÑĭ":7482,"ĠÒļÐ°Ð·Ò°":7483,"ĠÐ¿ÑĭÑģ":7484,"Ð¾Ð²Ð°Ð½ÑĭÒ£":7485,"ÑĭÐ½Ð´Ð°ÑĥÒĵÐ°":7486,"Ð»Ð°ÑĢÐ´Ð°Ð½":7487,"ĠÒĽÐ¾Ð»Ð¼Ð°":7488,"ĠÑģÐ¿Ð¾ÑĢÑĤÑĪÑĭ":7489,"Ð¸Ð°Ð½":7490,"ĠÐ¶Ð°ÑĤÑĭÐ¿":7491,"ĠÒĽÑĭÐ·Ð¼ÐµÑĤÑĤÐµÑĢÐ´ÑĸÒ£":7492,"ĠÐ´Ò¯Ð½Ð¸ÐµÐ¶Ò¯Ð·ÑĸÐ»ÑĸÐº":7493,"68":7494,"ÑĢÑĸ":7495,"ilim":7496,"ĠÐºÐ¾Ð¼Ð¸ÑģÑģÐ¸ÑıÐ½ÑĭÒ£":7497,"ÐŀÐ¹ÑĭÐ½":7498,"ĠÐ°ÑĢÐ½Ð°Ð¿":7499,"ĠÐºÐµÐ»ÑĤÑĸÑĢÑĸÐ»Ð³ÐµÐ½":7500,"ĠÐºÓ©ÑĢÑģÐµÑĤÐºÑĸÑĪÑĸ":7501,"Ð°Ð½Ð´ÑĥÐ¼":7502,"Ð·Ð°Ò£":7503,"ĠÐ±Ð°ÑģÑĭÐ¼Ð´ÑĭÒĽ":7504,"ĠÐ¶Ò¯ÑĢÐ³iÐ·":7505,"ĠÑĤÓ©ÑĢÑĤÑĸÐ½ÑĪÑĸ":7506,"ĠÐºÐ¾Ð´Ñĭ":7507,"ĠÒļÐ¾Ð½":7508,"ĠÒ±Ð¹ÑĭÐ¼Ð´Ð°ÑĢÑĭ":7509,"ÐµÑģÑĸÐ¿":7510,"Ġ2002":7511,"ĠÒĽÑĭÐ·Ð¼ÐµÑĤÑĤÐµÑĢÑĸ":7512,"ÐĳÐ¾Ð»Ð°ÑĪÐ°ÒĽÒĽÐ°":7513,"ĠÐ¾ÑĢÐ³Ð°Ð½Ñĭ":7514,"Ð¶ÑĭÐ»ÑĭÒĽ":7515,"ĠÒĴÑĭÐ»ÑĭÐ¼Ð¸":7516,"ÐĳÐ¸Ð·Ð½":7517,"ĠÐ¾Ð±":7518,"ÐĳÐ°Ð»Ð°":7519,"ÐĳÑĸÑĢÐ°ÒĽ":7520,"ĠÒĽÐ¾Ð¹ÑĭÐ»Ð°Ð´Ñĭ":7521,"ÑĤÑĸÐ½Ð´Ñĸ":7522,"ÑĥÑĢÐ°":7523,"ÒĵÐ°ÑĤ":7524,"ĠÑģÓĻÑĤÑĤÐµ":7525,"ib":7526,"ĠÐ¢Ð¾ÒĽ":7527,"inf":7528,"ĠÐºÓ©Ð±ÐµÐ¹ÑĤÑĥ":7529,"âĨĲ":7530,"ĠÑĪÐ¾Ð»Ñĥ":7531,"ĠÐ¿Ð»Ð°Ð½":7532,"ĠÑĪÑĭÒĵÐ°ÑĢÑĥÒĵÐ°":7533,"ĠÐ¿Ð°Ð¹Ð´Ð°ÑģÑĭ":7534,"Ð°Ð±ÑĢ":7535,"ĠÐ¶Ð°Ð·Ð±":7536,"ĠÑĤÐ°Ð»Ð°Ð¿ÑĤÐ°ÑĢÑĭÐ½":7537,"ĠÒ°Ð»ÑĭÐ±ÑĢÐ¸ÑĤÐ°Ð½":7538,"Ð¾Ð²ÑĤÑĸÒ£":7539,"ĠÑįÑĦÐ¸ÑĢ":7540,"ĠÑĸÑģÑĤÑĸ":7541,"ul":7542,"ĠÐ±ÑĸÐ·Ð´Ðµ":7543,"ĠÒĽÐ¾ÒĵÐ°Ð¼Ð´Ð°":7544,"ĠÒ¯Ð¹ÑĢÐµÐ½Ñĥ":7545,"ĠÑĪÐ¾ÒĵÑĭÑĢ":7546,"ĠÒĽÐ°ÑĤÑĭÑģÑĭ":7547,"ĠÓ©Ð¼ÑĸÑĢÑĸÐ½Ðµ":7548,"ĠÒĽÑĭÐ·Ð¼ÐµÑĤÐºÐµÑĢÐ»ÐµÑĢÐ´ÑĸÒ£":7549,"Ġ49":7550,"Ð¼Ò±ÑħÐ°Ð¼":7551,"ÐĿÐ°ÑĥÑĢÑĭÐ·":7552,"ĠÐ¶Ð°Ð»Ð°ÒĽÑĭ":7553,"ĠÐ±ÐµÐ¹Ð½Ðµ":7554,"Ð¿Ð°Ð¹ÑĤÑĭÐ½":7555,"Ð°Ð´ÑĭÑĢ":7556,"ĠÐµÑģÐµÐ¿ÑĤÑĸÐº":7557,"ĠÐ±Ð°ÑĢÐ´Ñĭ":7558,"ÑĸÐ»ÐµÑĢÐ´ÑĸÒ£":7559,"ĠÑĤÑĸÐ»Ð´ÑĸÐº":7560,"ĠÑģÓ©Ð·Ð±ÐµÐ½":7561,"ĠÐ±ÐµÐ»Ð³iÐ»":7562,"ĠÐ¶Ð°ÑĤÑĤÑĭÒĽ":7563,"ĠÐºÒ¯ÑĪÐµÐ¹":7564,"ĠÐ°ÑħÑĥÐ°Ð»":7565,"Ð»Ð¼ÐµÐº":7566,"ĠÓĻÐ½ÑĸÐ½":7567,"Ð¼Ð°ÒĽÑĤÑĭ":7568,"ĠÒ±ÑıÐ»Ñĭ":7569,"ĠÐ¸Ð³ÐµÑĢÑĥ":7570,"ĠÐºÑĥÐ±":7571,"Ð¾Ð·Ð°":7572,"ĠÒĽÒ±ÑĢÐ°Ð»Ð´Ð°ÑĢÑĭÐ½ÑĭÒ£":7573,"ĠÐºÐ°Ð½":7574,"ĠÑģÐ¸Ð¿Ð°ÑĤÑĤÐ°Ð¼Ð°ÑģÑĭ":7575,"ĠÐļÐµÐ¹Ð±ÑĸÑĢ":7576,"ÑĥÑĩ":7577,"ĠÑĭÒĽÑĤÐ¸Ð¼":7578,"Ð¶ÑĸÐº":7579,"ĠÐ°Ð»Ð°Ð¹Ð´Ð°":7580,"Ð°ÑĤÑĭÐ»ÑĭÑģÑĤÐ°Ð½Ñĥ":7581,"ĠÑĢÐµÐ´Ð°ÐºÑĨÐ¸ÑıÐ´Ð°":7582,"ĠÒĽÐ¾Ð¹Ð½Ð°ÑĥÑĭÐ½":7583,"ĠÐĿÓĻÑĤÐ¸Ð¶ÐµÑģÑĸÐ½Ð´Ðµ":7584,"ĠÐĹÐ°Ò£Ñĭ":7585,"ÐµÑĤÑĸÐ½ÑĸÐ½":7586,"ĠÐ°ÑĢÐ·Ð°Ð½":7587,"ĠÑģÐ°Ð»Ð°Ð´Ð°":7588,"ÑĸÐºÑĤÑĸÐ³Ñĸ":7589,"ĠÒĽÒ±Ð±ÑĭÐ»ÑĭÑģ":7590,"ĠÐļÓ¨":7591,"Ġ1998":7592,"ĠÐ¡Ð°Ð¼":7593,"ĠÐ¾ÑĢÐ³Ð°Ð½Ð¸Ð·Ð¼":7594,"ÑģÐ¿Ð°Ð½":7595,"Ð°ÑĤÑĤÐ°Ð½Ð´ÑĭÑĢÑĥ":7596,"ĠÐ³Ð°":7597,"ĠÐĴÐ»Ð°Ð´":7598,"ĠÒĵÐ°ÑģÑĭÑĢÐ´Ð°":7599,"ĠÐºÒ¯Ð½Ð´ÑĸÐ·":7600,"ĠÑģÓ©Ð½Ð´ÑĸÑĢÑĥ":7601,"ĠÐķÑĢÐ»Ð°Ð½":7602,"ĠÐ´Ò¯ÑĢ":7603,"ĠÒĽÐ°Ð»Ñĥ":7604,"Ð½Ð¾Ð²Ð°ÑĨÐ¸Ñı":7605,"ĠÐ±Ð¾Ð»Ð°ÑĪÐ°ÒĽÑĤÐ°":7606,"ĠÐĲÐł":7607,"ĠÐļÐķ":7608,"iÐ»Ð³ÐµÐ½":7609,"ĠÑĭÐ½ÑĤÐ°Ð»Ð°Ð½Ð´ÑĭÑĢÑĥ":7610,"ÐŀÑĢÐ°Ð»":7611,"ĠÑĤÐ¾Ð¿ÑĤÑĭÒĽ":7612,"ĠÐ´Ð¾Ð¼Ð±ÑĭÑĢ":7613,"ĠÐºÓ©Ð¿ÑĪÑĸÐ»ÑĸÐ³Ñĸ":7614,"ĠÑĥÐ°ÒĽÑĭÑĤÑĭÐ½Ð´Ð°":7615,"ĠÐ±Ð°ÑģÐ°":7616,"ĠÐ°Ð¹Ð´Ð°Ð½":7617,"ĠÐ±Ð°ÑģÒĽÐ°ÑĢÑĥÐ´ÑĭÒ£":7618,"Ð»iÐº":7619,"ĠÒĽÐ¾ÒĵÐ°Ð¼Ñĭ":7620,"ĠÐµÑĢÐµÐ¶ÐµÐ»ÐµÑĢÑĸ":7621,"ĠÒĽÑĭÐ·Ð´ÑĭÒ£":7622,"ĠÓĻÐ»ÐµÐ¼Ð´Ðµ":7623,"ĠÐŀÑĢÐ°Ð·":7624,"ÒļÐ°Ñģ":7625,"ĠÐ±Ð°ÑģÑĪÑĭÐ»ÑĭÒĵ":7626,"Ð»Ð°Ð¹ÑĤÑĭÐ½":7627,"ÐļÐµÒ£":7628,"ĠÒ±Ð·ÑĭÐ½":7629,"ĠÐ¶Ð¾Ð»ÑĭÐ¼ÐµÐ½":7630,"ĠÒĽÐ°Ò£ÑĤÐ°ÑĢÐ´Ð°ÒĵÑĭ":7631,"ĠÑĭÐ´Ñĭ":7632,"Ð¶Ð¸":7633,"ÑĤÐ°ÑĢÐ¼Ð°ÒĵÑĭÐ½Ð´Ð°":7634,"ÑĸÒ£ÑĸÐ·Ð´ÑĸÒ£":7635,"ĠÐ¨ÑĭÒ£":7636,"Ò±Ð»ÑĤÑĤÑĭÒĽ":7637,"Ð¡Ð°Ð¼":7638,"ĠÒ¯Ð»Ð³ÑĸÑģÑĸ":7639,"Ð¢Ð°Ð±Ð¸Òĵ":7640,"ord":7641,"ÒļÑĭÐ·ÑĭÐ»":7642,"________":7643,"Ð¿Ð°ÑĤ":7644,"ĠÒĽÑĭÑĢÐºÒ¯Ð¹ÐµÐºÑĤÐµ":7645,"ÐŁÑĢÐµÐ·Ð¸Ð´ÐµÐ½ÑĤ":7646,"ÑĤÑĸÐ½Ð´Ðµ":7647,"ÐļÑĸÑĤÐ°Ð¿":7648,"ĠÐºÐ¾Ð¼Ð¿Ð°Ð½Ð¸ÑıÐ»Ð°ÑĢ":7649,"ÒĽÒ±Ð¶":7650,"ĠÐµÐºÐµÑĥÑĸ":7651,"ĠÓĺÐ·ÑĸÑĢ":7652,"ĠÐ¼Ð°ÒĽÒ±Ð»":7653,"ÑĬÐµÐ·":7654,"ĠÒļÐ¾Ð¶":7655,"ĠÑĤÐ°Ð±ÑĭÑģÑĤ":7656,"ÑĭÐ»Ð¼Ð°ÒĵÐ°Ð½":7657,"ĠÓ¨Ð½ÐµÑĢ":7658,"ĠÐ¿ÑĢÐ¾ÐºÑĥÑĢÐ°ÑĤÑĥÑĢÐ°":7659,"ÐĶÐµÐ½ÑģÐ°ÑĥÐ»ÑĭÒĽ":7660,"ĠÐ¼Ó©Ð»ÑĪÐµÑĢÐ»ÐµÐ¼":7661,"ĠÑģÐ°ÒĵÐ°ÑĤÑĭ":7662,"ĠÐ´Ð¸Ð°Ð³Ð½Ð¾ÑģÑĤ":7663,"ĠÐµÑĤÑĥÑĸ":7664,"ÑĥÐ½Ð´":7665,"ĠÐ¶Ð°ÑģÐ°Ð»ÑĭÐ¿":7666,"ĠÒĽÒ±ÑĤÑĤÑĭ":7667,"ĠÐŀÑģÑĭÐ´Ð°Ð½":7668,"ĠÐ±ÐµÑĤÑĸÐ½ÑĪÐµ":7669,"ĠÐµÑĢÐµÐºÑĪÐµÐ»ÑĸÐºÑĤÐµÑĢÑĸÐ½":7670,"ÑĭÐ»ÑĥÑĭÐ½Ð°":7671,"ĠÐµÑģÐµÐ³Ðµ":7672,"Ð±Ð°Ð¹Ð»Ð°Ð½":7673,"ĠÑģÐ°ÑĢÑĭ":7674,"ĠÒĽÒ±ÑĢÑĭÐ»ÒĵÑĭÐ»Ð°ÑĢ":7675,"ĠÑģÐ°Ð±Ð°ÒĽÑĤÑĭ":7676,"Ð»Ð°Ð²Ð½Ð°Ñı":7677,"Ð°ÑĢÐ´Ñĭ":7678,"ĠÑĦÐ¸Ð»Ð¸Ð°Ð»ÑĭÐ½ÑĭÒ£":7679,"ÐµÐ³ÑĸÐ½ÑĸÒ£":7680,"Ð³ÑĸÐ½Ð´ÐµÐ³Ñĸ":7681,"Ð´ÐµÐ¼Ð°ÒĽ":7682,"ĠÐºÒ¯Ð½ÑĸÐ½":7683,"Ð¸Ð¾Ð»Ð¾Ð³Ð¸ÑıÐ»ÑĭÒĽ":7684,"Ð¿ÐµÑģ":7685,"ÐłÐµÑģÐ¿ÑĥÐ±Ð»Ð¸Ðº":7686,"ĠÐ½ÐµÐ³iÐ·":7687,"ĠÐ¼Ò±ÑĢÐ°":7688,"ĠÑģÑĥÑĭÒĽ":7689,"ÑĸÒ£Ð´ÐµÑĢ":7690,"Ð¸ÒĽÐ°ÑĤ":7691,"Ð°ÑģÑĤÑĢ":7692,"ĠÐ±ÑĸÐ»ÑĥÑĸ":7693,"ĠÑĤÐ°Ð±Ð°Ð´Ñĭ":7694,"ÑĢÐ¸ÑĤÐµÑĢ":7695,"ĠÐ¶Ð°ÑĢÑĭÐ¼":7696,"Ġ1000":7697,"Ð±Ð°ÑģÑĭÐ½Ð°":7698,"ĠÒĽÑĭÑģÒĽÐ°ÑĪÐ°":7699,"ÐĲÐŁ":7700,"ÐŀÒĽÑĥÑĪÑĭÐ»Ð°ÑĢÐ´ÑĭÒ£":7701,"ĠÓĻÐ»ÐµÐ¼Ñĸ":7702,"ĠÐĲÑĢÐ°Ð»":7703,"ĠÐ¶Ð¸ÑĭÐ½ÑĤÑĭÒĽ":7704,"67":7705,"Ð¡Ð¾Ð½Ð´ÑĭÒĽÑĤÐ°Ð½":7706,"ĠÐ¿Ð°ÑĢÑĤÐ¸ÑıÑģÑĭÐ½ÑĭÒ£":7707,"ĠÐ¶ÐµÑĤÐºÑĸÐ·Ð³ÐµÐ½":7708,"ĠÓ©ÑģÑĸÐ¼Ð´ÑĸÐºÑĤÐµÑĢ":7709,"ĠÐ°ÑĥÐ·":7710,"Ð¶Ðµ":7711,"ÑĤÐµÒ£Ð³Ðµ":7712,"ĠÐ°ÑĢÐ´Ð°Ð³ÐµÑĢÐ»ÐµÑĢ":7713,"ĠÐĲÐºÐ°Ð´ÐµÐ¼":7714,"ĠÐ°Ð¹Ð´Ð°":7715,"ĠÐ±Ð°Ð»Ð°Ð»Ð°ÑĢÑĭ":7716,"ĠÐ±Ð°ÒĵÑĭÑĤÑĤÐ°ÒĵÑĭ":7717,"ĠÐĿÒ±ÑĢÑĤÐ°Ñģ":7718,"ĠSp":7719,"ĠÐºÐ¾Ð´ÐµÐºÑģÑĸÐ½ÑĸÒ£":7720,"Æı":7721,"ĠÐ¢Ð¾Ð»":7722,"ĠÐ¶ÑĸÐ±ÐµÑĢÐ³ÐµÐ½":7723,"ĠÐ±ÑĸÐ»Ð´ÑĸÑĢÑĸÐ¿":7724,"Ð¾Ð²Ð¾":7725,"ĠÐ¢Ò±ÑĢÒĵÑĭÐ½":7726,"ĠÐ¼Ð¾Ð´":7727,"Ð¾Ò£ÒĵÐ¾Ð»":7728,"ĠÐ¼Ð°ÒĽÑģÐ°ÑĤÑĤÑĭ":7729,"ĠÐ¼Ð°ÑĤÐµÑĢÐ¸Ð°Ð»Ð´Ð°ÑĢÐ´Ñĭ":7730,"ĠÐ¢Ðĸ":7731,"ĠÐļÓ©ÐºÑĪÐµÑĤÐ°Ñĥ":7732,"ĠÐ¿ÑĢÐ¾Ð²Ð¸Ð½":7733,"43":7734,"ĠÐ¼Ð°ÒĵÑĭÐ½Ð°ÑģÑĭ":7735,"Ġ120":7736,"Ð¾Ð²Ð¸Ñĩ":7737,"ĠÐµÒ£Ð±ÐµÐºÐºÐµ":7738,"Ð»Ð¾":7739,"Ò±Ð¼ÑĭÑĢ":7740,"69":7741,"ĠÑĭÐ»":7742,"ĠÐ±Ð¸ÑĢÐ¶":7743,"ĠÐ¡Ò±ÑĢ":7744,"ĠÐºÓ©Ð¿ÑĸÑĢ":7745,"ĠÐ°ÑĢÑĭ":7746,"ĠÒļÐ¾ÑĢÒĵÐ°Ð½":7747,"ĠÑĢÐµÑģÐ¿ÑĥÐ±Ð»Ð¸ÐºÐ°":7748,"ĠÐľÑĭÑģ":7749,"ÐĳÐµÑĢ":7750,"ĠÑĤÒ¯Ðº":7751,"ĠÓ©ÑĤÐºÑĸÐ·Ð³ÐµÐ½":7752,"ÐĸÐ°ÑģÑĤÐ°ÑĢ":7753,"ĠÐ¡Ð¸ÑĢ":7754,"ĠÐ¶Ð¾Ð»Ð´Ð°Ñĥ":7755,"ĠÓĺÐ¹ÐµÐ»":7756,"ĠÐºÐµÐ»ÐµÑĢ":7757,"ĠÐ¡ÑĤÑĥÐ´ÐµÐ½ÑĤ":7758,"Ð¡Ð¾Ð»ÑĤÒ¯ÑģÑĤÑĸÐº":7759,"ÐºÑĸÐ½ÑĸÑĪÐºÐµ":7760,"ĠÐ°Ð´":7761,"Ð¡Ñĥ":7762,"Ð°ÒĽÒĽÐ°":7763,"Ð¼ÑĥÐ½Ð°Ð»Ð´ÑĭÒĽ":7764,"Ð¶Ò±Ð¼ÑĭÑģ":7765,"ĠÑĤÐ°Ð±ÑĥÒĵÐ°":7766,"ĠÐ°Ð»ÑĥÐ´ÑĭÒ£":7767,"ĠÒ¯Ð¹Ð»ÐµÑģ":7768,"ĠÐ¼iÐ½Ð´":7769,"ĠÑĢÓĻÐ¼ÑĸÐ·":7770,"ĠÒĽÐ¾ÑĢÑĭÒĽ":7771,"ĠÐ¶ÐµÑĤÑĸÐ»Ð´ÑĸÑĢ":7772,"ĠÒĽÒ±ÑĢÑĭÐ»ÑĤÐ°Ð¹":7773,"ĠÐµÑĢÐµÐ¶ÐµÐ»ÐµÑĢÑĸÐ½":7774,"ĠÐºÒ¯ÑĤÑĥ":7775,"ĠÐ·Ð°ÒĽÑĭÐ¼":7776,"Ð¾Ð²Ð½Ð°":7777,"Ð¿ÐµÐºÑĤ":7778,"ĠÐ±Ð°ÑĢÑĪÐ°":7779,"ĠÐ¶Ð°ÒĵÐ´Ð°Ð¹Ð»Ð°ÑĢÐ´Ñĭ":7780,"ĠÒĽÒ±Ð½ÑĭÐ½":7781,"ÐĳÐĲ":7782,"ĠÒĵÐ°ÑģÑĭÑĢÐ»Ð°ÑĢ":7783,"ĠÐĺÐ½ÑĤÐµÑĢÐ½ÐµÑĤ":7784,"ĠÐºÓ©ÑĢÐ½ÐµÐºÑĤÑĸ":7785,"ÐºÐµÑĢÐ´ÑĸÒ£":7786,"ap":7787,"ĠÐ³Ð¸Ð¼Ð½":7788,"ĠÐ¸Ð½ÑĤÐµÐ³ÑĢ":7789,"ĠÐ¿Ð¾Ð¹ÑĭÐ·":7790,"ÐµÐ±Ð°ÐµÐ²":7791,"Ð´Ð°ÑĢÐ¸Ñı":7792,"ĠÐ±Ð°ÑĢÐ»ÑĭÒĵÑĭÐ½":7793,"ĠÑĪÐ°ÒĽÑĭÑĢÑĥ":7794,"ĠÐ¾ÑĢÑĭÐ½Ð´Ð°Ð¹Ð´Ñĭ":7795,"ĠÐ¶Ð°ÒĽÑĭÐ½Ð´Ð°":7796,"ÒĽÐ°Ð»ÑĭÐ¿":7797,"ĠÐļÑĥ":7798,"ĠÐ¶Ð°ÒĵÑĭ":7799,"ĠÑĤÒ±ÑĢÐ¼ÑĭÑģÑĤÑĭÒĽ":7800,"Ð¹ÑĭÐ¼Ð´Ð°ÑģÑĤÑĭÑĢÑĥ":7801,"ĠÐ°Ð³ÐµÐ½ÑĤÑĤÑĸÐ³ÑĸÐ½ÑĸÒ£":7802,"Ð·ÐµÑĢ":7803,"ĠÐºÑĥÑĢÑģÑĤÐ°ÑĢ":7804,"ĠÐ°ÑĤÑĤÐ°Ð½":7805,"ĠÐ°Ð·Ð°Ð¼Ð°ÑĤÑĤÐ°ÑĢÑĭ":7806,"ÐŁÐ°ÑĢ":7807,"ÐĲÐ»Ð»Ð°":7808,"ĠÓ©Ð·ÑĸÒ£":7809,"ĠÐ°Ð½Ð°Ð»Ð°ÑĢ":7810,"ĠÑĤÒ±ÑģÐ°Ñĥ":7811,"ĠÒĽÐ°Ð»ÑĭÐ¿ÑĤÐ°ÑģÑĥ":7812,"ÑĪÐµÑĪ":7813,"Ð¸ÑģÑĤÐ¸ÐºÐ°":7814,"ÑĤÐ°Ð¿ÒĽÑĭ":7815,"ĠÐĲÐ»ÐµÐºÑģÐ°Ð½Ð´ÑĢ":7816,"ÑģÑĸÐ½Ðµ":7817,"ĠÒĽÑĥÐ°ÑĤÑĤÑĭ":7818,"ĠÒĽÐ°Ð¶ÐµÑĤÑĤÑĸÐ»ÑĸÐ³Ñĸ":7819,"ÐµÐ¹Ð¼ÑĸÐ·":7820,"ĠÐºÐ¾Ð½ÑģÑĤÐ¸ÑĤÑĥ":7821,"ĠÓĻÐ¹Ð³ÑĸÐ»Ñĸ":7822,"Ð¼Ò±Ð½":7823,"Ð¼Ð°Ð¼":7824,"Ð°ÑĤÐ¾ÑĢÐ»Ð°ÑĢ":7825,"ÑĭÒ£Ð°":7826,"ĠÐ¶ÐµÑĢÑĸÐ½Ðµ":7827,"Ð³ÑĢÐ¾":7828,"Ð»Ð°Ð½Ð´":7829,"ĠÓ©ÑģÑĸÑĢ":7830,"ĠÓĻÐ´ÐµÐ±Ð¸ÐµÑĤÑĤÐµÑĢ":7831,"Ð¹ÑĭÑĢ":7832,"ĠÐ¶Ò¯ÑĢÐ³ÑĸÐ·Ð³ÐµÐ½":7833,"ĠÐ¶Ð°Ð±Ð´ÑĭÒĽÑĤÐ°ÑĢ":7834,"ĠÐºÒ¯ÑĪÐµÐ¹ÑĤÑĥ":7835,"ĠÑģÒ±ÑĢÐ°ÒĽÒĽÐ°":7836,"ĠÐ¾ÑĤÑĭÑĢÒĵÑĭÐ·":7837,"ĠÐ¶Ð°ÒĵÐ´Ð°Ð¹ÑĭÐ½Ð°":7838,"ĠÐºÐµÒ£Ñģ":7839,"ÑĭÐ½Ð°Ð½Ñĭ":7840,"ĠÐ¾Ð»Ð¸Ð¼Ð¿Ð¸Ð°Ð´":7841,"ĠÒĽÐ°Ð¶ÐµÑĤÑĸ":7842,"ĠÐ°Ð³ÑĢÐ¾":7843,"ÐķÐ¢Ð¢ÐĨÐļ":7844,"ÑĤÐ¸Ð½":7845,"ĠÐ±Ò±Ð¹ÑĢÑĭÒĵÑĭÐ¼ÐµÐ½":7846,"ÐĶÐ°ÑĢ":7847,"Ó©ÑĢÑĸ":7848,"Ð¢ÐµÐ³":7849,"ĠÐ¾ÒĽÐ¸ÒĵÐ°Ð»Ð°ÑĢ":7850,"ÑģÑĸÐ¼Ð´ÑĸÐº":7851,"ĠÑĦÐµÑĢ":7852,"ĠÐ´ÐµÒ£Ð³ÐµÐ¹ÑĸÐ½Ðµ":7853,"Ò»Ð°ÑĢ":7854,"ĠÐ±Ð°Ð½ÐºÑĤÑĸÐº":7855,"Ġ1999":7856,"Ò¯ÑĤ":7857,"ĠÐĸÐ°ÒĽÑģÑĭ":7858,"ĠÐ¢Ð¾":7859,"ĠÐ¶Ð¾Ð±Ð°Ð½ÑĭÒ£":7860,"ĠÐ±Ð°ÑĥÐ»Ñĥ":7861,"ĠÑĤÒ±ÑĢÐ´Ñĭ":7862,"ÑĪÑĭÐ»Ð°ÑĢÑĭÐ½ÑĭÒ£":7863,"ÐĨÐĿÐĨÒ¢":7864,"78":7865,"âĸ":7866,"ĠÐ¼Ð¸ÐºÑĢÐ¾":7867,"ĠÐ±ÑĸÐ·Ð´Ñĸ":7868,"Ð¾Ð±Ð»":7869,"ĠÐ³ÑĥÐ¼Ð°Ð½Ð¸ÑĤÐ°ÑĢÐ»ÑĭÒĽ":7870,"ĠÓĺÐ±ÑĸÑĪ":7871,"ĠÐºÐ¾Ð¼Ð¿ÑĮÑİÑĤÐµÑĢÐ»ÑĸÐº":7872,"ÒĽÑĭÑĤ":7873,"2010":7874,"ÐĵÐ»Ð°Ð²Ð½Ð°Ñı":7875,"ĠÐļÓ©ÑĪ":7876,"ĠÐ½Ò±ÑģÒĽÐ°ÑģÑĭ":7877,"ĠÑĤÐ¾Ð·":7878,"ÐĲÑĤÐ°Ð»ÒĵÐ°Ð½":7879,"ÑĸÑģÑĤÐµÑĢÑĸ":7880,"ĠÐ¾Ð¹Ð»Ð°ÑĢÑĭÐ½":7881,"ĠÒĽÐ°Ð±ÑĭÐ»Ð´Ð°Ð¿":7882,"ÐµÑĦÐµÑĢ":7883,"ÑģÒ¯Ð¹":7884,"ÐļÐ¢":7885,"ĠÑģÐ¾ÒĵÑĭÑģÑĭ":7886,"ĠÐĸÐ°ÑģÑĤÐ°ÑĢ":7887,"ĠÐµÐ»Ð´ÐµÐ³Ñĸ":7888,"ÐĲÐ»Ð°ÑĪ":7889,"ĠÓ©Ð½Ð´ÑĸÑĢÑĸÑģÑĸ":7890,"ĠÐ°Ð»ÑĭÐ½Ð°Ð´Ñĭ":7891,"ÐµÐ»ÐµÐ½Ð´Ñĸ":7892,"ĠÒĽÐ°ÑĢÐ°Ò£ÑĭÐ·":7893,"ĠÐ±Ð°ÑıÐ½Ð´Ð°Ð¼":7894,"ĠÑģÑĸÐ»ÑĤÐµÐ¼ÐµÐ»ÐµÑĢ":7895,"ia":7896,"ĠÒĽÐ°Ð»Ð°Ð´Ð°":7897,"Ð¢ÐµÑĢ":7898,"ĠÐ¾Ð»Ð¸Ð¼Ð¿Ð¸Ð°Ð´Ð°":7899,"ĠÑĪÑĭÒĵÑĭÐ½Ð´Ð°ÑĢ":7900,"Ð¡Ð°ÑĢÑĭ":7901,"ĠÐ¶Ð¸ÑĭÑĢÐ¼Ð°":7902,"ĠÑģÐ°Ð¹ÑĤÑĭÐ½Ð°":7903,"Ð»ÐµÐºÑĤÑĥ":7904,"ĠÐ¼ÓĻÐ½ÑĸÐ½Ð´Ðµ":7905,"ĠÑĢÐµÐ¹ÑĤÐ¸Ð½Ð³":7906,"ĠÐ¾ÑĤÑĭÑĢÑĥ":7907,"ĠÐ´ÓĻÑĢÑĸÐ³ÐµÑĢÐ»ÐµÑĢ":7908,"ĠÐĲÑģÒĽÐ°ÑĢ":7909,"ĠÓĺÐ±Ð´Ñĸ":7910,"ĠÑįÐºÑģÑĤÑĢÐµÐ¼":7911,"ĠÐ¶ÐµÑĢÑĸÐ½":7912,"ĠÐ±Ð°Ð¹Ð»Ð°Ð½ÑĭÑģÑĭ":7913,"ĠÒĽÐ¾Ð½ÑĭÑģ":7914,"\\\\":7915,"Ð¸Ð¼ÐµÐ½ÑĤ":7916,"ĠÐºÓĻÑģ":7917,"ĠÒļÐ°Ð»Ð°":7918,"ĠÐ¼Ò±ÑĢÐ°ÒĵÐ°ÑĤ":7919,"ĠÐ·ÐµÑĢÐ´ÐµÐ»":7920,"ĠÐ¾ÑĤÑĭÑĢÐ´Ñĭ":7921,"Ð´ÐµÑĢÑĸÐ½ÐµÐ½":7922,"ĠÐ¾ÒĽÑĥÑĪÑĭÐ»Ð°ÑĢÑĭÐ½ÑĭÒ£":7923,"ĠÑĤÐ°ÒĽÑĭÑĢÑĭÐ¿ÑĤÑĭ":7924,"ĠÐ±Ò±ÑĢÑĭÑĪ":7925,"ĠÒ±ÑĢÐ¿Ð°ÒĽÒĽÐ°":7926,"ĠÐ½ÐµÒĵÒ±ÑĢÐ»ÑĭÐ¼":7927,"ĠÑģÒ±ÑĢÐ°Ð´Ñĭ":7928,"ĠÑģÐ°ÑĢÐ°Ð¿ÑĤÐ°Ð¼":7929,"ĠÓĻÑĢÒĽÐ°ÑĪÐ°Ð½":7930,"ĠÑģÐµÐ½ÑĸÒ£":7931,"ÒļÐ°Ð·Ð°ÒĽÑĤÑĭÒ£":7932,"ĠÐ´ÐµÐ¹ÑĤÑĸÐ½":7933,"ÑĭÑĤÑĥÑĪÑĭÐ»ÑĭÒĽ":7934,"ĠÐ°ÑĤÒĽÐ°ÑĢÑĭÐ¿":7935,"ĠÐ¶Ð°Ð»ÒĵÐ°ÑģÑĤÑĭÑĢÑĥ":7936,"ĠÐ°ÑĢÑĤÑĥ":7937,"ĠÑģÓ©Ð·ÑĸÐ½Ð´Ðµ":7938,"Ð¼Ð°Ð½ÑĭÒ£":7939,"ÒĴÑĭÐ»ÑĭÐ¼Ð¸":7940,"ĠÐ°Ð»Ð°Ò£Ñĭ":7941,"ĠÐ¼Ð¸ÐºÑĢ":7942,"ĠÐĲÐ±ÑĭÐ»Ð°Ð¹":7943,"ĠÐ¶Ð°ÑģÑĤÐ°Ð½":7944,"ĠÒĽÒ±ÑĢÑĭÐ¿":7945,"ĠÑħÐ°Ð´":7946,"ĠÐ°ÑĪÑĭÐ»Ð°Ð´Ñĭ":7947,"ĠY":7948,"ÐµÑģÒĽÐ¾Ð¹":7949,"Ð¾ÑĢÐ´Ð°Ð½ÑĭÒ£":7950,"ĠÑĤÐ°Ð¿ÑģÑĭÑĢÐ¼Ð°Ð»Ð°ÑĢÐ´Ñĭ":7951,"ĠÐ¼Ð°ÑĤÐµÑĢÐ¸Ð°Ð»Ð´Ñĭ":7952,"ĠÑĤÐ°ÑĢÐ¸ÑħÑĭÐ½Ð´Ð°":7953,"ĠÑģÐ°ÑıÑģÐ°ÑĤÑĭÐ½ÑĭÒ£":7954,"ĠÒĽÐ°Ð½Ð°ÒĵÐ°ÑĤÑĤÐ°Ð½":7955,"ÐµÑĢÐ»ÐµÑĢÑĸ":7956,"ĠÑģÒ¯Ð¹ÑĸÐºÑĤÑĸ":7957,"ĠÒļÒ±ÑĢÐ¼Ð°Ð½":7958,"ĠÒĽÐ¾Ð·ÒĵÐ°Ð»ÑĭÑģ":7959,"Ð°Ò£ÑĭÐ·Ð´Ñĭ":7960,"ct":7961,"ĠÑģÐ°Ð¹ÑĭÑģ":7962,"ĠÐ°Ð·Ð°Ð¼Ð°ÑĤÑĤÑĭ":7963,"ĠÐºÑĸÑĤÐ°Ð±":7964,"ĠÓ©Ð·Ð´ÐµÑĢÑĸÐ½Ðµ":7965,"Ò®Ðł":7966,"ĠÒĽÐ¾Ð»Ð´Ð°ÑĥÑĭÐ¼ÐµÐ½":7967,"ĠÐ¶Ð°ÑĢÐ½Ð°Ð¼":7968,"ÑģÑĥÑĢÐµÑĤ":7969,"ÐŀÒĽÑĭÑĤÑĥ":7970,"Ð¼Ð°Ð»":7971,"ĠÐ²ÐµÐ»":7972,"ĠÐ¾ÑĢÑĤÐ°Ð»ÑĭÒĵÑĭÐ½Ð°":7973,"ĠÐ¡ÐºÐ°ÑĩÐ°ÑĤÑĮ":7974,"ÑĤÓĻÑĢÐ±Ð¸Ðµ":7975,"ÑĭÐ½ÒĵÐ°Ð½":7976,"ÒļÐĲ":7977,"ĠÐ°Ð¹Ð´ÑĭÒ£":7978,"ĠÑģÐ°Ð»ÑĭÐ½Ð´Ñĭ":7979,"ÒļÐ¾ÒĵÐ°Ð¼Ð´ÑĭÒĽ":7980,"ĠÑģÐ°Ð»Ð°ÑĥÐ°ÑĤÑĤÑĭ":7981,"ĠÐºÓ©ÑĢÑģÐµÑĤÑĸÐ»Ð´Ñĸ":7982,"ĠÑĤÐ¸ÑĸÐ¼Ð´ÑĸÐ»ÑĸÐ³Ñĸ":7983,"ĠÑħÐ¾Ð»":7984,"ĠÑĤÐ°Ð»Ð°Ð±ÑĭÐ½Ð°":7985,"ĠÐĵÐµ":7986,"ÐĲÐłÐ«":7987,"ĠÐ¶ÓĻÑĢÐ´ÐµÐ¼Ð°ÒĽ":7988,"ÐķÑģÐºÐµ":7989,"ĠÐ´ÐµÐ½ÑģÐ°ÑĥÐ»ÑĭÒĵÑĭÐ½Ð°":7990,"ĠÒĽÐ°Ð¼ÒĽÐ¾ÑĢÐ»ÑĭÒĽ":7991,"ÐµÐ»ÑĸÐºÑĤÐµÐ½":7992,"ĠÒĽÒ±ÑĪ":7993,"ÐĨÐ»Ð¼ÐµÐº":7994,"ĠÒ¯Ð¹Ð»ÐµÐ½":7995,"ÐºÑĸÐ¼ÐµÐ½":7996,"ĠÐºÒ¯ÑĪÑĸÐ½":7997,"Ð´ÑĭÒĵÑĭÐ½ÑĭÒ£":7998,"ĠÐ¾ÑĢÑĭÐ½Ð´Ð°Ð»ÑĥÑĭÐ½":7999,"ĠÐ±ÐµÐ»ÑģÐµÐ½":8000,"ĠÑĪÐ°ÒĽÑĭÑĢÐ´Ñĭ":8001,"Ð°Ð»Ð°ÒĽ":8002,"ÒĽÐ°ÑģÑĭ":8003,"ĠÐ¿Ð°Ð¹ÒĵÐ°Ð¼Ð±Ð°ÑĢ":8004,"ĠÐ¼Ò±Ð½Ñĭ":8005,"ÒļÐ°Ð·Ð°ÒĽÑģÑĤÐ°Ð½Ð´Ð°ÒĵÑĭ":8006,"ĠÐ±ÑĸÐ»Ð´ÑĸÑĢÐ³ÐµÐ½":8007,"ÒĽÐ°Ð¹Ð´Ð°":8008,"ÐĽÐķÐļ":8009,"ĠÑģÐ¸Ð¿Ð°ÑĤÑĤÐ°Ð¼":8010,"ĠÒĽÐ°Ð¹Ð´Ð°Ð½":8011,"ÑģÐµÑĢÐ²":8012,"ĠÐ¶ÐµÐ»ÑĸÑģÑĸ":8013,"ĠÐºÓ©ÑĢÑĸÐ½ÑĸÑģÑĸ":8014,"ĠÐ»Ð¾Ð³Ð¸ÐºÐ°Ð»ÑĭÒĽ":8015,"Ð¢ÐµÑħÐ½":8016,"ĠÐłÐµÑģÐ¿ÑĥÐ±Ð»Ð¸ÐºÐ°":8017,"ĠÑĤÓĻÐ»ÑĸÐ¼":8018,"ĠKazakh":8019,"ĠÐ°ÑĢÑħÐ¸Ð²":8020,"ĠÐ°ÑĥÑĭÐ·ÑĪÐ°":8021,"ĠÐ½ÐµÐ¼ÐµÑĢ":8022,"Ð´Ð°Ð¹Ñĭ":8023,"ĠÐ¼ÑĸÐ½Ðµ":8024,"ĠÓĻÑĥÐ»":8025,"Ð¸Ð·Ð¸ÐºÐ°":8026,"ĠÐ°ÑĪÑĤÑĭ":8027,"ĠÐºÐ¾Ð¾Ð¿ÐµÑĢ":8028,"ĠÐºÐµÐ»Ð¼":8029,"ÐŀÐĿ":8030,"news":8031,"ĠÓĺÐ´ÐµÐ±Ð¸":8032,"ĠÑĤÐ°Ð¿ÑģÑĭÑĢÑĥ":8033,"ĠÐ±Ð°Ð·Ð°ÑģÑĭÐ½Ð´Ð°":8034,"ĠÐ¿Ð°ÑĢÐ°Ð¼ÐµÑĤÑĢ":8035,"ĠÑĤÐ°Ð½ÑĭÐ¿":8036,"ĠÐ¾ÑĤÐ±Ð°ÑģÑĭÐ½ÑĭÒ£":8037,"ĠÐ¾ÑĢÑĭÐ½Ð±Ð°ÑģÐ°ÑĢ":8038,"Ð°ÑĢÐ¸Ñı":8039,"ĠÑĪÓ©Ð¿":8040,"ÑģÐµÒ£":8041,"Ð³ÑĸÑģÑĸ":8042,"ÐµÑĤÑĸÐ½ÑĪÐµ":8043,"ĠÐŀÐ»Ð°Ð¹":8044,"ĠÑĤÐ¸Ð³ÑĸÐ·ÐµÐ´Ñĸ":8045,"ĠÐ¢Ó©ÑĤÐµÐ½ÑĪÐµ":8046,"ĠÐ±Ð°ÑģÑĪÑĭ":8047,"ĠÓ©Ð¼ÑĸÑĢÐ»ÑĸÐº":8048,"Ġ99":8049,"ÐµÐ»ÐµÐ½Ð´ÑĸÑĢÑĥ":8050,"Ð°Ð¼Ð°Ð¹":8051,"ĠÐ±ÐµÑĢÑĸÐº":8052,"ÐµÑĢÐ»ÐµÐ¿":8053,"ĠÐľÐ¾Ð»":8054,"ĠÐ¶ÐµÑĤÐºÑĸÐ·Ðµ":8055,"AR":8056,"ĠÐ´Ð°ÑĢÐ°":8057,"Ð¸ÑĢÑĥÑĢÐ³":8058,"Ð²Ð¾Ð»":8059,"ĠÐ°Ð·Ð°Ð¹":8060,"ĠÐĳÐ°Ð¹ÑĤÒ±ÑĢÑģÑĭÐ½":8061,"ĠÐºÐµÑĢÑĸÑģÑĸÐ½ÑĪÐµ":8062,"ĠÐľÐ¾Ð½":8063,"iÐ»iÐ¼":8064,"ĠÑģÑĤÑĥÐ´ÐµÐ½ÑĤÑĤÐµÑĢÐ´ÑĸÒ£":8065,"ĠÐ¿ÑĢÐ¾Ð²Ð¸Ð½ÑĨÐ¸Ñı":8066,"Ð¡Ð°Ð»ÑĭÒĽ":8067,"ĠÐ³Ð°Ð·ÐµÑĤÑĸÐ½ÑĸÒ£":8068,"ĠÓ©Ð»ÑĪÐµÑĥ":8069,"Ð°ÑĥÐ½":8070,"ĠÑĤÐ¾Ð¿ÑĤÐ°ÑĢ":8071,"ĠÑĤÒ¯Ð½Ð´Ðµ":8072,"Ò¯Ð»ÐµÐ¹Ð¼ÐµÐ½":8073,"ĠÐ¡Ð°ÒĵÑĭÐ½ÑĤÐ°ÐµÐ²":8074,"ÑĤÑĤÑĭÒ£":8075,"ÒĽÑĭÑģ":8076,"ĠÐ¿Ð»":8077,"ĠÑĤÐ¾Ð»ÑĤÑĭÑĢÑĥ":8078,"ÐĶÒ¯Ð½Ð¸":8079,"ĠÑĪÐµÑĪÑĸÐ¼ÑĸÐ¼ÐµÐ½":8080,"Ð¸ÑĢÐ¾Ð²":8081,"ĠÑĪÐµÐºÑģÑĸÐ·":8082,"ĠÐ¶Ò¯Ð»":8083,"ĠÐ¶Ò±Ð¼ÑĭÑģÑģÑĭÐ·":8084,"ĠÒĽÐ°ÑģÐ¸ÐµÑĤÑĤÐµÑĢÑĸÐ½":8085,"ĠÐŀÐ¼Ð°ÑĢ":8086,"ĠÑĤÑĸÐ»Ð´ÑĸÒ£":8087,"ĠÐ¸Ð½Ð´":8088,"ĠÐ¾Ð½ÑĭÐ¼ÐµÐ½":8089,"ĠÐķÑĥÑĢÐ°Ð·Ð¸ÑıÐ»ÑĭÒĽ":8090,"ĠÑĦÑĥÐ½ÐºÑĨÐ¸Ð¾Ð½":8091,"ĠÑĢÐµÐ³Ð»Ð°Ð¼ÐµÐ½ÑĤ":8092,"ĠÐºÐµÑģÑĤÐµ":8093,"ĠÐ°Ð¹Ñĭ":8094,"ĠÐ±Ð°Ð·Ð°ÑĢ":8095,"ÐķÐĴ":8096,"ĠÐ¶Ð¾ÑģÐ¿Ð°ÑĢÐ»Ð°Ð¿":8097,"Â·":8098,"ĠÒĽÒ±ÑĢÐ±":8099,"ĠÐ±Ð°ÒĵÐ°Ð»Ð°Ð½":8100,"ĠÐºÓ©Ð·Ð³Ðµ":8101,"ÑģÐ¸ÑħÐ¾Ð»Ð¾Ð³Ð¸ÑıÐ»ÑĭÒĽ":8102,"ĠÒĴÐ°Ð»ÑĭÐ¼":8103,"ĠJ":8104,"ÒļÐľÐ£":8105,"ĠÓ©ÑģÐµÐ´Ñĸ":8106,"ĠÐ¼ÐµÐ¼Ð»ÐµÐºÐµÑĤÑĤÐµÑĢÐ´ÑĸÒ£":8107,"%,":8108,"ĠÑģÐµÐ¼":8109,"ĠÒĽÐ°ÑĤÐµÐ»ÑĸÐº":8110,"ÐµÐ¹Ñģ":8111,"ÐµÐ³ÑĸÐ¼":8112,"ĠÐĺÓĻ":8113,"Ð±ÐµÐ³ÐµÐ½":8114,"ĠÐľÒ¯":8115,"ĠÐºÓ©ÑĪÑĸÑĢ":8116,"ĠÓĻÑĢÐµÐºÐµÑĤÑĸ":8117,"ĠÑĢÐ°ÑģÑĤÐ°Ð¹ÑĤÑĭÐ½":8118,"ĠÑĥÐ°ÒĽÑĭÑĤÑĭÐ½":8119,"Ð¾Ð·Ñĭ":8120,"ĠÐ¶ÑĸÐº":8121,"ĠÐ¾Ð¹ÑĭÐ½Ð´Ð°ÑĢÑĭ":8122,"Ð°Ð»ÒĵÐ°ÑĪÒĽÑĭ":8123,"ĠÐºÐµÐ»ÑĥÑĸ":8124,"ĠÐ¿ÑĢÐµÐ¼ÑĮÐµÑĢ":8125,"ĠÐ¶Ð¾ÑģÐ¿Ð°ÑĢÐ»Ð°Ð½":8126,"ĠÒĽÒ±Ð½Ð´ÑĭÐ»ÑĭÒĽÑĤÐ°ÑĢ":8127,"ĠÐ¼ÐµÑĢÐ·ÑĸÐ¼Ð´Ðµ":8128,"58":8129,"ĠÑĤÑĥÑĭÐ½Ð´Ð°ÒĵÐ°Ð½":8130,"ĠÑĤÐ°ÑĥÐ°ÑĢÐ»Ð°ÑĢÐ´Ñĭ":8131,"ĠÐ°ÑģÑĤÐ°Ð½Ð°ÑģÑĭ":8132,"ÓĻÐ»ÐµÐ¼":8133,"ĠÒ±ÑģÐ°ÒĽ":8134,"ÑģÐ°ÑĢÐ¸Ð½":8135,"asy":8136,"ĠÐ¶ÑĭÐ»Ð¶":8137,"ĠÐ·Ð°Ò£ÒĵÐ°":8138,"66":8139,"ĠÒļÐ°Ð±":8140,"Ð»i":8141,"ĠÐ°ÑĢÑħÐµ":8142,"Ð»Ð°ÑĢÑĭÐ¼ÐµÐ½":8143,"ÐµÑģÑĤÑĸÐ³Ñĸ":8144,"Ð°Ð¼Ð°Ð·Ð°Ð½":8145,"ĠÐ°ÑĥÑĭÐ»ÑĭÐ½ÑĭÒ£":8146,"ÐĵÐ°Ð·":8147,"ĠÐ¶Ð°ÑĢÐ°ÒĽÐ°ÑĤ":8148,"ĠÐ±Ð°Ð¹Ð»ÑĭÒĽ":8149,"ĠÑĤÑĸÑĢÐºÐµ":8150,"ĠÐ°ÒĽÑĪÐ°Ð½Ñĭ":8151,"dows":8152,"ĠÒĽÑĥÐ°ÑĤ":8153,"ĠÐ¸Ð³":8154,"ÑģÑĭÐ·Ð´Ð°Ð½Ð´ÑĭÑĢÑĥ":8155,"ĠÐ±Ð°ÒĵÑĭÑĤÑĭÐ½Ð´Ð°":8156,"Ð¶ÐµÑĤÐºÐµÐ½":8157,"ĠÐķÐ½Ð´ÐµÑĪÐµ":8158,"ĠÐ±Ò¯Ð»Ð´ÑĸÑĢ":8159,"ĠÒĽÒ±ÑĢÑĭÐ»ÑĭÑģÑĭÐ½":8160,"ĠÐ¾ÑĤÐ±Ð°ÑģÑĭÐ»ÑĭÒĽ":8161,"up":8162,"Ġa":8163,"ĠÑĤÓĻÑĢÐ±Ð¸ÐµÐ»ÐµÐ½":8164,"ĠÐ¾ÒĽÐ¸Ð´Ñĭ":8165,"ĠÐ¶ÑĭÐ½ÑĭÑģÑĤÑĭÒĽ":8166,"ĠÑĤÐ¾Ð½Ð½":8167,"Ð»Ð°ÑĢÐ°ÑĨÐ¸Ñı":8168,"ĠÐ¡Ð°Ð¿Ð°ÑĢ":8169,"ĠÒĽÐ°ÑĥÑĸÐ¿ÑģÑĸÐ·Ð´ÑĸÐ³ÑĸÐ½":8170,"ÑĦÐ¾ÑĢÐ¼Ð°ÑĤÐ¸ÐºÐ°":8171,"ĠÐ¿Ð°ÑĤÑĢÐ¸Ð¾ÑĤÑĤÑĭÒĽ":8172,"ĠÐ°Ð±ÑĭÑĢÐ¾Ð¹":8173,"ĠÑĢÓĻÑģÑĸÐ¼Ñĸ":8174,"ĠÑģÓĻÐ¹ÐºÐµÑģÑĤ":8175,"ĠÐ±ÐµÐ¹Ð±ÑĸÑĤÑĪÑĸÐ»ÑĸÐº":8176,"ĠÑĭÑĢ":8177,"ĠÓ©Ð·Ð´ÐµÑĢÑĸÐ½":8178,"Ð¢Ð°Ñĥ":8179,"ĠÐ¸Ð³Ñĸ":8180,"ĠÑĤÐ°Ð»Ð°Ð¿ÑĤÐ°ÑĢÒĵÐ°":8181,"ĠÐĸÐ¾Ð±":8182,"ÒĽÐ°Ð¹ÑĤÐ°":8183,"Ð°ÑĤÐ¾ÑĢÑĭ":8184,"ĠÐ¶Ó©Ð½iÐ½Ð´ÐµÐ³i":8185,"ĠÐĳÐ°ÑģÑĤÐ°ÑĥÑĭÑĪ":8186,"Ġ1995":8187,"ĠÐ¸Ð¼Ð¿ÐµÑĢ":8188,"ĠÐ°ÑĥÑĢÑĥÑħÐ°Ð½Ð°ÒĵÐ°":8189,"ÐºÐ°Ð½":8190,"Ð´ÑĭÐ»ÑĭÒĽ":8191,"ĠÐ±Ð°ÑģÐ¿":8192,"ĠÐ°Ð¹ÑĤÑĭÐ»Ð´Ñĭ":8193,"ĠÓ©Ò£ÑĸÑĢÐ»ÐµÑĢ":8194,"ÒĽÐ¾Ò£ÑĭÑĢ":8195,"Ð¸Ð±":8196,"ĠÐ°ÐºÑĨÐ¸ÑıÑģÑĭ":8197,"ĠÑĸÐ½":8198,"ĠÑĪÑĭÒĵÑĭÑģÑĤÐ°ÑĢ":8199,"ĠÑĤÒ±ÑĢÒĵÑĭÐ·":8200,"ĠÐ¿ÑĸÐºÑĸÑĢÑĸÐ½":8201,"News":8202,"ÐµÑĤÑģÑĸÐ·":8203,"Ð´ÑĭÒĽÑĤÑĭÒ£":8204,"ĠÐ±ÑĸÐ»ÐµÑģÑĸÒ£":8205,"ÑĭÑģÑĤÐ°ÑĢÑĭÐ½":8206,"Ð¢Ò±ÑĢÒĵÑĭÐ½":8207,"ĠÑĤÐ°ÑĢÑĤÑĤÑĭ":8208,"ĠÐ±Ð°ÒĵÐ´Ð°ÑĢÐ»Ð°Ð¼Ð°Ð»Ð°ÑĢÑĭ":8209,"ĠÐĸÑĸÐ±ÐµÐº":8210,"ĠÐ¨Ð²":8211,"ĠÐºÐµÐ»ÑĸÑģÑĸÐ¼Ð³Ðµ":8212,"Ð¸ÑĪ":8213,"ĠÐ¼Ð°Ð¼ÑĭÑĢÐ´Ð°":8214,"ÐµÐ»Ð´Ñĸ":8215,"ĠÐ¶ÑĭÐ»Ð´ÑĭÒĵÑĭ":8216,"ÑģÐµÑĢÑĥ":8217,"ĠÐ±Ð¾Ð»Ð´ÑĭÐ¼":8218,"ĠÐ¶Ð°ÒĵÑĭÐ¼Ð´Ñĭ":8219,"ĠÐ°ÑĥÒĽÑĭÐ¼":8220,"ĠÐºÐµÑĢÐµÐºÑĤÑĸ":8221,"ĠÐ´Ð¸Ð¿Ð»Ð¾Ð¼Ð°ÑĤ":8222,"ĠÐ¿ÐµÐ´Ð°Ð³Ð¾Ð³Ð¸ÐºÐ°":8223,"ĠÐ°ÑĢÑĤÑĭÒĽÑĪÑĭÐ»ÑĭÒĽ":8224,"ĠÐĳÓ©Ð»":8225,"ÐĳÐĳ":8226,"ĠÑĤÒ¯ÑģÑĸÐ½ÑĸÐºÑĤÑĸ":8227,"ĠÒļÐ°Òĵ":8228,"ĠÐĸÒ¯ÑĢ":8229,"ĠÑģÐµÐºÑģ":8230,"ĠÐ±Ð°ÑģÑĤÐ°Ð¼Ð°":8231,"ĠÐļÐ°Ð·":8232,"ĠÐ¾Ð¹Ð»Ð°Ð½":8233,"ĠÒ±Ð¼Ñĭ":8234,"stana":8235,"ÐĸÐ°Ð»":8236,"ĠÐ¼ÐµÑĢÐ·ÑĸÐ¼Ð³Ðµ":8237,"ĠÐµÐ³ÑĸÐ½":8238,"ĠÐ°Ð»Ð°Ð¼ÑĭÐ½":8239,"ĠÑģÐ°Ð»ÑĤÑĭÐ½":8240,"Ó¨ÑĢ":8241,"indows":8242,"ÑĭÐ¹":8243,"ÐµÑģÐµÐ¿":8244,"ĠÐ±Ð°ÑģÐ¿Ð°":8245,"ÑĤÑĭÐ»ÑĭÐ¿":8246,"ĠÐĳÐ°ÒĽÑĭÑĤÐ¶Ð°Ð½":8247,"ĠÐ¼Ð°ÒĵÑĭÐ½Ð°":8248,"ĠÒļÐ°Ð¶":8249,"ĠÐµÑĢÑĤÐµÐ³Ñĸ":8250,"Ó¨Ð½ÐµÑĢ":8251,"ĠÐĴÐ»Ð°Ð´Ð¸Ð¼Ð¸ÑĢ":8252,"ÑĤÐ°ÑĢÐ¼Ð°ÒĵÑĭÐ½ÑĭÒ£":8253,"ĠÓ©ÑģÑĸÐ¼":8254,"Ð¸ÑĤÑĢ":8255,"ĠÐ±ÐµÑĤÑĸÐ½Ð´Ðµ":8256,"ĠÐļÐµÐ»ÐµÑģÑĸ":8257,"ĠÐĶÒ¯Ð½Ð¸ÐµÐ¶Ò¯Ð·ÑĸÐ»ÑĸÐº":8258,"ĠÐ¸Ð¿Ð¾ÑĤÐµÐº":8259,"ĠÒĽÑĭÑĪÒĽÑĭÐ»":8260,"ĠÐļÐ°ÑģÐ¿Ð¸Ð¹":8261,"ĠÑģÑĤÑĢÐ°ÑĤÐµÐ³Ð¸ÑıÑģÑĭ":8262,"Ò°ÑģÑĤÐ°Ð·":8263,"ĠÑĢÐµÑģÑĸÐ¼":8264,"ĠÑģÐ¿Ð¾ÑĢÑĤÑĪÑĭÐ»Ð°ÑĢ":8265,"ĠÐ¶Ð°Ð·ÒĵÑĭ":8266,"ÐµÑģÐº":8267,"ĠÐ¶Ò±Ð¼ÑĭÑģÑĤÐ°Ð½":8268,"Ð¶Ð°ÑĤÑĤÑĭÒĵÑĥ":8269,"Ò±Ð½":8270,"ĠÑĪÑĸÑĢ":8271,"ĠÐľÐ°Ð¼Ð°Ð½":8272,"ĠÐºÑĸÑĢÑĥ":8273,"ĠÐ±Ð¾Ð»ÑĥÑĭÐ½":8274,"ĠÑĤÐ°Ð»Ð°Ð¿ÑĤÐ°ÑĢÑĭ":8275,"ĠÐ±Ð¾ÐºÑģÑĪÑĭ":8276,"ĠÐ½Ð¾ÑĤÐ°ÑĢ":8277,"ĠÒĽÐ¾ÑģÑĤÑĭ":8278,"Ð¸Ð½Ð³Ð²":8279,"ĠÑģÐµÐ±ÐµÐ¿ÑĤÐµÑĢÑĸ":8280,"ĠÐľÐ°ÒĽÐ°Ð»":8281,"ĠÐĳÐ°ÑĤÑĭÑĢ":8282,"ĠÐŁÐ¾Ð»":8283,"ĠÓ©Ð¼ÑĸÑĢÑĸÐ½ÑĸÒ£":8284,"ĠÐºÑĸÑĢÐµÑĤÑĸÐ½":8285,"Ð´Ð°Ð½Ñĭ":8286,"ĠÐ¶Ð°ÑģÑĭÐ½Ð´Ð°":8287,"ĠÐ¶Ð¾Ð»Ð´Ð°":8288,"ĠÑĤÐ°Ð»Ð°Ð±Ñĭ":8289,"ĠÐ¶ÓĻÑĢÐ¼ÐµÒ£":8290,"Ð°ÑĢÐ¸Ð¹":8291,"Ð¤Ðŀ":8292,"ÐºÓ©Ð¿":8293,"ĠZ":8294,"Ð¢ÓĻÑĢÐ±Ð¸Ðµ":8295,"ÒĽÑĭÑģÑĭ":8296,"ĠÓĻÐ´":8297,"ĠÐ¶Ð°Ð½Ð´Ð°ÑĢ":8298,"ĠÐºÐµÑĪÐµ":8299,"ĠÑģÒ¯ÑĢÐ³ÐµÐ½":8300,"ĠÒĽÒ±ÑĤÑĤÑĭÒĽÑĤÐ°Ð´Ñĭ":8301,"Ġ42":8302,"ĠÐ±Ð°ÑĤ":8303,"ÐµÑģÑĸÐ½ÑĪÑĸ":8304,"ĠÐĲÐ¹ÑĤÐ°":8305,"ĠÐºÑĸÑĤÐ°Ð¿ÑĤÐ°ÑĢ":8306,"ĠÓĻÑĥÐµÐ¶Ð°Ð¹":8307,"ĠÒĽÐ¾Ð»Ð´Ð°Ð½Ð°Ð´Ñĭ":8308,"ÑĤÒ±ÑĤÐ°Ñģ":8309,"ĠÒĽÐ°Ð»ÑĭÐ¿ÑĤÐ°ÑģÑĤÑĭÑĢÑĥÒĵÐ°":8310,"Ð¾Ð³ÐµÐ½":8311,"ĠÐ°ÑĥÐ´Ð°Ð½Ð½ÑĭÒ£":8312,"ĠÐ¶Ð°ÑĤÑĤÑĭ":8313,"ĠÒļÐļ":8314,"ĠÐºÑĸÑģ":8315,"ĠÒĽÐ°ÑĢÐ°ÒĵÐ°Ð½":8316,"ĠÐ¿ÑĢÐ¾ÑĨÐµÑģÑĸÐ½Ð´Ðµ":8317,"ĠÒĽÐ°ÑģÐ¸ÐµÑĤÑĸ":8318,"ĠÑģÑĤÐ°ÑĤÐ¸ÑģÑĤÐ¸ÐºÐ°":8319,"ÒļÐ°ÑĢÐ°":8320,"ĠÐĸÐµÑĢÐ³ÑĸÐ»ÑĸÐºÑĤÑĸ":8321,"ÐĲÑĤÐ°Ð¼ÐµÐºÐµÐ½":8322,"ÑģÐµÒ£ÑĸÐ·":8323,"ĠÐ¼ÐµÒ£Ð³ÐµÑĢÐ³ÐµÐ½":8324,"ĠÒ°Ðļ":8325,"Ð¼Ð°ÑģÐ°":8326,"ĠÒĽÑĥÐ°Ð½":8327,"ĠÐºÓ©Ð·Ð´ÐµÑĢÑĸ":8328,"ĠÐ¶ÐµÑĤÐºÑĸÐ·ÑĥÐ³Ðµ":8329,"ÒĽÐ°Ð½Ð´Ñĭ":8330,"ĠÒĽÐ°Ð¼ÑĤ":8331,"ĠÐºÐµÒ£ÐµÐ¹ÑĤ":8332,"ĠÐĲÐ±Ð°Ð¹Ð´ÑĭÒ£":8333,"ĠÑģÑĤÑĢ":8334,"ĠÐ°ÒĵÐ°ÑĢÑĤÑĥ":8335,"ÑĤiÐº":8336,"ĠÐ¢Ð°Ð¹":8337,"ĠÓ©Ð·Ð´ÑĸÐ³ÑĸÐ½ÐµÐ½":8338,"Ð¢Ò¯":8339,"ĠÑĪÑĭÒĵÐ°ÑĢÐ°ÑĤÑĭÐ½":8340,"ĠÒļÐ°Ð·Ð°ÒĽÑĤÑĭÒ£":8341,"ĠÐ¼Ò¯Ð¼ÐºÑĸÐ½Ð´ÑĸÐºÑĤÐµÑĢÑĸÐ½":8342,"ĠÐ¶Ð°Ò£Ð±ÑĭÑĢ":8343,"ĠÐ¶Ð°ÑĢÐ¸ÑıÐ»Ð°Ñĥ":8344,"ĠÐ¼ÐµÐºÐµÐ½Ð¶Ð°Ð¹":8345,"ĠÒĽÑĥÐ°Ð½ÑĭÑĪÑĤÑĭ":8346,"ĠÐ°Ð¹ÒĵÐ°":8347,"ĠÐŀÐ»Ð°ÑĢÐ´Ñĭ":8348,"ĠÒĽÐ°ÑĢÐ°Ð¹Ð´Ñĭ":8349,"ĠÑĨÐ¸ÑĦÑĢÐ»ÑĭÒĽ":8350,"ĠÐ±Ð¾Ð»Ð°Ð¼ÑĭÐ·":8351,"ĠÑĤÐ°ÒĽÑĭÑĢÑĭÐ±ÑĭÐ½Ð°":8352,"ĠÐķÑģÐµÐ½":8353,"ĠÐ±Ò±Ð¹ÑĭÑĢ":8354,"ĠÐºÓ©Ð»ÐµÐ¼Ð´Ðµ":8355,"ĠÑĤÒ¯ÑĢÑĸÐ½Ðµ":8356,"ÑģÑĤÐµÑĢÑĸÒ£ÑĸÐ·Ð³Ðµ":8357,"ĠÐ´ÐµÑģÐµÐº":8358,"ĠÑĤÑĸ":8359,"ĠÐ°ÑĤÐ°Ð»ÑĭÐ¿":8360,"ÐŁÓĻÐ½":8361,"ĠÐ¾ÑĢÑĭÐ½Ð´Ð°Ð»ÑĥÑĭ":8362,"Ò£Ð³Ñĸ":8363,"ĠÐ¶Ð¾ÑģÐ¿Ð°ÑĢÐ»Ð°Ð½ÑĭÐ¿":8364,"ĠÐ´ÐµÒ£Ð³ÐµÐ¹ÑĸÐ½Ð´Ðµ":8365,"ĠÒ¯Ð»ÐµÑģÑĸÐ½":8366,"ĠÐ¶ÑĭÐ»Ð¶ÑĭÐ¼Ð°Ð¹ÑĤÑĭÐ½":8367,"Ð°Ð¹ÑģÑĭÐ·":8368,"Ð´ÑĭÑĢÐ´Ñĭ":8369,"ĠÐ¥Ð°Ð½":8370,"ĠÐ¶Ð°Ð»ÒĵÐ°ÑģÑĭ":8371,"Ð±Ð°Ð¿ÑĤÑĭÒ£":8372,"ĠÐ±ÐµÑĤÑĸÐ¼ÐµÐ½":8373,"ĠÑĤÒ±ÑĢÒĵÑĭÐ½Ð´Ð°ÑĢÐ´ÑĭÒ£":8374,"ĠÐ¿Ð°ÑĢÑĭÐ·":8375,"ĠÐ±ÑĸÑĢÑĪÐ°Ð¼Ð°":8376,"ĠÑģÐµÐ±ÐµÐ±":8377,"ĠÐ·Ð°Ò£Ð½Ð°Ð¼Ð°ÑģÑĭÐ½Ð´Ð°":8378,"ĠÒĽÐ°ÑĢÐ°ÑĪÐ°Ð´Ð°":8379,"ÐĽÐ«":8380,"ĠÐ±Ð¸Ð¾Ð»Ð¾Ð³Ð¸Ñı":8381,"ĠÒĽÐ°ÑĤÐ°ÑĢÑĭÐ½Ð°Ð½":8382,"ĠÐ¾ÑĢÐ½ÑĭÐ½Ð°Ð½":8383,"ĠÐµÑĢÐµÐºÑĪÐµÐ»ÐµÐ½":8384,"ĠÐ¢Ð°Ñģ":8385,"ĠÐ¶Ð¾Ð»Ð´Ð°Ð½":8386,"ĠÓ©Ð·Ð³ÐµÑĪÐµ":8387,"ÐķÑģÐµÐ¿":8388,"ÑĤÐ°Ð¿ÑģÑĭÑĢ":8389,"ĠÐ±Ò±Ð·Ñĥ":8390,"ÑĪÑĭÑģÑĭÐ½ÑĭÒ£":8391,"ĠÐĸÓĻÐ½":8392,"ĠÒ±ÑĪÑĭÐ¿":8393,"ĠÐ½ÐµÐ½Ñĸ":8394,"ĠÐ¶Ð°ÒĽÒĽÐ°":8395,"ÑĤÐ°ÑĢÐ°Ñĥ":8396,"Ð¡Ðļ":8397,"ĠÐ½Ò±ÑģÒĽÐ°":8398,"ĠÐĲÑģÑĤÐ°Ð½Ð°Ð½ÑĭÒ£":8399,"ĠÐ¾ÑĤÑĭÑĢÐ°ÑĤÑĭÐ½":8400,"ĠÐºÐµÐ·Ð´ÐµÑģÑĸÐ¿":8401,"ĠÐ¼Ð°ÒĽÐ°Ð»Ð°Ð»Ð°ÑĢ":8402,"ÑĥÑĪÑĸÐ»ÐµÑĢ":8403,"ĠÐºÐ°Ð¼ÐµÑĢ":8404,"ÐµÐºÐ¾Ð¼":8405,"ĠÑĤÒ¯Ð»":8406,"ĠÑĤÑĸÐ»Ð³Ðµ":8407,"ĠÐ°ÑĪÑĥÒĵÐ°":8408,"Ð¾Ð³Ð¾":8409,"Ð¸Ð¼Ð°ÑĪ":8410,"ĠÐºÐ»ÑĥÐ±Ñĭ":8411,"ĠÐºÑĸÑĤÐ°Ð±Ñĭ":8412,"Ð±ÐµÐ¹Ð´Ñĸ":8413,"ĠÐ¶Ð°Ð½Ð°ÑĢ":8414,"ĠÒ¯ÐºÑĸÐ¼ÐµÑĤÑĤÑĸÐº":8415,"ĠÐºÓ©ÐºÓ©Ð½":8416,"Ð¸Ð»Ð¸":8417,"ĠÑģÐ°Ð»ÑĭÐ½ÑĭÐ¿":8418,"57":8419,"ÑĥÑĪÑĭÐ»Ð°ÑĢÒĵÐ°":8420,"ĠÒĽÐ°Ð·Ð°Ð½Ð´Ð°":8421,"ĠÐ¶Ò±Ð±Ð°Ð¹":8422,"ÑĪÐ°Ð½ÑĭÒ£":8423,"ĠÐ´ÐµÐ¿Ð¾Ð·Ð¸ÑĤ":8424,"ĠÐ¶Ð°ÑĥÐ°Ð¿ÐºÐµÑĢÑĪÑĸÐ»ÑĸÐ³Ñĸ":8425,"ÑĭÐ¼ÑĭÑĢ":8426,"ÐŀÐ»Ð°ÑĢ":8427,"ĠÐ·Ð°Ð¼Ð°Ð½Ð´Ð°":8428,"ĠÐ±Ð°ÑıÐ½Ð´Ð°Ð¼Ð°":8429,"ĠÑĢÐµÑģÑĥÑĢÑģÑĤÐ°ÑĢÑĭÐ½":8430,"Ð³iÐ½":8431,"Ð¾Ð½Ð´Ð¾Ð½":8432,"ĠÐºÐµÐ´ÐµÐ¹":8433,"ÐľÒ±ÒĵÐ°Ð»ÑĸÐ¼":8434,"ĠÑģÐ°Ð¹ÑĤÑĭÐ½Ð´Ð°":8435,"ĠÐ´ÓĻÑĢÐµÐ¶ÐµÐ´Ðµ":8436,"ÐĺÐļÐĲÐĽÐ«Òļ":8437,"ÐľÑĭÑģÐ°Ð»Ñĭ":8438,"ĠÑģÐ°Ð¿Ð°ÑĢÑĭ":8439,"Ð±Ð¾Ð¹":8440,"ÐĳÐ°ÒĵÐ´Ð°ÑĢÐ»Ð°Ð¼":8441,"ĠÐºÐ¾Ð¼Ð¸ÑģÑģÐ¸ÑıÑģÑĭ":8442,"ÐĶÐ«Òļ":8443,"ĠÐĿÐµÐ³ÑĸÐ·":8444,"ĠÐ´ÐµÑĢÐµÐºÑĤÐµÑĢÐ´Ñĸ":8445,"ÐĶÐ«Ò¢":8446,"ĠÐ¶Ò¯Ð¹ÐµÐ½ÑĸÒ£":8447,"ĠÑģÑĸÐ»ÐºÑĸÐ½":8448,"ĠÐ¶ÑĭÐ»Ð¼ÐµÐ½":8449,"ÑĤÐ°ÑģÑĤÑĭÑĢÑĥ":8450,"ĠÐļÒ¯ÑĪ":8451,"ÐŁÐ°Ð¹":8452,"ĠÐ°ÑĢÐ°Ð»Ð°Ð¿":8453,"ĠÐĿÐµÐ³Ðµ":8454,"ĠÐŀÐ±Ð»ÑĭÑģÑĤÑĭÒĽ":8455,"ber":8456,"Ð¿ÑĸÐºÑĸÑĢ":8457,"ĠÐ¢Ð°Ò£":8458,"ĠÒĽÐ°Ð¼ÑĤÐ¸ÑĤÑĭÐ½":8459,"ĠÑĪÐµÐ½":8460,"ĠÑĪÐµÑĢ":8461,"ÐłÐµÑģÐ¼Ð¸":8462,"ĠÐµÐ¼ÐµÑģÐ¿":8463,"ĠÐ¼Ð°ÑĢÐºÐµÑĤÐ¸Ð½Ð³":8464,"ĠÐŀÐ±Ð»ÑĭÑģ":8465,"ÓĺÐ¹ÐµÐ»":8466,"Ð°ÑĢÒĽÐ°":8467,"ĠÒļÐ°ÑĥÑĸÐ¿ÑģÑĸÐ·Ð´ÑĸÐº":8468,"ĠÐ¾ÑĢÑĭÐ½Ð´Ð°ÑĢÑĭÐ½Ð°":8469,"ou":8470,"ĠÑįÐ¿":8471,"ĠÒĽÒ±Ð»Ð°ÒĽ":8472,"Ð°Ñİ":8473,"Ð°Ð»Ð¸ÐµÐ²":8474,"ÐµÑĤÐ°Ð½":8475,"ÐĲÐ¡Ð¢ÐĲÐĿÐĲ":8476,"Ð¡Ð°Ñĥ":8477,"ÐĳÐ°ÒĽÑĭÑĤ":8478,"ĠÐ¶Ð°ÑĥÑĭÐ¿":8479,"ĠÐĲÐ¹Ð´Ð°ÑĢ":8480,"ĠÐ°Ð·Ð°Ð¼Ð°ÑĤÑĤÐ°ÑĢÒĵÐ°":8481,"ĠÐ½Ð°Ð·Ð°ÑĢÑĭÐ½Ð°":8482,"ĠÐ¼Ò±ÒĽÐ¸ÑıÑĤ":8483,"ĠÑģÐ°Ð»Ð°Ð»Ð°ÑĢ":8484,"ĠÑģÐ°Ð½Ð°":8485,"ÒĵÑĭÐ»ÑĭÒĽÑĤÑĭ":8486,"ĠÐ°ÑĢÑĥ":8487,"ĠÑģÑĥÐ´":8488,"Ð¸ÐºÐ¸":8489,"ĠÑĤÓ©Ñģ":8490,"ĠÐ¼Ò±Ð½ÑĭÒ£":8491,"ĠÑĤÐ¾Ð»ÒĽÑĭÐ½":8492,"ĠÑĤÐ°Ð»ÒĽÑĭÐ»Ð°Ð´Ñĭ":8493,"ĠÒĽÑĭÑģÒĽÑĭ":8494,"ĠÐºÐµÑĪÑĸ":8495,"ĠÐľÐ°Ð¼ÑĭÑĢ":8496,"Ġ03":8497,"Ð°Ð»ÑĮÐ´ÑĭÒĽ":8498,"ĠÐºÐ»Ð¸Ð¼":8499,"ĠÐ°Ð¹ÑĤÑĭÐ»Ð°Ð´Ñĭ":8500,"oday":8501,"ĠÓĻÐºÐµÐ¼":8502,"ĠÓĻÑģÐµÐ¼":8503,"ĠÐ¶ÑĸÐ±ÐµÑĢÐµÐ´Ñĸ":8504,"ĠÒĽÐ°Ð¹ÑĤÑĭÐ¿":8505,"ĠÐ°ÒĵÐ°Ð¹ÑĭÐ½":8506,"ÒļÑĭÐ»":8507,"Ġ47":8508,"ĠÐŃÐºÐ¾Ð½Ð¾Ð¼Ð¸ÐºÐ°Ð»ÑĭÒĽ":8509,"ĠÐ¸Ð½ÑĤÐµÑĢÐ°ÐºÑĤÐ¸Ð²ÑĤÑĸ":8510,"ĠÐ»Ð°Ð¹ÑĭÒĽ":8511,"ĠÑģÑĭÐ¹Ð°ÒĽÑĭ":8512,"ĠÑģÒ¯ÑĢÑĸÐ¿":8513,"ĠÐ¡Ð°ÒĽ":8514,"ĠÐĲÑĥÒĵÐ°Ð½":8515,"ÓĻÑĢÐµÐºÐµÑĤÑĤÐµÑĢ":8516,"ĠÐ¼ÓĻÐ»ÑĸÐ¼ÐµÑĤÑĸÐ½ÑĪÐµ":8517,"ĠÒĽÐ°Ð¹ÑĤÐ°Ð»Ð°Ñĥ":8518,"ĠÐ¤Ð¸Ð»":8519,"ĠÑħÐ°Ð½Ð½ÑĭÒ£":8520,"ĠÐ´ÐµÐ½ÑģÐ°ÑĥÐ»ÑĭÒĵÑĭ":8521,"ĠÑĤÓĻÑģÑĸÐ»Ñĸ":8522,"ÒĽÐ¾ÒĵÐ°Ð¼":8523,"Ð¸ÐµÐ»Ñĸ":8524,"Ġ600":8525,"ÑĤÐµÐ¼Ðµ":8526,"ĠÐ±ÑĸÐ»ÐµÑģÑĸÐ·":8527,"ĠÐ¿Ð°Ð¹Ð´Ð°Ð»Ð°Ð½ÑĥÐ´Ñĭ":8528,"Ð°Ð¿ÑĤÑĭ":8529,"ĠÑģÐ°ÒĽÑĤÐ°Ð»ÒĵÐ°Ð½":8530,"ĠÐ¢Ð°ÒĵÑĭ":8531,"ĠÒ±ÑģÑĭÐ½ÑĭÐ»Ð´Ñĭ":8532,"ĠÐľÐ°Òĵ":8533,"ĠÐĨÐĨÐĨ":8534,"ĠÐ¼Ò±ÒĵÐ°Ð»ÑĸÐ¼Ð½ÑĸÒ£":8535,"Ð°ÑĤÑĥÑĢÐ°":8536,"Ġ1997":8537,"ĠÐ°Ð¹ÑĭÐ½Ð°Ð½":8538,"ĠÐ¶Ò¯ÑĢÐ³ÑĸÐ·ÑĸÐ»ÐµÑĤÑĸÐ½":8539,"ĠÐ°Ð¹ÑĤÑģÐ°ÒĽ":8540,"ĠÐ±ÑĭÐ»ÑĤÑĭÑĢ":8541,"ÑıÐ´":8542,"ĠÐ¿ÑģÐ¸ÑħÐ¾Ð»Ð¾Ð³":8543,"ĠÑĤÐµÑĤ":8544,"ĠÑģÐºÐ°ÑĩÐ°ÑĤÑĮ":8545,"ĠÓ©ÑĤÐºÑĸÐ·ÑĸÐ»ÑĸÐ¿":8546,"ĠÒĽÐ°ÑĢÐ°ÑĪÐ°Ð´Ð°ÒĵÑĭ":8547,"ÑĨÐ¸ÐºÐ»Ð¾Ð¿":8548,"ÓĺÑĥÐµÐ·Ð¾Ð²":8549,"ĠÒ®Ð½Ð´ÑĸÑģÑĤÐ°Ð½":8550,"ĠÒĽÐ°Ð±ÑĭÐ»Ð´Ð°Ð½Ð°Ð´Ñĭ":8551,"ĠÐºÐ°ÑĢÑĤÐ°":8552,"ĠÓĻÐ´ÑĸÑģÑĤÐµÐ¼ÐµÑģÑĸ":8553,"ÑĥÐµÐ½":8554,"ĠÐ±Ð°ÑģÑĤÐ°Ð»ÑĭÐ¿":8555,"ĠÒĽÐ°ÑĤÑĭÑģÑĥÑĪÑĭÐ»Ð°ÑĢÐ´ÑĭÒ£":8556,"ÐľÒ±Ð½Ð°Ð¹":8557,"ĠÐĸÐµÒ£ÑĸÑģ":8558,"ĠÑģÐ°Ð½Ð¸ÑĤÐ°ÑĢÐ»ÑĭÒĽ":8559,"ĠÐ²Ð¸ÑĢÑĥ":8560,"ĠÐ±Ð¸Ð·Ð½ÐµÑģÑĤÑĸ":8561,"Ġof":8562,"ĠÐ°ÑĤÐ°Ð½ÒĵÐ°Ð½":8563,"ĠÓĻÐ´ÑĸÐ»ÐµÑĤ":8564,"ÓĻÐ»Ð¸ÑħÐ°Ð½":8565,"ÐĳÒ¯Ð³ÑĸÐ½Ð´Ðµ":8566,"56":8567,"ĠÑĪÐµÐ³ÑĸÐ½Ð´Ðµ":8568,"ĠÐ¶Ð°ÑĤÑģÐ°":8569,"ĠÑģÐ¸Ð¿Ð°ÑĤÑĤÐ°ÒĵÑĭ":8570,"ĠÑĤÑĸÐ»Ð´ÐµÑĢÐ´Ñĸ":8571,"ÑĤÐºÑĸÐ·":8572,"Ð¿ÐµÐ´Ð°Ð³Ð¾Ð³Ð¸ÐºÐ°Ð»ÑĭÒĽ":8573,"ĠÓĺÐ¼ÑĸÑĢ":8574,"Ð±Ð°Ð¹Ò±Ð»Ñĭ":8575,"ĠÐ¶Ð°ÑģÐ°ÑĥÐ´Ñĭ":8576,"ĠÐķÑĥÑĢÐ°Ð·Ð¸Ñı":8577,"ĠÐ¶ÐµÒ£ÑĸÐ¼Ð¿Ð°Ð·Ñĭ":8578,"ĠÑĤÑĢÐ°Ð½":8579,"Ð°ÑĢÑĭÒĵÑĭ":8580,"Ð»Ð¾Ðº":8581,"Ð±Ð°Ð¹Ð´Ñĭ":8582,"ĠÐ¡Ð°Ð±":8583,"ĠÐ±Ó©Ð»ÑĸÑģÑĤÑĸ":8584,"ĠÑĪÐ°ÑĢÐ°ÒĵÐ°":8585,"ĠÐ¶Ò±Ð¼ÑĭÑģÑĤÐ°ÑĢÐ´ÑĭÒ£":8586,"ĠÐ¶Ð°ÑĢÐ¸ÑıÐ»Ð°Ð½":8587,"ĠÓĻÐ´ÐµÐ±Ð¸ÐµÑĤÑĸÐ½ÑĸÒ£":8588,"ĠÐ±Ð°Ð¿ÑĤÑĭÒ£":8589,"ĠÐ¼Ð¼":8590,"ÑĦÐ¾ÑĢÐ¼Ð°":8591,"ĠÑĤÓ©Ò£ÑĸÑĢ":8592,"Ð¿Ð¾ÑĢÑĤÑĭ":8593,"ĠÐľÒ±ÒĵÐ°Ð»":8594,"ĠÐµÑģÑĸÑĢÑĤ":8595,"ĠÒĽÐ¾ÑģÐ°Ð»ÒĽÑĭ":8596,"ĠÐĹÐ°Ò£Ð½ÑĭÒ£":8597,"ĠÑĪÑĸÐ»Ð´ÐµÐ´ÐµÐ³Ñĸ":8598,"ĠÒ±Ð¹ÑĭÒĽ":8599,"ĠÐ°ÑģÑĭ":8600,"Ð¢Ò±":8601,"ĠÐ¸ÐºÐµÐ¼":8602,"ĠÐ¶Ð°ÒĵÑĭÐ½Ð´Ð°":8603,"ĠÑĦÐ°ÐºÑĥÐ»ÑĮÑĤÐµÑĤÑĸ":8604,"ĠÐ¶Ð°ÑĢÑĭÑģÑĤÐ°ÑĢ":8605,"ĠÐĺÐ½Ð²ÐµÑģÑĤÐ¸ÑĨÐ¸Ñı":8606,"ÑĥÑĢÐµÐ½":8607,"2019":8608,"ĠÒĽÐ°ÑĢÐ°Ð¶Ð°ÑĤÑĭ":8609,"ĠÐ¶Ð°ÑģÑĭÑĢÑĭÐ½":8610,"ÐľÒ¯":8611,"ĠÐ»Ð°ÑĥÐ°Ð·ÑĭÐ¼ÑĭÐ½Ð°":8612,"ĠÐºÒ¯Ð·ÐµÑĤ":8613,"ĠÑģÐ°Ð»ÑĭÒĵÑĭ":8614,"ĠÑģÑĨÐµÐ½":8615,"ĠÑħÐ°Ð±Ð°ÑĢÐ»Ð°ÒĵÐ°Ð½":8616,"ĠÑħÐ°ÑĤÑĤÐ°Ð¼":8617,".(":8618,"ĠÐ¶Ð°ÑģÑĤÐ°ÑĢÐ´Ñĭ":8619,"ÐķÐ£":8620,"Ð¥Ð°Ð±Ð°ÑĢ":8621,"ĠÐ±ÐµÑĢÑĥÑĸ":8622,"Ð¾Ð¿Ð°Ð»ÑĭÒĽ":8623,"59":8624,"Ġ46":8625,"ĠÑĤÐ¾ÒĽÑĤÐ°ÑĤÑĥ":8626,"ĠÐ¸ÐµÐ»ÐµÑĢÑĸ":8627,"ĠÐ±ÑĸÑĢÐ»ÐµÑģÑĤÑĸ":8628,"ĠÐľÒ±ÑĢÐ°ÑĤ":8629,"ĠÐļÐ°Ð½":8630,"ĠÑĤÐ°Ð½ÑĭÑģÑĥ":8631,"Ð¶Ð°Ò£Ð°":8632,"ĠÑħÐ°Ð±Ð°ÑĢÐ»Ð°Ð½Ð´ÑĭÑĢÑĥ":8633,"ĠÐ°ÑĥÑĢÑĥÐ»Ð°ÑĢ":8634,"ĠÓĻÐ¹ÐµÐ»Ð´ÑĸÒ£":8635,"ĠÐ°ÑĤÐ°ÑĥÐ»Ñĭ":8636,"ÐĶÑĸÐ½":8637,"ĠÐ±Ð°Ð·Ð°Ð»ÑĭÒĽ":8638,"ĠÐĳÐ¾Ð»Ð°ÑĤ":8639,"ĠÐĲÑģÑĭÐ»":8640,"ĠÐ±Ð°ÑģÑĤÐ°Ð½":8641,"ĠÐ°Ð¹ÑĭÐ½Ð°":8642,"ÐµÑģÑĤÐµÐ½":8643,"ĠÐ±ÐµÑĤÑĸÐ½Ðµ":8644,"ÐŀÒļÐŀ":8645,"ĠÐ½ÓĻÑĤÐ¸Ð¶ÐµÑģÑĸÐ½":8646,"ĠÒĽÐ°Ò£ÑĤÐ°ÑĢÐ´Ð°":8647,"Ð¸Ð´Ð°ÐºÑĤ":8648,"ĠiÑĪ":8649,"Ġf":8650,"ĠÐ¾Ð´Ð°ÒĵÑĭÐ½ÑĭÒ£":8651,"Ð¡ÑĭÑĢ":8652,"ÑĭÐ»ÑģÐ°":8653,"ĠÐļÒ¯":8654,"ĠÐŀÒļÐŀ":8655,"ĠÐ±Ð°ÒĵÐ°ÑģÑĭÐ½":8656,"ĠÑĤÐµÑĢÑĸ":8657,"ĠÐķÐ»Ð±Ð°Ñģ":8658,"ĠÐ¶Ð°ÑģÑĤÐ°":8659,"ÐĶÐĲÐĿ":8660,"ÐĲÑĤ":8661,"Ð¼Ð°ÒĽÑĤÑĭÒĽ":8662,"ĠÐºÐ¾Ð¼Ð¿Ð°Ð½Ð¸ÑıÐ½ÑĭÒ£":8663,"ĠÐµÑĢÐµÐ¶ÐµÑģÑĸ":8664,"ĠÒ±Ð»ÑĤÑĤÑĭÒ£":8665,"ĠÑĤÓ©Ð»ÐµÐ½ÐµÑĤÑĸÐ½":8666,".).":8667,"ĠÐºÐµÑĥ":8668,"ĠÐ¾ÑĢÑĭÐ½Ð´ÑĭÒĽ":8669,"ĠÐ°Ð¹ÑĤÐ°ÑĤÑĭÐ½":8670,"ĠÐ±ÑĸÑĢÐµÑĥÑĸ":8671,"Ð¢Ð«":8672,"ÐĸÒ¯ÑĢ":8673,"ĠÐ¼Ó©Ð»ÑĪÐµÑĢÑĸÐ½":8674,"ĠÐ¶Ò±Ð¼ÑĭÑĢÑĤ":8675,"Ð°Ð¹ÑĭÐ¿ÑĤÑĭ":8676,"ĠÐºÑĢÐ¸ÑĤÐµÑĢ":8677,"ĠÑĤÐ°Ð½ÑĭÐ»ÒĵÐ°Ð½":8678,"ÐµÐ³ÐµÐ¹Ð»Ñĸ":8679,"ĠÑģÑĥÐ´ÑĮÑı":8680,"ĠâĢİ":8681,"ĠÐ°Ð¹Ð½Ð°Ð»Ð°Ð´Ñĭ":8682,"Ð´Ð°ÑģÑĤÑĭÑĢ":8683,"Ð¡ÑĭÐ±Ð°Ð¹Ð»Ð°Ñģ":8684,"ĠÐķÑĪ":8685,"ĠÐ±ÐµÐ¹Ð½ÐµÐ»ÐµÑĥ":8686,"ĠÐ´ÓĻÑĢÐµÐ¶ÐµÑģÑĸ":8687,"ÐºÐµÐ·ÐµÒ£":8688,"ÐĸÐ°ÒĽÑģÑĭ":8689,"ĠÐºÐ°Ð·Ð°Ñħ":8690,"ĠÐ°ÒĽÐ¿Ð°ÑĢÐ°ÑĤÑĤÐ°ÑĢ":8691,"ÑģÐ¾ÒĽ":8692,"ĠÐ¶Ð¾Ð±Ð°Ð»Ð°ÑĢÑĭÐ½":8693,"ĠÐºÓ©ÑĤÐµÑĢÐ³ÐµÐ½":8694,"ĠÓ©Ð½ÑĸÐ¼Ð´ÐµÑĢÑĸÐ½ÑĸÒ£":8695,"ĠÑģÓ©Ð¹Ð»ÐµÐ³ÐµÐ½":8696,"ĠÐ°Ð¹Ð½Ð°Ð»ÑĭÐ¼Ñĭ":8697,"ĠÓ©ÑĤÐºÑĸÐ·ÑĸÐ»ÐµÑĤÑĸÐ½":8698,"ÒĽÐ°Ð½Ð´Ð°":8699,"Ġ2019":8700,"Ð¾Ð¶Ð°":8701,"ĠÐºÐµÒ£ÐµÐ¹":8702,"ĠÐ±Ð°ÒĵÐ´Ð°ÑĢÐ»Ð°Ð¼Ð°Ð»Ð°ÑĢÑĭÐ½":8703,"ĠÐ¼ÓĻÑĢÑĤÐµÐ±ÐµÑģÑĸÐ½":8704,"ĠÐĳÐµÑģ":8705,"ĠÐ¼Ð¾Ð±Ð¸Ð»ÑĮ":8706,"eg":8707,"Ð¸ÑıÐ½Ñĭ":8708,"ĠÑĤÓĻÐ¶ÑĸÑĢÐ¸Ð±ÐµÐ»ÑĸÐº":8709,"ĠÐĳÒ¯ÐºÑĸÐ»":8710,"ĠÓĻÐ»ÐµÑĥÐ¼ÐµÑĤÑĤiÐº":8711,"ĠÐ´ÐµÑĥÐ³Ðµ":8712,"ĠÑģÐ°Ð»ÑĭÒĽÑĤÐ°ÑĢ":8713,"Ð´ÑĸÐ³":8714,"Ð°ÑĥÑĭÐ·":8715,"ĠÒĽÐ¾ÒĵÐ°Ð¼Ð´Ð°ÒĵÑĭ":8716,"ĠÐ°Ð·Ð°Ð¼Ð°ÑĤÑĤÑĭÒ£":8717,"ĠÒĽÑĥÐ°ÑĤÑĭ":8718,"ĠÒ°Ð»ÑĤ":8719,"ĠÐ±ÐµÐºÑĸÑĤÐµÐ´Ñĸ":8720,"ĠÑĤÐ°ÑĢÑĤÑĥÒĵÐ°":8721,"ĠÒĽÐ¾Ð»ÑĭÐ½Ð°":8722,"ĠÑĸÑģÑĤÐµÐ´Ñĸ":8723,"Ġ__":8724,"ĠÐ°Ð²Ð¸":8725,"ĠÐłÐķÐ¡":8726,"ĠÓ©ÑĤÑĸÐ½ÑĸÐ¼":8727,"ĠÑģÑĤÐ°Ð½Ð´Ð°ÑĢÑĤÑĭ":8728,"ĠÒĽÐ°ÑĥÐ»ÑĭÑģÑĭÐ¼ÐµÐ½":8729,"Ð¢Ð°ÒĽÑĭÑĢÑĭÐ¿":8730,"ĠÐ°ÑĢÐ°Ð»ÑĭÒĵÑĭÐ½Ð´Ð°ÒĵÑĭ":8731,"ĠÐ±ÐµÐ¹ÑĸÐ¼Ð´ÐµÐ»":8732,"ĠÐĳÓ©ÐºÐµÐ¹":8733,"ÐµÐ»ÐµÑĢÑĸÐ¼ÐµÐ½":8734,"ine":8735,"ĠÒ±ÑģÑĤÐ°Ð»Ð´Ñĭ":8736,"ÐļÐµÐ¹":8737,"ĠÐ°Ð»Ð°Ò£ÑĭÐ½Ð´Ð°":8738,"ĠÐļÐ¾Ð»":8739,"ĠÑģÓ©Ð·ÑĸÐ½Ðµ":8740,"ĠÑģÐ°Ð½Ð°Ð»Ñĭ":8741,"Ð¾ÑĢÐ³":8742,"ĠÓĻÐ½Ñĸ":8743,"ÑĤÐ°ÑģÑĤÑĭÑĢ":8744,"ĠÐ±ÐµÑĢÑĥÑĪÑĸÐ»ÐµÑĢ":8745,"Ð¡Ð°Ð¹":8746,"ĠÐľÒ±Ð½Ñĭ":8747,"ĠÐ¿ÓĻÐ½Ð´ÐµÑĢ":8748,"ĠÑĪÑĭÒĵÐ°ÑĢÐ¼Ð°ÑĪÑĭÐ»ÑĭÒĵÑĭ":8749,"ĠÑĤÐµÑĢÑĢÐ¾ÑĢÐ¸Ð·Ð¼":8750,"ĠÐ¸Ð½Ð¶ÐµÐ½ÐµÑĢÐ»ÑĸÐº":8751,"ÑĭÐ½Ð´Ð°Ð´Ñĭ":8752,"ĠÐ¶Ð°Ð½ÑĭÐ½Ð´Ð°":8753,"ÐĲÐ»Ð´ÑĭÒ£ÒĵÑĭ":8754,"VI":8755,"Ð°Ð»Ð°ÑĢÐ´Ð°Ð½":8756,"ĠÑĪÐµÐºÐ°ÑĢÐ°":8757,"ĠÑģÑĤÐ°ÑĤÐ¸ÑģÑĤÐ¸ÐºÐ°Ð»ÑĭÒĽ":8758,"ĠÑĢÐµÐ²Ð¾Ð»ÑİÑĨÐ¸Ñı":8759,"ĠÐļÐ¾Ð¼Ð¸ÑĤ":8760,"ĠÐ½ÓĻÑĢÑģÐµÐ½Ñĸ":8761,"ĠÑĤÐ°Ð¹Ð¿":8762,"ĠÐ»Ð°ÒĽ":8763,"Ò£ÑĸÐ»":8764,"Ð¸Ð³Ð¸ÐµÐ½":8765,"ĠÒĽÑĭÑģÑĭÐ¼":8766,"ÐĳÐµÐ¹":8767,"ĠÐ¶Ð°ÑģÐ°Ð½Ð´Ñĭ":8768,"ĠÓ©ÑĤÐº":8769,"ĠÐºÐ¾ÑĢÐ¿ÑĥÑģÑĭÐ½ÑĭÒ£":8770,"ÑįÑĢ":8771,"ĠÑģÐµÐºÑĥÐ½Ð´":8772,"ĠÒļÒ±ÒĽÑĭÒĽ":8773,"ĠÐ¶ÐµÑĤÐºÑĸÐ·ÑĸÐ¿":8774,"ÒļÐ«":8775,"ĠÑģÓ©Ð·Ð´ÐµÑĢÑĸ":8776,"ĠÑĪÒ¯":8777,"ĠÐ±ÐµÑĢÑĸÒ£ÑĸÐ·":8778,"ĠÐºÓ©ÑĢÐµÑĤÑĸÐ½":8779,"Ð¸ÑĤÐ°ÑĢÐ¸ÑıÐ»ÑĭÒĽ":8780,"Ð¸Ð¸":8781,"ÑĭÑĢÐ·Ð°":8782,"ĠÒĽÐ¾Ð·ÒĵÐ°Ñĥ":8783,"ĠÐ½Ð°ÑĢÑĭÒĵÑĭ":8784,"ĠÒĵÒ±Ð¼ÑĭÑĢ":8785,"ĠÒĽÐ°Ð¹Ð½":8786,"Ð°ÑĥÑĢÐµ":8787,"ÑĢÐ¸ÑĦÐ¸Ð½Ð³":8788,"ÐĲÑĪÑĭÒĽ":8789,"Ð¡Ð¾ÑĤ":8790,"ĠÐļÐµÑĪ":8791,"ĠÐºÒ¯Ð¹ÑĸÐ½Ð´Ðµ":8792,"ĠÐ¶ÑĭÐ»Ð´Ð°ÑĢÐ´Ð°ÒĵÑĭ":8793,"ÒĽÐ¾Ð»Ð´Ð°Ð½":8794,"Ð±ÑĸÐ»":8795,"ĠÐºÐµÐ·Ð´ÐµÑĢÑĸ":8796,"ĠÐ³Ð¾Ð»":8797,"ĠÒĽÐ°Ð½ÑĤ":8798,"ĠÐŁÐµÑĤÑĢÐ¾Ð¿Ð°Ð²Ð»":8799,"ĠÐ·ÐµÑĢÑĤÑĤÐµÐ¿":8800,"ĠÐ°Ð»ÑĭÐ½Ð°ÑĤÑĭÐ½":8801,"ĠÐ¶ÑĸÐ±ÐµÑĢÐ´Ñĸ":8802,"Ð¸ÑıÐ·":8803,"ĠÐ±ÐµÑĢÑģÑĸÐ½":8804,"ĠÐ¢Ð°ÒĽÑĭÑĢÑĭÐ±Ñĭ":8805,"ĠÐ°ÑĪÐ°Ð´Ñĭ":8806,"ĠÐŀÐ»Ð°ÑĢÒĵÐ°":8807,"ĠÓĻÐºÐµÐ»ÐµÐ´Ñĸ":8808,"ĠÐ°Ð²ÑĤÐ¾Ð¼Ð°ÑĤÑĤÑĭ":8809,"ĠÐ¼ÓĻÑĢÑĤÐµÐ±ÐµÑģÑĸ":8810,"ĠÐ¶Ð°Ð½Ñĭ":8811,"ĠÒĽÐ¾ÑĢÑĭÑĤÑĭÐ½Ð´ÑĭÐ»Ð°ÑĢÑĭ":8812,"ĠÐ£ÐºÑĢÐ°Ð¸Ð½Ð°":8813,"ÑĤÐ°ÒĵÐ°":8814,"ĠÐľÐķÐĿ":8815,"ĠÒĽÑĭÐ·Ð¼ÐµÑĤÑĸÐ½ÐµÐ½":8816,"ĠÐµÐ¼Ð´ÐµÐ»":8817,"ĠÐ¶Ð°ÑģÐ°Ð»Ð°ÑĤÑĭÐ½":8818,"ĠÐ±Ð°Ð½ÐºÑĤÐµÑĢÐ´ÑĸÒ£":8819,"ĠÐ¶ÐµÐ¼ÑĸÑģ":8820,"ÐļÐµÐ·Ð´ÐµÑģÑĥ":8821,"99":8822,"Ġ57":8823,"Ġ58":8824,"Ð¾ÒĽÑĥ":8825,"ĠÐºÓ©ÑĢÑģÐµÑĤÑĥÐ´ÑĸÒ£":8826,"ĠÑĢÐ¾Ð¼Ð°Ð½":8827,"Ð¡ÑĤÑĥÐ´ÐµÐ½ÑĤ":8828,"ĠÐ¢ÑĥÒĵÐ°Ð½":8829,"ÑĸÑģÑĤÐµ":8830,"ĠÒĽÐ¾Ð¹ÑĭÐ»ÑĭÐ¼":8831,"ÐĵÐķ":8832,"ĠÐ¾ÑĤÑĭÑĢÐ¼ÑĭÐ½":8833,"ĠÐ¼Ð°ÒĽÑģÐ°ÑĤÑĤÐ°":8834,"ĠÑģÐ°ÑıÑģÐ°ÑĤÑĤÑĭ":8835,"ÐµÑĢÐ°Ð»":8836,"ĠÐ°ÑĢÐ°":8837,"Ġ(âĨĲ":8838,"ĠÐŃÐºÐ¾Ð½Ð¾Ð¼Ð¸ÐºÐ°":8839,"ĠÐºÒ¯Ð¼ÓĻÐ½":8840,"Ð±Ð°ÑĤÑĭ":8841,"ĠÑĤÒ¯ÑģÑĸÐ½ÑĸÐ¿":8842,"ÑĭÑĢÐ´Ð°":8843,"ĠÐ°ÑĤÐ»ÐµÑĤ":8844,"ĠÐ¾ÑĢÑĭÐ½Ð´Ð°Ð¿":8845,"ĠÒĽÐ°ÑĢÐ¶ÑĭÐ»Ð°Ð½":8846,"ĠÐ·Ð°Ð»ÑĭÐ½Ð´Ð°":8847,"ĠÒĽÐ¾Ð»ÑĭÐ½Ð°Ð½":8848,"ĠÐ°ÑĤÒĽÐ°ÑĢÐ´Ñĭ":8849,"ĠÑģÓ©Ð·Ð´ÐµÑĢÐ¼ÐµÐ½":8850,"Ð±ÑĢÐ°Ð·":8851,"ÐºÐ²":8852,"ĠÐ¶Ð°ÑĢÐ½Ð°Ð¼Ð°":8853,"Ð¸ÒĵÐ°ÑĤÑĭ":8854,"ÑĸÐ¼Ð´ÐµÑĢÐ´ÑĸÒ£":8855,"ĠÐ¶Ò¯Ð¹ÐµÑģÑĸÐ½Ð´ÐµÐ³Ñĸ":8856,"ĠÒļÒ±Ð½Ð°Ð½":8857,"ĠÐºÓĻÐ¼ÐµÐ»ÐµÑĤÐºÐµ":8858,"ÐµÐ±Ð°Ð¿":8859,"ĠÑĤÑĸÐ»ÐµÐ¹Ð¼ÑĸÐ½":8860,"ĠÐ¶Ð°Ð¹ÑĤ":8861,"ĠÑģÐ°Ð±Ð°ÒĽÑĤÑĭÒ£":8862,"ĠÒĽÐ°ÑĥÑĭÐ¼Ð´Ð°ÑģÑĤÑĭÒĽ":8863,"ÑģÑĭÒ£Ð´Ð°ÑĢ":8864,"ĠÑģÐ°Ð·":8865,"ĠÐŁÐµÑĢ":8866,"ÐĳÐ°Ð½Ðº":8867,"Ð°Ð½Ð°ÑģÑĭ":8868,"ĠÐ±Ð¾Ð»Ð¼Ð°Ð¹ÑĤÑĭÐ½":8869,"Ġ43":8870,"ÒĽÐ°ÑĢÑĥ":8871,"ĠÐµÑĢÑĸÐº":8872,"ĠÐµÑĢÐµÐ¶Ðµ":8873,"ĠÐ¸Ð½ÑĦÐ¾ÑĢÐ¼":8874,"ĠÑĦÐ¾ÑĢÐ¼Ð°ÑģÑĭ":8875,"ÐºÐ°ÑĢ":8876,"ĠÑĥÐ½Ð¸Ð²ÐµÑĢÑģÐ¸ÑĤÐµÑĤÑĸÐ½Ð´Ðµ":8877,"ĠÑģÐ°Ð»ÑĭÑģÑĤÑĭÑĢÑĥ":8878,"Ð¸ÑıÐ»Ð°ÑĢ":8879,"Â»)":8880,"ĠÐµÐºÑĸÐ½ÑĪÑĸÑģÑĸ":8881,"Ð¸ÐºÑĤÐµÑĢ":8882,"ĠÐ±Ð¸Ð¾Ð»Ð¾Ð³Ð¸ÑıÐ»ÑĭÒĽ":8883,"ĠÐ°ÑĥÑĢÑĥÐ´ÑĭÒ£":8884,"ĠÐºÐ°ÑĢÑĤÐ¾Ñĩ":8885,"ĠÐºÓ©ÑĪÑĸÑĢÐ¼ÐµÑģÑĸ":8886,"ĠÐĲÑħ":8887,"ÐĲÐ¼Ð°Ð½":8888,"ĠÐ¢Ð°Ð½":8889,"ÐŀÑģÑĭÒĵÐ°Ð½":8890,"ĠÐ·Ð¾ÑĢÐ»ÑĭÒĽ":8891,"ÒĽÐ°Ð·Ð°Ð½":8892,"ainasy":8893,"ÑĪiÐ»iÐº":8894,"ĠÐľÐ°Ð»":8895,"ĠÐļÐµÒ£ÐµÑģÑĸÐ½ÑĸÒ£":8896,"Ð¿ÑĭÐ·":8897,"ĠÑĤÐµÐ¼Ð¿ÐµÑĢÐ°ÑĤÑĥÑĢÐ°ÑģÑĭ":8898,"Ð½Ò±ÑĢ":8899,"ĠÒĽÐ°ÑĢÐ°ÑĥÒĵÐ°":8900,"ĠÐ¶Ò±Ð¼ÑĭÐ»":8901,"ĠÐ¸ÐµÐ»ÐµÐ½Ð´Ñĸ":8902,"ĠÐ¿Ð°Ð¹Ð´Ð°Ð»Ð°Ð½ÑĭÐ»Ð°Ð´Ñĭ":8903,"ĠÒĽÐ°Ð»Ð°ÒĵÐ°Ð½":8904,"ĠÓĻÐ¹ÐµÐ»Ñĸ":8905,"ĠÐ¶Ð°ÑĤÐ°ÒĽ":8906,"ĠÐºÐ¾Ð½ÐºÑĥÑĢ":8907,"ĠÐ±Ð¾Ð»Ð¼Ð°ÑģÑĭÐ½":8908,"ĠÐŀÒĽÑĭÑĤÑĥ":8909,"ÐĲÑı":8910,"ĠÑĢÐµÐ½":8911,"ĠÐĶÐ¸":8912,"ĠÑģÐ°Ð±Ð°ÒĽÑĤÐ°":8913,"ĠÑĤÐ°ÑĢÐ°Ð»ÒĵÐ°Ð½":8914,"ĠÓĺÑĥ":8915,"ĠÐ¶Ð°Ð½ÐºÒ¯Ð¹":8916,"ĠÐ½Ð°ÑĥÑĢÑĭÐ·Ð´Ð°":8917,"ÒĽÐ°Ð»ÑĭÒĽ":8918,"ĠÐ°ÒĽÑĭÐ»Ð´Ñĭ":8919,"Ð¶Ð¸Ð½":8920,"Ð¡ÐµÐ¼ÐµÐ¹":8921,"ĠÐ¾ÒĽÑĭÑĤÑĥÑĪÑĭ":8922,"ĠÐ±ÑİÐ´Ð¶ÐµÑĤÑĤÑĸÒ£":8923,"ĠÑĦÐ¾ÑĢÐ¼ÑĥÐ»":8924,"ÐķÐľÐĽÐķÐļ":8925,"Ð°ÑıÑģÐ°ÑĤ":8926,"ĠÐ¼ÐµÐ¼Ð¾ÑĢÐ°Ð½Ð´ÑĥÐ¼":8927,"Ð¼ÐµÐ½ÑĸÒ£":8928,"ÓĻÑĢÐ±Ð¸ÐµÐ»ÑĸÐº":8929,"ĠÐºÐ°Ð½Ð´Ð¸Ð´Ð°ÑĤÑĭ":8930,"ashainasy":8931,"ĠÑĤÐ°ÑĢÑĤ":8932,"ĠÐ¶Ð°ÒĵÑĭÐ¼ÑģÑĭÐ·":8933,"ÑĢÑĤÑĸÑģ":8934,"ĠÐ°Ð¹ÑĭÑĢÐ¼Ð°ÑĪÑĭÐ»ÑĭÒĽ":8935,"Ð°Ò£Ð´Ð°ÑĢ":8936,"ĠÐµÑĤÑĥÐ´Ñĸ":8937,"Ð¢Ð°ÑĢÐ°Ð·":8938,"ow":8939,"ĠÐ¾ÑģÑĭÐ½Ð´Ð°":8940,"Ð¸Ð½Ð½Ð¾Ð²Ð°ÑĨÐ¸ÑıÐ»ÑĭÒĽ":8941,"ĠÐ°ÑĢÑĤÑĤÑĭ":8942,"ĠÒ±ÑĪÐ°ÒĽ":8943,"ĠÒĽÐ¾ÑİÒĵÐ°":8944,"ĠÑģÑĤÑĥÐ´ÐµÐ½ÑĤÑĸ":8945,"Ð»ÐµÐ½Ð³ÐµÐ½":8946,"ÑĥÑĸÐ½":8947,"ĠÑĢÐµÐ¿":8948,"ĠÐĹÐ°Ò£ÑĭÐ½Ð°":8949,"ÑĪÑĭÐ»Ð´ÑĭÒĽ":8950,"Ð±ÐµÑĥ":8951,"ĠÐ¿ÑĸÐºÑĸÑĢÐ»ÐµÑĢ":8952,"ĠÑĤÐµÐ¼ÑĸÑĢÐ¶Ð¾Ð»":8953,"ĠÐ½ÐµÐ¼ÑĸÑģ":8954,"ĠÐµÐ»ÑĸÐ½Ðµ":8955,"Ġ44":8956,"ĠÓĻÐºÐµÐ¿":8957,"ĠÐ¾ÑĢÑĤÐ°Ð½ÑĭÒ£":8958,"ÑĤÐ°Ð½Ð´Ð°ÑĢ":8959,"ĠÓĻÐ»ÑģÑĸÐ·":8960,"ĠÐ¨ÒļÐŀ":8961,"ĠÐ¿ÑĢÐ¾ÑĨÐµÑģÑĸÐ½":8962,"ĠÐĲÐ±Ð´":8963,"ÑĤÐ°ÑĢÐ¼ÐµÐ½":8964,"ÐĸÐµÒ£":8965,"ĠÒ¯Ð»Ð³ÑĸÐ»ÐµÑĢ":8966,"ĠÐ´ÐµÐ¿ÑĥÑĤÐ°ÑĤÑĤÐ°ÑĢÑĭ":8967,"ÐļÐ¾Ð½ÐºÑĥÑĢÑģ":8968,"ĠÐ´ÐµÑĢÑĤ":8969,"ĠÐŀÒ£":8970,"Ð´Ð°Ð¼ÑĭÐ·":8971,"ĠÐ¶Ò±Ð¼ÑĭÑģÑĪÑĭ":8972,"ĠÒĽÐ¾ÒĵÐ°Ð¼ÑĭÐ½ÑĭÒ£":8973,"ĠÐ¼Ð°Ðº":8974,"Ð°ÒĽÐ¿Ð°ÑĢÐ°ÑĤ":8975,"ĠÐ±ÑĸÐ»Ðµ":8976,"ĠÐ±ÑĸÑĢÑĸÐ³ÑĸÐ¿":8977,"ĠÐºÐ¸ÐµÐ»Ñĸ":8978,"ÑĢÐ¸ÑģÑĤ":8979,"ĠÑģÐ¾ÒĵÑĭ":8980,"ĠÐ¿Ð°Ð¹Ð´Ð°Ð»Ð°Ð½Ð°Ð´Ñĭ":8981,"ĠÐ¾Ð¹Ð½Ð°Ð¿":8982,"ĠÐĸÐµÑĤÑĸÑģÑĥ":8983,"Ó¨Ð·ÑĸÐ½":8984,"ĠÐ»Ð°ÑĥÑĢÐµ":8985,"ĠÑģÐ°ÒĽÑĤÐ°Ð»Ð°Ð´Ñĭ":8986,"ĠÐĲÑĢÐ¼Ð°Ð½":8987,"ĠÐ°ÐºÐ°Ð´ÐµÐ¼Ð¸ÑıÑģÑĭÐ½ÑĭÒ£":8988,"ĠÐĲÑĦÑĢ":8989,"ĠÐ±Ð°ÑĢÑĥ":8990,"ĠÒĽÐ°Ð»ÑĭÐ¿ÑĤÐ°ÑģÐ°Ð´Ñĭ":8991,"âĢĭ":8992,"ÐĳÐ°ÑģÑĤÐ°ÑĥÑĭÑĪ":8993,"ĠÐ±ÑĸÑĤÑĸÑĢÑĥ":8994,"ÐŀÑĢÑĤÐ°":8995,"ĠÐ¼ÐµÐ½ÐµÐ´Ð¶Ð¼ÐµÐ½ÑĤ":8996,"ĠÐ¶Ò¯ÐºÑĤÐµÐ¿":8997,"ĠÑĤÐµÐ¿Ðµ":8998,"ÐľÐµÐºÐµÐ½":8999,"ĠÐ¼ÐµÐºÐµÐ½Ð¶Ð°Ð¹Ñĭ":9000,"ĠÑįÐ½ÐµÑĢÐ³ÐµÑĤÐ¸ÐºÐ°":9001,"ĠÓĻÐºÐµÑģÑĸÐ½ÑĸÒ£":9002,"ĠÐ¥Ð°Ð»":9003,"ĠÐ¡Ð¾ÒĵÐ°Ð½":9004,"ĠÐ¾Ð±Ð»ÑĭÑģÑĤÐ°":9005,"ost":9006,"ĠÓĻÑģ":9007,"ÐĲÒĽÐ¿Ð°ÑĢÐ°ÑĤÑĤÑĭÒĽ":9008,"ĠAlashainasy":9009,"ÑĥÑģÑĮ":9010,"ĠÐ°Ð»ÑĥÑĪÑĭÐ»Ð°ÑĢÐ´ÑĭÒ£":9011,"ÑĢÐ°Ð¼Ð¿":9012,"ÐµÑĨ":9013,"ÑįÑĤ":9014,"ĠÐĲÐ»Ð´Ð°ÒĵÑĭ":9015,"Ð°ÑĪÐºÐµÐ½ÑĤ":9016,"ĠÐ¾Ð½Ð´Ð°ÒĵÑĭ":9017,"Ġ09":9018,"ĠÑĤÓ©Ð»ÐµÑĥÐ³Ðµ":9019,"ĠÐŁÑĢÐ¾ÐºÑĥÑĢ":9020,"ĠÐ±Ð¾Ð»Ð¼Ð°Ñģ":9021,"ĠÑĤÐ°Ð¿ÑģÑĭÑĢÐ¼Ð°Ð½Ñĭ":9022,"ĠToday":9023,"ĠÐºÐµÒ£ÑĸÑģÑĤÑĸ":9024,"ĠÐ¾ÒĽÑĭÑĤÑĥÑĪÑĭÑģÑĭ":9025,"ĠÐ¾ÑĢÐ´ÐµÐ½":9026,"ĠÐ¼Ò¯Ð»Ð´Ðµ":9027,"ĠÒĽÐ¾Ð¹Ð¼":9028,"ÑĤÐ°Ð¹Ð¼ÑĭÐ½":9029,"ĠÑĢÐµÐ¶Ð¸ÑģÑģÐµÑĢ":9030,"ĠÒ±ÒĵÑĭÐ½":9031,"ĠÒ¯Ð¹ÑĸÐ½ÑĸÒ£":9032,"ÐŃÐļÐ¡ÐŁÐŀ":9033,".Â»":9034,"Ð°Ð²ÑĢ":9035,"ĠÑĪÐ°ÒĽÑĭÑĢÐ°Ð´Ñĭ":9036,"ÐµÐ½Ð´":9037,"ĠÑĤÐ°Ð»Ð°Ð¿ÑĤÐ°ÑĢÐ´Ñĭ":9038,"ĠÐ½ÓĻÑĤÐ¸Ð¶ÐµÐ»ÐµÑĢÑĸÐ½":9039,"ĠÑįÐºÐ¾Ð½Ð¾Ð¼Ð¸ÐºÐ°ÑģÑĭ":9040,"ĠÒļÐ°Ð½Ð°ÑĤ":9041,"ĠÐ¶ÑĭÐ»ÒĽÑĭ":9042,"ĠÐ¼Ò¯Ð´Ð´ÐµÐ»Ñĸ":9043,"ĠÐ¶Ð°ÑģÑĤÐ°ÑĢÑĭ":9044,"ĠÐ¶Ò¯ÑĢÐµ":9045,"ĠÒĵÑĭÐ»ÑĭÐ¼ÑĭÐ½ÑĭÒ£":9046,"ĠÐ´Ð¸ÑĢÐµÐºÑĤÐ¾ÑĢÑĭÐ½ÑĭÒ£":9047,"ĠÑĤÒ¯Ð±ÐµÐ³ÐµÐ¹Ð»Ñĸ":9048,".\"":9049,"ĠÐ¾Ð¿ÐµÑĢÐ°ÑĨÐ¸ÑıÐ»Ð°ÑĢ":9050,"Ð°Ò»Ð°ÑĢ":9051,"ĠÐºÑĸÑĤÐ°Ð¿ÑħÐ°Ð½Ð°ÑģÑĭ":9052,"ĠÐ¼ÓĻÑģÐµÐ»ÐµÐ³Ðµ":9053,"ĠÐºÐ¾Ð½Ð²":9054,"Ð¼ÐµÐ½ÑĤÐ°ÑĢ":9055,"Ð´ÑĸÐºÑĤÑĸ":9056,"ĠÐ¼Ð°Ð¼Ð°Ð½Ð´Ð°ÑĢÐ´Ñĭ":9057,"ĠÐ°Ð³ÐµÐ½ÑĤÑĤÑĸÐº":9058,"ĠÐµÐ³Ñĸ":9059,"ĠÐ°Ð¹Ð¼Ð°ÒĵÑĭ":9060,"Ð¡ÑĥÑĢÐµÑĤ":9061,"ĠÑģÐ°ÑĢÐ°Ð¿ÑĪÑĭÐ»Ð°ÑĢ":9062,"ĠÑĤÐ°Ð¼ÑĭÐ·Ð´Ð°":9063,"ĠÐ´ÐµÐ¼ÐµÐº":9064,"Ġ1991":9065,"Ð°Ð¹Ð·":9066,"Ð±Ð°Ð·":9067,"Ð°Ð»ÑĭÒĵÑĭÐ½ÑĭÒ£":9068,"ĠÐ¸Ð½Ð²ÐµÑģÑĤÐ¸ÑĨÐ¸ÑıÐ»Ð°ÑĢ":9069,"ĠÑĤÑĸÑĢÐºÐµÐ»Ð´Ñĸ":9070,"ĠÐ±Ð¾Ð»Ð´ÑĭÑĢÐ¼Ð°Ñĥ":9071,"ÑĢÐµÑģÑģ":9072,"ÐµÐºÑĨÐ¸ÑıÑģÑĭ":9073,"ÐºÐµÑĪ":9074,"ĠÐ¶Ð°ÑĢÐ¸ÑıÐ»Ð°ÒĵÐ°Ð½":9075,"ĠÑĤÐ°Ð±Ð¸ÒĵÐ°ÑĤÑĤÑĭ":9076,"ĠÐ°ÑĤÐ¼Ð¾ÑģÑĦÐµÑĢ":9077,"ĠÐ¶Ð°ÒĽÑĤÐ°":9078,"ĠÐ¼Ð°Ð¼Ð°Ð½Ð´ÑĭÒĽÑĤÐ°ÑĢ":9079,"ĠÑģÐ¸ÑĭÑĢ":9080,"ĠÑĤÑĥÑĢÐ¸ÑģÑĤÐµÑĢ":9081,"Ð¾Ð³Ñĭ":9082,"ĠÐ·Ð¸ÑıÑĤ":9083,"Ð´ÑĸÐ±ÐµÐº":9084,"ĠÓĻÐºÐµÐ»ÑĸÐ¿":9085,"ÑĪÑĸÑģÑĸÐ½Ðµ":9086,"ÐļÑĸÐ¼":9087,"ĠÓĺÐ»Ñĸ":9088,"ĠÑģÑĭÐ½ÒĵÐ°":9089,"âĢĻ":9090,"ĠÑĢÐ°Ð¹":9091,"ĠÐĸÒ±":9092,"ĠÐŁÐ°ÑĢÐ»Ð°Ð¼ÐµÐ½ÑĤÑĸ":9093,"ĠÐ´Ñĥ":9094,"ĠÒļÐĲÐĹÐĲÒļÐ¡Ð¢ÐĲÐĿ":9095,"ĠÐ¶Ð°Ð·ÑĥÒĵÐ°":9096,"ĠÐ¼ÐµÐ·Ð³":9097,"ĠÒĽÐ¾Ð»Ð´Ð°Ð½ÑĭÐ¿":9098,"ÐµÑĤÑĤÐ°Ð½Ñĥ":9099,"ĠÒĽÐ°Ð»Ð´ÑĭÑĢÑĥ":9100,"ĠÐ±ÑĸÐ»ÑĸÐ¼Ð½ÑĸÒ£":9101,"ĠÑĤÓ©Ð¼ÐµÐ½Ð´ÐµÑĤ":9102,"ĠÑģÐ¸Ð¼Ð²Ð¾Ð»":9103,"ÑĤÐ°Ò£ÑĭÐ·":9104,"ĠÐ±Ð°ÑģÑĭÒ£ÑĭÐ·":9105,"ĠÒĽÐ°ÑĤÑĭÑģÐ°ÑĤÑĭÐ½":9106,"ĠÐ¼Ð°ÑĤÐµÐ¼Ð°ÑĤÐ¸ÐºÐ°Ð»ÑĭÒĽ":9107,"ĠÒĽÐ°ÑĪÑĭÐ¿":9108,"ĠÐ¼Ð°Ð¼Ð°Ð½Ð´Ð°ÑĢÐ´ÑĭÒ£":9109,"ĠÐºÓĻÑģÑĸÐ¿Ð¾ÑĢÑĭÐ½Ð´Ð°ÑĢÐ´ÑĭÒ£":9110,"ĠÒĵÐ¸Ð¼Ð°ÑĢÐ°ÑĤÑĭ":9111,"ĠÐ³ÐµÐ¾Ð³ÑĢÐ°ÑĦÐ¸ÑıÐ»ÑĭÒĽ":9112,"ĠÑĪÑĭÒĵÐ°ÑĢÐ¼Ð°Ð»Ð°ÑĢ":9113,"ĠÐ±Ð¸ÑĸÐºÑĤÑĸÐ³Ñĸ":9114,"ĠÑĭÒĽÑĭÐ»":9115,"ÑģÑĸÐ½Ð´Ðµ":9116,"ÐĳÓ©Ð»":9117,"ĠÑģÐ¾ÒĵÐ°Ð´Ñĭ":9118,"Ð²Ð¾Ðº":9119,"ĠÐ°Ð´Ð°Ð¼Ð½Ð°Ð½":9120,"ĠÒĽÐ¾ÑģÑĭÐ»Ð°Ð´Ñĭ":9121,"ĠÐ¶Ò¯ÑĢÐ³ÑĸÐ·Ð´Ñĸ":9122,"Ð³ÑĸÐ»ÐµÑĢÑĸ":9123,"ĠÐ¼Ð°ÑĤÐµÑĢ":9124,"ÑĥÑĤÐ¸Ð½":9125,"ÒļÐ°Ð»Ð°":9126,"ÑĪÐ°ÑĢÐ°Ð»Ð°ÑĢÐ´Ñĭ":9127,"ram":9128,"ĠÓ©ÐºÑĸÐ»ÐµÑĤÑĤÑĸ":9129,"ÐĳÓĻÐ¹":9130,"ĠÐ°ÑģÑĭÑĢÑĭÐ»Ð°ÑĤÑĭÐ½":9131,"Ð°Ð½ÐºÑĤÑĸÒ£":9132,"Ð¿ÐµÐºÑĤÐ¸Ð²":9133,"ĠÐ¶Ð¾ÑģÐ¿Ð°ÑĢÐ»Ð°Ð½ÑĥÐ´Ð°":9134,"ĠÑĪÐ°Ñħ":9135,"ÑĤÐ°ÑĢÐ¼Ð°ÒĵÑĭÐ½Ð°":9136,"ĠÐ¿Ð°ÑĢÐ»Ð°Ð¼ÐµÐ½ÑĤ":9137,"ĠÐ±Ð°ÑģÑĪÑĭÐ»Ð°ÑĢÑĭÐ½ÑĭÒ£":9138,"ĠÐ°Ð¹Ð¼Ð°ÒĵÑĭÐ½Ð´Ð°":9139,"ĠÐĹÐµÑĢÑĤÑĤÐµÑĥ":9140,"ĠÐ°ÑĢÑĤÐ°Ð´Ñĭ":9141,"ĠÐ±Ò¯Ð¹":9142,"ÑĤÐµÐ·":9143,"Ð¢Ó©Ð»":9144,"ome":9145,"info":9146,"ĠÐ¼ÑĥÐ»ÑĮÑĤ":9147,"ĠÐ¾ÑĢÐ½Ð°ÑĤÑĭÐ»ÒĵÐ°Ð½":9148,"ĠÐ¼Ð¾Ð½Ð¾Ð¿Ð¾Ð»":9149,"ÑĢÐµÑģÑĥÑĢ":9150,"ĠÐ´ÐµÐ¼Ð¾ÐºÑĢÐ°ÑĤÐ¸ÑıÐ»ÑĭÒĽ":9151,"ĠÐŀÑģÑĭÐ½ÑĭÒ£":9152,"ĠÒĽÒ±ÑĢÐ°Ð»Ð´Ð°ÑĢÐ´Ñĭ":9153,"ĠÐ¾ÑĢÐ½Ð°Ð»Ð°ÑģÑĥÒĵÐ°":9154,"Ð¶Ò¯Ð¹":9155,"ĠÐĨÐĨÐľ":9156,"ĠXX":9157,"ĠÐ¶ÐµÑĤÐºÑĸÐ»ÑĸÐº":9158,"ÑĭÐ¼Ð½Ð°Ð½":9159,"ĠÐ¿Ð°Ñģ":9160,"Ó©Ð»Ð´ÑĸÑĢ":9161,"ÐµÐ´Ð¸ÑĨÐ¸Ñı":9162,"ĠÒ¯Ð¹Ð´Ñĸ":9163,"ĠÑģÐ°Ð»Ð°Ð´Ð°ÒĵÑĭ":9164,"ĠÒ±Ð¶ÑĭÐ¼Ñĭ":9165,"ÑĭÒĽÑĤÐ°Ð½":9166,"ĠÓ©Ð·ÐµÐºÑĤ":9167,"ĠÒĽÐ°ÑĢÐ°Ñģ":9168,"ÑĮÑıÐ½":9169,"ĠÒĵÑĭÐ»ÑĭÐ¼Ð´Ð°ÑĢ":9170,"ĠÒĽÑĭÐ·Ð´Ñĭ":9171,"ÐĿÐµ":9172,"ĠÒ¯ÐºÑĸÐ¼ÐµÑĤÑĸ":9173,"Ð¶Ò¯ÑĢÐ³ÑĸÐ·ÑĥÑĪÑĸ":9174,"ĠÑģÐ°Ð¿Ð°":9175,"ÑģÑĤÑĢÑĥÐºÑĨÐ¸Ñı":9176,"ĠÐ±ÑĸÑĢÑĸÐ½Ð´Ðµ":9177,"ĠÐ±ÐµÑĢÐµÐ¼ÑĸÐ·":9178,"Ġ52":9179,"ÐĺÑģÐ»Ð°Ð¼":9180,"ĠÑĪÑĸÐ»Ð´ÐµÐ´Ðµ":9181,"ĠÒĽÐ¾Ð»ÑĭÐ½Ð´Ð°":9182,"ÐµÑģÑĤÑĸÑĢ":9183,"ĠÐºÓ©ÑĪÑĸÑĢÑĥ":9184,"ÐºÐ¾Ð¼Ð¼ÑĥÐ½Ð°Ð»Ð´ÑĭÒĽ":9185,"ĠÐ°Ð»Ð°ÑĢ":9186,"ĠÒĽÐ°Ð»Ð°Ð»Ð°ÑĢÐ´ÑĭÒ£":9187,"ÐºÐ¾Ð»Ð¾Ð³Ð¸Ñı":9188,"ĠÐ¶Ð°ÑĢÐ°Ð¼":9189,"ĠÒĽÐ°Ð±Ð°ÑĤÑĤÑĭ":9190,"Ð¸ÐºÐ°Ñı":9191,"ĠÑĸÑģÑĸÐ½Ðµ":9192,"ĠÐĺÑĢ":9193,"Ġ85":9194,"ÑĨÐµÐ²":9195,"ĠÐ±ÑĸÐ»Ð´Ñĸ":9196,"ĠÐµÑģÐµÐ±ÑĸÐ¼ÐµÐ½":9197,"ÑĪÑĸÐ»ÐµÑģ":9198,"ĠÑĪÐ°ÑĢÑĥÐ°ÑĪÑĭÐ»ÑĭÒĵÑĭÐ½ÑĭÒ£":9199,"ĠÐ¡Ò¯Ð»ÐµÐ¹Ð¼ÐµÐ½":9200,"ÑĸÐ»ÑĸÐ³ÑĸÐ½Ðµ":9201,"ĠÐ±Ð°Ð»Ð°ÑģÑĭÐ½ÑĭÒ£":9202,"ĠÐ´ÓĻÐ¿":9203,"ĠÒļÐ¥":9204,"ĠÒĽÐ°ÑĤÐµ":9205,"ĠÐ£Ð°ÒĽÑĭÑĤ":9206,"ĠÐ¾Ð¿ÐµÑĢÐ°ÑĤÐ¾ÑĢ":9207,"ÓĻÐ¹ÐºÐµÑģ":9208,"ĠÒ°Ð¹ÑĭÐ¼Ð´Ð°ÑģÑĤÑĭÑĢÑĥ":9209,"ÑģÑģÐµ":9210,"ÐĨÐ¥":9211,"ĠÐ¶ÑĸÐ±ÐµÑĢÑĸÐ»Ð³ÐµÐ½":9212,"mi":9213,"Ð»Ð¾ÑĢ":9214,"ÐĲÐ¨":9215,"ĠÐ°ÑĥÑĭÑĤ":9216,"ĠÐ¶Ð°Ð½Ò±Ñı":9217,"ĠÑĤÐ°Ð½ÑĭÑģÑĭÐ¿":9218,"ĠÑħÐ°Ð±Ð°ÑĢÐ»Ð°ÑĥÑĭÐ½ÑĪÐ°":9219,"Ð¤ÐŀÐ¢Ðŀ":9220,"ĠÑģÓĻÑĥÑĸÑĢÐ´Ðµ":9221,"ĠÐĸÐ¾Ð»Ð´Ð°ÑĥÑĭÐ½Ð´Ð°":9222,"ĠÑĤÐµÐ»ÐµÐ°ÑĢÐ½Ð°ÑģÑĭÐ½ÑĭÒ£":9223,"Ð´ÓĻÑĢÐ¼ÐµÐº":9224,"Ð±Ò±ÑĢÑĭÑĪ":9225,"ĠÐ¡ÑĭÐ½":9226,"ĠÑĦÐ¾Ð½":9227,"ĠÐ±ÑĸÑĤÑĸÑĢ":9228,"ĠÑĤÐµÑĤÑĸÐº":9229,"Ð¢Ð¾Ð»":9230,"ÑĸÐ»ÐµÑĢÐ´Ñĸ":9231,"ĠÐ¶Ð°Ð»Ð¿ÑĭÒĵÐ°":9232,"ĠÐ¸Ð³ÑĸÐ»ÑĸÐ³Ñĸ":9233,"Ð¾ÑĢÐ³Ð°Ð½":9234,"ĠÐ¢Ðķ":9235,"Ð»ÑĸÐ³ÑĸÐ¼ÐµÐ½":9236,"ĠÐĲÐ»Ð»":9237,"ĠÐ¶Ð°Ð±ÑĭÒĽ":9238,"ĠÒ±ÑĤÑĭÐ¼Ð´Ñĭ":9239,"ĠÑģÐ¾ÑĤÑĤÐ°Ð»ÒĵÐ°Ð½":9240,"ÑĤÐµÐ³":9241,"ĠÑĤÒ±ÒĵÑĭÑĢ":9242,"ĠÑĭÒĽÑĤÐ¸Ð¼Ð°Ð»":9243,"âĢİ":9244,"ĠÑĤÐ°ÑĢÑĤÑĭÐ»ÒĵÐ°Ð½":9245,"ĠÒļÒ±ÑĢÐ¼ÐµÑĤÑĤÑĸ":9246,"ĠÐļÐ¾Ð½ÐºÑĥÑĢÑģ":9247,"ÑģÑĤÐ²Ð¾":9248,"ĠÐľÒ±ÑħÐ°Ð¼Ð¼ÐµÐ´":9249,"Ð¶Ó©Ð½Ñĸ":9250,"Ð½Ð¾Ð·":9251,"Ð¾ÑģÑĭÐ½ÑĭÒ£":9252,"ĠÑĤÐ°Ò£ÐµÑĢÑĤÐµÒ£":9253,".:":9254,"Ð¡Ð«":9255,"ĠÐ°Ð½ÑĭÒĽÑĤÐ°Ð»":9256,"ĠÓĻÐ½Ð´ÐµÑĢ":9257,"ÐŁÐ£ÐĳÐĽ":9258,"Ð¡Ð°ÑĢ":9259,"ÑıÑĤ":9260,"ĠÐ¼ÐµÐ½ÑĪÑĸÐºÑĤÑĸ":9261,"Ġ56":9262,"ĠÑģÐ°Ð»ÑĭÒĽÑĤÑĭÒĽ":9263,"ÑģÐ°Ð»ÑĭÑģ":9264,"ÐµÑĤÐ°":9265,"ĠTV":9266,"ĠÐ¼Ð°ÒĽÐ°Ð»Ð°ÑģÑĭ":9267,"ĠÐ¿ÑĥÐ½ÐºÑĤ":9268,"ÓĻÑĥ":9269,"Ð¸ÐºÐ°ÑģÑĭÐ½ÑĭÒ£":9270,"ĠÒĽÑĭÐ·Ñĥ":9271,"ĠÐ°ÑĤÑĭÐ½Ð°":9272,"ĠÒĵÐ°ÑĪ":9273,"ĠÐ¨ÐµÑĤÐµÐ»":9274,"ĠÐ´ÐµÐ¼ÐµÑĥ":9275,"ĠÐ½Ð¾ÑĢÐ¼Ð°ÑĤÐ¸Ð²":9276,"Ð¸ÐºÐ°ÒĵÐ°":9277,"Ð¸ÑĦÐ¸ÐºÐ°ÑĨÐ¸Ñı":9278,"Ð»Ð°Ð½Ñĥ":9279,"ĠÑĪÐ¸":9280,"ĠÐĳÐ¾Ð»Ð°ÑĪÐ°ÒĽ":9281,"ÐºÐµÑģÑĸÐ½":9282,"ĠÐ½Ð°ÑĢÐ°Ð·":9283,"ĠÒļÐ¾ÑĢÒĵÐ°Ð½ÑĭÑģ":9284,"Ð·Ð°Ð¹ÑĭÐ¿ÑĤÑĭ":9285,"Ð¡ÓĻÐ»ÐµÐ¼":9286,"ĠÐ¿Ð°ÑĢÐ°ÒĽÑĪÐ°ÑģÑĭÐ½Ð´Ð°":9287,"Ð½ÑĭÐµ":9288,"ĠÑĤÐ°Ò£Ð±":9289,"Ġ1992":9290,"ĠÐĲÒĽÐ¿Ð°ÑĢÐ°ÑĤÑĤÑĭÒĽ":9291,"ĠÐ¸Ð½ÑĤÐµÐ»Ð»ÐµÐºÑĤÑĥ":9292,"ĠÒļÐ«ÐĹ":9293,"ĠÐļÐ»":9294,"ĠÑģÑĥÐ´Ñĭ":9295,"ĠÓ©ÐºÑĸÐ»ÐµÑĤÑĤÑĸÐº":9296,"ĠÐºÓ©ÑĢÑģÐµÑĤÐºÑĸÑĪÑĤÐµÑĢÑĸ":9297,"76":9298,"Ð°Ð¿Ð°Ð½":9299,"ĠÑĤÐ°ÑģÒĽÑĭÐ½":9300,"ĠÑģÑĭÐ¹Ð»ÑĭÒĽÑĤÐ°ÑĢ":9301,"ĠAr":9302,"ĠÒ±ÒĵÑĭÐ¼Ñĭ":9303,"ĠÐºÐ¾Ð»Ð»ÐµÐ´Ð¶Ñĸ":9304,"ÑģÑĤÑĭÒĽ":9305,"ĠÐĶÒ¯Ð¹":9306,"ĠÐ¼Ð¸Ð½Ð¸ÑģÑĤÑĢÐ»ÑĸÐº":9307,"ÐµÐ¼ÐµÐ½ÑĪÑĸÐº":9308,"Ð±Ð°Ð½Ðº":9309,"ĠÑģÒ±ÑĢÐ°Ð¹Ð´Ñĭ":9310,"ÐŃÐ»ÐµÐºÑĤÑĢÐ¾Ð½Ð´ÑĭÒĽ":9311,"ĠÐ°ÑĥÐ´Ð°ÑĢÑĭÐ¿":9312,"ĠÑĤÑĸÐ·ÑĸÐ»ÑĸÐ¼":9313,"ÑģÑĤÐ°ÒĵÑĭ":9314,"ÑħÐµÐ¼":9315,"ĠÐŁÓĻÐ½":9316,"ĠÐ¾Ð±Ð»ÑĭÑģÑĭÐ½Ð°":9317,"ĠÑĥÓĻÐ´Ðµ":9318,"Ð¼Ð±ÐµÐ±Ð°Ð¿":9319,"Ġ....":9320,"ĠÐľÐ°ÒĵÐ°Ð½":9321,"ĠÑģÐ°ÑĥÐ°ÑĤ":9322,"ĠÐ°ÑĤÒĽÐ°ÑĢÑĭÐ»ÒĵÐ°Ð½":9323,"ĠÑĦÑĢÐ°Ð½ÑĨÑĥÐ·":9324,"52":9325,"ÑģÐ°Ð¿":9326,"ÐµÐ½Ðµ":9327,"ĠÐ±ÑĸÐ»ÐµÐ¼ÑĸÐ½":9328,"ĠÐ±Ð°ÑģÑĤÐ°Ð¼Ð°ÑģÑĭ":9329,"ĠÑģÑĤÐ¸":9330,"ĠÐ¼ÓĻÒ£Ð³ÑĸÐ»ÑĸÐº":9331,"ÑģÐ°ÑĥÐ¸":9332,"ĠÐºÐµÐ·Ð´ÐµÑģÑĥÐ»ÐµÑĢ":9333,"ĠÐ³ÐµÐ¾Ð³ÑĢÐ°ÑĦÐ¸Ñı":9334,"ĠÐµÑĢÐ»ÑĸÐº":9335,"ÐĲÐ¢Ð«":9336,"ĠÐºÓ©Ð±Ñĸ":9337,"ĠÑģÐ°Ð»ÑĭÐ½Ð°ÑĤÑĭÐ½":9338,"ĠÑĭÐ»ÒĵÐ°Ð»":9339,"ĠÐ¶Ð°ÑıÑĥ":9340,"ÑĸÑĢÑĸÐº":9341,"ĠÒļÐĲÐĽ":9342,"Ð¢ÑĥÑĢ":9343,"ĠÐ¿ÑģÐ¸ÑħÐ¸ÐºÐ°Ð»ÑĭÒĽ":9344,"ĠÑģÐ°Ð½Ð°Ð»Ð°ÑĤÑĭÐ½":9345,"ÑĤÑĸÐ½ÑĸÑĪ":9346,"ĠÐºÐ¾Ð½ÑģÑĥÐ»ÑĮ":9347,"54":9348,"ÐµÐ½Ð°":9349,"ÑĤÒ¯ÑģÑĸÐ½":9350,"ĠÑĢÑĭÐ½":9351,"Ð¼ÑĭÑģÐ°Ð»Ñĭ":9352,"ĠÐ´ÓĻÑĢÑĸÑģ":9353,"ÐĸÐµÑĢÐ³ÑĸÐ»ÑĸÐºÑĤÑĸ":9354,"ĠÒĽÒ±ÑĢÒĵÐ°ÒĽ":9355,"ĠÑģÑĥÐ´ÑĭÒ£":9356,"ĠÑĨÐ¸ÐºÐ»":9357,"ĠÐ°Ò£ÒĵÐ°ÑĢ":9358,"Ð¦ÐĺÐ¯":9359,"ĠÐ±Ð°Ð»Ð°ÑģÑĭÐ½":9360,"ĠÑįÐºÑĢÐ°Ð½":9361,"ÒĵÑĭÐ»ÑĭÒĽ":9362,"ÒĽÒ±Ð»ÑĭÒĽ":9363,"ĠÒĽÐ°ÒĵÐ¸Ð´Ð°Ð»Ð°ÑĢÑĭ":9364,"ĠÑĢÐµÑģÑĥÑĢÑģÑĤÐ°ÑĢÑĭ":9365,"ĠÐĳÐ¾ÑĢ":9366,"Ð¾Ð¼ÑĭÑĪ":9367,"ĠÐµÐ¼ÑħÐ°Ð½":9368,"ÑĭÒĵÑĭÐ¿":9369,"Ð°Ð´Ð¸Ð¹":9370,"Ð±Ó©Ð»ÑĸÐ¼":9371,"ĠÐºÓ©ÑĪÑĸ":9372,"ĠÐĲÐ¿":9373,"ĠÐ°ÑĢÐ°ÑģÑĭÐ½Ð°Ð½":9374,"ĠÐļÐµÐ´ÐµÐ½":9375,"ĠÒĽÐ°Ð½ÑĪÐ°Ð¼Ð°":9376,"ĠÐºÐµÑĪÑĸÐºÑĤÑĸÑĢ":9377,"ÑĤÐ°Òĵ":9378,"ĠÒĽÒ±ÑĢÒĵÐ°Ð½":9379,"ĠÑĢÐµÑĦÐµÑĢÐ°ÑĤ":9380,"ce":9381,"ĠÑĪÐµÐ±ÐµÑĢÑĸ":9382,"ĠÐĳÐĲÐ¡":9383,"ĠÓ¨Ò£ÑĸÑĢ":9384,"ĠÐ¿Ð¾ÑįÐ·Ð¸Ñı":9385,"ĠÑĤÐµÒ£Ð³ÐµÐ½ÑĸÒ£":9386,"ÑĭÑģÒĽÐ°Ð½":9387,"ĠÓĻÐ»Ð³Ñĸ":9388,"Ġ51":9389,"Ð¾ÑĢÐ¼Ð°ÑĤÐ¸Ð²ÑĤÑĸÐº":9390,"ĠÒĽÒ±Ð»Ð°Ð¿":9391,"Ð°ÑĢÐ¼Ð°":9392,"ÑĦÑĥÐ»Ð»Ð¸Ð½":9393,"ĠÐ¾ÑĢÐ½ÑĭÐ½ÑĭÒ£":9394,"ĠÑĤÐ°ÑģÑĤÐ°Ñĥ":9395,"Ġ%-":9396,"ÑĢÐ°Ð·Ð¸Ð»":9397,"ĠÐ±ÐµÐ»ÑģÐµÐ½Ðµ":9398,"ÐµÐ½ÑĤÑĢ":9399,"ÒļÑĥ":9400,"ĠÒļÐ°ÑĢÑĥÐ»Ñĭ":9401,"ĠÐ°Ð»Ð¼Ð°Ð¹Ð¼ÑĭÐ½":9402,"ĠÐ±Ð°ÑģÒĽÐ°Ð½":9403,"ÑĤÐ°Ðº":9404,"ĠÐ¢Ð°Ð»Ð´ÑĭÒĽÐ¾ÑĢÒĵÐ°Ð½":9405,"ÑİÐ½":9406,"ĠÐĺÐ»ÑĮ":9407,"ĠÐµÒ£Ð±ÐµÐºÑĤÑĸ":9408,"Ġe":9409,"ĠÐŀÑĢÑĤ":9410,"ĠÑĤÐµÐ°ÑĤÑĢÑĭ":9411,"ĠÐ±Ð°ÑģÑĪÑĭÐ»ÑĭÒĽÒĽÐ°":9412,"ĠÐºÐ¾Ð¼Ð¿Ð¾Ð½ÐµÐ½ÑĤ":9413,"ĠÑħÐ°Ð»ÒĽÑĭÐ¼ÑĭÐ·Ð´ÑĭÒ£":9414,"ĠÒ±ÑģÑĤÐ°Ð½ÑĭÐ¼":9415,"ĠÑħÐ°Ð»ÑĭÒĽÑĤÑĭÒĽ":9416,"ĠÒĽÒ±Ð¶Ð°ÑĤÑĤÐ°ÑĢÑĭÐ½":9417,"ĠÑĪÐ°Ò£ÑĭÑĢÐ°ÒĽ":9418,"ÑĥÐ½Ð¸ÑĨÐ¸Ð¿Ð°Ð»Ð¸ÑĤÐµÑĤ":9419,"72":9420,"ĠÐ²Ð¸Ð´Ðµ":9421,"ĠÐļÐ¾Ð¼Ð¿Ð°Ð½Ð¸Ñı":9422,"Ó©Ð·ÐµÐ½":9423,"ĠÐ¶Ò¯ÑĢÐµÐºÑĤÐµÐ½":9424,"ĠÐ±Ð¸Ð´Ð°Ð¹":9425,"Ð°Ð»ÑĮÐ´Ñĭ":9426,"Ð´ÓĻÑĥÑĸÑĢ":9427,"ĠÐ¶Ð°Ð´":9428,"ÐľÐ°Ð¼Ð°Ð½":9429,"ĠÐ¸Ð·":9430,"ÑĸÐ»ÑĥÑĸÐ½Ðµ":9431,"ÐµÐ¿Ð°ÑĢÑĤÐ°Ð¼":9432,"ĠÒĽÐ¾Ð»Ñĭ":9433,"ĠÐ¾ÑĢÐ³Ð°Ð½ÒĵÐ°":9434,"ĠÐºÐµÐ·ÐµÒ£Ð³Ðµ":9435,"ĠÑĢÓ©Ð»ÑĸÐ½":9436,"ÑĪÐµÐ²":9437,"ĠÐ±Ð°ÑģÑĪÑĭÐ»ÑĭÒĵÑĭ":9438,"ĠÒĽÒ±ÒĽÑĭÒĽÑĤÐ°ÑĢ":9439,"ĠÑĩÐµÐ¼Ð¿Ð¸Ð¾Ð½Ð°ÑĤÑĭ":9440,"ĠÐ·Ð¸ÑıÑĤÐºÐµÑĢÐ»ÑĸÐº":9441,"ĠÐľÓĺ":9442,"ĠÒĽÐ°ÑģÐ¸ÐµÑĤ":9443,"Ð¾ÑĢÐº":9444,"Ð´Ð°Ð½ÑĭÐ¿":9445,"ĠÐ³ÑĢÐ°Ð´":9446,"Ġ1993":9447,"ĠÑģÐ°Ð±Ð°ÒĵÑĭ":9448,"ĠÑĭÐ½ÑĤÑĭÐ¼Ð°ÒĽÑĤÐ°ÑģÑĤÑĭÒĽÑĤÑĭ":9449,"ĠÐļÐ¾Ð½ÑģÑĤÐ¸ÑĤÑĥÑĨÐ¸ÑıÐ»ÑĭÒĽ":9450,"ĠÐŀÒĽÑĥÑĪÑĭÐ»Ð°ÑĢÐ´Ñĭ":9451,"ÐµÐ½ÑĸÐ¿":9452,"ÑĤÑĢÐ¾Ð¿":9453,"ĠÐ·ÐµÑĢÑĤÑĤ":9454,"ĠÒĽÐ°Ð»Ð°Ð´Ð°ÒĵÑĭ":9455,"79":9456,"ÑĤÑĤÑĸÐº":9457,"ĠÐ½ÐµÐ³ÑĸÐ·Ð´ÐµÐ»":9458,"ĠÑįÐºÐ¾Ð»Ð¾Ð³Ð¸Ñı":9459,"ĠÐ¿ÑĢÐ¾ÑĨÐµÑģ":9460,"ĠÐ±Ð°Ð¹ÒĽÐ°ÑĥÒĵÐ°":9461,"ĠÐºÑĸÑĢÐ³ÐµÐ½":9462,"Ò®Ð»ÐºÐµÐ½":9463,"ÑĦÐ¸Ð»ÑĮÐ¼":9464,"ĠÐ±Ð°Ð¹ÒĽÐ°ÑĥÑĭÐ½ÑĭÒ£":9465,"Ð°Ð½ÑĤÑĤÐ°ÑĢ":9466,"Ð°ÑĥÑĭÑĤÑĭ":9467,"Ð¸ÑĤÐ¾ÑĢÐ»ÑĭÒĽ":9468,"ĠÐ¨Ð°Ð»":9469,"Ð¸Ð·Ð¸Ð½Ð³":9470,"Ð°ÒĽÑĤÐ°ÑĢÑĭÐ½":9471,"Ð°Ð»ÑĭÒĵÑĭÐ¼ÐµÐ½":9472,"Ð¾Ñį":9473,"ĠÐ±ÐµÑĤÑĸ":9474,"ĠÐ¶Ð°ÑĢÑĭÐ»":9475,"ĠÐµÐ½Ð³iÐ·":9476,"ĠÑĤÑĥÑĭÐ»ÒĵÐ°Ð½":9477,"Ġ250":9478,"ÑĸÐ»Ð¼ÐµÐ¹Ð´Ñĸ":9479,"ÐľÑĸÐ½Ðµ":9480,"ĠÐ³Ð¸Ð´":9481,"ÑģÐ°ÑĤÑĤÑĭÒĽ":9482,"ÑĤÑĭÐ»Ð´Ñĭ":9483,"Ġ68":9484,"ĠÐ¡Ð¾Ð»Ð°ÑĢÐ´ÑĭÒ£":9485,"ÒļÐ°ÑĢÐ¶Ñĭ":9486,"ĠÐ¶Ò±ÑĢÑĤÑĪÑĭÐ»ÑĭÒĽ":9487,"ĠÑģÒ¯Ð¹ÑĸÑģÐ¿ÐµÐ½ÑĪÑĸÐ»ÑĸÐº":9488,"Ð¢Ð°Ð»":9489,"Ġ41":9490,"ĠÐ¶Ð¸Ð½Ð°ÒĵÐ°Ð½":9491,"ĠÐºÐµÐ·Ð´ÐµÑģÑĥÑĸ":9492,"ĠÐ¾ÑĤÑĭÐ·":9493,"ĠÐ¶Ð¾ÑģÐ¿Ð°ÑĢÐ»Ð°ÑĢÑĭ":9494,"ĠÐ´Ð¾Ð»Ð»Ð°ÑĢÒĵÐ°":9495,"ÒļÐ°Ð½Ð´Ð°Ð¹":9496,"Ð¶ÑĸÐºÑģÑĤÐ°Ð½":9497,"ĠÒ±Ð¶ÑĭÐ¼Ð´ÑĭÒĽ":9498,"ĠÐºÓ©ÑĢÑĪÑĸ":9499,"ÒĽÑĭÐ»Ð´Ñĭ":9500,"ĠÐ°Ð¹Ð½Ð°Ð»ÑĭÑģÐ°Ð´Ñĭ":9501,"ĠÑĤÑĢÐµÐ½Ð¸Ð½Ð³":9502,"ĠÐ¶Ð¾ÒĵÐ°Ð»ÑĭÐ¿":9503,"ÐĲÒĵÑĭÐ¼Ð´Ð°ÒĵÑĭ":9504,"ĠÐ¶ÑĭÐ»ÑĭÐ½Ð´Ð°":9505,"ĠÑįÐ¼Ð¾":9506,"ĠÑģÓ©Ð·Ð´ÐµÑĢÐ´ÑĸÒ£":9507,"ĠÑģÐ°Ð½Ð´Ð°ÑĢ":9508,"iÐ»ÐµÐ´i":9509,"ĠÒĽÐ°Ð»Ð°ÒĵÐ°":9510,"ÑĤÐ°Ð¼ÑĭÐ½":9511,"nd":9512,"ĠÐ¼Ð°ÒĽÑģÐ°ÑĤÑĭÐ½":9513,"ĠÑģÒ¯Ñİ":9514,"ĠÐ¼ÐµÐºÑĤÐµÐ±ÑĸÐ½Ð´Ðµ":9515,"ĠÒļÐ°ÑĢÐ°ÑĪÐ°":9516,"Ð°ÑıÒĵÑĭ":9517,"ĠÐ±Ó©Ð»ÑĸÐ¼ÑĸÐ½Ðµ":9518,"ĠÐľÐ°Ð½":9519,"ĠÐ¼ÐµÑĢÐµÐºÐµÑģÑĸÐ½Ðµ":9520,"ĠÓ©Ð·ÐµÐ½ÑĸÐ½ÑĸÒ£":9521,"ĠÐ´Ð°Ò£ÒĵÑĭÐ»Ñĭ":9522,"ĠÐ¼ÉĻ":9523,"ĠÐ±Ó©Ð»Ð¼Ðµ":9524,"ÑģÐ°ÑĥÑĭÒĽ":9525,"ĠÐ¼ÓĻÐ½ÐµÑĢÐ»ÐµÐ¿":9526,"ĠÐ¶Ð°Ð»ÒĵÐ°ÑģÑĭÐ½":9527,"ĠÓ©Ð½ÐµÑĢÐºÓĻÑģÑĸÐ±Ñĸ":9528,"ÑģÐ¾Ð»":9529,"ÐĲÐ»Ð°Ð¹Ð´Ð°":9530,"ĠÐ¸Ð½ÑĦÐ»ÑıÑĨÐ¸Ñı":9531,"ÐµÒ£Ð±ÐµÐº":9532,"Ð¸ÑĤÐ¼":9533,"Ð¶Ð¾Ð»Ð¾Ð²":9534,"ĠÐ´ÐµÒ£Ð³ÐµÐ¹Ð³Ðµ":9535,"ĠÑģÓĻÑĤÑĤÑĸÐ»ÑĸÐº":9536,"Ð»ÑĭÐ»":9537,"ĠÐ¶Ð¾Ð»Ð´Ð°Ð¼Ð°":9538,"ĠÓĻÐ»ÐµÑĥÐµÑĤÑĤÑĸ":9539,"ĠÒĽÐ°Ð»Ð°Ð»Ð°ÑĢÑĭÐ½ÑĭÒ£":9540,"ĠÐ¶ÐµÒ£ÑĸÑģ":9541,"ĠÒļÐ°ÑĤÑĭÑģ":9542,"ĠÐĲÑģÐ°Ð½":9543,"2008":9544,"ÐķÐ¡ÐĨ":9545,"ĠÐºÒ¯Ð´ÑĸÐºÑĤÑĸ":9546,"ÓĻÐ·ÑĸÐº":9547,"ĠÒĽÒ±Ð´Ð°Ð¹":9548,"ĠÑĤÓĻÑĢÐ±Ð¸ÐµÑĪ":9549,"ÐµÑĪÐµÐ³Ñĸ":9550,"Ð«ÐĿÐĲ":9551,"ĠÐ±ÑĸÑĤÐºÐµÐ½":9552,"ÒļÐļÐŀ":9553,"iÐ½ÐµÐ½":9554,"ĠÑĤÐ°ÒĵÑĭÐ»ÑĭÐ¼":9555,"ÐľÓĻÒ£Ð³ÑĸÐ»ÑĸÐº":9556,"ĠÐ¡Ð¾ÑģÑĭÐ½":9557,"ĠÐµÑģÑĤÐµÐ»ÑĸÐº":9558,"ÐµÐ»Ðµ":9559,"ĠÒĽÒ±ÑĢÑĭÐ»Ð°Ð´Ñĭ":9560,"ĠÓ¨Ð»ÐµÒ£":9561,"ĠÐ±Ð¾Ð»Ð¼Ð°Ð´Ñĭ":9562,"ĠÐ¿ÐµÑĢÐ·":9563,"ra":9564,"Ð¾ÑĢÐ´ÑĭÒ£":9565,"Ð¶Ò¯ÑĢ":9566,"ĠÐĸÒ¯ÑģÑĸÐ¿":9567,"ĠÐºÐµÐ·Ñĸ":9568,"ĠÐ´Ð°Ð¼ÑĭÑĤ":9569,"ĠÐ¼Ð°Ð¹Ð´Ð°Ð½":9570,"ĠÐ¢ÑĸÑĢ":9571,"ĠÓ©Ò£ÑĸÑĢÐ´Ðµ":9572,"ĠÑĤÐ°Ð·Ð°Ð»Ð°Ñĥ":9573,"ĠÐĲÐ£":9574,"ĠÐ¼ÓĻÐ¼ÑĸÐ»":9575,"ĠÐĳÑĢ":9576,"ĠÑĤÐ°Ð±ÑĭÑģÑĤÐ°ÑĢ":9577,"ĠÒĽÒ±ÑĢÑĭÐ»ÑĭÑģÑĭÐ½Ð°":9578,"Ð¸Ð´Ð°ÐºÑĤÐ¸ÐºÐ°Ð»ÑĭÒĽ":9579,"Ġâ":9580,"ÓĺÐºÑĸÐ¼":9581,"ĠÑģÐ°Ð»ÑĭÑģÑĤÑĭÑĢÐ¼Ð°Ð»Ñĭ":9582,"ÑģÐµÐ¹ÑĸÑĤ":9583,"ĠÐ±ÓĻÐ¹":9584,"ÑĭÐ½ÑĪÑĭ":9585,"ĠÑĤÓĻÑĤÑĤÑĸ":9586,"ĠÒĽÑĭÑĢÒĵÑĭÐ·":9587,"ĠÐºÐ»ÑĥÐ±ÑĭÐ½ÑĭÒ£":9588,"ÑĤÑĭÑĢÒĵÐ°Ð½":9589,"ĠÐŀÐ´Ð°ÒĵÑĭÐ½ÑĭÒ£":9590,"ĠÑģÓĻÐ»":9591,"ĠÐ¶ÐµÑĤÑĸÑģÑĤÑĸÐºÑĤÐµÑĢÑĸ":9592,"ÐºÑĥ":9593,"ĠÐ±ÑĢÐ¸ÑĦÐ¸Ð½Ð³":9594,"Ð¶ÑĭÐ»Ð´Ñĭ":9595,"ĠÐ°Ð»Ð´ÑĭÒĽ":9596,"ĠÐ°Ð½Ð°Ð¼":9597,"ĠÑĤÒ¯ÑģÑĸÐ½ÑĸÐ³Ñĸ":9598,"ĠÐ°Ð¿ÑĤÐ°Ð´Ð°":9599,"ĠÐ±Ð°ÑģÐ¿Ð°Ð½Ð°":9600,"ÐµÐºÑĤÑĸÐº":9601,"ĠÑĤÒ±Ð»ÒĵÐ°Ð½Ñĭ":9602,"ĠÐ¶ÑĭÑĢÐ°Ñĥ":9603,"ĠÑĤÐ°Ð¼Ð°ÒĽÑĤÐ°Ð½":9604,"ĠÑħÐ°Ð½Ð´ÑĭÒĵÑĭÐ½ÑĭÒ£":9605,"Ð¢Ð°ÒĵÑĭ":9606,"Ð¸ÐºÐ°ÑģÑĭÐ½":9607,"Ð¡ÐµÐ¹":9608,"ĠÐ¸Ð½Ð´ÐµÐº":9609,"ĠÑģÒ±ÑĢÐ°ÒĵÐ°Ð½":9610,"ĠÐĸÐ°ÑĢÐ¸Ñı":9611,"ĠÒĽÐ°ÑĤÑĭÐ½Ð°ÑģÑĭ":9612,"ĠÐ´ÐµÐºÐ»Ð°ÑĢÐ°ÑĨÐ¸Ñı":9613,"Ġ;":9614,"Ð¨ÐµÑĤÐµÐ»":9615,"ĠÑĸÑĪÑĸÐ¿":9616,"ĠÐ¾ÑĢÐ³Ð°Ð½Ð´Ð°ÑĢÑĭÐ½Ð°":9617,"ĠÐµÑĢÐµÐ¶ÐµÑģÑĸÐ½":9618,"ĠÐĺÑģÐ¿Ð°Ð½Ð¸Ñı":9619,"ĠÑģÐ°Ð½ÐºÑĨÐ¸Ñı":9620,"ĠÐ±ÐµÐ»ÑģÐµÐ½Ð´ÑĸÐ»ÑĸÐ³ÑĸÐ½":9621,"ĠÐ±Ð¾Ð»Ð°ÑĪÐ°ÒĽÒĽÐ°":9622,"ĠÐļÓ©Ð¿ÑĤÐµÐ³ÐµÐ½":9623,"ĠÑĤÐ°Ð»Ð°Ð½ÑĤÑĤÑĭ":9624,"ĠÐ¼Ò¯Ð¼ÐºÑĸÐ½Ð´ÑĸÐºÑĤÐµÑĢ":9625,"ĠÒĽÒ±ÑĢÑĭÐ»ÑĭÐ¼ÑĭÐ½":9626,"ÑĤÐ°Ð½ÑĭÐ¼Ð´ÑĭÒĽ":9627,"ros":9628,"ĠÑģÐµÐ¿ÑĤÑĸÐ³ÑĸÐ½":9629,"ÑģÓĻ":9630,"ĠÐ¶Ò¯Ð³ÑĸÑĢ":9631,"ĠÐ¼ÐµÐ·Ð³ÑĸÐ»Ð´Ðµ":9632,"Ð±Ð°ÑĤÑĤÑĭ":9633,"ĠÐĳÐµÐ¹Ð½":9634,"ĠÐľÐµ":9635,"ĠÒĽÐ°Ð¹ÑĪÑĭ":9636,"Ñĳ":9637,"Ġn":9638,"ÐĽÐĨ":9639,"ĠÒ±ÑĢÐ¿Ð°ÒĽÑĤÑĭÒ£":9640,"ĠÐ¶ÑĭÐ»Ð´Ð°Ð¼Ð´ÑĭÒĵÑĭ":9641,"ĠÑĤÐ°Ð½ÑĭÑĤÑĭÐ¿":9642,"ĠÐµÑĢÑĸÐºÑĤÑĸ":9643,"ÓĻÑĢÐµÐºÐµÑĤÑĸ":9644,"ĠÐľÐ°ÑĢÐ°ÑĤ":9645,"ĠÓĻÐ»ÐµÑĥÐµÑĤÑĸÐ½":9646,"ob":9647,"ĠÐ¾Ð´Ð°ÒĵÑĭ":9648,"ĠÐ°ÑģÑĭÑĢÐ°Ð¿":9649,"ĠÓ©Ð·Ð³ÐµÑĢÑĸÐ¿":9650,"ÑĢÐ°Ð¼Ð¼Ð°":9651,"ĠÐ¾Ð±ÑĬÐµÐºÑĤÑĸÑģÑĸ":9652,"Ð¾ÒĵÐ°Ð½":9653,"ĠÐ±ÑĸÑĢÑĤÒ±ÑĤÐ°Ñģ":9654,"ĠÐ±ÐµÑĢÐµÐ¼ÑĸÐ½":9655,"ÐĶÓĻ":9656,"ÑĥÑĢÐµÑĤÑĤÐµÑĢ":9657,"ĠÐ·Ð°ÑĥÑĭÑĤÑĭ":9658,"ÒĽÑĭÒĵÐ°":9659,"ĠÐºÐ¾ÑĢÐ¿Ð¾ÑĢÐ°ÑĨÐ¸ÑıÑģÑĭ":9660,"ĠÐ°Ð¹ÑĭÑĢÐ¼Ð°ÑĪÑĭÐ»ÑĭÒĵÑĭ":9661,"ĠÑĤÐ°Ð±ÑĭÑģÑĭ":9662,"ĠÒļÑĭÐ·Ð¼ÐµÑĤ":9663,"Ð¢ÐµÐ³ÑĤÐµÑĢ":9664,"ĠâĢº":9665,"ĠÐµÑĢÐ»ÐµÑĢ":9666,"ĠÒĽÐ¾ÒĵÐ°Ð¼ÒĵÐ°":9667,"ĠÐ¼Ð°ÒĵÐ»Ò±Ð¼Ð°ÑĤ":9668,"ÐĳÐ°ÑıÐ½":9669,"Ð½Ð´Ð°Ð¹":9670,"ĠÐ¿Ð°Ð¹Ð´Ð°Ð»Ð°Ð½ÑĭÐ»Ð°ÑĤÑĭÐ½":9671,"ĠÐ±Ð°ÒĽÑĭÐ»Ð°ÑĥÒĵÐ°":9672,"ÐµÐ¼ÐµÐ½Ð´Ñĸ":9673,"Ð¡Ð°ÒĽ":9674,"ĠÐ¶ÐµÑĢÐ´ÐµÐ³Ñĸ":9675,"ĠÐ¶ÐµÒ£ÑĸÐ»Ð´ÐµÑĤ":9676,"ĠÐŀÒĽÑĥÑĪÑĭÐ»Ð°ÑĢÒĵÐ°":9677,"ĠÑģÐ¸Ð¼Ð¿":9678,"ĠÐĳÐŀÐĽ":9679,"Ð¸ÑĤÐ¾ÑĢÐ¸Ñı":9680,"ĠÐ¼Ò±ÑħÐ¸ÑĤ":9681,"ĠÐ¼Ò¯Ð´Ð´ÐµÐ»ÐµÑĢÑĸÐ½":9682,"Ò±ÑĢÑĭÒĽ":9683,"ĠÐ¡ÓĻÑĢ":9684,"ĠÐ»Ð°ÑģÑĤÐ°Ð½":9685,"ĠÐ¼ÓĻÑģÐµÐ»ÐµÑģÑĸÐ½Ðµ":9686,"ĠÐ°Ð½ÑĭÒĽÑĤÐ°Ð´Ñĭ":9687,"ĠÐ±ÐµÐ¹Ð½ÐµÑģÑĸ":9688,"ĠÐ±Ð°ÑģÑĤÐ°Ð¼Ð°ÑģÑĭÐ¼ÐµÐ½":9689,"ĠÐ¿ÑĢÐ¾ÑĦÐ¸Ð»":9690,"ĠÒļÐ¾ÑģÑĭÐ¼ÑĪÐ°":9691,"ÑĤÐ¾Ðº":9692,"ĠÐ½ÐµÐºÐµ":9693,"ĠÐ¶ÐµÑĤÑĸÐ¼":9694,"ĠÑģÐ°ÒĽÑĤÐ°Ð¹":9695,"ĠÐ°Ð¹ÑĤÒĽÐ°Ð½Ð´Ð°Ð¹":9696,"ĠÑĤÐ°ÒĵÐ´ÑĭÑĢÑĭ":9697,"95":9698,"ĠÑģÐ°Ð»Ð°Ð»ÑĭÒĽ":9699,"ÑĸÑģÑĤÐµÑĢÐ´Ñĸ":9700,"Ð¸Ð³Ð°ÑĨÐ¸Ñı":9701,"Ð±Ð°Ð±ÑĭÐ½Ð°":9702,"ĠÓĻÐ»Ð´ÐµÒĽÐ°Ð¹Ð´Ð°":9703,"ÑĤÐ°ÑĢÐ¸Ñħ":9704,"ĠÓĻÐ¼Ð±ÐµÐ±Ð°Ð¿":9705,"ĠÐ±ÐµÑĢÐ¼ÐµÐ¹":9706,"ÐľÐĸ":9707,"Ð»Ð°Ð½ÑĭÑģ":9708,"Ð¨ÒļÐŀ":9709,"ĠÒĽÒ±ÑĢÐ°Ð¼Ð´Ð°Ñģ":9710,"ĠÐ¶ÐµÑĤÐºÑĸÐ»ÑĸÐºÑģÑĸÐ·":9711,"ie":9712,"ĠÐ¾Ð±ÑĢÐ°Ð·":9713,"ÐļÐ°Ð½":9714,"ÐĳÒ±ÒĵÐ°Ð½":9715,"ĠAll":9716,"Ð»ÐµÐ¹":9717,"Ð¾ÒĽÑĭÑĤÑĥ":9718,"ĠÐ¾Ð¹ÑĭÐ½ÑĪÑĭÒĽ":9719,"ĠÑĤÑĭÒ£Ð´Ð°Ð¿":9720,"ĠÐ¿ÐµÑĢÑģÐ¿ÐµÐºÑĤÐ¸Ð²":9721,"ÒĽÐ°Ð»Ñĭ":9722,"ĠÐ°ÑĥÑĢÑĥÑĭ":9723,"ĠÐ½ÑĭÑģÐ°Ð½Ð´Ð°ÑĢÑĭ":9724,"ĠÓ©Ð»ÐµÒ£Ð´ÐµÑĢ":9725,"Ð¢Ò¯ÑĢÐº":9726,"Ð¢ÐµÐ¼ÑĸÑĢ":9727,"ĠÐ°Ð´Ð°Ð¼Ð·":9728,"ĠÑĤÐ°Ð±Ð¸ÒĵÐ°ÑĤÑĭ":9729,"iÐ»iÐºÑĤi":9730,"Ð¸Ð¼Ð°":9731,"ĠÐ¶Ò¯Ð¹ÐµÐ³Ðµ":9732,"ĠÐĺÐ¼Ð°Ð½":9733,"Ð½Ñĸ":9734,"Ð´Ð¾Ñģ":9735,"Ð°ÒĽÐ°Ð½":9736,"ĠÐºÐµÐ»Ð¼ÐµÐ¹ÑĤÑĸÐ½":9737,"ÐłÐµÑģÐ¿ÑĥÐ±Ð»Ð¸ÐºÐ°Ð»ÑĭÒĽ":9738,"ĠÐ±Ð°Ð¹Ð»Ð°Ð½ÑĭÑģÑĤÐ°ÑĢ":9739,"Ð´ÑĸÐ»ÑĸÐº":9740,"Ð°Ð´Ð°ÒĽ":9741,"ĠÑĤÑĥÑĭÐ¿":9742,"ĠÑĤÐµÐ»ÐµÐ´Ð¸":9743,"ĠÐµÑĪÐ±ÑĸÑĢ":9744,"ĠÑĢÐµÐ°ÐºÑĨÐ¸Ñı":9745,"ĠÐ¢Ó©Ð¼ÐµÐ½":9746,"ĠÐ°Ð²ÑĤÐ¾":9747,"iÐ»Ð´i":9748,"ĠÒĽÐ°ÒĵÑĭÐ¿":9749,"ÐºÓ©Ð»ÑĸÐº":9750,"ĠÐ´Ð°ÑģÑĤÐ°ÑĢ":9751,"Ð³ÐµÑĢÐ»ÐµÑĢÑĸ":9752,"one":9753,"ĠÐ¿Ð°ÑĢÐ°":9754,"ĠÐ¢Ð°Ð¼":9755,"ĠÒ¯Ð¼ÑĸÑĤÐºÐµÑĢ":9756,"ĠÐµÑĢÑĸ":9757,"ĠÐ¶Ð¾ÒĽÒĽÐ°":9758,"Ġ800":9759,"ĠÒĽÒ±ÑĢÐ°Ð¼Ð°":9760,"ĠÐ°ÒĽÑĭÐ½Ð½ÑĭÒ£":9761,"ĠÐ¿Ð°ÑĤÑĢÐ¸Ð¾ÑĤ":9762,"ĠÐµÐ»Ð¾ÑĢÐ´Ð°":9763,"ĠÐ³ÑĢÐµÐº":9764,"iÐ½i":9765,"ĠÐ±ÑĸÐ»Ð´ÑĸÑĢÐµÑĤÑĸÐ½":9766,"ĠÐ¶Ð°ÑĥÐ°Ð¿ÐºÐµÑĢÑĪÑĸÐ»ÑĸÐºÐºÐµ":9767,"ÐµÐºÐºÐµ":9768,"ĠÐ´Ò¯Ð½Ð¸ÐµÑĤÐ°Ð½":9769,"ĠÒ±Ð¹ÑĭÐ¼Ð´Ð°ÑģÑĤÑĭÑĢÐ°Ð´Ñĭ":9770,"ĠÐľÐ¸Ð½":9771,"ĠÐ¶Ð¾Ð»Ð´Ñĭ":9772,"ÐµÐ¶ÑĸÑĢ":9773,"ĠÐĿÐ¸Ðº":9774,"ĠÒ¯Ð¹ÑĸÑĢÐ¼":9775,"ĠÐ°Ð¹ÑĤÑĭÑģ":9776,"ĠÓ©Ð·Ð³":9777,"ĠÐĸÐ¾ÒĽ":9778,"ĠII":9779,"ĠÐ°ÐºÑĤÐµÑĢ":9780,"ĠÓ©Ð½ÐµÑĢÑĸÐ½ÑĸÒ£":9781,"Ò®ÐºÑĸÐ¼":9782,"ĠÐ±Ð°Ð·Ð°ÑģÑĭ":9783,"ĠÑĪÐ¸ÐºÑĸÐ·Ð°ÑĤ":9784,"ek":9785,"ĠÐ°Ð»ÑģÐ°":9786,"ĠÑĪÐ°ÒĽÑĭÑĢÑĭÐ¿":9787,"ĠÐļÐ¾Ð´ÐµÐºÑģÑĤÑĸÒ£":9788,"ÑĸÑģÑĤÐµÐ½":9789,"ĠÐ¶Ð¾Ð»ÑĭÐ½Ð´Ð°ÒĵÑĭ":9790,"ÐĺÓĻ":9791,"ĠÒĽÒ±ÑĢÐ°Ð»ÒĵÐ°Ð½":9792,"ÐĴÐĺ":9793,"ĠÐ¼ÐµÑĢÐ·iÐ¼":9794,"ĠÐ°ÑģÑĭÑĢÑĥÐ´ÑĭÒ£":9795,"ĠÐ¼Ð°ÒĵÑĭÐ½Ð°ÑģÑĭÐ½":9796,"ÑĢÐ¸Ð¹":9797,"Ð±ÐµÐ¹ÑĤÑĸÐ½":9798,"ĠÒļÑĭÑģ":9799,"Ð¾ÑĤÐ¸Ð²":9800,"ĠÑģÐµÐ½Ð´ÐµÑĢ":9801,"ĠÑģÑĭÐ½ÑĭÐ¿ÒĽÐ°":9802,"ÐľÐµÐºÑĤÐµÐ¿ÐºÐµ":9803,"ĠÐĸÓĻÐ½ÑĸÐ±ÐµÐº":9804,"2007":9805,"Ð¼Ð°ÑĤÐ¸ÐºÐ°Ð»ÑĭÒĽ":9806,"ĠÑĤÐ°Ð½ÑĭÑĤÑĥ":9807,"ÑĸÐ±ÑĸÑĢ":9808,"ÐĳÐĺ":9809,"ĠÐ¸Ð½Ð½Ð¾Ð²Ð°ÑĨÐ¸Ñı":9810,"ĠÑĥÐ°ÒĽÑĭÑĤÑĤÑĭ":9811,"ĠÐ°Ð¹ÑĭÑĢÑĭÑģÑĥ":9812,"ĠÒĵÐ¸Ð¼Ð°ÑĢÐ°ÑĤÑĤÐ°ÑĢ":9813,"ÐŁÐ¾Ð»":9814,"ÑĭÐ½Ð´ÑĭÑĢ":9815,"ĠÓĻÐ·ÑĸÑĢÐ³Ðµ":9816,"ĠÐ°ÑĢÐ°ÒĽ":9817,"ĠÓ©Ð·Ð´ÐµÑĢ":9818,"ĠÐ°Ð»Ð°Ò£Ð´Ð°":9819,"ĠÐµÑģÑĤÑĸÐ³ÐµÐ½":9820,"nik":9821,"ĠÐ¶Ò¯ÑĢÐµÐ³Ñĸ":9822,"2009":9823,"ĠÐ¡ÑĸÐ·Ð³Ðµ":9824,"ĠÐºÓ©ÑĢÐºÐµÐ¼Ð´ÑĸÐº":9825,"ĠÑĤÐ°ÑĢÑĤÐ°Ð´Ñĭ":9826,"ÑĤÐ°ÑĥÑĪÑĭ":9827,"ĠÐºÓ©Ð±ÑĸÐ½Ðµ":9828,"ĠÑĤÑĥÑĭÐ½Ð´Ð°Ð¹Ð´Ñĭ":9829,"ĠÒĽÐ°Ð½Ð°ÒĵÐ°ÑĤÑĤÐ°Ð½Ð´ÑĭÑĢÑĥ":9830,"51":9831,"Ð°ÑĢÑĥÑģÑĮ":9832,"Ð¶ÑĸÐ³ÐµÑĢ":9833,"ĠÐŀÑĢÑĭÑģ":9834,"ĠÒ¯Ð·ÑĸÐ»":9835,"ĠÑħÐ°Ð»ÑĭÒĽÑĤÐ°ÑĢÑĭÐ½ÑĭÒ£":9836,"ĠÐ¼ÑĭÒ£Ð´Ð°ÒĵÐ°Ð½":9837,"ÑģiÐ·":9838,"ĠÐºÓ©ÑĢÐ´ÑĸÐ¼":9839,"ĠÐĸÐµÐ»ÑĤÐ¾ÒĽÑģÐ°Ð½":9840,"Ð°Ð»ÑĤÑĥ":9841,"ĠÒĽÐ°Ð¼ÑĤÑĭ":9842,"ĠÐ±ÐµÐ»ÑģÐµÐ½Ð´ÑĸÐ»ÑĸÐº":9843,"ĠÐ°ÑĤÑģÐ°Ð»ÑĭÑģ":9844,"ĠÐ³Ð¸Ð¿":9845,"ĠÐ´ÐµÒ£Ð³ÐµÐ¹Ð»Ñĸ":9846,"ĠÐ¢Ò¯ÑĢÑĸÐº":9847,"ĠÐºÑĸÐ½ÓĻÐ»Ñĸ":9848,"ebook":9849,"ĠÑģÑĨÐµÐ½Ð°ÑĢÐ¸Ð¹":9850,"ÑĪÑĥ":9851,"Ð¶ÑĭÑĢ":9852,"Ð¡Ó©Ð¹":9853,"ĠÑģÓĻÑĤÑĸ":9854,"ĠÐ°ÐºÑĤÑĸÐ»ÐµÑĢÑĸÐ½Ðµ":9855,"ĠÐºÐ°Ð½Ð´Ð¸Ð´Ð°ÑĤ":9856,"ĠÐ½Ð°ÑĢÑĭÒĵÑĭÐ½ÑĭÒ£":9857,"??":9858,"ĠÑĤÒ±ÑĢÑĥÒĵÐ°":9859,"ĠÒĽÐ¾Ð»Ð´Ð°Ð½Ð±Ð°Ð»Ñĭ":9860,"ĠÑĤÐµÒ£Ð´ÐµÑĥ":9861,"ĠÐ¼ÓĻÐ´ÐµÐ½Ð¸ÐµÑĤÑĤÑĸ":9862,"ĠÐĲÑĥÒĵÐ°Ð½ÑģÑĤÐ°Ð½":9863,"ÐķÑģÑĤÐµÑĢÑĸÒ£ÑĸÐ·Ð³Ðµ":9864,"ĠÐ±Ð¾":9865,"ĠÐ¶Ò¯ÐºÑĤÑĸ":9866,"ĠÐ¼Ð°ÒĽÑĤÐ°Ð½ÑĭÑĪ":9867,"ĠÑĦÐµÑģÑĤÐ¸Ð²Ð°Ð»Ñĸ":9868,"ĠÓĻÑĢÐºÑĸÐ¼":9869,"ÑģÑĤÑĸÐ³Ñĸ":9870,"ĠÓ¨Ð·ÑĸÐ½":9871,"ĠBaq":9872,"ÐºÐ¾ÑĢ":9873,"ÒĽÑĭÐ·Ð¼":9874,"ĠÑįÐ½ÑĨÐ¸ÐºÐ»Ð¾Ð¿":9875,"ÐµÐ·ÒĽÐ°Ð·":9876,"Ð¢Ð°Ð½":9877,"ĠÑģÓĻÑĥÑĸÑĢÐ´ÐµÐ³Ñĸ":9878,"Ð¶Ð°ÒĵÐ´Ð°Ð¹":9879,"ÒĵÐ°Ð¿":9880,"ÐµÐ³ÑĸÐ½ÐµÐ½":9881,"ĠÐķÐºÑĸÐ±Ð°ÑģÑĤÒ±Ð·":9882,"Ð±Ð¸ÑĤ":9883,"Ð¾Ð»Ð»Ð°":9884,"ĠÐ¶Ð¾Ð»Ð´Ð°ÑĢ":9885,"ĠÐ´ÐµÐ¹iÐ½":9886,"ĠÐ°Ð»ÑĥÑĭÐ½Ð°":9887,"ĠÐµÐ´ÓĻÑĥÑĸÑĢ":9888,"ĠÐ½Ð°ÒĽ":9889,"ĠÓĻÐ·ÑĸÑĢÐ»ÐµÐ½":9890,"Ð¶ÑĭÐ»Ñĭ":9891,"ĠÐºÑĥÑĢÑģÑĤÑĭÒĽ":9892,"Ð°Ð³Ð¾Ð½":9893,"ÐĲÐ»ÒĵÐ°ÑĪÒĽÑĭ":9894,"ĠÐĲÑĤÐ°Ð»Ð¼ÑĭÑĪ":9895,"ÐŃÐŀ":9896,"ĠÐ±Ò±Ð·ÑĭÐ»ÒĵÐ°Ð½":9897,"ÑģÑĤÑĢÐ°Ð»":9898,"ÑĤÑĸÐ½Ð´ÐµÐ¿":9899,"Ð¸ÐµÑĤ":9900,"ĠÐ¼ÐµÐ½ÑĪÑĸ":9901,"ÒĽÐ°ÑĢÑģÑĭ":9902,"ĠÒĽÐ°ÑĢÐ°ÑģÑĤÑĭÑĢÑĭÐ»Ð°Ð´Ñĭ":9903,"ĠÒĽÐ°ÒĽÐ¿":9904,"PO":9905,"ÐµÐºÑĤÐµÑĢ":9906,"ĠÐ°Ð²ÑĤÐ¾Ð½Ð¾Ð¼":9907,"ĠÑģÑĭÐ¹Ð»ÑĭÒĵÑĭÐ½ÑĭÒ£":9908,"ĠÐºÐµÐ½ÑĤÑĸ":9909,"ĠÑĦÐ°ÐºÑĥÐ»ÑĮÑĤÐµÑĤÑĸÐ½ÑĸÒ£":9910,"ĠÐ±Ð¾Ð»Ð¼ÑĭÑģ":9911,"ĠÒļÐ°ÑĪ":9912,"ÓĻÐ»Ð¸ÑħÐ°Ð½Ð¾Ð²":9913,"ĠÐ¶Ð°ÑĢÐ°Ð¼Ð´Ñĭ":9914,"ĠÓĺÐ´ÑĸÐ»":9915,"ÑĸÐ½ÑĸÐ¿":9916,"ÐĸÒ±Ð»Ð´ÑĭÐ·":9917,"ĠÐ°Ð½ÑĤ":9918,"ĠÐ±Ð°ÒĵÐ´Ð°ÑĢÐ»Ð°Ð¼Ð°Ð»Ð°ÑĢÐ´Ñĭ":9919,"ĠÐ°ÑĪÑĭÐ»ÑĭÐ¿":9920,"ĠÒĽÐ°ÑĤÑĭÐ½Ð°ÑģÑĤÐ°ÑĢÐ´Ñĭ":9921,"98":9922,"ÒĵÐ°Ð½ÑĭÐ½":9923,"ĠÑģÓ©Ð¹Ð»ÐµÐ¿":9924,"ĠÑĤÐ°Ð¼Ð°ÒĽÑĤÐ°Ð½Ñĥ":9925,"ĠÐ¸Ð½ÑĦÐ¾ÑĢÐ¼Ð°ÑĤÐ¸ÐºÐ°":9926,"64":9927,"ĠÐºÐµÑĤÐµ":9928,"53":9929,"ĠÐ¶ÑĥÑĢ":9930,"Ð¸ÑĤÑĮ":9931,"ÑĪÑĭÒĵÐ°":9932,"Ð¸Ð¼Ð¸Ñı":9933,"ÑĤÑĭÐ»Ð°Ð´Ñĭ":9934,"ĠÐ¼Ð°ÑĤÑĩ":9935,"ĠÓ©ÐºÑĸÐ»Ð´ÐµÑĢÑĸÐ¼ÐµÐ½":9936,"ĠÐ°ÑģÐ¿ÐµÐºÑĤ":9937,"ĠÒļÐŀ":9938,"ÓĺÑĢÐ±ÑĸÑĢ":9939,"ÐŀÐĵ":9940,"ĠÓĻÐºÑĸÐ¼ÑĪÑĸÐ»ÑĸÐ³Ñĸ":9941,"ĠÐ±ÓĻÑĢÑĸÐ½Ðµ":9942,"ĠÓĺÐ±Ð´ÑĸÑĢ":9943,"ĠÐľÐ°ÒĽÑģÐ°ÑĤÑĭ":9944,"ĠÓ©Ð½Ð´ÑĸÑĢÑĸÑģÑĤÑĸÒ£":9945,"Ð¼ÐµÐ½ÑĤÐ°ÑĢÐ¸Ð¹":9946,"ĠÑĪÐ°ÑĤ":9947,"Ð´Ð°Ð½Ð°":9948,"Ð°Ð»Ð°ÑĢÑĭÐ¼ÐµÐ½":9949,"ÐľÓĻÑĤÑĸÐ½":9950,"ĠÐ±Ò¯Ð»Ð´ÑĸÑĢÑĪÑĸÐ½":9951,"ÑĤÐ°ÑĢÐ´Ð°Ð½":9952,"Ð¾Ð±ÑĭÐ»":9953,"ÐĵÐµ":9954,"ĠÐ´ÐµÐ½ÑģÐ°ÑĥÐ»ÑĭÒĵÑĭÐ½":9955,"ĠÐĳÐ°ÒĽ":9956,"ĠÐºÐµÒ£ÐµÑģÑĤÑĸÒ£":9957,"ÑĢÐ¸Ð³":9958,"ĠÐĲÑģÑĤÐ°Ð½Ð°Ð´Ð°ÒĵÑĭ":9959,"ÑĥÐ½Ð¸ÑĨÐ¸Ð¿Ð°Ð»Ð¸ÑĤÐµÑĤÑĤÑĸÒ£":9960,"ĠÐĿÑĮÑİ":9961,"ĠÑįÐºÑģÐº":9962,"ĠÐºÐµÑĤÑģÐµÐº":9963,"ĠÒĽÐ°ÑĥÐ»Ñĭ":9964,"ĠÐ´Ð°Ð¹ÑĭÐ½Ð´Ð°Ð»ÒĵÐ°Ð½":9965,"ĠÐ°ÒĽÑĭÐ½Ñĭ":9966,"ĠÐ±ÓĻÑģÐµÐºÐµÐ»ÐµÑģÑĤÑĸÐº":9967,"Ð°Ð»Ð°ÑĢÑĭÐ¼ÑĭÐ·":9968,"ÐµÑĢÐµÐºÐµ":9969,"ĠÐĲÒĽÑĭÐ½":9970,"ÑĢÐ°Ð¸":9971,"Ð´ÑĭÐ¼ÐµÐ½":9972,"Ð»ÑĭÒĽÐ¿ÐµÐ½":9973,"ĠÐ½ÑĭÑģÐ°Ð½Ð°Ð»Ñĭ":9974,"ĠÐ°ÒĽÐ¿Ð°Ð½Ð´Ð°":9975,"ÑĤÐ°Ð½Ð´ÑĭÑĢÑĭÐ»ÒĵÐ°Ð½":9976,"ĠÑĤÐ°ÑģÑĤÐ°Ð´Ñĭ":9977,"ĠÓ©ÑĤÑĥÐ³Ðµ":9978,"ĠÐ°ÑĤÐ¾Ð¼":9979,"ÓĻÐºÓĻÑĢÑĸÐ¼":9980,"Ð¿Ð°Ñĥ":9981,"ĠÒĽÐ°Ð¹Ñģ":9982,"ĠÐĺÐ·":9983,"Ð¿Ð¸Ð´ÐµÐ¼":9984,"Ð°Ð½ÑĮ":9985,"ÐµÐ½Ð¸Ñı":9986,"ĠÐµÐ»Ð´ÐµÐ½":9987,"ĠÑĤÒ¯ÑĢÑĸÐ½Ð´ÐµÐ³Ñĸ":9988,"ĠÒĽÐ°ÑĤÑĭÑģÑĥÑĭ":9989,"ĠÐ¾ÒĽÑĥÑĪÑĭÐ»Ð°ÑĢÑĭÐ½Ð°":9990,"ĠÐ¸Ð½Ð²ÐµÑģÑĤÐ¾ÑĢÐ»Ð°ÑĢ":9991,"âĸº":9992,"ĠÐ¶Ò¯Ð¹ÐµÐ»ÐµÑĢÑĸ":9993,"ĠÐµÐ»Ð´ÐµÑĢÑĸÐ½Ð´Ðµ":9994,"ĠÑĸÐ»ÑĸÐ¼":9995,"ĠÐºÓ©ÑĢÑģÐµÑĤÑĥÐ´Ñĸ":9996,"ĠÐºÐ¾Ð´ÐµÐºÑģÑĸ":9997,"ĠÐĲÐ´Ð°Ð¼Ð½ÑĭÒ£":9998,"ĠÑĦÐµÑģÑĤÐ¸Ð²Ð°Ð»ÑĮ":9999,"Ð´ÑĸÐ»":10000,"ĠÐ¡ÑĭÐ½ÑĭÐ¿":10001,"ĠÐ¢Ñĥ":10002,"ĠÓ¨Ð½Ð´ÑĸÑĢ":10003,"ĠÐºÐ°ÑĢÑĤÐ¾ÑĩÐº":10004,"ĠÒĽÐ°Ð»Ð°ÑģÑĭÐ½Ð°Ð½":10005,"ĠÐ»ÐµÐºÑģ":10006,"ĠÐ´ÐµÒ£Ð³ÐµÐ¹ÑĸÐ½ÑĸÒ£":10007,"Ð¼ÑĸÐ½Ð´":10008,"ÐķÐ¢ÐĨ":10009,"ĠÒĽÐ°Ð¹ÑĤÐ°ÑĢÑĥ":10010,"ÒĵÐ°Ð·":10011,"ĠÑħÐ°Ð±Ð°ÑĢÐ»Ð°Ñģ":10012,"ĠÒĽÑĭÑĢÑĭÒĽ":10013,"ĠÒĽÒ±ÑĤÑĤÑĭÒĽÑĤÐ°Ð¿":10014,"ĠÐľÒ¯Ð¼ÐºÑĸÐ½":10015,"Ð»ÑĸÐ³ÑĸÐ½Ð´Ðµ":10016,"Ð¸Ð¼Ð¾Ð²":10017,"ĠÐ±Ð°ÑĢÐ»Ð°Ñĥ":10018,"Ð°ÑıÑĤ":10019,"ĠÐ¼ÓĻÒ£Ð³Ñĸ":10020,"ĠÑĤÑĸÐ·ÑĸÐ¼ÑĸÐ½":10021,"ĠÑįÐºÐ¾Ð½Ð¾Ð¼Ð¸ÐºÐ°Ð½Ñĭ":10022,"ÐµÐ¹ÑĨ":10023,"ÑģÑĤÐ°ÑĦ":10024,"ĠÐ¼ÓĻÑģÐµÐ»ÐµÐ»ÐµÑĢÐ´ÑĸÒ£":10025,"ĠÒ¯Ð·ÑĸÐ½Ð´Ñĸ":10026,"Ð¼Ðº":10027,"ĠÒĴÐ°Ð±":10028,"61":10029,"ĠÐ±ÐµÑĢÑģÐµ":10030,"Ò®Ð»":10031,"ĠÑĪÐµÐºÑĤÑĸ":10032,"ĠÒ±Ð»ÒĵÐ°Ð¹ÑĤÑĥ":10033,"AS":10034,"ĠÐŃÐ½ÐµÑĢÐ³":10035,"2005":10036,"ĠÑĦÐ¸Ð»Ð¾ÑģÐ¾ÑĦÐ¸Ñı":10037,"ĠÑģÑĬÐµÐ·":10038,"Ð°ÒĵÑĭÐ½Ð°Ð½":10039,"ĠÐ±Ð°ÑģÑĥ":10040,"ĠÐ¶Ð°Ð½ÑĭÐ½Ð°Ð½":10041,"ĠÐ±Ð°ÒĵÐ´Ð°ÑĢÐ»Ð°Ð¼Ð°Ð½ÑĭÒ£":10042,"ÑĥÑĪÑĭÒĵÐ°":10043,"ĠÐĽÐ¾Ð½Ð´Ð¾Ð½":10044,"ĠÐ°Ð¼ÐµÑĢÐ¸ÐºÐ°Ð»ÑĭÒĽ":10045,"ÒĽÐ°ÑģÑĭÐ½":10046,"ÐķÐľÐĽÐķÐļÐķÐ¢Ð¢ÐĨÐļ":10047,"ĠÒĽÒ±ÑģÑĤÐ°ÑĢ":10048,"ĠÐ´ÑĢÐ°Ð¼Ð°":10049,"ĠÐºÐµÐ·Ð´ÐµÐ½":10050,"ĠÒĽÐ°ÑĥÑĸÐ¿ÑģÑĸÐ·Ð´ÑĸÐºÑĤÑĸ":10051,"ĠÐ¼Ð°ÑĢÐº":10052,"Ð´Ð°Ð¹Ð¼ÑĭÐ·":10053,"ĠÐ±Ð¸Ð»ÑĸÐ³Ñĸ":10054,"ĠÐºÐ¾Ð¾Ð¿ÐµÑĢÐ°ÑĤÐ¸Ð²":10055,"ÑĤÐµÑģ":10056,"ĠÒļÐ°Ð±ÑĭÐ»":10057,"ĠÐ°ÑĥÐ¼Ð°ÒĵÑĭÐ½Ð´Ð°ÒĵÑĭ":10058,"ÑĭÑĤÐ°Ð¹Ð´Ð°":10059,"ĠÐ¶Ð¾Ð±Ð°Ð»Ð°ÑĢÑĭ":10060,"ĠÐ¾ÑĢÑĤÐ°Ð»ÑĭÒĽÑĤÐ°ÑĢÑĭ":10061,"ĠÐ±ÐµÐºÑĸÑĤÑĸÐ»Ð´Ñĸ":10062,"ĠÐ¼ÐµÑĢÐ·ÑĸÐ¼ÑĸÐ½":10063,"Ð³ÑĸÑĪÑĤÑĸÐº":10064,"ÐµÐ½Ð¸Ð½":10065,"Ð¶Ò¯Ð·":10066,"ĠÒļÐ°Ð»Ð°Ð¹":10067,"ĠÐĸÒ±Ð»Ð´ÑĭÐ·":10068,"ĠÑģÐ°Ð¿Ð°ÑģÑĭÐ½Ð°":10069,"ÐľÒ±Ð½Ð´Ð°Ð¹":10070,"63":10071,"ĠÑĪÓ©Ð»":10072,"ĠâĢ¢":10073,"ĠÒĽÐ°Ð·ÑĭÐ½Ð°":10074,"ĠÑĤÒ¯ÑģÑĸÑĢÐ³ÐµÐ½":10075,"ĠÐ¼ÑĭÐ½Ð°Ð»Ð°ÑĢ":10076,"ĠÐ¿Ð°Ð¹ÑĭÐ·ÑĭÐ½":10077,"ĠÐĹÐ°Ò£ÑĭÐ¼ÐµÐ½":10078,"ĠÒĽÐ°Ð»ÑĭÐ¿ÑĤÐ°ÑģÑĥÑĭÐ½Ð°":10079,"ĠÐ´Ð¾ÐºÑĤÐ¾ÑĢ":10080,"ĠÐ¶ÑĸÐ±ÐµÑĢÑĸÐ¿":10081,"ĠÐµÑģÑĸÑĢÑĤÐºÑĸ":10082,"port":10083,"ĠÑģÐ¾ÒĽÑĤÑĭ":10084,"ĠÒĽÐ°ÑĥÐ¿Ñĸ":10085,"ĠÒĽÐ°Ð»Ð´ÑĭÐ¼":10086,"IX":10087,"ĠÒĽÐ¸ÑıÐ»":10088,"ÐµÐ»ÐµÐ¹Ð´Ñĸ":10089,"ĠÑĦÐ°Ð±ÑĢ":10090,"ĠÆı":10091,"ÐµÑĥÐ½":10092,"ĠÐ¶Ò¯Ð¹ÐºÐµ":10093,"Ð¾ÑĢÑĭÐ½Ð½ÑĭÒ£":10094,"ĠÓ©ÑĤÐºiÐ·":10095,"ĠÐ´Ò±ÑĢ":10096,"ÒļÐ°ÑĤÑĭÑģ":10097,"ÐľÐµÐ¼Ð»ÐµÐº":10098,"ĠÐ°Ð½Ð°Ð»":10099,"ÐµÐ´Ð°Ð³Ð¾Ð³Ð¸ÐºÐ°":10100,"ÉĻÑĢ":10101,"Ò®ÑĪÑĸÐ½ÑĪÑĸ":10102,"ĠÒ±Ð¹ÑĭÐ¼Ð´Ð°ÑģÑĤÑĭÑĢÑĭÐ»ÑĭÐ¿":10103,"ĠÐºÐ»Ð¸Ð½Ð¸ÐºÐ°Ð»ÑĭÒĽ":10104,"ĠÐ´Ð¸Ð¿Ð»Ð¾Ð¼Ð°ÑĤÐ¸ÑıÐ»ÑĭÒĽ":10105,"Ð½ÐµÐ³ÑĸÐ·":10106,"ĠÑĤiÑĢ":10107,"ĠÐ¢Ò¯Ð¹":10108,"ĠÒĽÒ±ÑĢÐ°Ð¿":10109,"ĠÐłÑĭÑģ":10110,"ĠÐ¼ÓĻÑģÐ»Ð¸ÑħÐ°ÑĤÑĤÑĭÒ£":10111,"ÐµÑĤÑĸÐ¿":10112,"ÐŀÑģÑĭÐ»Ð°Ð¹ÑĪÐ°":10113,"ĠÑĤÐ¾ÒĽÑĤÐ°Ð»":10114,"ĠÐľÐ°ÒĽÑģÐ°ÑĤ":10115,"ĠÐ±Ð°ÑĤÑĭÐ»":10116,"ĠÐ¿Ð°Ð½":10117,"ĠÓ©Ð·ÑĸÐ½ÐµÐ½":10118,"ĠÓ©ÑĤÐµÐ¼":10119,"ĠÑģÐ°Ð¹ÑĭÑģÑĭ":10120,"ĠBilim":10121,"ĠÐĸÐ¾Ð»Ð´Ð°ÑĥÑĭ":10122,"ĠÓ©Ð½Ð´ÑĸÑĢÑĥÑĪÑĸÐ»ÐµÑĢ":10123,"ĠÐºÐµÐ¿ÑĸÐ»Ñĸ":10124,"ĠÐ±Ð¾ÑģÑĤÐ°Ð½Ð´ÑĭÒĽ":10125,"ĠÐĳÐ°Ð½ÐºÑĸ":10126,"ÑĮÐµÐºÑĤ":10127,"ĠÐłÐ°Ð¼Ð°Ð·Ð°Ð½":10128,"Ð±ÑĸÑĢÑĸÐ½":10129,"ĠÓ©Ð·Ð³ÐµÑĢÑĥÑĸ":10130,"ÐºÐµÑĤÐ°Ð½Ñĥ":10131,"Ð±Ð¾Ð¹ÑĭÐ½ÑĪÐ°":10132,"ĠÑĤÐ°ÑĢÐ°ÑĤ":10133,"Ġ54":10134,"ĠÑĤÓĻÐ¶ÑĸÑĢÐ¸Ð±ÐµÑģÑĸÐ½":10135,"acebook":10136,"ÑĥÑģÑĤÐ°ÑĢ":10137,"ÐµÐ¼Ðµ":10138,"ĠÐ°ÑģÑĭÒĽ":10139,"ĠÑĤÒ¯ÑģÑĸ":10140,"ĠÑĸÑĪÑĸÐ½Ðµ":10141,"ĠÐºÓ©Ð·ÑĸÐ½":10142,"ĠÑĤÐ¾ÒĽÑĤÐ°Ð»Ð´Ñĭ":10143,"ĠÓĺÑĢÑĸ":10144,"ĠÐ¾ÑĢÑĭÐ½Ð´Ð°Ð»Ð°Ð´Ñĭ":10145,"ĠÐ¼ÐµÑĤÑĢÐ³Ðµ":10146,")))":10147,"ĠÑĢÐµÐ´Ð°ÐºÑĤÐ¾ÑĢÑĭ":10148,"%)":10149,"ĠÑĪÑĭÐ½Ð´ÑĭÒĽ":10150,"ÑĭÐ»ÑĥÒĵÐ°":10151,"Ð°Ð¿Ð¸Ñı":10152,"ĠÐ´Ð°Ð¹ÑĭÐ½Ð´Ð°Ð¿":10153,"ÑĭÐ»ÑĤÑĭÑĢ":10154,"Ð¾Ð½Ð°Ð»":10155,"2006":10156,"ĠÑĢÐµÑģÑĥÑĢÑģÑĤÐ°ÑĢÐ´Ñĭ":10157,"ÑıÐ´Ñĭ":10158,"ÑĪÐ°ÑĪÑĭÐ½":10159,"ÐĿÐĺ":10160,"ĠÐ±Ð°ÒĵÐ°Ð¼Ð´Ð°ÑĢÑĭ":10161,"74":10162,"ĠÐµÑĤÑĸÐ»Ð´Ñĸ":10163,"ĠÐ´Ð¾ÑĨ":10164,"ĠÒ®ÑĪÑĸÐ½ÑĪÑĸ":10165,"ĠÐºÐµÑĪÑĸÑĢÑĸÐ¼":10166,"ĠÐºÐ¾Ð½ÑģÑĤÐ¸ÑĤÑĥÑĨÐ¸ÑıÐ»ÑĭÒĽ":10167,"ÐµÐ½Ð½Ð°Ð´Ð¸Ð¹":10168,"ĠÑĤÒ¯ÑģÑĸÐ½Ðµ":10169,"ĠÑĤÒ±Ð»ÒĵÐ°Ð»Ð°ÑĢÐ´Ñĭ":10170,"ĠÐ¿Ð¾Ð»Ð¸Ð³":10171,"ĠÒĽÐ°Ð¹ÑĤÐ°Ð»Ð°Ð½":10172,"ĠÐ±ÐµÐ»Ð³ÑĸÐ»ÐµÐ½ÐµÐ´Ñĸ":10173,"Ð°ÒĵÑĭÐ»ÑĪ":10174,"Ð½Ð°Ð»Ñĭ":10175,"Ð¶Ñĥ":10176,"ÑĤÑĭÐ»ÑĭÒĵÑĭÐ½":10177,"ĠÑĩÐµÐ¼Ð¿Ð¸Ð¾Ð½Ð°ÑĤÑĭÐ½ÑĭÒ£":10178,"ÑĤÐµÑħÐ½Ð¾Ð»Ð¾Ð³Ð¸Ñı":10179,"ÒļÒ±ÒĽÑĭÒĽ":10180,"ĠÑĤÐ°Ð½ÑĭÑģÑĤÑĭÑĢÐ´Ñĭ":10181,"ÑĤÐ°ÑģÑĭÐ½":10182,"ĠÐ±Ð¾Ð¹Ð¶ÐµÑĤÐºÐµÐ½":10183,"ĠÐ¾ÒĽÑĭÑĤ":10184,"ĠÐ¶Ð¾Ð±Ð°ÑģÑĭÐ½Ð°":10185,"ĠÒ±ÑģÑĭÐ½ÑĭÐ¿":10186,"ĠÐ¼ÐµÐ¼Ð»ÐµÐºÐµÑĤÐºÐµ":10187,"ĠÐ°Ð¹Ð¼Ð°ÒĽÑĤÐ°":10188,"ĠÒļÐĲÐł":10189,"ÑĤÐ°Ð¼ÐµÐ½":10190,"ĠÐµÑĢÐºÐµÐº":10191,"ĠÑĤÒ±ÑĤÒĽÑĭÐ½":10192,"Â°":10193,"ÑħÐ°Ð¹":10194,"ĠÐ³Ó©ÑĢÑĸ":10195,"ÑĤÐ°ÑģÑĭÐ¿":10196,"ĠÑĤÓĻÑĢÐ±Ð¸ÐµÐ»ÑĸÐº":10197,"ĠÐĳÐ°ÑģÒĽÐ°ÑĢÐ¼Ð°":10198,"ĠÒļÐ°Ð·Ò°Ð£":10199,"Ġ95":10200,"ÑĤÑĸÐ¼":10201,"ĠÐ±Ð°ÒĵÐ°Ð½":10202,"ÐĲÒĽÑĤÐ°Ñĥ":10203,"ĠÓ©ÑĤÑĸÑĢÑĸÐº":10204,"ĠÑģÐ¾ÑĤÑĤÑĭÒ£":10205,"ĠÒ¯Ð»Ð³ÑĸÐ´ÐµÐ³Ñĸ":10206,"ĠÑĤÒ¯ÑĢÐ»ÐµÑĢÑĸÐ½ÑĸÒ£":10207,"ĠÐ±Ð°ÑĢÐ°ÑĤÑĭÐ½":10208,"ÐľÐµÑĢ":10209,"ĠÐ±Ó©Ð»ÐµÐ´Ñĸ":10210,"ĠÑĤÐ¾Ð±ÑĭÐ½Ð°":10211,"ĠÓ©ÑĤÑĥÑĸ":10212,"ĠÐ°ÑĢÐ¼":10213,"ÑĦÐµÑĢÑĤ":10214,"ÐĶÐµÐ¼":10215,"ĠÐ¶Ð°ÒĵÐ´Ð°Ð¹Ð»Ð°ÑĢÑĭ":10216,"Ð°ÑĨÐ¸ÑıÐ»Ð°Ñĥ":10217,"ĠÓĺÐ´ÑĸÑģÑĤÐµÐ¼ÐµÐ»ÑĸÐº":10218,"ĠÐ±Ò¯ÑĢ":10219,"Ð¡ÐºÐ°ÑĩÐ°ÑĤÑĮ":10220,"Ð¾Ð²Ð°Ð½":10221,"ĠÒĵÐ°Ð»ÑĭÐ¼Ð´Ð°ÑĢÐ´ÑĭÒ£":10222,"ĠÐ½Ð°Ð·Ð°ÑĢÑĭÐ½":10223,"ĠÐ¸Ð½ÑģÐ¿ÐµÐºÑĨÐ¸ÑıÑģÑĭ":10224,"Ð´Ð¸Ð¾Ð½":10225,"ĠÐºÐ¸Ð»":10226,"Ð¾Ð¼Ð±ÑĭÐ»":10227,"ĠÒĽÐ°Ð±Ð°ÑĤ":10228,"ĠÐ±Ð¾Ð»ÒĵÐ°Ð½ÑĭÐ¼ÐµÐ½":10229,"ĠÑģÑĥÑĢÐµÑĤÑĤ":10230,"ĠÐ´ÑĸÐ½Ñĸ":10231,"ĠÒ±Ð¹ÑĭÐ¼Ð´Ð°ÑĢÑĭÐ½Ð´Ð°":10232,"ĠÑĤÓĻÑģÑĸÐ»Ð´ÐµÑĢÑĸÐ½":10233,"ĠÐ±iÐ»iÐ¼":10234,"ÑĤÑĭÐ¼ÑĭÐ·":10235,"ĠÐ¾ÑĢÐ³Ð°Ð½ÑĭÐ½ÑĭÒ£":10236,"ĠÒĽÐ°Ð¶ÐµÑĤÑĤÑĸÐ»ÑĸÐ³ÑĸÐ½":10237,"Ð¾Ñĥ":10238,"ĠÐĸÐ°Ð¹":10239,"ÐĿÐ°ÑĢ":10240,"ĠÐ±ÐµÐ¹Ð½ÐµÐ±":10241,"ĠÒĽÐ°ÑĢÐ°ÑģÑĤÑĭÑĢÐ°Ð´Ñĭ":10242,"ĠÒ°Ð»ÑĭÐ±ÑĢÐ¸ÑĤÐ°Ð½Ð¸Ñı":10243,"ÑģÐ¾ÑĢ":10244,"ĠÒĽÑĭÐ·Ð¼ÐµÑĤÑĪÑĸÐ»ÐµÑĢÐ´ÑĸÒ£":10245,"ĠÒĵÐ°Ð»ÑĭÐ¼Ð´Ð°ÑĢÑĭ":10246,"ĠÑĤÐµÐ»ÐµÑĦÐ¾Ð½Ñĭ":10247,"ĠÒĽÒ±Ð±ÑĭÐ»ÑĭÑģÑĤÐ°ÑĢ":10248,"Ġx":10249,"ĠÐ¾ÒĽÑĥÐ»ÑĭÒĽÑĤÐ°ÑĢ":10250,"ĠÒĽÐ°Ð·Ð°ÒĽÑģÑĤÐ°Ð½Ð´ÑĭÒĽÑĤÐ°ÑĢ":10251,"ĠÐ¸Ð¼Ð¿Ð¾ÑĢÑĤ":10252,"Ð¶Ð¾ÑģÐ¿Ð°ÑĢ":10253,"ĠÑĤÐ°ÑĢÑĤÐ°":10254,"ĠÐµÐ»ÑĪÑĸÑģÑĸ":10255,"ĠÐ¶Ò±Ð¼ÑĭÑģÑĤÐ°ÑĢÒĵÐ°":10256,"ĠÑĨÐµÑħ":10257,"Ð°ÑħÐ°Ð½":10258,"ÑħÐ¾Ð·":10259,"ĠÑĢÐ¾Ð»":10260,"ĠÒĽÐ¾Ð»ÑĭÐ½":10261,"ĠÒĽÐ¾ÑģÑĭÐ»ÑĭÐ¿":10262,"ĠÐĳÑĸÑĢÑĸÐºÐºÐµÐ½":10263,"iÐ»ÐµÑĤÑĤi":10264,"ÐĳÐ°ÑģÒĽÐ°":10265,"ĠÑĤÒ±ÑĢÐ¼ÑĭÑģÒĽÐ°":10266,"73":10267,"ĠÐ¼ÓĻÐ´ÐµÐ½Ð¸ÐµÑĤÑĸÐ½ÑĸÒ£":10268,"ÐºÐ¾Ð³":10269,"ĠÐ¡Ò¯Ð¹":10270,"Ġ72":10271,"ĠÓ¨ÑĤÐµ":10272,"ĠÒ±Ð·Ð°ÒĽÑĤÑĭÒĵÑĭ":10273,"ĠÒĽÐ°Ð»Ð´ÑĭÑĢÒĵÐ°Ð½":10274,"ÐĳÓ©":10275,"ÐķÐĶ":10276,"ĠÐºÒ¯Ð½Ð´ÐµÑĢ":10277,"ĠÐĳÐµÐ¹Ð±ÑĸÑĤ":10278,"Ð¼Ò¯":10279,"Ð°Ð¹ÒĵÑĭÑĢ":10280,"ĠÐ¶ÑĭÐ»ÑĭÐ½ÑĭÒ£":10281,"ĠÐļÓ©Ð»ÑĸÐº":10282,"ĠÒĽÒ±ÑĢÐ°Ð¼ÑĭÐ½":10283,"Ð¿ÐµÑĢÐ¸Ð¼ÐµÐ½ÑĤ":10284,"ĠÑĤÐµÐºÑģÐµÑĢÑĸÐ¿":10285,"ĠÑģÐ°ÑıÑģÐ°ÑĤÑĤÑĭÒ£":10286,"ĠÐľÐ°ÑĤÐµÐ¼Ð°ÑĤÐ¸ÐºÐ°":10287,"Ð¾ÒĽÐ°Ð½":10288,"ÐĲÐĸ":10289,"ĠÒ¯Ð¹Ð´ÐµÐ½":10290,"ĠÐ±Ò±Ð¹ÑĭÐ¼Ð´Ð°ÑĢ":10291,"ĠÑĦÑĥÐ½ÐºÑĨÐ¸Ð¾Ð½Ð°Ð»Ð´ÑĭÒĽ":10292,"ĠÒĽÐ°ÑĢÐ°Ð¹ÑĤÑĭÐ½":10293,"ĠÓ©ÑģÑĥÑĸÐ½Ðµ":10294,"all":10295,"Ð´Ð°ÒĽÑĤÑĭ":10296,"ĠÐłÐµÑĦÐµÑĢ":10297,"ÑģÑĭÐ·Ð´Ð°ÑĢ":10298,"ĠÐ¶Ð°Ð±Ð´ÑĭÒĽÑĤÐ°Ð»ÒĵÐ°Ð½":10299,"Ð¸Ð½ÑĤÐµÑĢÐ½":10300,"ĠÐµÐºÐµÐ½ÑĸÐ½Ðµ":10301,"ĠÐ¾ÐºÑĢÑĥÐ³ÑĸÐ½Ðµ":10302,"ÑģÑĸÑĢÐµÐ¿":10303,"ĠÐ¿Ð°Ð¹ÑĭÐ¼":10304,"ĠÑĤÒ¯ÑģÑĸÐ½Ð´ÑĸÑĢÐ´Ñĸ":10305,"ÐĲÐ·Ð°Ð¼Ð°ÑĤÑĤÑĭÒĽ":10306,"Ð¾Ð»Ð°ÑĢÐ´ÑĭÒ£":10307,"ĠÑĤÐ°ÑģÑĤÐ°ÒĵÐ°Ð½":10308,"ĠÐ¾ÑĢÐ½Ð°Ð»Ð°ÑģÑĥ":10309,"Ò£Ð³ÑĸÑĢ":10310,"ĠÒĵÐ¸Ð¼Ð°ÑĢÐ°ÑĤ":10311,"Ð¿ÑĢÐ°ÐºÑĤÐ¸ÐºÐ°Ð»ÑĭÒĽ":10312,"ĠÐ¾ÑĤÐ±Ð°ÑģÑĭÐ½Ð´Ð°":10313,"ÐµÐ·ÒĽÐ°Ð·ÒĵÐ°Ð½":10314,"ĠÑģÑĥÑĭ":10315,"Ð¡Ò±ÑĢÐ°ÒĽ":10316,"ĠÐ´ÐµÐ¹Ð¼ÑĸÐ½":10317,"ĠÑģÓ©Ð¹Ð»ÐµÑģ":10318,"Ò®Ð¹Ð³Ðµ":10319,"Ð¸ÐµÑĤÑĤÑĸ":10320,"ÐľÐµÐ´Ð¸ÑĨÐ¸Ð½Ð°Ð»ÑĭÒĽ":10321,"ÐļÐ°Ð·":10322,"ĠÐ¶Ò¯ÐºÑĤÐµÐ¼":10323,"ĠÓ¨Ð½":10324,"AN":10325,"ĠÐ±Ð°Ð¹Ð»Ð°Ð½ÑĭÑģÑĤÐ°":10326,"ÐºÐµÑĢÐ»ÐµÑĢÑĸÐ½ÑĸÒ£":10327,"ĠÐ¶Ð°ÑĤÒĽÐ°Ð½Ñĭ":10328,"ĠÐ±ÐµÐºÑĸÑĤÐºÐµÐ½":10329,"ÑĪÐ°Ò£":10330,"Ð¾ÑĢÐ½":10331,"ĠÑĪÐµÑĪÐµÐ½":10332,"ĠÐ´ÓĻÑĢÑĸÐ»ÑĸÐº":10333,"ĠÐ¶ÐµÐ»ÑĸÐ´Ðµ":10334,"ÒĵÐ¸":10335,"ĠÐºÓ©ÑĪÐ¿ÐµÐ»Ñĸ":10336,"ĠÐ±Ð°ÒĵÑĭÑĤÑĤÐ°ÑĢ":10337,"ĠÐºÓĻÑģÑĸÐ¿ÒĽÐ¾Ð¹":10338,"ĠÐµÑĤÑĥÐ´Ðµ":10339,"ĠÐ¾ÑĤÑĭÑĢÒĵÐ°Ð½ÑĭÐ½":10340,"Ð±Ñĭ":10341,"Ð´ÑĭÒ£ÑĭÐ·":10342,"ĠÒĽÐ¾Ð»Ð´Ð°Ð½ÑĭÐ»ÑĥÑĭ":10343,"Ġ1994":10344,"ĠÐĲÐ½Ð³":10345,"ÑĭÑģÐ°Ð½":10346,"Ð¾ÑĢÑĤÐ°":10347,"ĠÐºÒ¯Ð½ÑĸÐ¼ÐµÐ½":10348,"ĠÑĸÑģÑĸÐ½ÑĸÒ£":10349,"ÑĸÒ£ÑĸÐ·Ð´Ðµ":10350,"ĠÐºÐ¸ÑĸÐ·":10351,"ĠÑĥÑĢ":10352,"Ð¸Ð³Ñĸ":10353,"ĠÐ±Ð¾Ð»ÑģÐ°Ò£ÑĭÐ·":10354,"Ð°Ð¼ÑĭÐ·Ð´Ð°":10355,"ÐµÑĢÐ»ÐµÑĢÐ´ÑĸÒ£":10356,"ĠÐºÐµÐ·ÐµÒ£ÑĸÐ½Ðµ":10357,"ĠÐ°ÑĥÑĢÑĥÐ»Ð°ÑĢÑĭ":10358,"ĠÐ´ÓĻÑĢÐµÐ¶ÐµÐ»Ñĸ":10359,"Ð±Ò±Ð»Ð°ÒĽ":10360,"ĠÑįÐºÑģÑĤÑĢÐµÐ¼Ð¸Ð·Ð¼":10361,"ÐłÐŀ":10362,"ĠÐ¼Ð¸Ð½ÐµÑĢ":10363,"ÐºÐµÑĢÐ»ÐµÑĢÐ´Ñĸ":10364,"Ð³ÐµÐ»Ð´Ñĸ":10365,"ĠÑĤÑĸÐ·Ð±ÐµÑģÑĸ":10366,"ĠÑģÑĥÑģÑĭÐ½":10367,"ĠÒĽÐ°ÑĤÑĭÐ½Ð°ÑģÑĤÐ°ÑĢÐ´ÑĭÒ£":10368,"Ð¼ÐµÑĢÑĨÐ¸ÑıÐ»ÑĭÒĽ":10369,"ĠÑįÐºÑģÐ¿ÐµÐ´Ð¸ÑĨÐ¸Ñı":10370,"Â¬":10371,"ĠÑĸÑģÐºÐµÑĢ":10372,"ĠÑĤÓ©Ð¼ÐµÐ½Ð´ÐµÑĤÑĥ":10373,"ĠÐ¿Ð°ÑĤÑĪÐ°":10374,"ĠÐºÓ©ÑĤÐµÑĢÑĸÐ»Ð³ÐµÐ½":10375,"ĠÐ°Ð¹ÑĭÑĢÑĥ":10376,"ĠÐĳÐ°Ð¹ÒĽÐ°Ñĥ":10377,"Ð°Ð»Ð°Ð½ÒĵÐ°Ð½":10378,"Ð¿ÑĢÐ¾ÑĨ":10379,"ÒĽÐ°Ð¿":10380,"ĠÒĽÐ°Ð·Ð°ÒĽÑĤÐ°ÑĢÐ´ÑĭÒ£":10381,"ĠÐ°ÑģÑĭÑĢÐ°":10382,"ĠÐ±Ð°ÑģÒĽÐ°ÑĢÑĥÑĪÑĭ":10383,"ĠÒĽÒ±Ð¶Ð°ÑĤÑĤÐ°ÑĢÑĭ":10384,"ĠÐ°Ð±Ð·Ð°Ð»":10385,"ĠÑįÐ»ÐµÐ¼ÐµÐ½ÑĤÑĤÐµÑĢÑĸ":10386,"ĠÒļÒ°":10387,"ÐĲÐ±":10388,"ĠÐ±Ð°ÑģÑĭÐ½Ð´Ð°ÒĵÑĭ":10389,"ĠÒĽÐ°ÑĥÐ»ÑĭÑģÑĭ":10390,"ĠÐŀÑĤÑĭÑĢ":10391,"ĠÐ±Ð°ÑģÒĽÐ°ÑĪÐ°":10392,"ĠÐ¶Ò¯ÑĢÐ³ÑĸÐ·ÑĥÐ´Ñĸ":10393,"ĠÐ´ÐµÑĢÐµÑĥ":10394,"ÐµÑĢÐ´ÑĸÒ£":10395,"ĠÐµÐ´ÑĸÒ£":10396,"ÐĲÐ³ÑĢÐ¾":10397,"ÑĭÒĵÑĭÐ½ÑĭÒ£":10398,"ĠÑĤÐ°Ð¿ÑģÑĭÑĢÒĵÐ°Ð½":10399,"ĠÐ±Ð°ÒĵÑĭÑĤÑĭÐ½Ð´Ð°ÒĵÑĭ":10400,"ĠÐ±Ð»Ð¾Ðº":10401,"ĠÒĽÐ°Ð¼Ð°ÑĥÒĵÐ°":10402,"ĠÑĸÐ·Ð´ÐµÑģÑĤÑĸÑĢÑĥ":10403,"Ð¢Ð°Ò£":10404,"ĠÐ°ÒĽÑģÐ°ÒĽ":10405,"ĠÐ°ÑĥÐ´Ð°ÑĢÒĵÐ°Ð½":10406,"ĠÐ°ÑĤÑĤÐµÑģÑĤÐ°ÑĤÑĤÐ°Ñĥ":10407,"ĠÐ´Ð¸Ð²":10408,"ĠÐ¶Ð¾Ð»ÑĭÐ½Ð°":10409,"ĠÐľÒ±ÒĵÐ°Ð»ÑĸÐ¼":10410,"ĠÒĽÐ°Ð¹ÑĤÐ°ÑĢÑĭÐ¿":10411,"ÑĤÐ°ÑĨÐ¸ÑıÐ»ÑĭÒĽ":10412,"ĠÐ±Ó©Ð»iÐ¼":10413,"ĠÑĤÐ°ÑĢÐ¸ÑħÑĭÐ½Ð°":10414,"ÐºÒ¯Ð¹ÐµÐº":10415,"ĠÐ¾Ð»Ð°ÑĢÐ¼ÐµÐ½":10416,"ĠÑģÑĸÐ·Ð´ÐµÑĢÐ³Ðµ":10417,"ÐĸÐµÐ»":10418,"ĠÑĤÐµÒ£Ð³":10419,"ĠÐ¼ÓĻÑģÐµÐ»ÐµÐ½ÑĸÒ£":10420,"ĠÑĦÐ¾ÑĤÐ¾Ñģ":10421,"ĠÑįÐ¼":10422,"ĠÐ¿ÑĢÐµÐ¿Ð°ÑĢ":10423,"ĠÑĪÑĭÒĵÐ°ÑĢÐ¼Ð°ÑĪÑĭÐ»ÑĭÒĵ":10424,"Ð¿Ð°Ð¹Ð´Ð°Ð»Ð°Ð½":10425,"ÒļÑĭÐ·Ð¼ÐµÑĤ":10426,"ĠÐµÐ¼ÐµÑģÐ¿ÑĸÐ½":10427,"ÒĵÒ±Ð»":10428,"ÑįÑĦ":10429,"ĠÑĤÑĸÐ»Ð´ÐµÑĢÑĸÐ½Ð´Ðµ":10430,"ÑĥÐ»Ñı":10431,"ĠÐµÒ£Ð±ÐµÐºÑĤÐµÑĢÑĸ":10432,"ĠÑĤÐ¾ÒĽÑĤÐ°Ð»ÑĭÐ¿":10433,"ĠÒĽÐ°Ð¶ÐµÑĤÑĤÑĸÐ³ÑĸÐ½":10434,"ÒĽÐ°Ð¶":10435,"ÑĪÑĸÑģÑĸÐ½ÑĸÒ£":10436,"Ò¯ÑĪÑĸÐ½":10437,"ĠÐ²Ð°Ð»ÑİÑĤÐ°Ð»ÑĭÒĽ":10438,"ĠÑĢÐ°Ð·":10439,"Ð±ÐµÑİ":10440,"ĠÑĤÐ°ÑĢÑĤÑĭÐ»Ð´Ñĭ":10441,"ĠÐ´Ð¸Ð½Ð°Ð¼":10442,"Ó¨ÐĽ":10443,"Ð¶Ð°Ð½Ð¾Ð²Ð°":10444,"ĠÑĤÑĥÑĭÐ½Ð´Ð°Ð¹ÑĤÑĭÐ½":10445,"Ð°ÐºÑģÐ¸Ð¼":10446,"ĠÑģÐ°Ð½Ð°Ð¹Ð´Ñĭ":10447,"ĠÓĻÑĢÐµÐºÐµÑĤÑĸÐ½":10448,"ĠÐ¶Ò¯Ð»Ð´ÐµÐ³ÐµÑĢÑĸ":10449,"ĠÑĤÑĭÑĢÑĭÑģÐ°Ð´Ñĭ":10450,"ĠÐ¶Ð°ÑĤÑĤÑĭÒĽÑĤÑĭÑĢÑĥ":10451,"ĠÐĸÐ¾ÑģÐ¿Ð°ÑĢ":10452,"ĠÑĤÑĸÐ»Ð´ÐµÑĢÑĸ":10453,"ĠÐ°ÑĥÑĭÐ»ÑĭÐ½Ð´Ð°ÒĵÑĭ":10454,"ÐµÑĥÐ½ÑĸÐº":10455,"88":10456,"ÐļÐµÐ½":10457,"ĠÐĺÐ±ÑĢ":10458,"ĠÐµÑģÐµÐ¿Ð¿ÐµÐ½":10459,"ĠÐ°Ð´Ð°Ð¼Ð´Ð°ÑĢÐ¼ÐµÐ½":10460,"ĠÐ¼Ð°Ò£ÑĭÐ½Ð´Ð°":10461,"ĠÑĤÓ©Ð¼ÐµÐ½Ð´ÐµÐ³ÑĸÐ´ÐµÐ¹":10462,"ĠÑĤÓ©Ð½":10463,"Ð¶Ð°Ð»Ð¿Ñĭ":10464,"ÑįÐ¹":10465,"Ð´ÑĸÐºÑĤÐµÑĢ":10466,"ĠÐ¶ÑĸÐºÑĤÐµÐ»":10467,"ĠÐļÑĸÐ¼":10468,"ĠÐ¾Ð¹Ð»Ð°ÑĢ":10469,"ĠÐ²Ð¾Ð»":10470,"ĠÒĽÑĭÐ·Ð¼ÐµÑĤÐºÐµÑĢÐ»ÐµÑĢÑĸÐ½Ðµ":10471,"Ð°Ð¹ÑĭÐ¼Ñĭ":10472,"ĠÐ½ÓĻÐ·ÑĸÐº":10473,"ĠÐºÒ¯Ð½Ð´ÑĸÐº":10474,"ÐĲÐ»Ð´Ð°ÒĵÑĭ":10475,"ĠÐºÐ¾Ð½ÑĦ":10476,"ĠÐµÐ½Ð³ÑĸÐ·ÑĥÐ³Ðµ":10477,"ĠÐ¸Ð½ÑģÑĤÐ¸ÑĤÑĥÑĤÑĤÐ°ÑĢ":10478,"ĠÑħÐ°Ð±Ð°ÑĢÐ»Ð°Ð¼Ð°Ð´Ð°":10479,"Ġv":10480,"ĠÑģÓ©":10481,"ĠÐłÐľÐļ":10482,"ĠÓĺÐ±Ñĥ":10483,"ĠÒ±Ð½Ð°Ð´Ñĭ":10484,"utnik":10485,"ĠÐłÐķÐ¡ÐŁÐ£ÐĳÐĽ":10486,"ĠÐĲÑĦÑĢÐ¸ÐºÐ°":10487,"ĠÑĤÐµÑħÐ½Ð¸ÐºÐ°ÑģÑĭ":10488,"ĠÐ¼Ð°Ò£ÑĭÐ·Ð´ÑĭÐ»ÑĭÒĵÑĭÐ½":10489,"ĠÑģÒ¯Ð¹ÐµÐ½ÑģÐµÐº":10490,"ĠÒĽÐ¾Ò£ÑĭÑĢ":10491,"71":10492,"ĠÐĲÐ¢":10493,"Ð¾Ð²ÐµÑĤ":10494,"ĠÐ°Ð»ÑĥÐ´Ð°":10495,"ĠÐºÐµÐ»Ð´ÑĸÒ£ÑĸÐ·":10496,"Ð¨ÑĭÐ½":10497,"Ð°ÒĽÑĤÐ°ÑĢÐ´Ñĭ":10498,"ĠÑģÐµÑĢÑĤÐ¸ÑĦÐ¸ÐºÐ°ÑĤ":10499,"62":10500,"Ò¯Ð¼":10501,"ĠÐ¶ÑĭÐ»Ð´Ð°ÑĢÐ´ÑĭÒ£":10502,"ĠÐ¢ÑĢÐ°Ð¼Ð¿":10503,"ĠÒĽÐ°ÑĤÐµÑĢÐ»Ñĸ":10504,"ÓĺÑĢÐ¸Ð½Ðµ":10505,"ĠÐ¶Ð°ÑĤÑĤÑĭÒĵÑĥÐ»Ð°ÑĢ":10506,"ĠÐºÐµÐ·ÐµÒ£Ð´ÐµÑĢÑĸ":10507,"2050":10508,"ĠÐ¸Ð´ÐµÑıÑģÑĭ":10509,"ĠÐļÐ¾Ð´ÐµÐºÑģ":10510,"ĠÐ³ÑĢÐ°Ð´ÑĥÑģ":10511,"ĠÐ±Ñİ":10512,"ĠÐ´ÐµÑĢÐ»ÑĸÐº":10513,"ÑĸÑĢÑĸÑģ":10514,"ĠÒĽÐ¾ÑĢÑĭÑĤÑĥ":10515,"ĠÐ¼Ò±Ò£":10516,"ĠÑĤÒ¯ÑģÑĸÑĢÑĸÐ»Ð³ÐµÐ½":10517,"ÐĳÐµÑģ":10518,"ĠÐºÓ©ÑĢÐ½ÐµÐºÑĸÐ»ÑĸÐ³Ñĸ":10519,"Ð³Ð¸Ð¼Ð½":10520,"ĠÐ°Ð¹ÑĤÑĭ":10521,"ĠÐºÓ©Ð·Ð´ÐµÐ¹Ð´Ñĸ":10522,"ĠÐ°ÑıÒĽÑĤÐ°Ð»Ð°Ð´Ñĭ":10523,"ĠÐ±Ð°Ð·Ð°ÑģÑĭÐ½":10524,"ĠÒĽÐ°ÑĤÑĭÑģÐ°":10525,"ÐĹÒļ":10526,"ĠÐļÐµÐ¹Ð´Ðµ":10527,"Ġin":10528,"ÐµÐ²ÑĤÑĸÒ£":10529,"ank":10530,"ĠÐºÒ¯ÑĢÑĤ":10531,"ĠÑģÐµÐ½Ð´ÐµÑĢÐ³Ðµ":10532,"Ð¼ÐµÐºÐµÐ½":10533,"ĠÒ¯Ð¹ÑĢÐµÐ½ÑĸÐ¿":10534,"ĠÐ¡ÐµÑĢÐ³ÐµÐ¹":10535,"Ð¸Ð´ÐµÑĢ":10536,"ĠÐ°ÑĢÑĤÐ°":10537,"Ð¥Ð¥":10538,"ĠÐºÐ¾Ð¼Ð¸ÑĤÐµÑĤ":10539,"ĠÐļÐ¾Ð¼Ð¿ÑĮÑİ":10540,"Ð¼ÐµÑģÐµ":10541,"ÐµÐ»ÐµÑĢÑĸÐ½Ð´Ðµ":10542,"Ð°ÐµÐ²Ð°":10543,"ĠÒ±Ð¹ÑĭÐ¼Ð´Ð°ÑģÑĤÑĭÑĢÒĵÐ°Ð½":10544,"ÐķÐ»ÑĸÐ¼ÑĸÐ·Ð´Ðµ":10545,"ĠÐ¼Ð°ÑĥÑģÑĭÐ¼Ð´Ð°ÒĵÑĭ":10546,"ĠÑĥÓĻÐº":10547,"ĠÓĺÑģÐºÐµÑĢÐ¸":10548,"ÑĩÐµÑĢ":10549,"ĠÐ°ÑĪÑĭÐ»ÑĥÑĭ":10550,"ĠÐºÐ°Ð¿Ð¸":10551,"Ó©Ð½ÐµÑĢÐºÓĻÑģÑĸÐ¿ÑĤÑĸÐº":10552,"ÐµÐ»ÑĸÐ¿":10553,"ĠÐ½ÓĻÑĤÐ¸Ð¶ÐµÐ»Ñĸ":10554,"ĠÐ±Ð°Ð»Ð°Ð±Ð°ÒĽÑĪ":10555,"Ð°ÑĥÑĭÐ½Ð°":10556,"ĠÐ¿Ð°Ðº":10557,"ĠÐºÐµÐ»Ð±":10558,"ĠÑĸÑģÑĸÐº":10559,"ĠÐ°ÒĽÐ¸ÒĽÐ°ÑĤ":10560,"ĠÐ¼ÐµÑĢÐ´Ñĸ":10561,"ĠÐłÐµÑģÐµÐ¹Ð´Ðµ":10562,"ĠÑĤÐ°ÒĽÑĭÑĢÑĭÐ¿ÑĤÑĭÒĽ":10563,"ĠÐ±ÐµÑĢÐ¼ÐµÑĥ":10564,"ÑĥÐ·ÑĭÐºÐ°":10565,"ÒĽÐ¾ÑģÑĭÐ¼ÑĪÐ°ÒĵÐ°":10566,"Ð¼Ð¾Ð»":10567,"Ð¢ÐĨ":10568,"ĠÐ¼Ð°ÑĤÐµÑĢÐ¸Ð°Ð»Ð´Ð°ÑĢÑĭÐ½":10569,"ĠÐ¾ÑĢÑĭÑģÑĪÐ°":10570,"ÑĤÐ¿ÐµÑģÐµ":10571,"ĠÐºÐ¾Ð½ÐºÑĥÑĢÑģÒĽÐ°":10572,"ĠÒļÑĥÐ°Ð½ÑĭÑĪ":10573,"Ð¼Ð°ÑĪ":10574,"Ð°Ð»ÐµÑĢ":10575,"ĠÐ±Ð¾Ð»ÑĭÐ¿ÑĤÑĭ":10576,"ĠÐ´Ð¾Ð¼Ð±ÑĭÑĢÐ°":10577,"ĠÑģÒ±Ð»ÑĤÐ°Ð½":10578,"ĠÒļÐ°Ð¼":10579,"ĠÐĳÑĥÑĢ":10580,"ĠÑĤÐ°Ð»Ð¿ÑĭÐ½":10581,"oc":10582,"ĠÑĪÐ°Òĵ":10583,"ÑĤÑĭÑĢÐ°Ð´Ñĭ":10584,"ĠÐ¢Ð°ÑĪÐºÐµÐ½ÑĤ":10585,"Ð°ÑģÑĤÑĭÑĢÑĭÐ¿":10586,"ĠÐ¼ÐµÒ£Ð³ÐµÑĢÑĤÑĥ":10587,"ĠÒĽÐ°ÑĤÑĭÑģÑĥÑĪÑĭÐ»Ð°ÑĢÒĵÐ°":10588,"ÐµÐºÑĥÐ»":10589,"ĠÐ±ÑĸÑĢÑĤÑĸÐ½Ð´ÐµÐ¿":10590,"ĠÑģÐ¾ÑĤÑĭ":10591,"ĠÐºÐµÑĤÑĥÑĸ":10592,"ĠÒ®Ð»":10593,"ĠÐ¤Ð°ÑĢ":10594,"Ð¾Ð¼Ð°ÑĢÑĤ":10595,"ĠÐ±ÑĸÐ»ÑĸÐº":10596,"ĠÑĢÐµÐ´Ð°ÐºÑĤÐ¾ÑĢ":10597,"ĠÑĪÑĭÒĵÐ°ÑĢÑĭÐ»Ð´Ñĭ":10598,"ary":10599,"ĠÐ°Ð¹ÑĤÐ°Ð¼ÑĭÐ·":10600,"ĠÐ»Ð¸Ð¼":10601,"ĠÐĲÑģÑĤÐ°Ð½Ð°ÒĵÐ°":10602,"Ð°ÑĢÒĵÐ°":10603,"ÑĢÑĥÐ³":10604,"ÐºÑĸÑĤ":10605,"ĠÐºÒ¯Ð¹Ñĸ":10606,"ĠÐ¸Ð½Ð¶ÐµÐ½ÐµÑĢ":10607,"Ð¾Ð½Ð¸Ð¼":10608,"ĠÓĺÐļ":10609,"ĠÐ¶Ð°ÑĢÑĭÒĽÒĽÐ°":10610,"ĠÐºÑĢÐ¸ÑĤÐµÑĢÐ¸Ð¹":10611,"Ð°ÑĤÐ¾Ð²":10612,"ĠÐĸÒ°":10613,"Ġ59":10614,"ÑĭÐ½Ð´ÑĭÒĵÑĭÐ½":10615,"ĠÒĽÐ¾Ð»Ð´Ð°Ð½ÑĭÐ»ÒĵÐ°Ð½":10616,"Ð°ÐºÑĤÐ¾ÑĢ":10617,"ĠÐ±Ð¸Ð·Ð½ÐµÑģÑĤÑĸÒ£":10618,"Ð¼Ò¯Ð¼ÐºÑĸÐ½":10619,"ÑĨÐµÐ¿":10620,"ĠÐ¼ÐµÑĤÐ°Ð»Ð»ÑĥÑĢÐ³":10621,"ist":10622,"ĠÐ±ÑĢ":10623,"ĠÑĪÐ¾ÒĽ":10624,"ĠÑĤÐ°ÒĽÑĭÑĢÑĭÐ¿ÒĽÐ°":10625,"ĠÐ¶ÑĸÐ³ÑĸÑĤÑĤÐµÑĢ":10626,"ĠÒ±ÑĪÑĭÑĢÐ°ÒĵÐ°Ð½":10627,"ĠÐ¶Ð°ÒĽÑģÐ°ÑĢÑĤÑĥÒĵÐ°":10628,"ĠÐ°Ð»Ð¼Ð°":10629,"ÐµÑĪÐµÐ»ÐµÐ½Ð´ÑĸÑĢÑĥ":10630,"ĠÑĤÒ±Ð½":10631,"ÑĭÒ£ÑĭÐ·Ð´ÑĭÒ£":10632,"ĠÑģÑĤÑĥÐ´ÐµÐ½ÑĤÑĤÐµÑĢÐ³Ðµ":10633,"ĠÒ±Ð¹ÑĭÐ¼Ð´Ð°ÑģÑĤÑĭÑĢÐ´Ñĭ":10634,"Ð²ÐµÑĢ":10635,"ĠÒĽÐ°ÑĢÑģÑĭÐ»ÑĭÒĽ":10636,"ĠÒĽÐ¾Ð»Ó©Ð½ÐµÑĢ":10637,"ÑĪÑĭÐ»Ð°ÑĢÐ´Ñĭ":10638,"ĠÓ©Ð¼ÑĸÑĢÐ´ÐµÐ½":10639,"ĠÐºÓ©Ð»ÐµÐ¼ÑĸÐ½ÑĸÒ£":10640,"ĠÑĤÒ¯ÑĢÐ»ÐµÑĢÑĸÐ½Ðµ":10641,"ĠÐ½ÑĭÒĵÐ°Ð¹ÑĤÑĥÒĵÐ°":10642,"ĠÐ¶Ð°Ò£Ð°ÑĢÑĤÑĭÐ»ÒĵÐ°Ð½":10643,"ĠÐ°Ð³ÑĢÐ°ÑĢÐ»ÑĭÒĽ":10644,"ĠÑĪÑĤ":10645,"ĠÒĽÐ°Ð»Ð°Ð»Ð°ÑĢÑĭ":10646,"ĠÐºÐµÐ¹ÑĸÐ½Ð½ÐµÐ½":10647,"Ð¤ÑĢÐ°Ð½":10648,"ÐŃÐºÐ¾Ð½Ð¾Ð¼Ð¸ÐºÐ°Ð»ÑĭÒĽ":10649,"ĠÑįÐºÐ¾Ð½Ð¾Ð¼Ð¸ÐºÐ°ÑģÑĭÐ½ÑĭÒ£":10650,"ĠÐ½Ð°ÑĥÑĢÑĭÐ·Ð´Ð°ÒĵÑĭ":10651,"Ð°ÑĤÐ°Ð»Ð¾Ð³":10652,"Ð³Ð¾ÑĢÐ¸ÑĤÐ¼":10653,"ĠÐºÐ°Ð·":10654,"ÑĭÒĽÒĽÐ°":10655,"ÐºÐµÑģÑĤÑĢ":10656,"ĠÓ¨ÑĢ":10657,"ĠÑĤÓ©ÑĢÐ°ÒĵÐ°Ð»ÑĭÒĵÑĭÐ¼ÐµÐ½":10658,"ĠÑĤÒ¯Ð¿Ð½Ò±Ñģ":10659,"ĠÐĲÐ»Ð¼Ð°ÑĤÑĭÐ´Ð°ÒĵÑĭ":10660,"ĠÒĽÒ±ÑĢÐ°Ð¼ÑĭÐ½Ð´Ð°ÒĵÑĭ":10661,"Ð¼ÐµÐºÑĤÐµÐ¿":10662,"ĠÒĽÒ±ÑĤÒĽÐ°ÑĢÑĥ":10663,"ĠiÑĪiÐ½Ð´Ðµ":10664,"ĠÑĪÐµÐ¶ÑĸÑĢ":10665,"ÓĺÐ´ÐµÐ±Ð¸":10666,"ÐĸÒ¯ÑĢÐ³ÑĸÐ·ÑĥÑĪÑĸ":10667,"ĠÒĽÐ¾ÑĢÐ¶ÑĭÐ½":10668,"ÐĵÒ¯Ð»":10669,"ĠÐ¶Ð¾Ð»Ð°ÑĥÑĪÑĭ":10670,"ĠÐ°ÐºÐºÑĢÐµÐ´Ð¸ÑĤ":10671,"ÐµÐ¼ÐµÐ»":10672,"ĠÐ¿ÑĭÑĪ":10673,"ĠÐľÑĭÐ½Ð°":10674,"ĠÒĽÐ¾Ð»ÑĤÐ°Ò£":10675,"ĠÐ±Ð¾Ð»ÒĵÐ°Ð½Ð½Ð°Ð½":10676,"ĠÐ°Ð»ÒĵÐ°Ð½Ð½Ð°Ð½":10677,"ĠÐ½ÑĭÑģÐ°Ð½Ð´Ð°":10678,"ĠÒĽÐ°ÑĤÑĭÑģÑĥÑĪÑĭÐ»Ð°ÑĢÑĭ":10679,"ĠÐ±ÐµÑģÑĸÐ½ÑĪÑĸ":10680,"ĠÐ¢Ð°Ð¿ÑģÑĭÑĢ":10681,"ĠÐºÒ¯ÑĤÐºÐµÐ½":10682,"Ð¼ÐµÐ½Ñĸ":10683,"ĠÐ±Ó©Ð»ÑĥÐ³Ðµ":10684,"ĠÐ´ÐµÐ³ÐµÐ½Ð´ÐµÐ¹":10685,"ĠÐºÓ©Ð¿ÑĤÐµÐ¿":10686,"ÑĤÐµÑĥÑĸÑĢ":10687,"ĠÐ±ÐµÑĢÑĥÐ´Ðµ":10688,"ĠÐºÑĸÑĢÐ³ÑĸÐ·":10689,"ĠÐļÓ©ÑĢÑģÐµÑĤ":10690,"ĠÐ°ÑĥÐ´Ð°ÑĢÐ´Ñĭ":10691,"ÐļÐµÑĪ":10692,"ĠÑĤÒ±ÑĢÑģÐ°":10693,"ĠÑģÑĥÑĢÐµÑĤÐºÐµ":10694,"ÐºÐ¾Ð¼Ð¼ÑĥÐ½":10695,"Ð¾ÒĵÐ°":10696,"Ð¶Ð°Ð±Ð´ÑĭÒĽ":10697,"ĠÐĸÐ°Ð¿Ð¾Ð½Ð¸Ñı":10698,"ĠÐ¢Ð°ÒĵÐ°Ð»Ð°":10699,"ĠÐ±ÐµÐ»Ð³iÐ»ÐµÐ½Ð³ÐµÐ½":10700,"ĠÑģÐ¸Ð¼Ð¿ÑĤÐ¾Ð¼":10701,"ÐµÐºÑĪÐµ":10702,"ĠÒļÐ¾Ð¹":10703,"ÑģÑı":10704,"Ð°Ð½Ð°ÑģÑĭÐ½ÑĭÒ£":10705,"Ġ110":10706,"ĠÐ°ÑıÒĵÑĭ":10707,"Ð¡Ð¿Ð¾ÑĢÑĤ":10708,"ĠÐĸÑĥ":10709,"ĠÐ¼Ò¯ÑģÑĸÐ½":10710,"Ð¼Ð°ÒĽÑĪÑĭ":10711,"ÐľÒ±ÑħÐ°Ð¼":10712,"Ð¡Ð°Ð¼Ò±ÑĢÑĭÒĽ":10713,"ÐĶÐķÐĿ":10714,"ĠÐŁÑĥÑĤÐ¸Ð½":10715,"ĠÐ¼ÐµÐºÑĤÐµÐ¿ÑĤÐµÑĢÐ´Ðµ":10716,"ĠÓĻÐ»ÑĸÐ¿Ð±Ð¸ÑĸÐ½Ðµ":10717,"Ð°ÑĪÑĭÑĢ":10718,"ĠÐ¾Ð¹Ð»":10719,"ĠÑħÐ°Ð»ÑĭÒĽÑĤÐ°ÑĢ":10720,"ĠÐ±Ð°ÒĵÐ´Ð°ÑĢÐ»Ð°Ð¼Ð°ÑģÑĭÐ½Ð´Ð°":10721,"ĠÐ¶Ð¾ÑģÐ¿Ð°ÑĢÑĭÐ½Ð°":10722,"ĠÑģÑĸÐ·Ð´Ñĸ":10723,"ĠÐ¿ÑĸÐºÑĸÑĢÑĸÐ½ÑĪÐµ":10724,"ĠÑĤÐµÐ¼ÐµÐºÑĸ":10725,"ĠÐµÑģÑĤÑĸÐ¿":10726,"ĠÑĤÒ±ÑĤÑĭÐ½ÑĥÑĪÑĭÐ»Ð°ÑĢ":10727,"ĠÐ¸Ð¿Ð¾ÑĤÐµÐºÐ°Ð»ÑĭÒĽ":10728,"ĠÐºÒ¯Ð½Ð³Ñĸ":10729,"Ġ700":10730,"ĠÐ±Ð¾Ð»Ð°ÑĤÑĭÐ½Ñĭ":10731,"Ð¾Ð·ÒĵÐ°Ð»":10732,"ĠÐĶÐ¸Ð¼Ð°ÑĪ":10733,"ĠÒĽÒ±ÑĢÑĭÐ»ÑĭÐ¿":10734,"ĠÑģÐµÐ·ÑĸÐ¼ÑĸÐ½":10735,"ity":10736,"ĠÑĤÒ¯ÑģÑĸÐ½Ð´ÑĸÑĢÑĸÐ¿":10737,"ĠÐ°Ð¹ÑĤÑĭÐ»ÑĭÐ¿":10738,"ĠÐĳÐ°ÑĢÐ»ÑĭÒĵÑĭ":10739,"ĠÐ½Ð°ÑĢÑĭÒĵÑĭÐ½Ð´Ð°":10740,"ÑĤÒĽÐ°":10741,"ÒļÐĲÐł":10742,"89":10743,"Ð´Ð°Ð»ÑĭÐ¿":10744,"ĠÑĪÑĭÒĵÑĥÒĵÐ°":10745,"Ġ53":10746,"ÑĸÒ£ÑĸÐ·Ð´ÐµÑĢ":10747,"ĠÐ°ÑĢÑĤÑĤÑĭÑĢÐ°Ð´Ñĭ":10748,"ĠÐĸÐĲÒ¢":10749,"ĠÐ±Ð¸Ð¾":10750,"ĠÐ¾ÑĢÐ³Ð°Ð½Ð´Ð°ÑĢÒĵÐ°":10751,
[...]
